{
  "version": "1.0",
  "truncation": null,
  "padding": null,
  "added_tokens": [
    {
      "id": 0,
      "content": "[unk]",
      "single_word": false,
      "lstrip": false,
      "rstrip": false,
      "normalized": false,
      "special": true
    },
    {
      "id": 1,
      "content": "[pad]",
      "single_word": false,
      "lstrip": false,
      "rstrip": false,
      "normalized": false,
      "special": true
    },
    {
      "id": 2,
      "content": "[endoftext]",
      "single_word": false,
      "lstrip": false,
      "rstrip": false,
      "normalized": false,
      "special": true
    }
  ],
  "normalizer": null,
  "pre_tokenizer": {
    "type": "ByteLevel",
    "add_prefix_space": false,
    "trim_offsets": true,
    "use_regex": true
  },
  "post_processor": null,
  "decoder": null,
  "model": {
    "type": "BPE",
    "dropout": null,
    "unk_token": "[unk]",
    "continuing_subword_prefix": null,
    "end_of_word_suffix": null,
    "fuse_unk": false,
    "byte_fallback": false,
    "ignore_merges": false,
    "vocab": {
      "[unk]": 0,
      "[pad]": 1,
      "[endoftext]": 2,
      "!": 3,
      "\"": 4,
      "#": 5,
      "$": 6,
      "%": 7,
      "&": 8,
      "'": 9,
      "(": 10,
      ")": 11,
      "*": 12,
      "+": 13,
      ",": 14,
      "-": 15,
      ".": 16,
      "/": 17,
      "0": 18,
      "1": 19,
      "2": 20,
      "3": 21,
      "4": 22,
      "5": 23,
      "6": 24,
      "7": 25,
      "8": 26,
      "9": 27,
      ":": 28,
      ";": 29,
      "<": 30,
      "=": 31,
      ">": 32,
      "?": 33,
      "@": 34,
      "A": 35,
      "B": 36,
      "C": 37,
      "D": 38,
      "E": 39,
      "F": 40,
      "G": 41,
      "H": 42,
      "I": 43,
      "J": 44,
      "K": 45,
      "L": 46,
      "M": 47,
      "N": 48,
      "O": 49,
      "P": 50,
      "Q": 51,
      "R": 52,
      "S": 53,
      "T": 54,
      "U": 55,
      "V": 56,
      "W": 57,
      "X": 58,
      "Y": 59,
      "Z": 60,
      "[": 61,
      "\\": 62,
      "]": 63,
      "^": 64,
      "_": 65,
      "`": 66,
      "a": 67,
      "b": 68,
      "c": 69,
      "d": 70,
      "e": 71,
      "f": 72,
      "g": 73,
      "h": 74,
      "i": 75,
      "j": 76,
      "k": 77,
      "l": 78,
      "m": 79,
      "n": 80,
      "o": 81,
      "p": 82,
      "q": 83,
      "r": 84,
      "s": 85,
      "t": 86,
      "u": 87,
      "v": 88,
      "w": 89,
      "x": 90,
      "y": 91,
      "z": 92,
      "{": 93,
      "|": 94,
      "}": 95,
      "~": 96,
      "¡": 97,
      "¢": 98,
      "£": 99,
      "¤": 100,
      "¥": 101,
      "¦": 102,
      "§": 103,
      "¨": 104,
      "©": 105,
      "ª": 106,
      "«": 107,
      "¬": 108,
      "®": 109,
      "¯": 110,
      "°": 111,
      "±": 112,
      "²": 113,
      "³": 114,
      "´": 115,
      "µ": 116,
      "¶": 117,
      "·": 118,
      "¸": 119,
      "¹": 120,
      "º": 121,
      "»": 122,
      "¼": 123,
      "½": 124,
      "¾": 125,
      "¿": 126,
      "Â": 127,
      "Ã": 128,
      "Ä": 129,
      "Å": 130,
      "Æ": 131,
      "Ç": 132,
      "È": 133,
      "É": 134,
      "Ê": 135,
      "Ë": 136,
      "Ì": 137,
      "Í": 138,
      "Î": 139,
      "Ï": 140,
      "Ð": 141,
      "Ñ": 142,
      "Ò": 143,
      "Ó": 144,
      "Ô": 145,
      "Õ": 146,
      "Ö": 147,
      "×": 148,
      "Ø": 149,
      "Ù": 150,
      "Ú": 151,
      "Û": 152,
      "Ü": 153,
      "Ý": 154,
      "Þ": 155,
      "ß": 156,
      "à": 157,
      "á": 158,
      "â": 159,
      "ã": 160,
      "ä": 161,
      "å": 162,
      "æ": 163,
      "ç": 164,
      "è": 165,
      "é": 166,
      "ê": 167,
      "ë": 168,
      "ì": 169,
      "í": 170,
      "î": 171,
      "ï": 172,
      "ð": 173,
      "ñ": 174,
      "ò": 175,
      "ó": 176,
      "ô": 177,
      "Ā": 178,
      "ā": 179,
      "Ă": 180,
      "ă": 181,
      "Ą": 182,
      "ą": 183,
      "Ć": 184,
      "ć": 185,
      "Ĉ": 186,
      "ĉ": 187,
      "Ċ": 188,
      "ċ": 189,
      "Č": 190,
      "Ď": 191,
      "ď": 192,
      "Đ": 193,
      "đ": 194,
      "Ē": 195,
      "ē": 196,
      "Ĕ": 197,
      "ĕ": 198,
      "Ė": 199,
      "ė": 200,
      "Ę": 201,
      "ę": 202,
      "Ě": 203,
      "ě": 204,
      "Ĝ": 205,
      "ĝ": 206,
      "Ğ": 207,
      "ğ": 208,
      "Ġ": 209,
      "ġ": 210,
      "Ģ": 211,
      "ģ": 212,
      "Ĥ": 213,
      "ĥ": 214,
      "Ħ": 215,
      "ħ": 216,
      "Ĩ": 217,
      "ĩ": 218,
      "Ī": 219,
      "ī": 220,
      "Ĭ": 221,
      "ĭ": 222,
      "Į": 223,
      "į": 224,
      "İ": 225,
      "ı": 226,
      "Ĳ": 227,
      "ĳ": 228,
      "Ĵ": 229,
      "ĵ": 230,
      "Ķ": 231,
      "ķ": 232,
      "ĸ": 233,
      "Ĺ": 234,
      "ĺ": 235,
      "Ļ": 236,
      "ļ": 237,
      "Ľ": 238,
      "ľ": 239,
      "Ŀ": 240,
      "ŀ": 241,
      "Ł": 242,
      "ł": 243,
      "Ń": 244,
      "Ø§": 245,
      "ÛĮ": 246,
      "ĠØ": 247,
      "Ú©": 248,
      "ĠÙ": 249,
      "Ø±": 250,
      "ÙĪ": 251,
      "Ûģ": 252,
      "ÛĴ": 253,
      "ĠÚ©": 254,
      "ÙĨ": 255,
      "Ø§Ø": 256,
      "ÙĦ": 257,
      "Ùħ": 258,
      "ĠØ§": 259,
      "Úº": 260,
      "ĠÙħ": 261,
      "Øª": 262,
      "ĠÛģ": 263,
      "Ø¯": 264,
      "ÛĮÚº": 265,
      "Ø³": 266,
      "Ú¾": 267,
      "ĠØ³": 268,
      "ĠØ¨": 269,
      "Ú¯": 270,
      "ĠÙ¾": 271,
      "ĠÙĨ": 272,
      "Ø¨": 273,
      "Ø§ÙĨ": 274,
      "ĠÚ©ÛĮ": 275,
      "ÙĪØ±": 276,
      "Ġt": 277,
      "ĠØª": 278,
      "ĠÚ©ÛĴ": 279,
      "Ġa": 280,
      "ĠØ§Ø": 281,
      "Ø§Ø±": 282,
      "ĠØ¬": 283,
      "ÛĶ": 284,
      "in": 285,
      "ĠØ¯": 286,
      "he": 287,
      "Ùģ": 288,
      "ÙĤ": 289,
      "ĠÙħÛĮÚº": 290,
      "ĠÙĪ": 291,
      "Ù¹": 292,
      "Ø¹": 293,
      "Ø§ÙĦ": 294,
      "ÚĨ": 295,
      "ÙĪÚº": 296,
      "re": 297,
      "ĠÚ©Ø±": 298,
      "ĠÛģÛĴ": 299,
      "ĠØ±": 300,
      "ĠÙĦ": 301,
      "Ø´": 302,
      "Ù¾": 303,
      "Ø¬": 304,
      "Ø¦": 305,
      "Ø§Ø¦": 306,
      "ĠØ§ÙĪØ±": 307,
      "on": 308,
      "ĠÚ¯": 309,
      "Ø§Ùħ": 310,
      "Ø§Øª": 311,
      "Ø²": 312,
      "ĠØ³ÛĴ": 313,
      "Ø±ÛĮ": 314,
      "ĠÚ©ÙĪ": 315,
      "Ġthe": 316,
      "er": 317,
      "ØĮ": 318,
      "ĠØ§Ø³": 319,
      "at": 320,
      "ØŃ": 321,
      "ÛĮØ§": 322,
      "ĠÚ©Ø§": 323,
      "Ġs": 324,
      "âĢ": 325,
      "ĠØ¹": 326,
      "ĠÚ©Ûģ": 327,
      "ĠÛģÙĪ": 328,
      "Ġo": 329,
      "en": 330,
      "Ġc": 331,
      "ÛĮÚ©": 332,
      "ÛĮÙĨ": 333,
      "es": 334,
      "an": 335,
      "ĠØŃ": 336,
      "ÚĪ": 337,
      "ĠØ®": 338,
      "ĠØ§ÙĨ": 339,
      "ÙĨÛĴ": 340,
      "ĠØ´": 341,
      "ĠÙ¾Ø±": 342,
      "ĠÙĨÛĴ": 343,
      "is": 344,
      "it": 345,
      "ĠØ¢": 346,
      "Ú¾ÛĮ": 347,
      "Ġw": 348,
      "ĠÙģ": 349,
      "or": 350,
      "al": 351,
      "Ġp": 352,
      "Ø§Ø¯": 353,
      "Ġan": 354,
      "ing": 355,
      "Øµ": 356,
      "ÙĦÛĮ": 357,
      "ĠÚĨ": 358,
      "Ġb": 359,
      "ÛĮØ±": 360,
      "Ġf": 361,
      "Ø§Ø¨": 362,
      "ed": 363,
      "ou": 364,
      "ĠÙĤ": 365,
      "ĠÛĮ": 366,
      "ĠÛģÛĮÚº": 367,
      "ar": 368,
      "Ø§Ûģ": 369,
      "Ġin": 370,
      "Ġof": 371,
      "Ġm": 372,
      "Ø¦ÛĴ": 373,
      "Ø®": 374,
      "Ġand": 375,
      "Úĳ": 376,
      "Ġto": 377,
      "ic": 378,
      "ĠÙĨÛģ": 379,
      "ĠØ§ÙĦ": 380,
      "Ø§Ú©": 381,
      "ion": 382,
      "Ġd": 383,
      "Ø§Ø³": 384,
      "Ø³Øª": 385,
      "Ø¦ÛĮ": 386,
      "Ùİ": 387,
      "le": 388,
      "Ø·": 389,
      "ÙĪÙĨ": 390,
      "ĠØµ": 391,
      "ro": 392,
      "ĠØ¨Ú¾ÛĮ": 393,
      "ÙħÛĮ": 394,
      "ØªÛĴ": 395,
      "ØªÛĮ": 396,
      "ĠØªÚ¾": 397,
      "ĠØ·": 398,
      "as": 399,
      "ent": 400,
      "ĠÛĮÛģ": 401,
      "ÙĨØ¯": 402,
      "ĠØ§ÛĮÚ©": 403,
      "Ġh": 404,
      "ÙĨØ§": 405,
      "ÙĨÛĮ": 406,
      "ĠÙĨÛģÛĮÚº": 407,
      "ÙĦØ§": 408,
      "ÛĮØ³": 409,
      "ĠØ²": 410,
      "ĠØªÙĪ": 411,
      "ÛĮØ¯": 412,
      "Ø¸": 413,
      "ØªØ§": 414,
      "ĠØ±Ûģ": 415,
      "ct": 416,
      "Ø§Ø²": 417,
      "Ġth": 418,
      "ÙĦÛģ": 419,
      "Ġ2": 420,
      "om": 421,
      "ÙĪÙĦ": 422,
      "ĠØ§Ù¾": 423,
      "Ø§Ø¦ÛĮ": 424,
      "Ø¶": 425,
      "il": 426,
      "Ġe": 427,
      "ÙĲ": 428,
      "Ġre": 429,
      "ĠÚ©ÛĮØ§": 430,
      "ve": 431,
      "âĢĻ": 432,
      "Ġ1": 433,
      "st": 434,
      "Ø§Ø±ÛĮ": 435,
      "ĠÚĪ": 436,
      "ĠÙĪÛģ": 437,
      "ĠÙ¹": 438,
      "Ġl": 439,
      "ÛĮÙħ": 440,
      "ÙĪØ¯": 441,
      "ÙĪÙħ": 442,
      "Ġ(": 443,
      "Ġn": 444,
      "Ùĵ": 445,
      "Ø³ØªØ§ÙĨ": 446,
      "Ùı": 447,
      "ĠØĮ": 448,
      "âĢĺ": 449,
      "ÙĨÚ¯": 450,
      "et": 451,
      "Ġis": 452,
      "ĠØ¬ÙĪ": 453,
      "ly": 454,
      "Ø±ÙĪ": 455,
      "Ú¯Ø±": 456,
      "ĠT": 457,
      "Ø§Ø¦ÛĴ": 458,
      "ĠÙĦÛĮ": 459,
      "Ø³ÛĮ": 460,
      "ĠÙĪØ§ÙĦ": 461,
      "Ø§ÙĨÛĮ": 462,
      "id": 463,
      "ĠÙħÙĦ": 464,
      "Ù¹ÛĮ": 465,
      "ation": 466,
      "im": 467,
      "Ġg": 468,
      "ol": 469,
      "us": 470,
      "Ø§Ø¹": 471,
      "ĠØ±ÙĪ": 472,
      "ĠÛģÙħ": 473,
      "ĠÛĶ": 474,
      "ÛĮÙĦ": 475,
      "ur": 476,
      "ĠA": 477,
      "ÙĬ": 478,
      "ĠØªÚ¾Ø§": 479,
      "Ø§Úº": 480,
      "Ú©Ú¾": 481,
      "Ġbe": 482,
      "ce": 483,
      "ĠÙ¾ÛĮ": 484,
      "Ġy": 485,
      "ch": 486,
      "Ø¨Ø±": 487,
      "ÙĦÙħ": 488,
      "Ú¾Ø±": 489,
      "ĠØ¯ÛĮ": 490,
      "ot": 491,
      "ra": 492,
      "ut": 493,
      "ow": 494,
      "Ù¹Ø±": 495,
      "ĠÙħØ¹": 496,
      "Ø§ÙĨÛĴ": 497,
      "Ġ20": 498,
      "ĠÚ©Ø±ÙĨÛĴ": 499,
      "Øº": 500,
      "Ø§Ú©Ø³ØªØ§ÙĨ": 501,
      "ig": 502,
      "ĠÙħÙĨ": 503,
      "Ø§Ùģ": 504,
      "ÙĦÛĴ": 505,
      "Ø«": 506,
      "ĠØ§Ùħ": 507,
      "ĠÙħÙĪ": 508,
      "ĠS": 509,
      "ÛĮØª": 510,
      "ĠÙħØŃ": 511,
      "ï¿": 512,
      "ï¿½": 513,
      "Ġfor": 514,
      "Ø§ØªÚ¾": 515,
      "Ø±Ø¯": 516,
      "Ú©ÛĮ": 517,
      "Ø°": 518,
      "Ø±Ùħ": 519,
      "ĠØ¯ÙĪ": 520,
      "Ø±Ùģ": 521,
      "Ø´ÙĨ": 522,
      "Ú©Ûģ": 523,
      "ĠÛģÛĮ": 524,
      "ir": 525,
      "ĠØªØ¹": 526,
      "Ġon": 527,
      "ĠÙ¾Ûģ": 528,
      "ĠØ¬Ø³": 529,
      "ay": 530,
      "ĠI": 531,
      "ĠÙħØ³": 532,
      "Ø§ÙĤ": 533,
      "ul": 534,
      "ĠØ¨ÛĮ": 535,
      "Ġst": 536,
      "Ġyou": 537,
      "un": 538,
      "am": 539,
      "Ø§Ø¬": 540,
      "ĠÙ¾Ø§Ú©Ø³ØªØ§ÙĨ": 541,
      "Ġthat": 542,
      "ver": 543,
      "el": 544,
      "ÙĦØ§Ùħ": 545,
      "ĠØ³ÛĮ": 546,
      "ĠC": 547,
      "ĠØº": 548,
      "ÙĴ": 549,
      "ĠÚ¯ÛĮØ§": 550,
      "Ø§ØŃ": 551,
      "ad": 552,
      "Ø¹Ø¯": 553,
      "ĠâĢ": 554,
      "Ġpro": 555,
      "ĠØ¨ÙĨ": 556,
      "ĠØ¨Ûģ": 557,
      "ÙĪØ¨": 558,
      "ĠØ§Ù¾ÙĨÛĴ": 559,
      "se": 560,
      "ĠØŃÚ©": 561,
      "ith": 562,
      "ÚĨÚ¾": 563,
      "ÛĮÛģ": 564,
      "ÙħØ¯": 565,
      "ĠØ§Ø¨": 566,
      "ĠØ¨Ú¾": 567,
      "ĠØ¢Ù¾": 568,
      "Ġcon": 569,
      "ĠÙĦÛĮÛĴ": 570,
      "ĠØ³Ø§ØªÚ¾": 571,
      "Ġare": 572,
      "Ġas": 573,
      "ĠØ³Ú©": 574,
      "ĠP": 575,
      "Ú¯ÛĮ": 576,
      "ĠÚ©ÛģØ§": 577,
      "if": 578,
      "ĠØ¨Ø±": 579,
      "ĠØ§ÛĮ": 580,
      "..": 581,
      "ÙĪÛĮ": 582,
      "ĠØ°": 583,
      "ĠØªÚ©": 584,
      "ï¿½ï¿½": 585,
      "ĠØ¬ÙĨ": 586,
      "ĠØ§Ùģ": 587,
      "Ø±ØŃ": 588,
      "ĠÙĦØ¦ÛĴ": 589,
      "Ø§Ø±ÛĴ": 590,
      "Ġwith": 591,
      "Ġ201": 592,
      "ĠÙĦÙĪ": 593,
      "ĠØ§ÙĦÙĦÛģ": 594,
      "ment": 595,
      "ÙĤØª": 596,
      "ĠM": 597,
      "Ġor": 598,
      "ĠØ¹Ùħ": 599,
      "ĠØ§ÛĮØ³": 600,
      "ĠØ§Ø¹": 601,
      "Ġit": 602,
      "Ù°": 603,
      "ĠÛģÙĪØ¦ÛĴ": 604,
      "Ġal": 605,
      "her": 606,
      "ab": 607,
      "ĠÚ¯Ø§": 608,
      "ÙĪØ±ÛĮ": 609,
      "od": 610,
      "ĠÙħÙĤ": 611,
      "Ø¯ÛĮ": 612,
      "Ø±Ø¨": 613,
      "ter": 614,
      "Ø±Ú©": 615,
      "ess": 616,
      "ĠØ¯ÛĮØ§": 617,
      "ag": 618,
      "ĠÙħÛĮ": 619,
      "ÙĪØ¬": 620,
      "ĠØ¬Ø¨": 621,
      "ĠÚ©Ùħ": 622,
      "00": 623,
      "ĠØ¨Ø¹Ø¯": 624,
      "Ùĳ": 625,
      "ĠØ¨Úĳ": 626,
      "ĠØ³ÙĪ": 627,
      "ÙħÛģ": 628,
      "Ø´Øª": 629,
      "ak": 630,
      "ÙĤÛĮ": 631,
      "ĠØªÚ¾ÛĴ": 632,
      "Ø§ÙĨÛģ": 633,
      "ĠØ¯Ø±": 634,
      "ate": 635,
      "ĠØ¨ÙĦ": 636,
      "ĠÙħØª": 637,
      "Ø²ÛĮØ±": 638,
      "Ġwh": 639,
      "Ø§Ø´": 640,
      "th": 641,
      "ĠØ¬Ø§ÙĨ": 642,
      "ers": 643,
      "ĠØ¨ÛģØª": 644,
      "ist": 645,
      "ĠB": 646,
      "Ø§Øµ": 647,
      "ĠÛĮØ§": 648,
      "Ġcan": 649,
      "Ø¯Ø±": 650,
      "Ġhe": 651,
      "ÛĶÛĶ": 652,
      "ĠÚ©Ø±ØªÛĴ": 653,
      "ĠThe": 654,
      "ĠÚ©ÙĪØ¦ÛĮ": 655,
      "Ø¢": 656,
      "ĠØ¶": 657,
      "ies": 658,
      "Ø¬Ûģ": 659,
      "ĠØ¬Ø§Øª": 660,
      "ÛĮÚ©ÙĨ": 661,
      "op": 662,
      "ĠØ¯ÙĨ": 663,
      "ĠÚ©Ú¾": 664,
      "ÛģØ±": 665,
      "Ġcom": 666,
      "ĠØ³Ø¨": 667,
      "Ø¬Ú¾": 668,
      "ĠØ§Ø¯": 669,
      "ity": 670,
      "Ġde": 671,
      "ect": 672,
      "Ú©Ø±": 673,
      "Ġex": 674,
      "ore": 675,
      "ĠÚ©Ø§Ùħ": 676,
      "Ø¯Ûģ": 677,
      "ure": 678,
      "ĠØªØŃ": 679,
      "ĠØ±ÛģÛĴ": 680,
      "ĠÙħØ·": 681,
      "ive": 682,
      "ĠØ§Ù¾ÙĨÛĮ": 683,
      "Ø±Øª": 684,
      "ĠØ¨Ø§Øª": 685,
      "ĠØ®ÙĪ": 686,
      "ĠØªÚ¾ÛĮ": 687,
      "Ø§Ø¯ÛĮ": 688,
      "ĠØ§ÙĨÛģ": 689,
      "ĠØ±Ú©Ú¾": 690,
      "ill": 691,
      "ĠÚ©Ø³ÛĮ": 692,
      "Ùĩ": 693,
      "ĠÙģÛĮ": 694,
      "um": 695,
      "ÙĪØ±Øª": 696,
      "ĠÚ©Ø§Ø±": 697,
      "ĠØ¬Ø§Ø¦ÛĴ": 698,
      "Ġv": 699,
      "ÙĪÙħØª": 700,
      "Ø±ÛĮÙĨ": 701,
      "ĠØ§ØŃ": 702,
      "ĠÙĦÙĪÚ¯": 703,
      "ĠÙĪØ§ÙĦÛĴ": 704,
      "ac": 705,
      "em": 706,
      "Ø®Øª": 707,
      "ain": 708,
      "Ø±Ûģ": 709,
      "est": 710,
      "ĠD": 711,
      "Ú©ÛĴ": 712,
      "ĠØ®Ø§ÙĨ": 713,
      "Ġ-": 714,
      "ant": 715,
      "Ø§ÙĦÛĮ": 716,
      "ÛĮØ§Úº": 717,
      "ÙĨÙ¹": 718,
      "ĠÚ¯ÛĴ": 719,
      "ĠH": 720,
      "ĠÙĦÚ¯": 721,
      "ÙĪÙ¹": 722,
      "ÛĮØ§Ø¯": 723,
      "ĠØªÙħ": 724,
      "Ø§Ø±Øª": 725,
      "qu": 726,
      "ĠØªØ±": 727,
      "ĠØ¯ÙĪØ±": 728,
      "ĠÙĨØ¸": 729,
      "Ø±Ø§ÙĨ": 730,
      "ew": 731,
      "pp": 732,
      "and": 733,
      "iv": 734,
      "ĠØ¹ÙĦÛĮ": 735,
      "ĠÙĪØ²ÛĮØ±": 736,
      "ĠÙ¾ÙĪ": 737,
      "Ġsu": 738,
      "os": 739,
      "ial": 740,
      "ĠÚĨØ§Ûģ": 741,
      "ht": 742,
      "Ø±ÛĴ": 743,
      "Ø§Ù¾": 744,
      "Ø§Ø¨ÙĤ": 745,
      "Ġwe": 746,
      "ĠØ§ÙĨØª": 747,
      "ĠW": 748,
      "Ø§Ø³Øª": 749,
      "ĠÚ¯Ø¦ÛĮ": 750,
      "ĠÚĨÚ¾": 751,
      "Ġk": 752,
      "ĠÙĦÛĮÚ©ÙĨ": 753,
      "Ù¹Ú¾": 754,
      "ÙĦØ§Ùģ": 755,
      "ort": 756,
      "ØŁ": 757,
      "ĠÙħÙĦÚ©": 758,
      "ĠØ³Ùħ": 759,
      "ĠÙ¾Úĳ": 760,
      "ĠÛģÙĪÙĨÛĴ": 761,
      "ĠØŃÚ©ÙĪÙħØª": 762,
      "ĠØ³Ø±": 763,
      "ÛģÙħ": 764,
      "oun": 765,
      "ÛĮÙĪ": 766,
      "ĠN": 767,
      "ÙĪÛģ": 768,
      "ĠÙħØ´": 769,
      "ÛĮØ²": 770,
      "Ġus": 771,
      "Ø¨ÛĮ": 772,
      "Ġha": 773,
      "Ġch": 774,
      "ĠF": 775,
      "ld": 776,
      "du": 777,
      "ÙħÙĦ": 778,
      "ÛĮÚ©Ú¾": 779,
      "Ú©Ø§": 780,
      "rom": 781,
      "oc": 782,
      "ÙĪØ§Ùħ": 783,
      "Ø§Ø¡": 784,
      "ĠR": 785,
      "ÙħØ§ÙĦ": 786,
      "ÙĨØ³": 787,
      "ĠÙĨÙĪ": 788,
      "ĠØ§Ø®": 789,
      "ĠÛģÙĪÚº": 790,
      "ĠØ·Ø±ØŃ": 791,
      "ud": 792,
      "ĠØ³Ø§ÙĦ": 793,
      "Ġat": 794,
      "Ø§Ø±Ûģ": 795,
      "Ø§Ø¤": 796,
      "Ġ3": 797,
      "ĠÙģØ±": 798,
      "20": 799,
      "Ġby": 800,
      "Ġen": 801,
      "ĠE": 802,
      "Ġr": 803,
      "ĠØ§Ø³Øª": 804,
      "ĠÛģÙĪØ§": 805,
      "ÙĦÙĤ": 806,
      "ĠØ¨ÚĨ": 807,
      "res": 808,
      "ÙĪØ³": 809,
      "ĠÚ¯ÛĮ": 810,
      "ĠÙĨØ§Ùħ": 811,
      "Ø¨Ø§Ø¯": 812,
      "Ø§ÛĮØ§": 813,
      "Ø§Ø¶": 814,
      "ĠÚ¯Ø¦ÛĴ": 815,
      "ĠÛģØ±": 816,
      "ĠÙĪÙĤØª": 817,
      "âĢĿ": 818,
      "ÙĦØ§ÙĤ": 819,
      "Ġle": 820,
      "ĠØ§Ø³ÙĦØ§Ùħ": 821,
      "Ø±ÛĮÙģ": 822,
      "ĠØ¯ÛĮÚ©Ú¾": 823,
      "ĠØ¬Ùħ": 824,
      "ĠÚ©ÚĨÚ¾": 825,
      "Ú©ÙĦ": 826,
      "ĠØ§Ú¯Ø±": 827,
      "Ø¯Ø§Ø±": 828,
      "ĠØ²ÛĮØ§Ø¯": 829,
      "ren": 830,
      "ĠØ±ÛģØ§": 831,
      "ĠØ¯ÛĴ": 832,
      "ĠØ¬Ø§": 833,
      "ĠâĢĻ": 834,
      "Ġyour": 835,
      "ĠØ§Øª": 836,
      "Ġse": 837,
      "og": 838,
      "ÙĦØ¦ÛĴ": 839,
      "Ġfrom": 840,
      "Ø¨Ûģ": 841,
      "ĠÙĨÙħ": 842,
      "ĠÚ©Ø±ÛĮÚº": 843,
      "Ø§Ø¦ÛĮÚº": 844,
      "ĠÛģÙĪÚ¯": 845,
      "ĠØ±ÛĮ": 846,
      "ĠØ·ÙĪØ±": 847,
      "ÙģÛĮ": 848,
      "ical": 849,
      "art": 850,
      "Ø§ÙĨØ§": 851,
      "ĠG": 852,
      "Ø¸Ùħ": 853,
      "ĠØ¯ÛĮÙĨ": 854,
      "ØªÙħ": 855,
      "ĠL": 856,
      "ÙĪØ±Ù¹": 857,
      "ÙģØª": 858,
      "Ø¹Ûģ": 859,
      "ĠÚ©Ø±ÙĨØ§": 860,
      "ÙĪØ§ÙĦ": 861,
      "Ø³Ùħ": 862,
      "ĠØ²ÛĮØ§Ø¯Ûģ": 863,
      "pt": 864,
      "âĢĺâĢĺ": 865,
      "ost": 866,
      "ĠÙħØ³ÙĦÙħ": 867,
      "ĠÚ©ÛĮÙĦØ¦ÛĴ": 868,
      "ÙĦØ³": 869,
      "Ġ|": 870,
      "ĠÙ¾Ú¾Ø±": 871,
      "ÙĨØ¬": 872,
      "ib": 873,
      "ĠÙģÛĮØµ": 874,
      "Ġsh": 875,
      "ÙĪØª": 876,
      "ĠØ¯ÙĪØ³": 877,
      "Ġim": 878,
      "Ġhave": 879,
      "Ġun": 880,
      "ÙģØ±": 881,
      "ĠÙĤØ±": 882,
      "ĠÙ¾ÛĮØ´": 883,
      "ions": 884,
      "ÛĮÙĪÚº": 885,
      "Ġnot": 886,
      "Ø§Ø¦ÙĦ": 887,
      "ĠU": 888,
      "Ø±Ø§Ø¯": 889,
      "ight": 890,
      "Ġsp": 891,
      "ĠØ®ÙĦØ§Ùģ": 892,
      "Ø¨ÙĦ": 893,
      "ĠØ´Ûģ": 894,
      "ÙĦÛĮÙħ": 895,
      "Ø´Ùħ": 896,
      "ĠÙĥ": 897,
      "ĠÙħØ·Ø§Ø¨ÙĤ": 898,
      "ge": 899,
      "Ø§Ø®": 900,
      "ĠØ¶Ø±": 901,
      "Ġ:": 902,
      "ome": 903,
      "all": 904,
      "per": 905,
      "Ø§ÙĨÙĪÚº": 906,
      "ĠØ§ÙħØ±ÛĮ": 907,
      "ĠØ·Ø±Ùģ": 908,
      "ff": 909,
      "ĠØ§ÙĨØ³": 910,
      "Ø´ÛĮ": 911,
      "Ø¯Ø§": 912,
      "ĠØ§Ø¬": 913,
      "Ø¬ÙĪØ¯": 914,
      "Ø§Ø¹Øª": 915,
      "ĠIn": 916,
      "ine": 917,
      "Ġtheir": 918,
      "ÛĮØ¨": 919,
      "ÙħØª": 920,
      "iz": 921,
      "Ġthis": 922,
      "act": 923,
      "Ø§ØªÛĮ": 924,
      "Ġwor": 925,
      "our": 926,
      "ĠÙ¾ÛģÙĦÛĴ": 927,
      "ĠØ§Ú©": 928,
      "Ġwas": 929,
      "ĠÙ¾Ø§Ø±": 930,
      "Ø¡": 931,
      "Ġpl": 932,
      "ĠÙħØ²": 933,
      "ĠØ¯Ûģ": 934,
      "Ø§ÙĪØ±": 935,
      "Ú©Ø§Ø±": 936,
      "Ø§ØµÙĦ": 937,
      "age": 938,
      "Ø¯Ø§ÙĦ": 939,
      "ide": 940,
      "ĠO": 941,
      "ĠÙħØŃÙħØ¯": 942,
      "ÙĨÛģ": 943,
      "ĠÙħÛĮØ±": 944,
      "Ġne": 945,
      "ÙĦÙĪ": 946,
      "Ġab": 947,
      "ip": 948,
      "ĠÛģÙĪØªØ§": 949,
      "ĠØªÙĤ": 950,
      "The": 951,
      "ĠØªØ¨": 952,
      "Ø³Ù¹": 953,
      "ÚĨÛĮ": 954,
      "Ø±ÛĮØ¨": 955,
      "ther": 956,
      "ĠØªÙħØ§Ùħ": 957,
      "ĠØŃØ§ÙĦ": 958,
      "ÙĨÚĪ": 959,
      "ĠØ§ÙĤ": 960,
      "Ø®Øµ": 961,
      "ÙĪÚĳ": 962,
      "ĠÙģØ±Ùħ": 963,
      "ĠØ¹ÙĪØ§Ùħ": 964,
      "ĠØµØŃ": 965,
      "red": 966,
      "ĠØµØ±Ùģ": 967,
      "ĠØ¨ÛĴ": 968,
      "ĠØ´Ø§Ùħ": 969,
      "ru": 970,
      "ÛĮÙĨÛĮ": 971,
      "Ø§ÛģØ±": 972,
      "ĠÙħØ¯": 973,
      "ĠÙ¹ÛĮ": 974,
      "ĠØ±ÛģÛĮ": 975,
      "Ġ5": 976,
      "Ġ19": 977,
      "ĠØ³Ø§Ùħ": 978,
      "ĠØ®Ø·": 979,
      "Ġ4": 980,
      "ard": 981,
      "ĠØ§Ø³ÛĴ": 982,
      "ĠØ¨Ø§Ø±": 983,
      "ĠØ¨Ø¯": 984,
      "ĠØ§ÙĪ": 985,
      "out": 986,
      "ĠÙ¾ÛģÙĨ": 987,
      "Ø²ÛĮ": 988,
      "Ø±ÛĮÚ©": 989,
      "ated": 990,
      "ous": 991,
      "ĠØ¬Ûģ": 992,
      "Ġad": 993,
      "Ġint": 994,
      "ĠÛģÙĪØ¦ÛĮ": 995,
      "ich": 996,
      "ĠØ§ÛĴ": 997,
      "Ø±Ø§": 998,
      "ĠØ§ÙĨÛģÙĪÚº": 999,
      "Ø§Ø³ÛĮ": 1000,
      "ĠØ±ÙĪØ²": 1001,
      "ĠÙħÙĪØ¬ÙĪØ¯": 1002,
      "ĠØŃØ³": 1003,
      "Ġcomp": 1004,
      "ĠØ§Ûģ": 1005,
      "ĠØ«": 1006,
      "ĠØ¯ÙĨÛĮØ§": 1007,
      "ia": 1008,
      "ĠØ§ÛĮÙħ": 1009,
      "ell": 1010,
      "ik": 1011,
      "der": 1012,
      "ult": 1013,
      "ĠÙĦÙĪÚ¯ÙĪÚº": 1014,
      "ĠØ¯ÙĦ": 1015,
      "ĠÙĪØ¬Ûģ": 1016,
      "ĠÚ©Øª": 1017,
      "ÙĪØ§Ø±": 1018,
      "ĠØ®ÙĪØ¯": 1019,
      "ĠØ¬Ø§ØªØ§": 1020,
      "ans": 1021,
      "ould": 1022,
      "ec": 1023,
      "ood": 1024,
      "ast": 1025,
      "Ġinc": 1026,
      "Ùī": 1027,
      "ĠÚ©ÙħÛĮ": 1028,
      "ĠJ": 1029,
      "Ġimp": 1030,
      "ĠÙĦÛĴ": 1031,
      "ĠÙĪØ§ÙĦÛĮ": 1032,
      "ĠØ¬Ø§Ø±ÛĮ": 1033,
      "Ġ0": 1034,
      "hen": 1035,
      "ÙĪÙĨÛĮ": 1036,
      "Ġcont": 1037,
      "ĠØŃØ§ØµÙĦ": 1038,
      "ĠÙħÚ©": 1039,
      "Ø§Ø¦ÙĨ": 1040,
      "ØªØ±": 1041,
      "ĠØ§Ø³ØªØ¹": 1042,
      "ĠØ³ÙĨ": 1043,
      "ations": 1044,
      "ĠØŃØ¶": 1045,
      "oug": 1046,
      "Ġmore": 1047,
      "ĠâĢľ": 1048,
      "ĠØ²ÙĨØ¯": 1049,
      "Ġthey": 1050,
      "able": 1051,
      "ust": 1052,
      "ĠØ¹Ø¨": 1053,
      "âĢı": 1054,
      "Ù¾ÛĮ": 1055,
      "ĠØ¨ÙĨØ¯": 1056,
      "cc": 1057,
      "ĠÙħØ°": 1058,
      "ĠØ¢Ø¦ÛĮ": 1059,
      "ĠÙħØ§Ø±": 1060,
      "ĠÚ¯Ú¾Ø±": 1061,
      "ÙĪØ§": 1062,
      "ĠÛ": 1063,
      "Ø²Ø§Ø±": 1064,
      "ĠÙħØ¬": 1065,
      "Ú©ÙĨ": 1066,
      "ap": 1067,
      "so": 1068,
      "ĠÙ¾ÛģÙĨÚĨ": 1069,
      "Ġall": 1070,
      "ance": 1071,
      "Ø±ÙĪØ¹": 1072,
      "ĠÙĨØ¸Ø±": 1073,
      "ĠØ¯Ú¾": 1074,
      "ĠØ¨ÙĨØ§": 1075,
      "Ġwill": 1076,
      "ĠØŃÙĤ": 1077,
      "ĠØªÙĨ": 1078,
      "ĠÚĪÛĮ": 1079,
      "ound": 1080,
      "pl": 1081,
      "Ø¬Ú¾ÛĴ": 1082,
      "ÙĳÙİ": 1083,
      "Ġres": 1084,
      "Ø±Ø²": 1085,
      "ĠÚ©ÙĦ": 1086,
      "vel": 1087,
      "ÙĪØ§ÙĨ": 1088,
      "ĠØºÛĮØ±": 1089,
      "ĠØ§ÙģØ±Ø§Ø¯": 1090,
      "ear": 1091,
      "orm": 1092,
      "Ùĭ": 1093,
      "ĠØ¬Ø§ÙĨØ¨": 1094,
      "ĠØ¨Ø¬": 1095,
      "ĠTh": 1096,
      "ĠØ´Ø±ÙĪØ¹": 1097,
      "Ø¯Ø§Ø¯": 1098,
      "end": 1099,
      "Ġdis": 1100,
      "ÙĦÛĮØ³": 1101,
      "ep": 1102,
      "ĠØ§Ø³ÛĮ": 1103,
      "ĠÙĦÛĮØ§": 1104,
      "ÙĦÙģ": 1105,
      "201": 1106,
      "Ġar": 1107,
      "ÙħØ§ÙĨ": 1108,
      "Ġ\"": 1109,
      "ĠÚ©ÛĮØ³": 1110,
      "ks": 1111,
      "ĠØ¨Ú¾Ø±": 1112,
      "ĠØ±Ø³": 1113,
      "ĠØ¬ÛĮØ³": 1114,
      "ong": 1115,
      "ĠÙħÛģ": 1116,
      "Ġwhich": 1117,
      "Ø§ÛģÙħ": 1118,
      "Ø¨Øª": 1119,
      "ind": 1120,
      "ĠÙħØ®Øª": 1121,
      "Ø§Ø¦Ùħ": 1122,
      "ual": 1123,
      "Ø§ØŃØ¨": 1124,
      "ary": 1125,
      "Ø§Ø¦Ø±": 1126,
      "ĠØ§Ø³ØªØ¹ÙħØ§ÙĦ": 1127,
      "ĠØ¹ÙħÙĦ": 1128,
      "ĠØŃÙħ": 1129,
      "Ġte": 1130,
      "ĠÙĪØ§ÙĤ": 1131,
      "ĠÙĪØ³": 1132,
      "ĠØ§Ø´": 1133,
      "Ø§Ø¦Ø¯": 1134,
      "ĠK": 1135,
      "ÙħÛĮÙĨ": 1136,
      "Ġ..": 1137,
      "reat": 1138,
      "Ġhas": 1139,
      "ĠØ¹ÙĦØ§ÙĤ": 1140,
      "ĠâĢĻâĢĻ": 1141,
      "ĠØ¨ØŃ": 1142,
      "ÙĪØ¯ÛĮ": 1143,
      "ign": 1144,
      "ĠÙ¾ÛĮØ¯": 1145,
      "ÚĪÛĮØ§": 1146,
      "Ġalso": 1147,
      "ĠÙħØµ": 1148,
      "ĠÙħÚ¯Ø±": 1149,
      "Ø³Ú©": 1150,
      "ĠÚ©Ø±ØªØ§": 1151,
      "ri": 1152,
      "ØµÙĪ": 1153,
      "ØºÛĮØ±": 1154,
      "Ġman": 1155,
      "ĠÙģÙĪØ¬": 1156,
      "ĠÚ¯Ú¾": 1157,
      "Ø§ØªÛĴ": 1158,
      "ĠØµØ§ØŃØ¨": 1159,
      "ĠØ§ÙĨÛģÛĮÚº": 1160,
      "Ùĥ": 1161,
      "Ġme": 1162,
      "ĠØ¬Ø§ÙĨÛĴ": 1163,
      "Ø¯Ùħ": 1164,
      "ĠØ´Ø®Øµ": 1165,
      "Ġj": 1166,
      "ĠØ¨Ø§ÙĦ": 1167,
      "ence": 1168,
      "ĠØ³ÙħØ¬Ú¾": 1169,
      "ach": 1170,
      "Ø§Ø¸": 1171,
      "Ø§ÙĪ": 1172,
      "ry": 1173,
      "Ġ6": 1174,
      "ÙħØ¨": 1175,
      "ï¿½ï¿½ï¿½ï¿½": 1176,
      "up": 1177,
      "Ġdo": 1178,
      "ake": 1179,
      "Ø¦Ø±": 1180,
      "ĠÚ¯Ø±Ø¯": 1181,
      "oo": 1182,
      "ĠÚ©ÛģÙĨØ§": 1183,
      "Ø§Ø±ÙĪÚº": 1184,
      "Ø§Ú©Ù¹Ø±": 1185,
      "ĠÛģÙĪØªÛĮ": 1186,
      "ĠØ§Øµ": 1187,
      "ress": 1188,
      "ĠØ´Ø§Ûģ": 1189,
      "ĠØ´Ø±ÛĮÙģ": 1190,
      "ĠÚ©Ø±Ø¯": 1191,
      "ater": 1192,
      "ĠâĢĵ": 1193,
      "ĠØ®ÛĮ": 1194,
      "Ø±Ø§Øª": 1195,
      "Ù¹Ø³": 1196,
      "ĠØ¸": 1197,
      "ĠÙĨÙĪØ§Ø²": 1198,
      "ĠÙ¾ÚĳÚ¾": 1199,
      "ĠØŃØµ": 1200,
      "ÙĪÙħÛĮ": 1201,
      "ough": 1202,
      "are": 1203,
      "Ú©ÙĪ": 1204,
      "ĠØ§ÛĮÙĨ": 1205,
      "Ø´Ûģ": 1206,
      "ĠÙĨÛĮ": 1207,
      "ÙĦÙĪÙħ": 1208,
      "Ġother": 1209,
      "ber": 1210,
      "Ø´Ø´": 1211,
      "Ø§Ø¨ÛĮ": 1212,
      "ild": 1213,
      "av": 1214,
      "ĠØªØ¬": 1215,
      "ĠÙ¾Ø§Ø³": 1216,
      "ĠÙĪÛĮ": 1217,
      "Ġcl": 1218,
      "ĠØµØ¯Ø±": 1219,
      "Ù¾ÙĪØ±Ù¹": 1220,
      "ĠÙħØ²ÛĮØ¯": 1221,
      "ĠÙĨÙĤ": 1222,
      "ÙĪÙĤ": 1223,
      "ents": 1224,
      "ĠÚĪØ§ÙĦ": 1225,
      "ĠÚĨÛĮ": 1226,
      "ÚĳÛĮ": 1227,
      "ĠØ¨ÚĳÚ¾": 1228,
      "ĠØ¹ÙĦÛĮÛģ": 1229,
      "ĠØ²ÙĨØ¯Ú¯ÛĮ": 1230,
      "ĠØ¯ÙĪØ±Ø§ÙĨ": 1231,
      "ÙĤÛģ": 1232,
      "ÙĪØ¹": 1233,
      "ition": 1234,
      "ÙħÛĮØª": 1235,
      "ĠÙħØ±": 1236,
      "ĠØ¨ÛĮØ§ÙĨ": 1237,
      "ĠØ¨ÙĦÚ©Ûģ": 1238,
      "ĠØ¢Ø¬": 1239,
      "ang": 1240,
      "Ø§ÙĦÙħ": 1241,
      "Ø±ÙĦ": 1242,
      "ĠØ´ÛĮ": 1243,
      "ĠÛģÙħØ§Ø±ÛĴ": 1244,
      "ĠÚ©Ø¨": 1245,
      "ĠÙħØ¬Ú¾ÛĴ": 1246,
      "ĠÙħØªØ¹": 1247,
      "ĠØ¨ÙĨÛĮ": 1248,
      "ÙĪÙĦÛĮ": 1249,
      "Ø¨Ø§ÙĨ": 1250,
      "Ø§Ø·": 1251,
      "ĠÚ©Ø±ÛĴ": 1252,
      "ĠØ´Ø§ÙħÙĦ": 1253,
      "ÙĦØ§ÙĨ": 1254,
      "Ù¾Ø±": 1255,
      "Ø§Ú©Ûģ": 1256,
      "ĠÙĦÚ©Ú¾": 1257,
      "ĠØ¨Ø§Ø±ÛĴ": 1258,
      "ÙĪÙĨÚ©Ûģ": 1259,
      "Ø§ÚĨÛĮ": 1260,
      "ĠØŃÙĪØ§ÙĦ": 1261,
      "one": 1262,
      "Ġapp": 1263,
      "ews": 1264,
      "ÙĪÙĨÙĪÚº": 1265,
      "ĠØŃÚ©Ùħ": 1266,
      "ĠÙ¾ÙĪØ±": 1267,
      "ĠÙ¾Ø³": 1268,
      "fe": 1269,
      "ase": 1270,
      "ÙĨÙħ": 1271,
      "ĠÚĨÙĦ": 1272,
      "ĠØªÛĮ": 1273,
      "ĠâĢĺ": 1274,
      "ĠÙ¾ÙĪÙĦÛĮØ³": 1275,
      "ĠÙ¾Ø±ÙĪ": 1276,
      "ail": 1277,
      "Ø§Ø±ÛĮØ®": 1278,
      "ice": 1279,
      "ĠØ¬ÙĨÚ¯": 1280,
      "Ġ7": 1281,
      "ĠØ¹Ø§Ùħ": 1282,
      "ĠØ³Ú©ØªØ§": 1283,
      "ÚĪÛĮ": 1284,
      "ĠÚ©ÙĪØ´Ø´": 1285,
      "ĠØ¹ÙĦÙħ": 1286,
      "ĠØµÙĪØ±Øª": 1287,
      "Ġbut": 1288,
      "Ø§ÙħØ§Øª": 1289,
      "Ø±Ø¯ÙĪ": 1290,
      "ĠØŃØ¶Ø±Øª": 1291,
      "ĠØ¬ÛĮ": 1292,
      "Ú¾ÛĮÙĦ": 1293,
      "ĠØ¬Ø¨Ú©Ûģ": 1294,
      "Ø¬ÙĨ": 1295,
      "ÙħÙĨ": 1296,
      "ĠÚ¯Ø²": 1297,
      "ction": 1298,
      "ĠØ´ÛģØ±": 1299,
      "ÙĨØ¬Ø§Ø¨": 1300,
      "ĠÙħÙĪÙĤ": 1301,
      "Ġper": 1302,
      "Ø§Ø¹Ø¸Ùħ": 1303,
      "ĠØ³Ø§ÙħÙĨÛĴ": 1304,
      "ĠÛģÙĪÚ¯Ø§": 1305,
      "Ø¨Ø§Ø±": 1306,
      "ĠØªÛĮÙĨ": 1307,
      "ime": 1308,
      "Ø§ÙĨÚ¯": 1309,
      "Ġso": 1310,
      "ÙĦØ¨": 1311,
      "ĠØ¯Ø¹": 1312,
      "com": 1313,
      "ass": 1314,
      "Ġsy": 1315,
      "ack": 1316,
      "Ø§ÛģÙĪØ±": 1317,
      "ÙħÛĮÚº": 1318,
      "ace": 1319,
      "Ø®ÙĪ": 1320,
      "ĠÙ¾ÛĮØ¯Ø§": 1321,
      "ors": 1322,
      "ĠØ§Ù¹Ú¾": 1323,
      "ĠØ¬Ú¾": 1324,
      "ĠØ¯ÛģØ´Øª": 1325,
      "ÛģØ§Ø±": 1326,
      "Ù¹Ø±ÛĮ": 1327,
      "ĠÙħØ³Øª": 1328,
      "ĠØ§ØŃÙħØ¯": 1329,
      "ike": 1330,
      "Ø´ÙħÛĮØ±": 1331,
      "ah": 1332,
      "ĠØ§ÛĮØ³ÛĴ": 1333,
      "ĠÙħØ®ØªÙĦÙģ": 1334,
      "Ø§Ø±ØªÛĮ": 1335,
      "Ø¯ÛĮØ¯": 1336,
      "ĠÚ©ÙĨ": 1337,
      "form": 1338,
      "ens": 1339,
      "ĠÙĦÛĮÙĨ": 1340,
      "ces": 1341,
      "Ø¬ÛĮ": 1342,
      "ĠØ¬ÙĦ": 1343,
      "Ø§Ø«": 1344,
      "Ø§ÙĨÚĨ": 1345,
      "Ø©": 1346,
      "ĠØ¯ÛĮÙĨÛĴ": 1347,
      "aus": 1348,
      "Ø§ÙħÛĮ": 1349,
      "alth": 1350,
      "Ġthem": 1351,
      "ĠØ§ÛģÙħ": 1352,
      "ire": 1353,
      "Ġ10": 1354,
      "ĠIt": 1355,
      "Ġout": 1356,
      "ĠØ§Ù¾ÙĨØ§": 1357,
      "ĠØ³ÛĮØ§Ø³ÛĮ": 1358,
      "Ġcomm": 1359,
      "âĢľ": 1360,
      "ĠØ¯ÙĪÙĨÙĪÚº": 1361,
      "ÛĮØ§Øª": 1362,
      "Ġ8": 1363,
      "ĠØ®Ø¨Ø±": 1364,
      "ĠÛĮÛģØ§Úº": 1365,
      "ĠÚĪØ§Ú©Ù¹Ø±": 1366,
      "rent": 1367,
      "ĠÙĨÚ©": 1368,
      "Ûĥ": 1369,
      "ĠØ§ÙĨØ¯": 1370,
      "ile": 1371,
      "Ø§Øº": 1372,
      "very": 1373,
      "ĠØ¢Ú¯": 1374,
      "ĠÙ¾Ú¾": 1375,
      "ÙĦØ·": 1376,
      "ĠØ³ÛĮÚ©": 1377,
      "ĠØ¨ÚĳÛĮ": 1378,
      "ĠÙĦÚĳ": 1379,
      "Ġone": 1380,
      "ĠØ§Ø¶": 1381,
      "âĢ¦": 1382,
      "Ø§ÛĮØª": 1383,
      "Ġï": 1384,
      "ĠØ¯ÛĮÚ¯Ø±": 1385,
      "ub": 1386,
      "ĠÙģÛĮØµÙĦÛģ": 1387,
      "ĠÙħÙĨØµ": 1388,
      "ĠÙ¾Ø§Ø±Ù¹ÛĮ": 1389,
      "ĠØ¨ØªØ§": 1390,
      "ish": 1391,
      "Ø¹ÛĴ": 1392,
      "ĠØ¯ÙĪØ³Ø±ÛĴ": 1393,
      "ĠÙĨØ´": 1394,
      "Ġpe": 1395,
      "ĠÚ©ØªØ§Ø¨": 1396,
      "ĠØ°Ø±ÛĮ": 1397,
      "ÙĪØ±Ø³": 1398,
      "Ġpart": 1399,
      "ÙĬÚº": 1400,
      "ue": 1401,
      "ĠØ¢Ø±": 1402,
      "ĠThis": 1403,
      "ĠÙĤØ§ÙĨ": 1404,
      "ĠÙħÛĮØ±ÛĴ": 1405,
      "ite": 1406,
      "Ġev": 1407,
      "ĠØ§ÛĮØ³Ø§": 1408,
      "Ûķ": 1409,
      "Ġmay": 1410,
      "ĠÛģÙĨØ¯": 1411,
      "ĠØªØ¹ÙĦÙĤ": 1412,
      "±Û": 1413,
      "Ġpre": 1414,
      "ĠØªØ±ÛĮÙĨ": 1415,
      "Ø§Ø²Ûģ": 1416,
      "Ġabout": 1417,
      "Ø´ØªÛģ": 1418,
      "ÙĨØ¯Ú¾": 1419,
      "ric": 1420,
      "Ø³Ù¾": 1421,
      "ĠØŃÙĪØ§ÙĦÛĴ": 1422,
      "ie": 1423,
      "ĠØ¯Ø§Ø±": 1424,
      "ĠØ´Ø¹": 1425,
      "ĠÙħØ¹Ø§Ùħ": 1426,
      "ory": 1427,
      "ĠÛģÙĪØªÛĴ": 1428,
      "ÚĪØ±": 1429,
      "ĠØ¹Ø¯Ø§ÙĦ": 1430,
      "ĠV": 1431,
      "ĠØ³Ú©ØªÛĴ": 1432,
      "ØŃÛģ": 1433,
      "Ø¦ÛĮÚº": 1434,
      "ĠÚ©Ø³": 1435,
      "ĠØ¨ÛĮÙĨ": 1436,
      "Ġhel": 1437,
      "Ù¾ÛĴ": 1438,
      "ments": 1439,
      "ĠØ¨Ú¾Ø§Ø±Øª": 1440,
      "ose": 1441,
      "Ù¾Ø§Ú©Ø³ØªØ§ÙĨ": 1442,
      "ĠÙĤØ±Ø§Ø±": 1443,
      "ĠÚ¯ÙĪ": 1444,
      "ĠÙ¾ÙĨØ¬Ø§Ø¨": 1445,
      "now": 1446,
      "ĠØ¹ÙħØ±Ø§ÙĨ": 1447,
      "Ġsc": 1448,
      "low": 1449,
      "Ø§ÙĤÛĮ": 1450,
      "Ġits": 1451,
      "ĠÚ©Ø¦ÛĮ": 1452,
      "ĠÙħØªØ¹ÙĦÙĤ": 1453,
      "Ø§Ú¯": 1454,
      "ĠØ§ÙĨØªØ®": 1455,
      "ount": 1456,
      "ÙĤÙĦ": 1457,
      "ĠÙĤØ¨": 1458,
      "ĠØ³Ø¹": 1459,
      "Ú©Ù¹": 1460,
      "Ġ9": 1461,
      "ĠØ´Ùħ": 1462,
      "ĠÙħØ§Ûģ": 1463,
      "ame": 1464,
      "ĠÛģØ§ØªÚ¾": 1465,
      "Ø§Ø¦Ø²": 1466,
      "ĠØ¬ÛģØ§Úº": 1467,
      "ĠØªØ´": 1468,
      "ĠØªØ§Ø±ÛĮØ®": 1469,
      "ĠØ¢Ø¨Ø§Ø¯": 1470,
      "Ġqu": 1471,
      "Ġhelp": 1472,
      "ious": 1473,
      "Ġtra": 1474,
      "ĠSt": 1475,
      "ĠØ³Ù¾": 1476,
      "ĠÚ©Ø´ÙħÛĮØ±": 1477,
      "ĠØ¬ÙħØ§Ø¹Øª": 1478,
      "Ġstud": 1479,
      "ĠØ¨Ø§": 1480,
      "ays": 1481,
      "ĠÙħÛĮÚĪÛĮØ§": 1482,
      "ific": 1483,
      "ÙĦØ§Ø³": 1484,
      "ĠØ±Ø¶": 1485,
      "ÚĳÛĴ": 1486,
      "ĠØ¶Ø±ÙĪØ±Øª": 1487,
      "ĠÙĪÙģ": 1488,
      "ĠØ¬Ø§Ø¦ÛĮÚº": 1489,
      "Ø§Ø¨ÙĦ": 1490,
      "ĠÛģØ²Ø§Ø±": 1491,
      "ĠÙĤÙĪÙħÛĮ": 1492,
      "Ø±ÛĮÙħ": 1493,
      "ĠØªÙģ": 1494,
      "ĠØ¬Ø§ØªÛĮ": 1495,
      "ÛĮÛĴ": 1496,
      "olog": 1497,
      "Ġtr": 1498,
      "lic": 1499,
      "ĠÙĪØ§ÙĦØ§": 1500,
      "Ø±ÙģØª": 1501,
      "ĠØ¹Ø±Ø¨": 1502,
      "Ø²Ø§Ø¯": 1503,
      "Ú¯Ûģ": 1504,
      "Ġup": 1505,
      "king": 1506,
      "ĠØ§Ø²": 1507,
      "ĠÙħØ¹Ø§Ø´": 1508,
      "ĠØªØ±ÙĤÛĮ": 1509,
      "ĠØªØŃØ±ÛĮÚ©": 1510,
      "ÙĶ": 1511,
      "ĠØªØ¹Ø§ÙĦÛĮ": 1512,
      "ĠÙħÚ©ÙħÙĦ": 1513,
      "ĠÚ©ÛĮÙĪÙĨÚ©Ûģ": 1514,
      "ĠÚ©Ø±Ø¯ÛĮØ§": 1515,
      "ĠÚ©Ø¨Ú¾ÛĮ": 1516,
      "ÛĮÚ©Ø³": 1517,
      "ities": 1518,
      "ĠØ¬ÛĮØ³ÛĴ": 1519,
      "ree": 1520,
      "Ġwho": 1521,
      "ĠØ¹ÙĦ": 1522,
      "ĠØ§ÛģÙĦ": 1523,
      "Ø§Ú©Ú¾": 1524,
      "ĠÛģÙħÛĮÚº": 1525,
      "Ø¸ÛĮÙħ": 1526,
      "Ù¹ÙĪ": 1527,
      "ĠØ§ÙħØ±ÛĮÚ©ÛĮ": 1528,
      "ĠØ§Ø¶Ø§Ùģ": 1529,
      "ĠÚĨÛĮÙĨ": 1530,
      "ĠØ¬ÙĪØ§Ø¨": 1531,
      "ings": 1532,
      "ĠØ®ÛĮØ§ÙĦ": 1533,
      "Ġro": 1534,
      "ÛĮØ±Ø§ÙĨ": 1535,
      "ord": 1536,
      "ĠØ§Ø¸": 1537,
      "Ġthese": 1538,
      "ople": 1539,
      "ØºØ§ÙĨ": 1540,
      "ÙĪØ±Ûģ": 1541,
      "ØªÙĪÚº": 1542,
      "ĠÛģÙĦ": 1543,
      "ĠØ®ØªÙħ": 1544,
      "Ø¨Ú¾": 1545,
      "Ġcons": 1546,
      "Ġem": 1547,
      "te": 1548,
      "Ø¨ÙĪ": 1549,
      "ĠÚ©ÛĮÙĪÚº": 1550,
      "ĠØµÙĪØ¨": 1551,
      "ĠÙħØ®": 1552,
      "ĠY": 1553,
      "ÙħÛĮØ±": 1554,
      "Ġover": 1555,
      "ĠÙ¹ÛĮÙħ": 1556,
      "ĠÚ¯Ø±": 1557,
      "Ġwhen": 1558,
      "ĠÙħÙĪÙĤØ¹": 1559,
      "ÙĦØ²": 1560,
      "âĢĻâĢĻ": 1561,
      "lud": 1562,
      "ĠØªØµ": 1563,
      "Ø§ÛĮ": 1564,
      "ĠØ´Ø±": 1565,
      "ĠÙ¾Ø³ÙĨØ¯": 1566,
      "ĠÛĮÙĤ": 1567,
      "ĠÚ©Ø§ÙħÛĮ": 1568,
      "Ġinto": 1569,
      "ĠÙħØ§ÙĦ": 1570,
      "Ġhow": 1571,
      "ll": 1572,
      "Ġdif": 1573,
      "Ġneed": 1574,
      "Ġag": 1575,
      "ph": 1576,
      "ĠØ¨ÚĳÛĴ": 1577,
      "cess": 1578,
      "Ø±ÙĪÚº": 1579,
      "ĠØ§Ø¹Ø¸Ùħ": 1580,
      "Ġlike": 1581,
      "ĠØªØ¹ÙĦÛĮÙħ": 1582,
      "les": 1583,
      "Ġ2018": 1584,
      "Ù¹Ø§": 1585,
      "Ø¯ÛĮÙĨ": 1586,
      "ĠØ³Ø§Ø¦": 1587,
      "Ġour": 1588,
      "Ġeff": 1589,
      "Ġam": 1590,
      "ĠCh": 1591,
      "Ġacc": 1592,
      "ĠØ¨ØªØ§ÛĮØ§": 1593,
      "ÛĮÙĨÛģ": 1594,
      "Ġtime": 1595,
      "ĠÚ¾": 1596,
      "Ġwere": 1597,
      "Ø±ÛĮØ³": 1598,
      "ĠØ¯Ø³Øª": 1599,
      "Ġsuch": 1600,
      "ĠÚ©ÛĮÛĴ": 1601,
      "ove": 1602,
      "ĠÚ©Ø±Ø§ÚĨÛĮ": 1603,
      "ÙĪÚĨ": 1604,
      "ĠØµÙģ": 1605,
      "Ø¢ÙĨ": 1606,
      "Ġ12": 1607,
      "ĠØ§ÙĨØªØ¸": 1608,
      "Ġuse": 1609,
      "ĠØ¯Ø±ÙħÛĮ": 1610,
      "Ġsome": 1611,
      "Ġsa": 1612,
      "ÙĪØ²": 1613,
      "ĠØ¯ÛĮÚº": 1614,
      "Ġgo": 1615,
      "ĠØ§ÙĨØµ": 1616,
      "ĠØ§ÙģØ³": 1617,
      "Ġhealth": 1618,
      "ĠØ¹Ø±": 1619,
      "ØŃÚ©": 1620,
      "we": 1621,
      "ĠÙħÙĨØµÙĪØ¨": 1622,
      "ĠÚ¯Ø±ÙģØª": 1623,
      "ates": 1624,
      "Ġunder": 1625,
      "erv": 1626,
      "ĠÙħØ¹ÙĦÙĪÙħ": 1627,
      "ĠØ¢ÙĨ": 1628,
      "ĠÙĤÙĪÙħ": 1629,
      "Ġprov": 1630,
      "ally": 1631,
      "ĠÙħÙħ": 1632,
      "ĠØ¬Ú¯Ûģ": 1633,
      "ÙħØ§ÙĦÚ©": 1634,
      "ons": 1635,
      "ĠØ³ÙĪØ§ÙĦ": 1636,
      "ĠØ´Ú©": 1637,
      "ĠØ±ÙĪÙ¾ÛĴ": 1638,
      "stem": 1639,
      "ĠÙĪØ§Ù¾": 1640,
      "ĠÙħØ¶": 1641,
      "ĠØ§Ø¹ÙĦØ§ÙĨ": 1642,
      "ning": 1643,
      "ÙĪÚ©": 1644,
      "ĠÙģØ§Ø±": 1645,
      "lect": 1646,
      "ĠÚ©Ø±ÙĪ": 1647,
      "ms": 1648,
      "Ø¹Øª": 1649,
      "ĠÙĦÛĮÚ¯": 1650,
      "10": 1651,
      "ĠØ®ÙĪØ´": 1652,
      "ĠØ§ÙĨØªØ®Ø§Ø¨": 1653,
      "Ġpeople": 1654,
      "ĠØ§ÙĨØ¯Ø±": 1655,
      "ĠÙ¾Ø§ÙĨÛĮ": 1656,
      "Ġthan": 1657,
      "ĠØ§Ø¸ÛģØ§Ø±": 1658,
      "ĠÙĨØ§": 1659,
      "ĠÚĨØ§Ø±": 1660,
      "ĠÙĪØ²ÛĮØ±Ø§Ø¹Ø¸Ùħ": 1661,
      "Ġbl": 1662,
      "ĠØ¹ÙħØ±": 1663,
      "velop": 1664,
      "ÙĦØ§ØŃ": 1665,
      "ating": 1666,
      "ĠÙ¹Ú¾": 1667,
      "ĠâĢĿ": 1668,
      "ĠÙĪØ§ÙĦÙĪÚº": 1669,
      "ĠÚ©Ø±Ú©ÛĴ": 1670,
      "Ø¬ÙĪ": 1671,
      "row": 1672,
      "ĠØ§ÙĦØŃ": 1673,
      "à¤": 1674,
      "ĠÙ¾Ø§Ú©Ø³ØªØ§ÙĨÛĮ": 1675,
      "ØªÛģ": 1676,
      "ian": 1677,
      "ĠØ³ÛĮÙĨ": 1678,
      "igh": 1679,
      "Ġcol": 1680,
      "Ġbet": 1681,
      "ØªÙĦ": 1682,
      "rit": 1683,
      "ĠÙĤØ§Ø¦Ùħ": 1684,
      "ĠØ§Ø¹ÙĦÛĮ": 1685,
      "ïº": 1686,
      "Ø§Ø²ÛĮ": 1687,
      "...": 1688,
      "ĠÙħÙģ": 1689,
      "Ø§Ø±Ø§": 1690,
      "Ġact": 1691,
      "ĠØ§Ø³ÙĦØ§ÙħÛĮ": 1692,
      "Ġthere": 1693,
      "ĠÙĪØ±": 1694,
      "Ø±ÛĮÙĦ": 1695,
      "ĠØŃØ³ÛĮÙĨ": 1696,
      "ĠÙħØ«": 1697,
      "ĠØ¢Ùģ": 1698,
      "ĠØ§Ø¯Ø§": 1699,
      "ĠØ¯Ø±ÙħÛĮØ§ÙĨ": 1700,
      "Ġinclud": 1701,
      "Ġ2019": 1702,
      "ĠØ§ÙħØ§Ùħ": 1703,
      "ĠÙĪØ§ÙĤØ¹": 1704,
      "ĠØ¨ÙĨØ§ÙĨÛĴ": 1705,
      "Ø§ÙĦÙħÛĮ": 1706,
      "ĠÙħÛĮØ±ÛĮ": 1707,
      "Ø³ÙĨ": 1708,
      "ĠÙħÙĨØª": 1709,
      "Ġ/": 1710,
      "ob": 1711,
      "Ġknow": 1712,
      "tern": 1713,
      "Ø§ÛĮÚ©": 1714,
      "ØªÛĮØ§Ø±": 1715,
      "ĠÙģØ±ÙħØ§ÛĮØ§": 1716,
      "ØªÙĪ": 1717,
      "ys": 1718,
      ").": 1719,
      "ĠAn": 1720,
      "ĠØ¹Ø¯Ø§ÙĦØª": 1721,
      "ĠÙĤØ³Ùħ": 1722,
      "ĠØ³ÙĨØ¯Ú¾": 1723,
      "ĠÙħÙħØ§ÙĦÚ©": 1724,
      "ĠÚĨÛĮØ²": 1725,
      "Ġ18": 1726,
      "19": 1727,
      "ov": 1728,
      "ility": 1729,
      "ĠØ§ÙħØ±ÛĮÚ©Ûģ": 1730,
      "Ð°": 1731,
      "Ø§ØªÛĮÙĨ": 1732,
      "ĠÚ©ÙħÙ¾": 1733,
      "ØµÛĮ": 1734,
      "ĠØ¬Ø§ØªÛĴ": 1735,
      "ĠÙģØ±ÙĪ": 1736,
      "ĠØ¯Ø§Ø®": 1737,
      "ĠØ§ÙĨØ³Ø§ÙĨ": 1738,
      "vers": 1739,
      "ĠØ§ÛĮØ³ÛĮ": 1740,
      "Ø¹ÙĨÛĮ": 1741,
      "ĠÙħØ¸": 1742,
      "Ø¬Ùħ": 1743,
      "ĠØªÙĤØ±ÛĮØ¨": 1744,
      "ÙĦØ§ÙĪÛģ": 1745,
      "ĠØ³ÙħÛĮØª": 1746,
      "Ġyear": 1747,
      "Ø§ÙĪÙĨ": 1748,
      "ĠÙħÙĨØ¸": 1749,
      "ĠÙĪÛģØ§Úº": 1750,
      "ĠÚ©Ø´": 1751,
      "int": 1752,
      "ĠÚĨØ§ÛģÛĮÛĴ": 1753,
      "'s": 1754,
      "ĠØ®Ø§Øª": 1755,
      "ause": 1756,
      "ĠÙ¾Ø§Ú©": 1757,
      "ĠÙĦØ§ÛģÙĪØ±": 1758,
      "ĠØ¯ÛĮØªÛĴ": 1759,
      "Ġbec": 1760,
      "ĠÙĨØ³": 1761,
      "ĠÙĨØ¸Ø§Ùħ": 1762,
      "ÙħØ¨ÙĦÛĮ": 1763,
      "ĠØ±Ø³ÙĪÙĦ": 1764,
      "ĠÛĮÛģÛĮ": 1765,
      "ÛĮØ³ÛĮ": 1766,
      "ĠØ¯Ú©Ú¾": 1767,
      "ĠÚ©Ø§ÙĨ": 1768,
      "ÙģØ¸": 1769,
      "Ġif": 1770,
      "yp": 1771,
      "ĠØ¨ÚĨÙĪÚº": 1772,
      "ĠØªÚ¾ÛĮÚº": 1773,
      "Ġ15": 1774,
      "ĠÙħØ¯Ø¯": 1775,
      "ĠØªÛĮØ§Ø±": 1776,
      "Ú©Ø³": 1777,
      "ĠØ³ÛĮØ¯": 1778,
      "Ġind": 1779,
      "Ø§Ø¦Ø¹": 1780,
      "Ø§Ø³ÙĦØ§Ùħ": 1781,
      "ular": 1782,
      "Ú¯ÙĪ": 1783,
      "rough": 1784,
      "Ø²Ùħ": 1785,
      "ĠÙĪØ³ÙĦÙħ": 1786,
      "ĠØ³Ø±Ú©": 1787,
      "ĠÚĨÙĨØ¯": 1788,
      "ĠØ§ÙģØºØ§ÙĨ": 1789,
      "ÛĶÛĶÛĶ": 1790,
      "Ġdes": 1791,
      "ĠØ§Ø±": 1792,
      "ĠØ±Ù¾ÙĪØ±Ù¹": 1793,
      "Ġra": 1794,
      "ĠØ¹ÙĦØ§ÙĪÛģ": 1795,
      "Ø§ØªØ§": 1796,
      "Ġrec": 1797,
      "ĠØ§ÙĦÙħ": 1798,
      "ÙĪÙĨØ§": 1799,
      "Ġbeen": 1800,
      "ĠÛģÙĪØ¬": 1801,
      "ĠÚ©Ù¾": 1802,
      "ĠÙħÙĪÙĦ": 1803,
      "Ġrel": 1804,
      "Ġfe": 1805,
      "ĠØ·Ø±ÛĮ": 1806,
      "ĠØ³Ûģ": 1807,
      "ĠØ§Ø³ÙħØ¨ÙĦÛĮ": 1808,
      "ÙħÛĮØ¯": 1809,
      "ĠÙĨÛĮÙĪ": 1810,
      "ĠØ®Ø¯Ø§": 1811,
      "Ġany": 1812,
      "ĠØ¢Ø®": 1813,
      "ĠÙĤÛĮÙħ": 1814,
      "ĠÛĮØ§Ø¯": 1815,
      "ĠÛģÙĨØ¯ÙĪ": 1816,
      "ĠØ£": 1817,
      "Ġmost": 1818,
      "ÚĳØ§": 1819,
      "ĠØµÙĦÛĮ": 1820,
      "ĠÙĦØ§Ú©Ú¾": 1821,
      "ient": 1822,
      "ĠØ§ÙĨØµØ§Ùģ": 1823,
      "ĠØ§Ø«": 1824,
      "here": 1825,
      "ĠØ§Ø·": 1826,
      "Ġprodu": 1827,
      "ĠØ³Ùģ": 1828,
      "ĠÚ©Ø±Ø¯Ø§Ø±": 1829,
      "ject": 1830,
      "ful": 1831,
      "Ø¨Ø§ÙĦ": 1832,
      "Ġpr": 1833,
      "Ġwork": 1834,
      "ĠØ±ØŃ": 1835,
      "ps": 1836,
      "ĠÙĦÚ¯Ø§": 1837,
      "ĠØŃØµÛģ": 1838,
      "In": 1839,
      "ĠØ¶Ø±ÙĪØ±ÛĮ": 1840,
      "ĠØ®ØµÙĪ": 1841,
      "Ġdevelop": 1842,
      "ĠØ§Ø±Ø¯ÙĪ": 1843,
      "Ø§Ø¨Øª": 1844,
      "ØªØ§ÙĦ": 1845,
      "ĠØ§Ø®ØªÛĮØ§Ø±": 1846,
      "ĠØ³ÙĦØ³": 1847,
      "ĠØªØ¹Ø¯Ø§Ø¯": 1848,
      "ĠÙĤØ¨ÙĦ": 1849,
      "ĠÚ©Ø±ØªÛĮ": 1850,
      "ĠØ¬ÙĨØ±ÙĦ": 1851,
      "Ġ200": 1852,
      "ĠÙģÙĦÙħ": 1853,
      "Ø§ÛģÛĴ": 1854,
      "ĠÙģØ¶": 1855,
      "ĠÛģÙħØ§Ø±ÛĮ": 1856,
      "ĠÙ¾ÙĪØ±ÛĮ": 1857,
      "ĠÚĪØ±": 1858,
      "Ø§ÙĦØ¨": 1859,
      "Ġused": 1860,
      "ĠØ±ÛģÙĨÙħ": 1861,
      "ics": 1862,
      "ĠØ®ÙĪØ§ØªÛĮÙĨ": 1863,
      "Ġph": 1864,
      "ĠØ¹Ø¨Ø¯Ø§ÙĦ": 1865,
      "ÙģØ§Ø¸": 1866,
      "xt": 1867,
      "uring": 1868,
      "Ġgen": 1869,
      "ĠØ´ÛģØ±ÛĮ": 1870,
      "ĠØ²ÛĮØ±": 1871,
      "ØªØŃ": 1872,
      "ced": 1873,
      "Ġ11": 1874,
      "ative": 1875,
      "Ø¯ÛĴ": 1876,
      "ĠÚ©ÙĪØ±Ù¹": 1877,
      "ĠÙĤØªÙĦ": 1878,
      "Ġhis": 1879,
      "ond": 1880,
      "ĠÙĬ": 1881,
      "Ø§Ø±Ùģ": 1882,
      "ÙĪÛĮØ²": 1883,
      "Ø§Ø¨Ø·": 1884,
      "ĠØ§ÙĦÙĦ": 1885,
      "Ø¤": 1886,
      "ĠØ¯Ùģ": 1887,
      "Ø§Ø¶ØŃ": 1888,
      "ÚĳÚ¾": 1889,
      "ĠØ¨Ú¾Ø§Ø±ØªÛĮ": 1890,
      "ÙĨØª": 1891,
      "ÙĦØ§ÙĤØ§Øª": 1892,
      "ĠØ¨Øª": 1893,
      "ĠØ®Ø±": 1894,
      "ĠØ°Ø±ÛĮØ¹ÛĴ": 1895,
      "iet": 1896,
      "Ġ)": 1897,
      "ĠÚ©Ø¦ÛĴ": 1898,
      "ise": 1899,
      "Ġsystem": 1900,
      "ĠØ¬ÙħØ¹": 1901,
      "ÛĮÚ©Ø´ÙĨ": 1902,
      "ÙĨØ¯ÛĮ": 1903,
      "ĠÙĤØ§ÙĨÙĪÙĨ": 1904,
      "ĠØ¨Ø§ÛģØ±": 1905,
      "Ġadd": 1906,
      "âĢıâĢı": 1907,
      "ĠØ±Ú©Ú¾ÙĨÛĴ": 1908,
      "ĠØ¹Ø§ÙĦÙħÛĮ": 1909,
      "ĠØ§ÙĨØªÛģ": 1910,
      "ĠØ³ÙĪÚĨ": 1911,
      "Ø§Ø¤Úº": 1912,
      "ĠØ§Ø¬ÙĦØ§Ø³": 1913,
      "ĠØ¢Ø¦ÛĴ": 1914,
      "ĠØ§Ú¯": 1915,
      "ĠÚĨÚ¾ÙĪÚĳ": 1916,
      "ne": 1917,
      "ÙĪØ§Ø²": 1918,
      "ØµØ¯": 1919,
      "ĠØ¨Ø³": 1920,
      "ata": 1921,
      "ational": 1922,
      "ĠØ§ÙĨØ³Ø§ÙĨÛĮ": 1923,
      "ĠØŃÙĦ": 1924,
      "Ø§Ø¬ÛĮ": 1925,
      "ures": 1926,
      "Ø§ÙĨØ¯": 1927,
      "Ġ14": 1928,
      "ÛĮÚ©ÙĦ": 1929,
      "Ġreg": 1930,
      "ĠÙĪØ²": 1931,
      "ĠØ¨ÚĳØ§": 1932,
      "ĠØ¨ÙĦÙĪÚĨ": 1933,
      "aw": 1934,
      "ĠÚ©Ø§ÙĦ": 1935,
      "ĠØ®Ø§Øµ": 1936,
      "Ø§ÛģÛĮ": 1937,
      "ĠØ³Ø§Ø¨ÙĤ": 1938,
      "ĠØŃÙĤÛĮ": 1939,
      "ĠÙĨÙħØ§Ø²": 1940,
      "ook": 1941,
      "Ø¬ÛĴ": 1942,
      "ĠØ¹ÙĪØ±Øª": 1943,
      "ĠÙħØ±Ú©": 1944,
      "Ø¬Ø¯": 1945,
      "Ġoff": 1946,
      "Ġspec": 1947,
      "Ġthrough": 1948,
      "irst": 1949,
      "ĠÙħÙĦØ§ÙĤØ§Øª": 1950,
      "ple": 1951,
      "ÚĨÚ¾Ø§": 1952,
      "ĠØ³ÛĮØ§Ø³Øª": 1953,
      "ĠØ³ÙĨÚ¯": 1954,
      "Ø³ÛĴ": 1955,
      "ĠÙħØ°Ûģ": 1956,
      "ĠØ§ØŃØª": 1957,
      "Ø§Ø¦Ø´": 1958,
      "ĠØ¯ÙĪØ³Ø±ÛĮ": 1959,
      "Ġchild": 1960,
      "Ġ2017": 1961,
      "ĠØ¢Ø¦": 1962,
      "ØµÛĮÙĦ": 1963,
      "ĠÙħØ³ÙĦÙħØ§ÙĨÙĪÚº": 1964,
      "uc": 1965,
      "ĠÙĦØ§Ø¦ÙĨ": 1966,
      "ÚĨÚ¾ÛĴ": 1967,
      "ĠÛģÙĪÙĨØ§": 1968,
      "Ø±ÛĮØ´ÙĨ": 1969,
      "ark": 1970,
      "Ġdiffe": 1971,
      "ract": 1972,
      "ten": 1973,
      "ĠÛģÙĦØ§Ú©": 1974,
      "chn": 1975,
      "Ø´ÙĦ": 1976,
      "ĠØ§ÙĦØ²": 1977,
      "ĠØ¨ÛĮÙ¹Ú¾": 1978,
      "Ġrep": 1979,
      "Ø±ÙĪÙģ": 1980,
      "ĠÚ©Ú¾ÛĮÙĦ": 1981,
      "ĠÙĤÛĮ": 1982,
      "ĠØ¨Ø®": 1983,
      "ĠØ¯ÙĪØ³Øª": 1984,
      "erg": 1985,
      "Ø¶Ûģ": 1986,
      "//": 1987,
      "its": 1988,
      "arch": 1989,
      "ĠØ²Ø¨Ø§ÙĨ": 1990,
      "eth": 1991,
      "ÙĤÛĮÙĤ": 1992,
      "Ġsupp": 1993,
      "ĠØ§ÙĤØ¯": 1994,
      "ool": 1995,
      "als": 1996,
      "Ø¯ÛĮØ«": 1997,
      "Ù¾ÙĪØ±": 1998,
      "Ø¯Ø§ÙĨ": 1999,
      "ĠÙħØ³Ø¦": 2000,
      "hed": 2001,
      "Ġgr": 2002,
      "ĠÙĨÙģ": 2003,
      "ĠØ¨Ø§Ø¹": 2004,
      "Ġ.": 2005,
      "ĠØŃØ¯": 2006,
      "ÙĨØ¯Ûģ": 2007,
      "oth": 2008,
      "Ġwhat": 2009,
      "Ġac": 2010,
      "ĠÙħØªØŃ": 2011,
      "ĠØªÙħÛģ": 2012,
      "ĠØ§ÚĨ": 2013,
      "ĠÚ¯ÙĦ": 2014,
      "ĠÚ©ÙĪØ±": 2015,
      "²Û": 2016,
      "ĠÚ©ÛģØªÛĴ": 2017,
      "ĠØ¨ÛģØªØ±": 2018,
      "Ú©Ø§ÙĨ": 2019,
      "ĠÙħØ±Ø¯": 2020,
      "ower": 2021,
      "tain": 2022,
      "ef": 2023,
      "ÙĢ": 2024,
      "ĠÙĤØ¯Ø±": 2025,
      "oss": 2026,
      "ØµÙģ": 2027,
      "Ġ[": 2028,
      "ĠÙħØ±Øª": 2029,
      "ĠØ§Ø¶Ø§ÙģÛģ": 2030,
      "ÙĪØ¬ÙĪØ¯": 2031,
      "Ø§Ø³Ú©": 2032,
      "Ġass": 2033,
      "://": 2034,
      "·º": 2035,
      "ĠØ±ÛĮØ§Ø³Øª": 2036,
      "ible": 2037,
      "ĠØ§ÙĨÚ¯": 2038,
      "Ø¯Ø±ÛĮ": 2039,
      "ĠÙ¾ÛĮØ±": 2040,
      "Ø¹ÙĤ": 2041,
      "ÙĨØ¯Ø±": 2042,
      "Ġimport": 2043,
      "12": 2044,
      "Ġwell": 2045,
      "Ġ13": 2046,
      "Ø§Ú¯Ø±": 2047,
      "Ġinv": 2048,
      "ĠØ°ÙħÛģ": 2049,
      "âĨ": 2050,
      "ĠÚ¯Ø±ÙĪ": 2051,
      "ĠØ¢ÛĮØ§": 2052,
      "Ġnew": 2053,
      "ĠÙħÙĤØ§Ø¨": 2054,
      "ĠÙħØ¹ÛĮ": 2055,
      "Ġexp": 2056,
      "Ġ#": 2057,
      "ĠØªØŃØª": 2058,
      "ĠØ¹Ø²": 2059,
      "ĠÚ¯Ø±ÙģØªØ§Ø±": 2060,
      "ĠÙħØ³Ø§Ø¦ÙĦ": 2061,
      "ĠØ§ÛĮÙģ": 2062,
      "ĠØµØŃØª": 2063,
      "ĠØ§ÙĨÚ¾": 2064,
      "Ġmany": 2065,
      "ĠÙĨÙĪØ¬": 2066,
      "ĠÙħØ´Ú©ÙĦ": 2067,
      "ĠÚĨÛĮÙģ": 2068,
      "Ø§ÙĨÛģÙĪÚº": 2069,
      "ath": 2070,
      "Ġinf": 2071,
      "Ø´ÙĨÙĦ": 2072,
      "ĠØ¨Ø§Ø¹Ø«": 2073,
      "ĠØ±Ú©": 2074,
      "ĠUn": 2075,
      "ĠØ¨ØºÛĮØ±": 2076,
      "000": 2077,
      "old": 2078,
      "ÚĪÛĮÙĪ": 2079,
      "ĠØ¢ÙĨÛĴ": 2080,
      "ĠÙħØ´Øª": 2081,
      "ĠØ§ÙĦØ³": 2082,
      "ÙħØŃ": 2083,
      "Ú¯Ø§": 2084,
      "Ġke": 2085,
      "Ø§ÙģÛĮ": 2086,
      "ĠÙĨØ¦ÛĴ": 2087,
      "ange": 2088,
      "ĠÚ©Ø±Ø¯ÛĮ": 2089,
      "ĠÙģØ±Ø§ÛģÙħ": 2090,
      "ĠØ¬Ø§Ø±Ûģ": 2091,
      "ting": 2092,
      "ĠÛĮØ¹ÙĨÛĮ": 2093,
      "ased": 2094,
      "Ø§ÙħÛģ": 2095,
      "ĠØ§ÙĨØ¬": 2096,
      "Ú¯Ø±Ø§Ùħ": 2097,
      "Ġshould": 2098,
      "Ø§ÛĮÛģ": 2099,
      "Ġonly": 2100,
      "Ġwater": 2101,
      "ĠÙĨØ§Ú©": 2102,
      "Ġmake": 2103,
      "ĠØ²ÙħÛĮÙĨ": 2104,
      "ĠØ«Ø§Ø¨Øª": 2105,
      "Ø¹ÛĮ": 2106,
      "ĠÙĨØ¦ÛĮ": 2107,
      "Ø§ÙĤØª": 2108,
      "ĠØºÙĦØ·": 2109,
      "Ð¸": 2110,
      "ential": 2111,
      "ĠÛģÙĪÚ¯ÛĮ": 2112,
      "ĠØ¹Ûģ": 2113,
      "ĠÙ¾Ø§ÙĦ": 2114,
      "Ġdec": 2115,
      "own": 2116,
      "Ġ16": 2117,
      "ĠØ¨Ø¹": 2118,
      "ĠØ¨ÙĨÛĮØ§Ø¯": 2119,
      "ĠØ³Ø·": 2120,
      "ram": 2121,
      "ĠÙĪØ§Ù¾Ø³": 2122,
      "ĠÛĮÙĪÙĨ": 2123,
      "Ġtw": 2124,
      "ife": 2125,
      "cy": 2126,
      "Ġ'": 2127,
      "ÙĪØ²ÛĮØ±": 2128,
      "ĠØ¨Ø±Ø³": 2129,
      "ĠØªÙĦ": 2130,
      "Ø±Ú©Øª": 2131,
      "ĠØ¹ÙĨ": 2132,
      "ĠÙ¾Ø§ÙĨÚĨ": 2133,
      "ĠØ¬ÙĦØ¯": 2134,
      "ĠØ±Ø§Øª": 2135,
      "aking": 2136,
      "Ġtrans": 2137,
      "ĠØ¨Ú¾Ø§Ø¦ÛĮ": 2138,
      "ĠØ§Ø³Ú©": 2139,
      "ĠØªØŃÙĤÛĮÙĤ": 2140,
      "ĠHe": 2141,
      "Ø«Ø±": 2142,
      "Ġexper": 2143,
      "hat": 2144,
      "Ġno": 2145,
      "ĠØ±Ø§Ûģ": 2146,
      "ĠØ§ÛĮØ±Ø§ÙĨ": 2147,
      "ÙĤØ±": 2148,
      "ĠØ±Ú©Ú¾Ø§": 2149,
      "ĠØ¨ÙĦØ§": 2150,
      "ĠØ¯ÛĮÚ©Ú¾Ø§": 2151,
      "Ù¹ÛĴ": 2152,
      "ĠØ³Ø¹ÙĪØ¯ÛĮ": 2153,
      "ĠÛĮÙĤÛĮÙĨ": 2154,
      "ØªÚ¾": 2155,
      "ĠØ§ÙħÙĨ": 2156,
      "ÙĨØ§Ûģ": 2157,
      "ĠÙ¾ÛģÙĦÛĮ": 2158,
      "Ġhigh": 2159,
      "ĠÙħØ³ÙĦÙħØ§ÙĨ": 2160,
      "11": 2161,
      "ĠØ§ÙħÛĮØ¯": 2162,
      "Ġrem": 2163,
      "ÙħØ±": 2164,
      "iss": 2165,
      "ĠØ§ÙĨØ¯Ø§Ø²": 2166,
      "ĠÙħØº": 2167,
      "Úĺ": 2168,
      "ĠØ²Ø®": 2169,
      "Ø®ÙĪØ§Ø³Øª": 2170,
      "ĠØ±ÙĨÚ¯": 2171,
      "mer": 2172,
      "Ġlear": 2173,
      "Ø¬Ø¨": 2174,
      "ĠØ®Ø¯": 2175,
      "Ø²Ø§Ø¯ÛĮ": 2176,
      "ÛĶÛĶÛĶÛĶ": 2177,
      "ÙĪÙģ": 2178,
      "ĠØªØ§Ú©Ûģ": 2179,
      "ĠÚ©Ø±Ø±Ûģ": 2180,
      "Ø°Ø§": 2181,
      "Ġ17": 2182,
      "ĠØ¨ÚĨÛĴ": 2183,
      "ĠÙħØ·Ø§ÙĦ": 2184,
      "ÛĮØ³Ù¹": 2185,
      "ĠØ®Ø§Ø±": 2186,
      "ĠØªÛĴ": 2187,
      "ĠÚ©ÙħÛĮÙ¹ÛĮ": 2188,
      "ĠAs": 2189,
      "ĠØ§ÙĤØª": 2190,
      "ÙĪØ¨ÛĮ": 2191,
      "Ú©Ø´": 2192,
      "Ġget": 2193,
      "Ø§Ø±ÚĪ": 2194,
      "ÙĪØ±Ù¹ÛĮ": 2195,
      "erm": 2196,
      "Ġsur": 2197,
      "ÛĮØ¯Ûģ": 2198,
      "ĠØ¹ÙĦØ§ÙĤÛĴ": 2199,
      "gan": 2200,
      "ĠØªØ§ÛģÙħ": 2201,
      "ĠÙĨØªÛĮ": 2202,
      "Ġwould": 2203,
      "ĠÙĨÚ©ÙĦ": 2204,
      "ĠØ³Ø·ØŃ": 2205,
      "ĠÙĦÛģ": 2206,
      "Ġsm": 2207,
      "ĠNews": 2208,
      "Ø§Ø¦ÙĨÙ¹": 2209,
      "ĠØ§Ø¨Ú¾ÛĮ": 2210,
      "rib": 2211,
      "ience": 2212,
      "Ġpo": 2213,
      "Ġart": 2214,
      "ĠÚ©Ø§Ø±Ø±ÙĪ": 2215,
      "ĠÙĨÙħØ¨Ø±": 2216,
      "ĠÙħÙĪÙĦØ§ÙĨØ§": 2217,
      "Ġatt": 2218,
      "Ġsign": 2219,
      "Ġfl": 2220,
      "ĠÙĤØ±ÛĮØ¨": 2221,
      "fter": 2222,
      "ble": 2223,
      "Ú¯Ø§Ø±": 2224,
      "ĠÙĤØ±Ø¢ÙĨ": 2225,
      "Ø³Ø§ÙĨ": 2226,
      "Ġ2016": 2227,
      "ĠÂ": 2228,
      "ĠØ·ÙĦØ¨": 2229,
      "Ġpers": 2230,
      "ĠØŁ": 2231,
      "Ø§ÙĨÛĮÛģ": 2232,
      "ÙĪØ´": 2233,
      "ug": 2234,
      "Ġhad": 2235,
      "ĠÙħÛĮÙĨ": 2236,
      "ĠÙħÛģÙħ": 2237,
      "ĠØ¬Ø±Ùħ": 2238,
      "ĠØ¯Ø¨": 2239,
      "ural": 2240,
      "ĠØ²Ùħ": 2241,
      "Ġvar": 2242,
      "hes": 2243,
      "ft": 2244,
      "ĠÙħØ§": 2245,
      "Ġtyp": 2246,
      "ĠÚ©ÛģÛĮÚº": 2247,
      "ĠØŃØ§ÙĦØ§Øª": 2248,
      "Ġtechn": 2249,
      "ĠÙ¾Ø±ÛĮ": 2250,
      "ÙĨØ²": 2251,
      "ĠØ±ÙĤ": 2252,
      "Ġeffect": 2253,
      "ĠØ¨ÙĨØ§ÛĮØ§": 2254,
      "ĠØ§ÙĨØªØ®Ø§Ø¨Ø§Øª": 2255,
      "Ġ25": 2256,
      "ĠÙ¾Ø§Ø¨": 2257,
      "Ġfirst": 2258,
      "ize": 2259,
      "Ġ...": 2260,
      "ever": 2261,
      "Ġmed": 2262,
      "ï»": 2263,
      "ĠØ¨Ø§Ø²": 2264,
      "ĠÙĤØ§Ø¨ÙĦ": 2265,
      "ĠØ¯Ú¾Ùħ": 2266,
      "Ø±Ø§Ø¦ÛĮ": 2267,
      "Ġco": 2268,
      "ĠØ±ÙĪÚ©": 2269,
      "Ø§Ø¶ÛĮ": 2270,
      "ĠÙħØ¨": 2271,
      "ĠØ³Ø±Ø¨Ø±": 2272,
      "Ø±ÛĮØ±": 2273,
      "ĠÙħØªØ§Ø«": 2274,
      "),": 2275,
      "ween": 2276,
      "ĠÙħØ§ÙĨ": 2277,
      "ĠØ³Ú©ØªÛĮ": 2278,
      "ÙĪØµ": 2279,
      "Ġob": 2280,
      "ĠØ§ÙĪÙĦ": 2281,
      "ĠÛĮÙĪÙĨÛĮ": 2282,
      "ĠÙħØŃØ¨Øª": 2283,
      "ĠÚ©ÙĪÙĨ": 2284,
      "ØŃØ§ÙĦ": 2285,
      "ĠÙĤÛĮØ§Ùħ": 2286,
      "ĠÚ©ÙħÙ¾ÙĨÛĮ": 2287,
      "ĠAl": 2288,
      "ĠØ§Ø®Øª": 2289,
      "Ġprocess": 2290,
      "Ø±ÛĮÛģ": 2291,
      "ĠØ¯Ø±Ø®ÙĪØ§Ø³Øª": 2292,
      "ĠØ¨Ø§ÙĪØ¬ÙĪØ¯": 2293,
      "ÙħØ³": 2294,
      "Û±Û": 2295,
      "ick": 2296,
      "ont": 2297,
      "Ġdifferent": 2298,
      "ĠØ¡": 2299,
      "ants": 2300,
      "Ø±ÙħÛĮÙĨ": 2301,
      "Ø§Ù¹": 2302,
      "Ġinst": 2303,
      "ĠÙģÛĮØµØ¯": 2304,
      "ØµØ±": 2305,
      "ĠØ¨Ø¹Ø¶": 2306,
      "Ø¨ÛĴ": 2307,
      "ÛĮØ³ÛĴ": 2308,
      "ÛĮØ³Ø±": 2309,
      "rdu": 2310,
      "ices": 2311,
      "ÙĦÙĪÚº": 2312,
      "Ø¯Ú¾": 2313,
      "ink": 2314,
      "ÙģØ±ÙĨØ³": 2315,
      "ade": 2316,
      "ives": 2317,
      "ĠÚĨØ§ÛģØªÛĴ": 2318,
      "Ġdi": 2319,
      "ĠØ®ÙĪØ§Ûģ": 2320,
      "ĠÛģØ¯Ø§": 2321,
      "ÙĪØ±Ø³Ù¹ÛĮ": 2322,
      "rop": 2323,
      "Ġinter": 2324,
      "ØºØ§Ø²": 2325,
      "ÙĪÛģØ¯Ø±ÛĮ": 2326,
      "oy": 2327,
      "ily": 2328,
      "Ġwhere": 2329,
      "Ġbu": 2330,
      "ÛĮÚ©ÛĮ": 2331,
      "Ù¹ÙĨ": 2332,
      "ĠØ¬ÙħÛģ": 2333,
      "ĠÙĪØ§Ø¶ØŃ": 2334,
      "Ġdata": 2335,
      "ĠØ§ÛĮÙĦ": 2336,
      "ØµØ§ÙĨ": 2337,
      "Ġbetween": 2338,
      "ww": 2339,
      "ĠEn": 2340,
      "ĠÚ¯Ø±Ø¯ÛĮ": 2341,
      "ĠØ®ÙĪØ¨": 2342,
      "Ú¯Ø²": 2343,
      "ĠØ¨ÙĪÙĦ": 2344,
      "ĠØ¦": 2345,
      "Ġimportant": 2346,
      "ĠØªØ¹ÙħÛĮØ±": 2347,
      "ĠØ¬ÛĴ": 2348,
      "ology": 2349,
      "ĠØ§Ø±Ø¨": 2350,
      "iron": 2351,
      "stand": 2352,
      "ĠÙĨØ¹": 2353,
      "ĠØªÛĮØ²": 2354,
      "Ø¨ØŃ": 2355,
      "ĠÙĨÛĮÙĪØ²": 2356,
      "ĠÙħØŃÙģ": 2357,
      "ĠØ§Ø¯Ø§Ø±ÙĪÚº": 2358,
      "ĠØ¯Ø§Ø±ÛĮ": 2359,
      "ĠÙĪØ§Ø¦Ø±": 2360,
      "ÙĦØ§Ø¹": 2361,
      "fore": 2362,
      "Ø±ÛĮØ¯": 2363,
      "ÛĮÙĨÚĪ": 2364,
      "ĠØ´Ø§Ø¯ÛĮ": 2365,
      "ÚĨÛĴ": 2366,
      "ution": 2367,
      "get": 2368,
      "Ġfun": 2369,
      "Ġmod": 2370,
      "ĠÙĪØ§Ø±": 2371,
      "Ġsk": 2372,
      "ĠØ´Ø¯ÛĮØ¯": 2373,
      "ĠØŃØ¯ÛĮØ«": 2374,
      "ĠØ§ÙĦÛĮÚ©Ø´ÙĨ": 2375,
      "Ú©ÛĮÙĦ": 2376,
      "ĠØ³Ø§Øª": 2377,
      "ÙħØ§": 2378,
      "ĠØŃÙĤÙĪÙĤ": 2379,
      "ĠÙħÙĦÚ©ÛĮ": 2380,
      "vent": 2381,
      "Ø§Ø¬Ûģ": 2382,
      "ÙĪÙĦØª": 2383,
      "ÚĨØ±": 2384,
      "ĠÚ¯Ø²Ø´ØªÛģ": 2385,
      "ÙĦØ§Øª": 2386,
      "arm": 2387,
      "ĠØ¹ÙĦØ§ÙĤÙĪÚº": 2388,
      "Ø£": 2389,
      "ĠÚ©ÛĮØ³ÛĴ": 2390,
      "ĠÚ©Ø§Ø±Ø±ÙĪØ§Ø¦ÛĮ": 2391,
      "ÙħÛĮØ´Ûģ": 2392,
      "ĠØ¨Ø§Ø¨": 2393,
      "Ġtwo": 2394,
      "ĠØ´Ú©Ø§Ø±": 2395,
      "Ġrequ": 2396,
      "eng": 2397,
      "ĠÙ¾ÛĮØº": 2398,
      "ÛĮØŃ": 2399,
      "ĠØ¬Ø§Ø¦Ø²": 2400,
      "Ġ30": 2401,
      "Ġcar": 2402,
      "ĠØ²Ø®ÙħÛĮ": 2403,
      "ĠØµØ¯": 2404,
      "ines": 2405,
      "Ġsub": 2406,
      "ness": 2407,
      "Ġinform": 2408,
      "ĠÙĨÙĤØµØ§ÙĨ": 2409,
      "ĠØ³Ø§": 2410,
      "ĠÙĨÚ©Ø§ÙĦ": 2411,
      "Ù¾ÙĦØ²": 2412,
      "Ġ=": 2413,
      "ÙģÛģ": 2414,
      "ĠÐ": 2415,
      "Ø±ÛĮØ²": 2416,
      "ĠØ§Ø¯Ø§Ø±ÛĴ": 2417,
      "ĠÙ¾Ø±ÙĪÚ¯Ø±Ø§Ùħ": 2418,
      "Ġworld": 2419,
      "ÛģÛĮ": 2420,
      "Ġpres": 2421,
      "Ġincre": 2422,
      "ĠÙħØ®Ø§ÙĦ": 2423,
      "Ø²ÛĮØ´ÙĨ": 2424,
      "ĠÚĪÚ¾": 2425,
      "ĠØ±Ø§Ø³Øª": 2426,
      "ĠÛĮÙĪÙĨÛĮÙĪØ±Ø³Ù¹ÛĮ": 2427,
      "Ġrese": 2428,
      "Ġyears": 2429,
      "wn": 2430,
      "Ġway": 2431,
      "Ġstr": 2432,
      "istan": 2433,
      "ins": 2434,
      "ĠÚ©Ø§ÙħÛĮØ§Ø¨": 2435,
      "ĠÙĩ": 2436,
      "ĠØ®Ø·Ø§Ø¨": 2437,
      "ĠÙĪÚĨ": 2438,
      "Ġexam": 2439,
      "ĠØ¬Ø³Ù¹Ø³": 2440,
      "Ġmain": 2441,
      "ĠÙģÙĪØ¬ÛĮ": 2442,
      "ĠÙħØ³Ø¦ÙĦÛģ": 2443,
      "Ø§Ø¯Ø±": 2444,
      "Ø´Ø§Ûģ": 2445,
      "18": 2446,
      "ues": 2447,
      "ĠØ®ØµÙĪØµÛĮ": 2448,
      "ĠRe": 2449,
      "ĠØªÙĨØ¸ÛĮÙħ": 2450,
      "Ġdet": 2451,
      "tt": 2452,
      "ĠÛģÙħÛĮØ´Ûģ": 2453,
      "ĠØ³Ø±Ú©Ø§Ø±ÛĮ": 2454,
      "ĠØ´ÛĮØ®": 2455,
      "ÙĪØ±ÙĨ": 2456,
      "ĠØ³Ú©ÛĴ": 2457,
      "ÙģØªÛģ": 2458,
      "Ø³ØªÛĮ": 2459,
      "ĠUrdu": 2460,
      "ÙħÛĮØ±ÛĮ": 2461,
      "ied": 2462,
      "ĠÙħÛĮØ±Ø§": 2463,
      "ĠÛģÙĨØ¯ÙĪØ³ØªØ§ÙĨ": 2464,
      "ÙĪØ¸": 2465,
      "ĠÙ¾ÙĪØ§Ø¦ÙĨÙ¹": 2466,
      "ĠÙħØ§Ø±ÚĨ": 2467,
      "ĠØ¨Ø±Ø·": 2468,
      "ĠØ¯ÛĮØªØ§": 2469,
      "Ġpol": 2470,
      "elf": 2471,
      "ature": 2472,
      "ĠÚĨØ§ÛģØ¦ÛĴ": 2473,
      "ÚĳÚ©": 2474,
      "Ġresp": 2475,
      "Ø²Ø§": 2476,
      "ĠÙģÙĪÙĨ": 2477,
      "ĠÚ©Ø§ÙģÛĮ": 2478,
      "ĠØ°Ú©Ø±": 2479,
      "15": 2480,
      "Ġcommun": 2481,
      "Ġcould": 2482,
      "ĠÙĦØ§": 2483,
      "ĠØ§ÙĨØªØ¸Ø§Ùħ": 2484,
      "ĠØ§ÙĨØªÛģØ§Ø¦ÛĮ": 2485,
      "ds": 2486,
      "ĠÙħØ³Ø¬Ø¯": 2487,
      "Ú©ÛĮÙ¹": 2488,
      "ĠCom": 2489,
      "ĠÛĮÙĪ": 2490,
      "ØĽ": 2491,
      "ĠÙĦÛĮÙĨÛĴ": 2492,
      "Ġsoc": 2493,
      "ĠØ¨Ø¬Ø§Ø¦ÛĴ": 2494,
      "ollow": 2495,
      "ĠØŃÙħÙĦÛģ": 2496,
      "ĠÙĦÛĮÚº": 2497,
      "ĠØµØ¯ÛĮ": 2498,
      "ĠØ±Ú©Ú¾ØªÛĴ": 2499,
      "az": 2500,
      "uch": 2501,
      "ĠØ§ÙĨÙ¹Ø±": 2502,
      "ĠØ¯Ø´Ùħ": 2503,
      "ĠØ°Ûģ": 2504,
      "ĠØŃØ³ÙĨ": 2505,
      "ĠØ¹Ø§ÙĦÙħ": 2506,
      "ĠØ´ÙĪ": 2507,
      "Ø¨Ø§Ø²": 2508,
      "ĠÛĮÙĪØ±": 2509,
      "Ġ2020": 2510,
      "Ø±Ø¨ÛĮ": 2511,
      "ÙĤÛĮØ¯": 2512,
      "Ø¯ÙĪ": 2513,
      "cer": 2514,
      "ĠØªØ³": 2515,
      "\\\"": 2516,
      "ident": 2517,
      "ption": 2518,
      "ÛĮØ§Ø¯Øª": 2519,
      "ĠÙħØªØŃØ¯Ûģ": 2520,
      "ĠØ³Ø®Øª": 2521,
      "ÙĪÛĮÚº": 2522,
      "ÙĦØ¹": 2523,
      "Ġeven": 2524,
      "ĠÛ±Û": 2525,
      "Ġbr": 2526,
      "viron": 2527,
      "Ġ,": 2528,
      "Ø§Ø¯Ûģ": 2529,
      "Ġlead": 2530,
      "ĠØ§ÙĦØ¹": 2531,
      "ÙĪØ±ÚĪ": 2532,
      "ĠØ·Ø§ÙĤØª": 2533,
      "ÛĮÚ©Ø±": 2534,
      "ĠÙħÙĤØµØ¯": 2535,
      "ĠØ³ÙģØ±": 2536,
      "ĠÚĪØ§ÙĦØ±": 2537,
      "Ġlong": 2538,
      "ĠÚ©Ø±Ø³Ú©": 2539,
      "Ġsim": 2540,
      "Ġed": 2541,
      "Ø§Ø²Øª": 2542,
      "Ġav": 2543,
      "Ø§Ø¹ÙĦÛĮ": 2544,
      "Ø®Ø±": 2545,
      "ĠØ¸Ø§ÛģØ±": 2546,
      "ĠØ§ÙĨÚĪ": 2547,
      "Ú©Øª": 2548,
      "Ø§ÙĨØ³": 2549,
      "ÙĤÛĴ": 2550,
      "ĠÚ©Ø±Ú©Ù¹": 2551,
      "Ø±ÛĮØª": 2552,
      "ts": 2553,
      "Ø§Ø¯Ø±ÛĮ": 2554,
      "ĠÙĪÙĤ": 2555,
      "ÛĶâĢĺâĢĺ": 2556,
      "Ġhum": 2557,
      "ØºÛĮØ±Ûģ": 2558,
      "ĠÙħÛĮÚĨ": 2559,
      "ĠÚĨÚ©ÛĴ": 2560,
      "ĠÙĨØ¨ÛĮ": 2561,
      "ically": 2562,
      "Ġdisc": 2563,
      "Ġjust": 2564,
      "Ġform": 2565,
      "ĠØŃØ±": 2566,
      "ĠØ§ÙģØºØ§ÙĨØ³ØªØ§ÙĨ": 2567,
      "ĠÙĤÛĮÙħØª": 2568,
      "Ø§Ú©Ø±": 2569,
      "ĠÚ©Ø±ÙĪÚĳ": 2570,
      "30": 2571,
      "Ù¹Ú©": 2572,
      "ĠØªÛģ": 2573,
      "Ø¢Ù¾": 2574,
      "ĠÚ©ÛģÛģ": 2575,
      "ĠØ·Ø¨": 2576,
      "ĠÙħÙĬÚº": 2577,
      "Ø¦Ø±ÙħÛĮÙĨ": 2578,
      "ÙħØ¹": 2579,
      "ĠØ§ÙĦØ³ÙĦØ§Ùħ": 2580,
      "ivid": 2581,
      "Ø§Ø±Ú©": 2582,
      "ĠØŃÛĮ": 2583,
      "Ġcre": 2584,
      "Ġpat": 2585,
      "ĠØ§Ø¬Ø§Ø²Øª": 2586,
      "ody": 2587,
      "ĠØŃÙĤÛĮÙĤØª": 2588,
      "ĠØ²Ø§Ø¦Ø¯": 2589,
      "Ġsee": 2590,
      "aj": 2591,
      "ĠØ¬Ø³Ùħ": 2592,
      "ĠÙħÙħÚ©ÙĨ": 2593,
      "ĠÚ¯ÙģØª": 2594,
      "ited": 2595,
      "Ġfood": 2596,
      "Ġevery": 2597,
      "chool": 2598,
      "ĠÙħÙĦØ§Ø²": 2599,
      "ĠÙ¾Ø§Ø±ÙĦÛĮÙħ": 2600,
      "Ġgener": 2601,
      "Ú¾Ø§": 2602,
      "ĠØ±Ø§Ø¨Ø·": 2603,
      "Ú¯ÛĴ": 2604,
      "ĠÚ©ÙĪÙĨØ³": 2605,
      "ality": 2606,
      "ĠÙħÙĪØª": 2607,
      "14": 2608,
      "ized": 2609,
      "ĠØ§ØŃØªØ¬": 2610,
      "ĠThey": 2611,
      "ases": 2612,
      "Ġsec": 2613,
      "Ġins": 2614,
      "Ø§ÙģØª": 2615,
      "ĠØ§ØµÙĦ": 2616,
      "ĠØ¯Ø±Ø¬": 2617,
      "Ġear": 2618,
      "ruct": 2619,
      "ĠØ¯Ø§": 2620,
      "ĠØ§Ø¨ÙĨ": 2621,
      "ĠÙħÙĤØ§Ùħ": 2622,
      "ĠØ¹ÛĮØ¯": 2623,
      "line": 2624,
      "ĠÙĤÛĮØ§Ø¯Øª": 2625,
      "Ġprog": 2626,
      "ĠÙħØµÙĨ": 2627,
      "ĠØ§ÙĤØ¯Ø§ÙħØ§Øª": 2628,
      "ÙĨÙĪÚº": 2629,
      "ÛĮÙĨÛĴ": 2630,
      "ÙĪÛĴ": 2631,
      "Th": 2632,
      "ĠØªØ±Ø¬": 2633,
      "ĠØ¨ÛģØªØ±ÛĮÙĨ": 2634,
      "ĠWe": 2635,
      "ÙĦØª": 2636,
      "ands": 2637,
      "ĠÙħØ±ÛĮ": 2638,
      "ØŃØ¶": 2639,
      "ĠØ±Ø¶ÛĮ": 2640,
      "Ø§ÙĦÛģ": 2641,
      "ĠØ³Ø±Ùħ": 2642,
      "ĠÙĪØºÛĮØ±Ûģ": 2643,
      "Ġgrow": 2644,
      "ages": 2645,
      "Ġï¿½ï¿½ï¿½ï¿½": 2646,
      "ĠÙĦÚ¯ÛĴ": 2647,
      "Ġloc": 2648,
      "ĠØ¯ÛĮÙĨØ§": 2649,
      "Ġher": 2650,
      "Ġ24": 2651,
      "ism": 2652,
      "Ø¯ÙħÛĮ": 2653,
      "ĠØ¹ÙĦØ§Ùħ": 2654,
      "Ø±ÙĪØ³": 2655,
      "Ø¯ÛĮÙĦ": 2656,
      "ÙĨÚĪÛĮ": 2657,
      "Ġfact": 2658,
      "Ġnum": 2659,
      "13": 2660,
      "ĠØ¨ÙĦÙĪÚĨØ³ØªØ§ÙĨ": 2661,
      "Ø²Ø¯": 2662,
      "ually": 2663,
      "ĠÛģÙĪÚ¯ÛĮØ§": 2664,
      "ict": 2665,
      "ĠØ¨Ø§Ø¯": 2666,
      "ien": 2667,
      "ĠØŃÙħÙĦÛĴ": 2668,
      "Ġche": 2669,
      "led": 2670,
      "ĠÚ©Ú¾ÙĦØ§": 2671,
      "iqu": 2672,
      "Ġext": 2673,
      "50": 2674,
      "Ø§ÙħØ±ÛĮ": 2675,
      "Ø§ÙĤÙĪØ§Ùħ": 2676,
      "ĠØ³Ø±Ø¨Ø±Ø§Ûģ": 2677,
      "Ġ2015": 2678,
      "urn": 2679,
      "ÚĨÛģ": 2680,
      "ĠØ¬Ø³ÛĴ": 2681,
      "Ø§ÛĮØ¯": 2682,
      "ĠFor": 2683,
      "Ġlife": 2684,
      "Ġperson": 2685,
      "Ġredu": 2686,
      "ĠØ§Ø³Ù¹ÛĮ": 2687,
      "dition": 2688,
      "ale": 2689,
      "ection": 2690,
      "ĠØ¬ÙĪÙĨ": 2691,
      "ĠØŃØ¬": 2692,
      "Ø¬Ø³": 2693,
      "ists": 2694,
      "ØµÙĪÛĮØ±": 2695,
      "ĠØ´Ø±Ú©Øª": 2696,
      "Ø±Ø³": 2697,
      "ros": 2698,
      "Ġbecause": 2699,
      "ĠØ¨ÛĮØ±": 2700,
      "Ø³ÙĪØ³": 2701,
      "ĠØ³ÙĦØ§Ùħ": 2702,
      "ĠÙĤØ¨ÙĪÙĦ": 2703,
      "other": 2704,
      "Ġsol": 2705,
      "Ø«ÛĮØª": 2706,
      "ĠØ¯Ùħ": 2707,
      "Ġresult": 2708,
      "ĠÙĪØ§Ø¦Ø±Ø³": 2709,
      "Ú©ÛĮØ§": 2710,
      "Ġdep": 2711,
      "ĠØ®Ø§Ø±Ø¬Ûģ": 2712,
      "ĠØ´Ø¯Ûģ": 2713,
      "ĠÚ¯ÙģØªÚ¯ÙĪ": 2714,
      "ck": 2715,
      "ĠÙģØ§Ø¦": 2716,
      "ĠØ§Ø³Ø±Ø§Ø¦ÛĮ": 2717,
      "ĠØ§ÙĤØ¨Ø§ÙĦ": 2718,
      "ĠÚĨÙĪÛģØ¯Ø±ÛĮ": 2719,
      "Ù¹ÙĦ": 2720,
      "Ø¶ÛĮ": 2721,
      "Ø§ÙĦÙĦÛģ": 2722,
      "16": 2723,
      "ĠÙħÙĨÛģ": 2724,
      "--": 2725,
      "ÙĪÛĮÙĦ": 2726,
      "ĠØ¬Ø§Ø³Ú©": 2727,
      "ĠÚĨÚ¾ÙĪÙ¹": 2728,
      "ĠØ¨ÛĮÙħ": 2729,
      "ĠØ¯ÙĪØ¨": 2730,
      "ĠØ³Ø§Ø²": 2731,
      "ĠØ¨Ú¾ÛĮØ¬": 2732,
      "ĠØ±Ø¨": 2733,
      "ÙħÙ¾": 2734,
      "akistan": 2735,
      "Ø¯ÙħØ§Øª": 2736,
      "Ø§Ø¯Øª": 2737,
      "ĠØªÙĦØ§Ø´": 2738,
      "ĠÙ¾ÛĮÙ¾ÙĦØ²": 2739,
      "vironment": 2740,
      "Ġmon": 2741,
      "ergy": 2742,
      "ĠÛģÙĪØ³Ú©": 2743,
      "Ø¹ÙĦÛĮ": 2744,
      "Ù¹Ø±ÙĪ": 2745,
      "Ø³ÛĮÙħ": 2746,
      "ĠÚ©Ø±ÙĦ": 2747,
      "ĠØ¢Ú¯ÛĴ": 2748,
      "ĠØ¯Ø§ÙĨ": 2749,
      "ĠÙĨØµ": 2750,
      "ÙĦÚ©": 2751,
      "ĠÚĨÚ©Ø§": 2752,
      "Ġprovid": 2753,
      "ĠPro": 2754,
      "ĠØ¨Ø¯ÙĦ": 2755,
      "ĠAr": 2756,
      "ĠØ³Ù¾Ø±ÛĮÙħ": 2757,
      "Ø§Ø¦Ø¨": 2758,
      "Ġset": 2759,
      "ĠØªØ¨Ø¯ÛĮÙĦ": 2760,
      "Ú¯Ø§Ûģ": 2761,
      "ĠØ¢Ø²Ø§Ø¯": 2762,
      "cial": 2763,
      "Ù¹Ø±ÙĪÙĦ": 2764,
      "ĠÙĪØ·": 2765,
      "ĠÚ©ÙħÛĮØ´ÙĨ": 2766,
      "ash": 2767,
      "ĠÛģÙĪÚ¯Ø¦ÛĴ": 2768,
      "ÙĨØ§Ú©": 2769,
      "ĠÙħÙĦØ§": 2770,
      "Ġthose": 2771,
      "Ġ22": 2772,
      "ĠÙħØ¹Ø§Ûģ": 2773,
      "Ġlevel": 2774,
      "Ø¯Ø¯": 2775,
      "ĠÙħÙĦÛĮ": 2776,
      "Ġprot": 2777,
      "ĠØ¨ÙĨÛĮØ§Ø¯ÛĮ": 2778,
      "ĠÙĦÚ©Ú¾Ø§": 2779,
      "ĠÛģØ¯Ø§ÛĮØª": 2780,
      "ĠÙ¾ÙĪØ±ÛĴ": 2781,
      "Ø¯ÛĮÙĦÛĮ": 2782,
      "ĠØ§ØªØŃ": 2783,
      "ĠØ¬ÙĨÛģ": 2784,
      "Ø´Ø±": 2785,
      "Ġtreat": 2786,
      "Ġvery": 2787,
      "Ġinformation": 2788,
      "ĠØ®Ø§ÙĨØ¯Ø§ÙĨ": 2789,
      "ĠSh": 2790,
      "Ġris": 2791,
      "Ġoften": 2792,
      "Ġfound": 2793,
      "17": 2794,
      "Ġcount": 2795,
      "ĠØ¢Ø¨": 2796,
      "any": 2797,
      "Ġthen": 2798,
      "Ġaut": 2799,
      "Ġafter": 2800,
      "Ġmin": 2801,
      "Ġunderstand": 2802,
      "ÙħÙĪØ¯": 2803,
      "âĢĮ": 2804,
      "ĠÚ©Ø±Ù¾": 2805,
      "Ø¯Øª": 2806,
      "ĠÚ©Ø§ÙĨÙģØ±ÙĨØ³": 2807,
      "Ġent": 2808,
      "ĠØ±ÛģÛĮÚº": 2809,
      "Ġsupport": 2810,
      "ĠÙĦÙĨ": 2811,
      "ĠÙħØŃÚ©": 2812,
      "ĠØ¬Ø°": 2813,
      "imes": 2814,
      "Ġlar": 2815,
      "ĠHow": 2816,
      "Ø§ÙĪÙĦ": 2817,
      ".âĢĿ": 2818,
      "Ġpartic": 2819,
      "ĠØ¯Ø³": 2820,
      "Ġduring": 2821,
      "ĠÙĪÛģÛĮ": 2822,
      "Ġusing": 2823,
      "Ø§ØŃØª": 2824,
      "ĠÙĤØ·": 2825,
      "ĠØªÙĪØ¬Ûģ": 2826,
      "Ø³ØªÛģ": 2827,
      "ĠÙĤØ±Ø¨": 2828,
      "ĠØ±ÙĤÙħ": 2829,
      "ĠÛĮÚ©": 2830,
      "Ġpub": 2831,
      "ĠØ§ÙĦÙģØ§Ø¸": 2832,
      "ĠØ¯ÙĪØ¨Ø§Ø±Ûģ": 2833,
      "ĠÙģÙĦØ³": 2834,
      "ĠÙĨÙĪØ¬ÙĪØ§ÙĨ": 2835,
      "hip": 2836,
      "ĠØ¨ÙĪ": 2837,
      "ĠØ¯ÙĪØ±Ûģ": 2838,
      "Ø±Ø¯Ø§Ø±ÛĮ": 2839,
      "Ø³ÙħØ¨Ø±": 2840,
      "Ġexpl": 2841,
      "ĠØ±Ø§Ø¦ÛĴ": 2842,
      "Ø´ÛĮØ¯": 2843,
      "ĠØ¯Ø±ÛĮ": 2844,
      "ĠØ±ÛģÙĨÛĴ": 2845,
      "ĠØ¬Ø§ÙĨØ§": 2846,
      "ĠØ§ÙĦØ²Ø§Ùħ": 2847,
      "ĠÙģÛĮØµÙĦÛĴ": 2848,
      "ĠØ¶Ø±ÙĪØ±": 2849,
      "ĠÙħØŃÙģÙĪØ¸": 2850,
      "ĠØ¨Ø¬ÙĦÛĮ": 2851,
      "Ø®Ø¨": 2852,
      "Ø³Ø±": 2853,
      "Ú¯ÙĦ": 2854,
      "Ġread": 2855,
      "ere": 2856,
      "ward": 2857,
      "ĠØ³ÙĦØ³ÙĦÛģ": 2858,
      "Ġbeing": 2859,
      "ĠÙĥÛĴ": 2860,
      "ĠØŃØ§ÙĦØª": 2861,
      "Ú©Úĳ": 2862,
      "Ø¢ÙħØ¯": 2863,
      "Ġeach": 2864,
      "ork": 2865,
      "ĠØ¹ÙĪØ§ÙħÛĮ": 2866,
      "ĠØ¨Ú©": 2867,
      "ĠÚ©ÙĪÙĨØ³ÙĦ": 2868,
      "ĠØ¬Ø§Ùħ": 2869,
      "Ġgood": 2870,
      "ĠÙģÙĪØ±": 2871,
      "ĠØ¹ÙĨÛģ": 2872,
      "ĠØªØ¨Ø¯ÛĮÙĦÛĮ": 2873,
      "ĠIf": 2874,
      "ĠØ®Ø§ØªÙĪÙĨ": 2875,
      "ĠØ¹ÙĦØ§Ø¬": 2876,
      "Ø±Ø§ÙĨØ³": 2877,
      "Ġwhile": 2878,
      "ĠÛģØ³Ù¾": 2879,
      "ÙĦØ³ÙĦ": 2880,
      "ĠØªÙģØµÛĮÙĦ": 2881,
      "ĠÚ©Ø§ÙħÛĮØ§Ø¨ÛĮ": 2882,
      "Ġcent": 2883,
      "Ġown": 2884,
      "ĠØ´Ø§Ø¹": 2885,
      "ÙĬÙĨ": 2886,
      "ĠÚ©Ø±Ø¯Ûģ": 2887,
      "Ø¨ÙĪØª": 2888,
      "ĠÙħÛĮÙĦ": 2889,
      "22": 2890,
      "Ġgl": 2891,
      "Ġval": 2892,
      "ØŃÚ©ÙĪÙħØª": 2893,
      "Ġdesign": 2894,
      "ividual": 2895,
      "ĠØ³Øª": 2896,
      "Ø§Ø¤ÙĨ": 2897,
      "ĠØ¨Ø±Ø§Ø¦ÛĴ": 2898,
      "ĠØ¯Ø§Ø®ÙĦ": 2899,
      "ĠÙ¹ÙĪ": 2900,
      "ĠÙĪÙģØ§ÙĤÛĮ": 2901,
      "ÙĦÛĮÙĦ": 2902,
      "Ø§ÛģÙħÛĮ": 2903,
      "ee": 2904,
      "Ġcomple": 2905,
      "Ġchildren": 2906,
      "Ġright": 2907,
      "Ġfam": 2908,
      "ĠØªØ¹ÙĦÙĤØ§Øª": 2909,
      "ĠÛģØ§Ø¦ÛĮ": 2910,
      "ĠÙħØ§Úº": 2911,
      "ved": 2912,
      "Ġpa": 2913,
      "ĠØ´ÛģÛĮØ¯": 2914,
      "ÙĨÙĪ": 2915,
      "ĠØ¹Ø·": 2916,
      "ital": 2917,
      "ĠÙģØ±ÙĪØ®Øª": 2918,
      "ĠØ±ÙĪØ´": 2919,
      "ĠÙħØ±ØªØ¨Ûģ": 2920,
      "ĠÙ¾ÙĪØ±Ø§": 2921,
      "ĠÙħÙĪØ¬ÙĪØ¯Ûģ": 2922,
      "Ġfind": 2923,
      "ĠÙĨÙĪÙ¹": 2924,
      "ĠÚĨÛĮØ¦Ø±ÙħÛĮÙĨ": 2925,
      "ĠÙħÙĤØ¯": 2926,
      "ĠØ®Ø±ÛĮØ¯": 2927,
      "ĠØµØŃÛĮØŃ": 2928,
      "ĠØ§ÛĮÙħØ§ÙĨ": 2929,
      "Ø®ÙĦØ§Ùģ": 2930,
      "ĠÚĨÚ©ÛĮ": 2931,
      "Ġstudents": 2932,
      "ĠØ¢ÙĪØ§Ø²": 2933,
      "ull": 2934,
      "ĠÙħØŃØ³ÙĪØ³": 2935,
      "âĢĶ": 2936,
      "ĠØ§ÙĦØ±ØŃ": 2937,
      "ĠØ¢Ø®Ø±ÛĮ": 2938,
      "vi": 2939,
      "Ġï·º": 2940,
      "ĠØªÙĤØ³ÛĮÙħ": 2941,
      "ĠØ¹Ø¸ÛĮÙħ": 2942,
      "ØµÛģ": 2943,
      "ĠØ±ÛĮÚ©": 2944,
      "ĠÙħØ¸Ø§Ûģ": 2945,
      "ĠØ¨Ø§ÙĤÛĮ": 2946,
      "ĠØµÙĪØ¨Ø§Ø¦ÛĮ": 2947,
      "ĠØ¨Ø²": 2948,
      "ĠØ±ÛģÙĨÙħØ§": 2949,
      "ĠØ¢ØºØ§Ø²": 2950,
      "ax": 2951,
      "Ġtake": 2952,
      "ĠØªØµÙĪÛĮØ±": 2953,
      "ock": 2954,
      "ĠØªØŃÙģØ¸": 2955,
      "ĠØ§Ø³Ù¹": 2956,
      "ĠØµÙĪØ±ØªØŃØ§ÙĦ": 2957,
      "Ġproble": 2958,
      "ĠÙ¹Ø±Ùħ": 2959,
      "ivers": 2960,
      "ĠØ¢ÙĨÚ©Ú¾": 2961,
      "Ø§Ø¨Ø±": 2962,
      "Ø§Ø´Øª": 2963,
      "ĠØ³Ù¹ÛĮ": 2964,
      "ĠÙħØ°ÛģØ¨ÛĮ": 2965,
      "Ġref": 2966,
      "ĠØ§Ø³Ù¾": 2967,
      "Ø¶ÙĪØ¹": 2968,
      "day": 2969,
      "0000": 2970,
      "Ø³ÙĪ": 2971,
      "ÙĦØ§ÛģÙĪØ±": 2972,
      "ĠÚĨÙĨ": 2973,
      "ĠØ±ÙĪØ§ÛĮØª": 2974,
      "Ġ23": 2975,
      "ĠÙħØ¨Ø§Ø±": 2976,
      "ĠÙ¾ÛĮÚĨÚ¾ÛĴ": 2977,
      "rain": 2978,
      "Ġcur": 2979,
      "Ġback": 2980,
      "ØŃØ¶Ø±Øª": 2981,
      "ĠInd": 2982,
      "Ġserv": 2983,
      "Ø±Ø§Ø¦Ø¹": 2984,
      "con": 2985,
      "ØªØ§ÙĨ": 2986,
      "ĠÙħÛĮØ§Úº": 2987,
      "Ġvis": 2988,
      "ÙĪÙĦØ§Ø¦ÛĮ": 2989,
      "Ġallow": 2990,
      "ĠØªÛĮØ³": 2991,
      "ĠØ±ÙĪØŃ": 2992,
      "ĠÛģØ§Úº": 2993,
      "ĠØ®ÙĪÙģ": 2994,
      "Ġfollow": 2995,
      "Ġcall": 2996,
      "Ġcare": 2997,
      "ĠÙħØ«Ø§ÙĦ": 2998,
      "ĠÙĦÚĳÚ©ÛĮ": 2999,
      "ĠÙħØ¹Ø§ÙħÙĦÛĴ": 3000,
      "pr": 3001,
      "ÛģÙĪØ±": 3002,
      "Ġdist": 3003,
      "ĠÙĦØ¨": 3004,
      "ÙħØ§Ø±": 3005,
      "ĠÚ¯Ø¦ÛĮÚº": 3006,
      "Ġimpro": 3007,
      "Ġtest": 3008,
      "ĠÚ¯Ú¾ÙĨÙ¹": 3009,
      "ĠÙħØ·Ø§ÙĦØ¨Ûģ": 3010,
      "ĠØ´Ø§ÛĮØ¯": 3011,
      "Ġgreat": 3012,
      "ÙĪØ¯Ú¾": 3013,
      "Ġindividual": 3014,
      "ÚĳÛĮÙĪÚº": 3015,
      "Ø´Ø±ÛĮÙģ": 3016,
      "Ø¬Ø±": 3017,
      "Ġsaid": 3018,
      "ĠØ·Ø§ÙĦ": 3019,
      "ĠÙħÙĨØµÙĪØ¨Ûģ": 3020,
      "ĠØ§Ø®Ø¨Ø§Ø±": 3021,
      "ĠÚ©Ø±ÛĮÙħ": 3022,
      "ĠØ¯ÙĨÙĪÚº": 3023,
      "ĠØ§ÚĨÚ¾ÛĮ": 3024,
      "ÙĪÙħØ¨Ø±": 3025,
      "Ø¨ÛĮØ±": 3026,
      "Ġpot": 3027,
      "Ù¹Ø±Ø²": 3028,
      "ĠÙħØ¹Ø§ÙħÙĦÛģ": 3029,
      "Ġadv": 3030,
      "ĠØ¢Ø²Ø§Ø¯ÛĮ": 3031,
      "Ġpower": 3032,
      "ather": 3033,
      "Ġbody": 3034,
      "ves": 3035,
      "io": 3036,
      "ĠØ®Ø§Ùħ": 3037,
      "ĠÙħØŃÙħÙĪØ¯": 3038,
      "Ġdoes": 3039,
      "ĠØ¨ÛĮÙĨÚ©": 3040,
      "ĠThese": 3041,
      "ĠØ³Ø²Ø§": 3042,
      "ĠÙĪØ§ÙĤØ¹Ûģ": 3043,
      "Ġmuch": 3044,
      "Ø§Ø¦ÛĮÚ©": 3045,
      "ĠØ³Ù¹": 3046,
      "Ġmy": 3047,
      "Ùį": 3048,
      "iety": 3049,
      "ĠÙ¹Ø±ÙħÙ¾": 3050,
      "ĠØ§Ø·ÙĦØ§Ø¹": 3051,
      "read": 3052,
      "Ø§ØµØ±": 3053,
      "ĠØªÙĤØ±ÛĮØ¨Ø§": 3054,
      "ĠØŃÚ©ÙħØ±Ø§ÙĨ": 3055,
      "iness": 3056,
      "ĠIs": 3057,
      "Ð½": 3058,
      "Ø´Ø§ÙĪØ±": 3059,
      "ĠØ®ÙĪÙĨ": 3060,
      "Û³": 3061,
      "ĠÚ¯Ø²Ø±": 3062,
      "Ø§ÙĤÙĪØ§ÙħÛĮ": 3063,
      "els": 3064,
      "ĠØ¬ÙħÛģÙĪØ±": 3065,
      "ĠØ¨Ú¾Ù¹ÙĪ": 3066,
      "ĠØŃØ§Ùħ": 3067,
      "ØªÙħØ§Ùħ": 3068,
      "eg": 3069,
      "ï¿½ï¿½ï¿½": 3070,
      "ĠÛģØ³Ù¾ØªØ§ÙĦ": 3071,
      "Ġ21": 3072,
      "ĠÚĨÙĦØ§": 3073,
      "co": 3074,
      "Ø®ØªÙĪÙĨ": 3075,
      "ĠØ´ÛģØ¨Ø§Ø²": 3076,
      "Ġcle": 3077,
      "Ġorgan": 3078,
      "ĠØ®Ø¨Ø±ÛĮÚº": 3079,
      "Ø§Ø¯Ø«": 3080,
      "ĠÙģØ±ÛĮ": 3081,
      "ĠØŃÛĮØ«ÛĮØª": 3082,
      "Ġboth": 3083,
      "ĠØ¬ÛĮÙĦ": 3084,
      "ĠÙħØ¦ÛĮ": 3085,
      "ĠØŃÚ©Ø§Ùħ": 3086,
      "Ġenvironment": 3087,
      "ĠØ§ÙĦØ§ÙĤÙĪØ§ÙħÛĮ": 3088,
      "ÙĤØ§Øª": 3089,
      "ĠØ§ÙĦÚ¯": 3090,
      "cept": 3091,
      "ĠØ³Ø±Ø¯": 3092,
      "ĠYou": 3093,
      "Ø§ÙĦØª": 3094,
      "Ø¨ÙĪØ·": 3095,
      "ĠÙĪÛĮØ¨": 3096,
      "ĠÚ©Ø§Ø±ÙĪØ¨": 3097,
      "Ø¹Ùħ": 3098,
      "ĠÙĪÛĮÚĪÛĮÙĪ": 3099,
      "Ġpract": 3100,
      "ĠØ¬Ø¯ÛĮØ¯": 3101,
      "Ġben": 3102,
      "ex": 3103,
      "ĠØªØ§": 3104,
      "ĠÙħØ±ØŃ": 3105,
      "Ġactiv": 3106,
      "ute": 3107,
      "Ú©Ø±Ø§ÚĨÛĮ": 3108,
      "ĠØ§Ø¨ÙĪ": 3109,
      "cing": 3110,
      "Ġcor": 3111,
      "ĠØ¨ÙĪØ±ÚĪ": 3112,
      "ĠØµÙĦØ§ØŃ": 3113,
      "ĠÙ¾ÙĦ": 3114,
      "Û°": 3115,
      "ĠØªØ¹Ø§ÙĪÙĨ": 3116,
      "ÑĢ": 3117,
      "ĠÙĨÙħØ§Ø¦": 3118,
      "rol": 3119,
      "ok": 3120,
      "ĠÙĪØ·ÙĨ": 3121,
      "Ø§ÙĨÚ©": 3122,
      "ĠÛ²Û": 3123,
      "ĠØ´ÙħØ§Ø±": 3124,
      "ving": 3125,
      "ĠØ¹ÙħÙĦÛĮ": 3126,
      "ĠÙĪØ²Ø§Ø±Øª": 3127,
      "ĠØ¯ÙģØ§Ø¹": 3128,
      "ĠØ¬Ø±": 3129,
      "ĠÛĮÙĪÚº": 3130,
      "imate": 3131,
      "ĠØ§ÛĮÚĪ": 3132,
      "ĠØ§ÛģÙĦÚ©Ø§Ø±": 3133,
      "ĠØ§Ø¯Ø§Ú©": 3134,
      "ÙħÙĪÙĦ": 3135,
      "Ù¹Ûģ": 3136,
      "Ġbefore": 3137,
      "ĠÛģÙĪÚ¯Ø¦ÛĮ": 3138,
      "Ú©Ø±Ø¯": 3139,
      "ĠØ°Ø±ÛĮØ¹Ûģ": 3140,
      "ĠØ³Ø±ÙħØ§ÛĮÛģ": 3141,
      "ional": 3142,
      "ĠÙ¹ÛĮÚ©Ø³": 3143,
      "ected": 3144,
      "meric": 3145,
      "ĠØ³ÛĮÙĦ": 3146,
      "ØªÙĪØ¨Ø±": 3147,
      "ĠÙħØ§ÙĦÛĮ": 3148,
      "ĠÚ¯Ø±ÙĪÙ¾": 3149,
      "Ġdown": 3150,
      "vern": 3151,
      "ĠÛģÙħØ§Ø±Ø§": 3152,
      "han": 3153,
      "ÙĪØ¬ÛĮ": 3154,
      "Ġincluding": 3155,
      "Ġpop": 3156,
      "ĠÙħÙĤØ§Ø¨ÙĦÛĴ": 3157,
      "Ġplay": 3158,
      "ĠØŃÙħØ§ÛĮØª": 3159,
      "Ġvi": 3160,
      "ĠÙĪØ§ÙĤØ¹Ø§Øª": 3161,
      "Ġshe": 3162,
      "ĠØ²ÙĪØ±": 3163,
      "ĠâĢĺâĢĺ": 3164,
      "gg": 3165,
      "25": 3166,
      "Ø®ÛĮ": 3167,
      "ĠÙĪÙĪÙ¹": 3168,
      "ĠØ¯ÛĮÚ©Ú¾ÙĨÛĴ": 3169,
      "Ġelect": 3170,
      "Ġdr": 3171,
      "Ø§ÙĨØª": 3172,
      "ĠÙħØ±Ú©Ø²ÛĮ": 3173,
      "ĠâĢ¦": 3174,
      "ĠÙħØ§ØŃ": 3175,
      "oms": 3176,
      "ider": 3177,
      "tle": 3178,
      "uss": 3179,
      "Ø±Ø§Ûģ": 3180,
      "ĠÙħÙĦÛĴ": 3181,
      "ĠÙĤØ§ÙĨÙĪÙĨÛĮ": 3182,
      "ted": 3183,
      "Ġcommon": 3184,
      "ĠPM": 3185,
      "icle": 3186,
      "ĠØ·Ø±ÛĮÙĤÛģ": 3187,
      "ĠÙħÛĮØ¯": 3188,
      "Ø¬ÙĨØ³ÛĮ": 3189,
      "ĠØ±ÛģØªÛĴ": 3190,
      "eb": 3191,
      "ĠÙħÙĪØ¯ÛĮ": 3192,
      "Ø§ÙĨÙĪÛĮ": 3193,
      "ability": 3194,
      "Ġstart": 3195,
      "akes": 3196,
      "ĠØ±ÙĪØ´ÙĨÛĮ": 3197,
      "ĠÙĤØ§Ø¦Ø¯": 3198,
      "Ù¹ÙĨÚ¯": 3199,
      "Ġfin": 3200,
      "Ġdise": 3201,
      "ĠÚ©Ø§Ø±ÛĮ": 3202,
      "ĠÙ¾ÛĮØºØ§Ùħ": 3203,
      "Ġmade": 3204,
      "ental": 3205,
      "ÙĪØ¬Ûģ": 3206,
      "ĠÙģØ§Ø¦Ø¯Ûģ": 3207,
      "Ġhtt": 3208,
      "Ġaff": 3209,
      "23": 3210,
      "Ġgu": 3211,
      "ĠAnd": 3212,
      "ĠØ¥": 3213,
      "Ġend": 3214,
      "Ġresearch": 3215,
      "Ġdef": 3216,
      "ĠÙ¾ÚĳÛĴ": 3217,
      "iel": 3218,
      "ĠØŃÙĦÙĤ": 3219,
      "ĠÙ¾Ø§Ø¨ÙĨØ¯ÛĮ": 3220,
      "24": 3221,
      "ÙħØ²": 3222,
      "ĠÚĨØ§ÛģØªØ§": 3223,
      "ÙĪÙ¹ÛĮ": 3224,
      "ÚĪÙĦ": 3225,
      "Ġenergy": 3226,
      "Ġsmall": 3227,
      "ĠØ¯Ø±Ø³Øª": 3228,
      "ĠÙħØ¶Ø¨ÙĪØ·": 3229,
      "ĠÙ¹ÛĮØ³Ù¹": 3230,
      "Ġ!": 3231,
      "Ġstudy": 3232,
      "Ø§ÙĨÚĪ": 3233,
      "iving": 3234,
      "itions": 3235,
      "Ð¾": 3236,
      "ĠØ±Ø¬": 3237,
      "ÙĪØ«": 3238,
      "ĠÙģÙĨ": 3239,
      "Ġhist": 3240,
      "ĠÙģÙĪØ±Ø³": 3241,
      "ĠØ§ÙĦÙĨ": 3242,
      "ĠÙħØ¹Ø§Ø´Ø±ÛĴ": 3243,
      "ĠÙĤÙĪØª": 3244,
      "Ø«Ø§Ø±": 3245,
      "âĢ¬": 3246,
      "ÙĬØ§": 3247,
      "Ø³ÛĮØ¹": 3248,
      "ÙĤØ¨ÙĦ": 3249,
      "ĠÙģØ§Ø¦Ø±": 3250,
      "ĠØ§ÙĦØ¯ÛĮÙĨ": 3251,
      "itive": 3252,
      "ets": 3253,
      "ĠÙĪØ¶": 3254,
      "ĠÙħÙĤØ§ÙħÛĮ": 3255,
      "Ø§Ø±Ù¹ÛĮ": 3256,
      "str": 3257,
      "cl": 3258,
      "ĠØ³ÙĪØ´ÙĦ": 3259,
      "ĠØ§ÙħØ±ÛĮÚ©Ø§": 3260,
      "ĠØºÙĦØ§Ùħ": 3261,
      "ĠÙħÙĪØ¶ÙĪØ¹": 3262,
      "ĠØªØ§Ø²Ûģ": 3263,
      "aterial": 3264,
      "ĠÙħÙĨØ§": 3265,
      "Ġmus": 3266,
      "Ù¹ÙĨÛĴ": 3267,
      "ĠØ§ØŃØªØ¬Ø§Ø¬": 3268,
      "ave": 3269,
      "ĠÙĤØ¯": 3270,
      "ĠØ§ÙħÛĮØ±": 3271,
      "ĠØ²Ø±Ø¯Ø§Ø±ÛĮ": 3272,
      "ĠØ§ÛĮÚĨ": 3273,
      "Ġaround": 3274,
      "ĠÙ¾ÛģÙĦØ§": 3275,
      "Ġens": 3276,
      "ĠÙħØ¹ÙĦÙĪÙħØ§Øª": 3277,
      "Ġ&": 3278,
      "ÛĮØ±Øª": 3279,
      "Ġsame": 3280,
      "ĠØ®ÛĮØ±": 3281,
      "Ø³Ø§Ø³": 3282,
      "ĠØ§ÙĨÚ¾ÙĪÚº": 3283,
      "Ø§Ø°": 3284,
      "ĠØ±ÙĪØ²Ûģ": 3285,
      "Ġposs": 3286,
      "Ġprovide": 3287,
      "ĠØ³Ø§ÙħÙĨØ§": 3288,
      "ĠØ¬Øª": 3289,
      "ĠØ±ÛĮÚ©Ø§Ø±ÚĪ": 3290,
      "ĠØ§ØªÙĨØ§": 3291,
      "Ġprof": 3292,
      "ĠÙĪØ±Ú©": 3293,
      "ĠÚ©Ø§Ø±Ú©ÙĨ": 3294,
      "ĠØ¬ÙĨÙĪØ±ÛĮ": 3295,
      "ĠÙ¾Ú¾ÛĮÙĦ": 3296,
      "Ú¾ÛĴ": 3297,
      "Ø¨Ø§Øª": 3298,
      "ished": 3299,
      "ĠÙħØ±ÛĮØ¶": 3300,
      "....": 3301,
      "ĠØ¶ÙĦØ¹": 3302,
      "ĠØ§Ù¾Ø±ÛĮÙĦ": 3303,
      "ĠÙĨÛĮØ§": 3304,
      "ĠØ¯Ø¹Ø§": 3305,
      "2018": 3306,
      "ĠÚ¯Ø²Ø§Ø±": 3307,
      "Ú©Ø±ÛĮ": 3308,
      "ix": 3309,
      "ÙĪØ±ÙĪÚº": 3310,
      "ateg": 3311,
      "ØµÙĦ": 3312,
      "ÙħÛĴ": 3313,
      "ÙĦÛĮÙģ": 3314,
      "Ġday": 3315,
      "ĠØŃØ§Ø¯Ø«": 3316,
      "ÙħÙĤ": 3317,
      "ĠØ§ÚĨÚ¾Ø§": 3318,
      "ĠÚĨÛĮÙĨÛĮ": 3319,
      "Ġgra": 3320,
      "ier": 3321,
      "Ġ50": 3322,
      "esp": 3323,
      "ĠØ®ÙĪØ§ÛģØ´": 3324,
      "Ġschool": 3325,
      "ĠÙĤÛĮØ¯": 3326,
      "ĠØ³ÙĦØ³ÙĦÛĴ": 3327,
      "ars": 3328,
      "ĠÙħØ®Ø§ÙĦÙģ": 3329,
      "ĠØ®Ø¯ÙħØª": 3330,
      "ĠÙħØ³ÙĦØ³ÙĦ": 3331,
      "ĠØ¢ÙħØ¯": 3332,
      "ĠØ§ÙħØ±": 3333,
      "ĠÙ¾Ø±ÛĮØ´": 3334,
      "Ú¯Øª": 3335,
      "ĠØ§ÛģÙħÛĮØª": 3336,
      "ĠØ³ÙħØ§Ø¹Øª": 3337,
      "ĠØ§ÙĪÙ¾Ø±": 3338,
      "ĠØ§Ø«Ø±": 3339,
      "ĠÙħØ¨Ø§Ø±Ú©": 3340,
      "ĠØ³Ø±Ú¯Ø±": 3341,
      "Ġshow": 3342,
      "ĠØ¢ØªØ§": 3343,
      "Ø§Ø¦Ø¬": 3344,
      "Ø¶Ø§ÙĨ": 3345,
      "ĠØ§Ø®ØªÙĦØ§Ùģ": 3346,
      "Ø§ÙĨÚĨÛģ": 3347,
      "ger": 3348,
      "ĠØ³ØªÙħ": 3349,
      "Ġagain": 3350,
      "ĠÚ©Ú¾Ø§ÙĨÛĴ": 3351,
      "ĠØ¯Ø´ÙħÙĨ": 3352,
      "ĠØµØ¨ØŃ": 3353,
      "ÙĦÛĮÙ¹": 3354,
      "ĠØ·Ø§ÙĦØ¨Ø§ÙĨ": 3355,
      "Ø§Úĳ": 3356,
      "Ġeduc": 3357,
      "ĠØ·Ø§ÙĦØ¨": 3358,
      "Ġproduct": 3359,
      "ty": 3360,
      "ĠÙĨØ§Ú©Ø§Ùħ": 3361,
      "Ġless": 3362,
      "ĠØªØ®": 3363,
      "ĠÙĦÙģØ¸": 3364,
      "ÙģØ§Ø±": 3365,
      "ĠÙħØªØ§Ø«Ø±": 3366,
      "ĠØµØ§Ùģ": 3367,
      "Ø¦ÙĨ": 3368,
      "ĠØ¨ÛĮÙĪÛĮ": 3369,
      "Ø®ØµÙĪØµ": 3370,
      "Ġ2014": 3371,
      "ÛģØ±ÛĮ": 3372,
      "ium": 3373,
      "ral": 3374,
      "ĠâĢĶ": 3375,
      "06": 3376,
      "ĠÙĨÛĮØ¨": 3377,
      "ĠØ³ÚĨ": 3378,
      "ĠØ¨Ø§ÙĦÚ©ÙĦ": 3379,
      "ĠØªØ¬Ø±Ø¨": 3380,
      "ÛģØ±ÛĴ": 3381,
      "ĠØ¯Ø±ÙĪ": 3382,
      "ĠØ¨Ø§ØªÛĮÚº": 3383,
      "Ġiss": 3384,
      "ĠØ§Ø¨Øª": 3385,
      "ĠÙ¾ÚĳÚ¾ÛĮÚº": 3386,
      "Ġeng": 3387,
      "Ø¯ÙĪÚº": 3388,
      "Ġbeh": 3389,
      "Ġbenef": 3390,
      "ÚĪÙĨÚ¯": 3391,
      "ĠØ¬Ø§Úº": 3392,
      "ĠØ¬ÛĮØª": 3393,
      "Ġ26": 3394,
      "ĠÙħØ¹Ø§Ø´ÛĮ": 3395,
      "ĠÙħØ§ÙĨÚ¯": 3396,
      "omen": 3397,
      "ĠØ¨ÙĦÙĨØ¯": 3398,
      "ĠÙ¾Ø§ÙĦÛĮØ³ÛĮ": 3399,
      "ĠØ¯Ø³ÙħØ¨Ø±": 3400,
      "ĠÙģÙĪØ±ÛĮ": 3401,
      "ĠÙħÙĤØ±": 3402,
      "ĠÙĤØ¯Ùħ": 3403,
      "ĠAmeric": 3404,
      "Ġmem": 3405,
      "ĠØ§ÙĨØ¬Ø§Ùħ": 3406,
      "ĠØ¨ØŃÙĤ": 3407,
      "ĠQ": 3408,
      "ĠÙģÛĮØ³": 3409,
      "ĠÚ©Ø´ÙħÛĮØ±ÛĮ": 3410,
      "ĠAd": 3411,
      "ĠØ§ÙĨØªØ¸Ø§ÙħÛĮÛģ": 3412,
      "ĠØ¬ÙĨÙĪØ¨ÛĮ": 3413,
      "Ġeas": 3414,
      "ha": 3415,
      "ĠÚ©Ø±ÙĦÛĮØ§": 3416,
      "ĠØ³ÛĮÙĨÛĮ": 3417,
      "ĠÙħÙĨØ¯": 3418,
      "ÙĪÙĦÙĪÚº": 3419,
      "ĠØ³Ø§ÙĦÛģ": 3420,
      "reen": 3421,
      "ĠØµÙģØŃÛģ": 3422,
      "ĠØ§ÙĦÙĤ": 3423,
      "ÙģØ§ÙĤ": 3424,
      "ĠØ±Ø§Ø¬": 3425,
      "ĠSp": 3426,
      "ĠÙħØ°ÛģØ¨": 3427,
      "ĠØ´Ø§ÙĨ": 3428,
      "ĠÚ©ÛģØ§Úº": 3429,
      "ĠØ®Ø§ÙĦ": 3430,
      "Ġmust": 3431,
      "ĠØ´Ú©ÙĦ": 3432,
      "ĠØ§ØªÙĨÛĮ": 3433,
      "ĠÙħÙĨØ¹ÙĤ": 3434,
      "ĠDe": 3435,
      "Ġchar": 3436,
      "ĠÙħØ·ÙĦØ¨": 3437,
      "htt": 3438,
      "ĠZ": 3439,
      "ĠØºØ±ÛĮØ¨": 3440,
      "ĠÙģÙĦ": 3441,
      "ĠØªØ±Ú©ÛĮ": 3442,
      "ĠÚ©ÙĪØ±ÙĪÙĨØ§": 3443,
      "ĠØ®ÛĮØ¨Ø±": 3444,
      "ources": 3445,
      "Ġsym": 3446,
      "Ø¹Ø§Ùħ": 3447,
      "ĠâĢı": 3448,
      "ÙĦÛĮÚ©ÙĨ": 3449,
      "ĠÚ¯ÙĨØ§Ûģ": 3450,
      "Ġsignific": 3451,
      "ÛģÛĴ": 3452,
      "Ġhuman": 3453,
      "ĠÙħÙĨØµÙĪØ¨ÛĴ": 3454,
      "Ġaw": 3455,
      "ÙħÙĨÙ¹": 3456,
      "ĠÙħÙĨØªØ®Ø¨": 3457,
      "lish": 3458,
      "ØªÛĮÚº": 3459,
      ",âĢĿ": 3460,
      "ĠØ³Ú©ÛĮ": 3461,
      "irect": 3462,
      "ĠØ§ÙĨÙ¹Ø±ÙĨÛĮ": 3463,
      "ĠØ´Ú©Ø³Øª": 3464,
      "ĠØ³ÚĳÚ©": 3465,
      "Ø§Ø³Ø¨": 3466,
      "ĠØ³Ø§Ø±ÛĴ": 3467,
      "Ġplan": 3468,
      "ify": 3469,
      "ĠÛģØ§ØªÚ¾ÙĪÚº": 3470,
      "ran": 3471,
      "This": 3472,
      "ouse": 3473,
      "ĠØ³ÙĪØ±": 3474,
      "de": 3475,
      "Ġ27": 3476,
      "Ù¾ÙĪ": 3477,
      "ĠÙĪØ²ÛĮØ±Ø§Ø¹ÙĦÛĮ": 3478,
      "Ġmaterial": 3479,
      "Û´": 3480,
      "Ġ100": 3481,
      "Ø¨ÙĪÙĦ": 3482,
      "ĠÙħØ¬Ø¨": 3483,
      "ĠÚ©ÛĮØ®ÙĦØ§Ùģ": 3484,
      "ĠØ§Ø¹ØªØ±": 3485,
      "ĠØ§ÙĦÙĦÙĩ": 3486,
      "cent": 3487,
      "ĠØ³Ø¨Ø¨": 3488,
      "Ø´Ú©": 3489,
      "ĠØ³ÛĮÚ©Ø±": 3490,
      "ÙħÛĮÙħ": 3491,
      "Ġbuild": 3492,
      "ĠÚ©Ø±Ù¾Ø´ÙĨ": 3493,
      "Ġ199": 3494,
      "Ġbel": 3495,
      "ĠØ·ÛĮ": 3496,
      "ĠØ¯Ø§Ø®ÙĦÛģ": 3497,
      "ĠÙĤØ±ÛĮ": 3498,
      "ÙħÛĮÙĦ": 3499,
      "ĠÙħÛĮØ²": 3500,
      "ĠÙģÚ©Ø±": 3501,
      "ĠØµÙĨ": 3502,
      "ĠØ§ØŃØ³Ø§Ø³": 3503,
      "ĠØ§ÙĤÙĪØ§Ùħ": 3504,
      "ĠØ§ÙĨÚ©Ø§Ø±": 3505,
      "ulation": 3506,
      "Ġlearn": 3507,
      "ĠÛĶÛĶÛĶ": 3508,
      "ĠÚĪØ§Ø¦": 3509,
      "ought": 3510,
      "Ġcontin": 3511,
      "ÙĨÚ¯ÛĮ": 3512,
      "ĠØ¬ÛĮØ³Ø§": 3513,
      "ĠÙħØ¬Ú¾": 3514,
      "ÙĪØ³ÛĮ": 3515,
      "ĠØ¯ÛĮØ±": 3516,
      "ĠØ®ÙĪØ±": 3517,
      "ĠØ³Ø§Ø¦ÙĨØ³": 3518,
      "Ġstate": 3519,
      "ĠÙħÛĮØ¯Ø§ÙĨ": 3520,
      "ĠØ³ÙĨÚ¯Ú¾": 3521,
      "ĠØŃØ§Ø¶": 3522,
      "ĠØ³Ø§Ø±ÛĮ": 3523,
      "Ġess": 3524,
      "ĠÙ¾ØªÛģ": 3525,
      "Ġbest": 3526,
      "ĠØ§ÙĨÙĤÙĦ": 3527,
      "Ø¹Ø¯Ø¯": 3528,
      "ĠÙħÙĨØ¸Ø±": 3529,
      "ĠØ¨ÙĨØ¯ÛĮ": 3530,
      "ĠÙ¾ÛĮÚ©": 3531,
      "me": 3532,
      "ross": 3533,
      "ĠØ¢Ø¯ÙħÛĮ": 3534,
      "ĠÙĨØªÛĮØ¬ÛĴ": 3535,
      "ĠPakistan": 3536,
      "ÚĺÙĨ": 3537,
      "ĠØ§Ú©Ø«Ø±": 3538,
      "ĠØ²ÙĨØ¯Ûģ": 3539,
      "ĠØ§ÙĨÚ¾ÛĮÚº": 3540,
      "ÙĨÛĮØ§": 3541,
      "Ġser": 3542,
      "Ġgrou": 3543,
      "Ġ28": 3544,
      "ÙĦØŃ": 3545,
      "ĠÚ©ÛģØ§Ú©Ûģ": 3546,
      "air": 3547,
      "ĠØ§ÛĮÙĨÚĪ": 3548,
      "ĠÙĨØ¬": 3549,
      "40": 3550,
      "ĠÙĦØ§Ø¦": 3551,
      "ills": 3552,
      "ĠÙĨÚ¯Ø±": 3553,
      "ĠØ±Ø§Ø¨Ø·Ûģ": 3554,
      "ince": 3555,
      "ÛĮØ±Ûģ": 3556,
      "ĠÙħØ´ÛģÙĪØ±": 3557,
      "Ġimpact": 3558,
      "ÙħØ¨Ø±": 3559,
      "Ð»": 3560,
      "ĠØ¹Ø§Ø¦Ø¯": 3561,
      "Ú¯ÛĮØ§": 3562,
      "Ġdevelopment": 3563,
      "ĠØ§ÙħÙĪØ±": 3564,
      "Ú¯Ø±ÛĮ": 3565,
      "Ġappro": 3566,
      "ters": 3567,
      "vious": 3568,
      "ĠÙĨØª": 3569,
      "Ø§Ú©Ø±Ø§Øª": 3570,
      "ĠÙģÙĪ": 3571,
      "Ġexample": 3572,
      "acter": 3573,
      "ĠØ¬Ø¯": 3574,
      "ĠÙħØ¹Ø§ÙħÙĦØ§Øª": 3575,
      "Ø²ÙĦ": 3576,
      "ĠØ±ÙĪÚĪ": 3577,
      "ĠØªØ¹ÛĮÙĨ": 3578,
      "ĠÙħØ§Ø±Ú©ÛĮÙ¹": 3579,
      "ÛĮÙĨÚ©": 3580,
      "Ġve": 3581,
      "ĠÙĦÛĮÙĨÚĪ": 3582,
      "âĨĳ": 3583,
      "ization": 3584,
      "ÙģØªÛĴ": 3585,
      "ÙĪØ²ÛĮØ´ÙĨ": 3586,
      "ĠØµÙĦØ§ØŃÛĮØª": 3587,
      "ÙģÙĤ": 3588,
      "ven": 3589,
      "Ġbre": 3590,
      "ĠØºÙĪØ±": 3591,
      "lam": 3592,
      "ĠØ³ÙĦØ·": 3593,
      "Ġop": 3594,
      "ext": 3595,
      "Ġpur": 3596,
      "Ġsocial": 3597,
      "ĠÙħØŃÚ©ÙħÛģ": 3598,
      "Ġpm": 3599,
      "ĠØªØŃØ±ÛĮØ±": 3600,
      "ĠÚº": 3601,
      "af": 3602,
      "ĠÛĮÙĤÛĮÙĨÛĮ": 3603,
      "ĠØ§Ø³Ø±Ø§Ø¦ÛĮÙĦ": 3604,
      "bs": 3605,
      "ĠØ³ÙħØ§Ø¬ÛĮ": 3606,
      "ĠØ¯ÛĮÛĴ": 3607,
      "ĠØªØ±Ø¨": 3608,
      "ĠÙĪØŃ": 3609,
      "Ġproper": 3610,
      "land": 3611,
      "ĠØ§Ú¯Ø³Øª": 3612,
      "ĠÚ¯Ø§ÚĳÛĮ": 3613,
      "Ġinclude": 3614,
      "ĠØªÙĨÙĤÛĮØ¯": 3615,
      "ĠÙħÙĤØ§Ø¨ÙĦÛģ": 3616,
      "ining": 3617,
      "ĠÚ©ÙĪØ¦": 3618,
      "ĠØ·Ø±ÛĮÙĤÛĴ": 3619,
      "ĠØ¨Ø§Ù¾": 3620,
      "ĠÚ©Ø±Ø±ÛģÛĴ": 3621,
      "aily": 3622,
      "ĠÙħØ¬Ùħ": 3623,
      "ĠØ¯Ú¾Ø±": 3624,
      "ĠÚ©Ú¾ÛĮ": 3625,
      "ĠÙĪØ§ÙĦØ¯": 3626,
      "ĠØ§ØªØŃØ§Ø¯": 3627,
      "Ġbus": 3628,
      "ĠØ±ÙģØª": 3629,
      "ĠØ´ÛĮØ±": 3630,
      "Ø·ÛĮ": 3631,
      "Ø³Ù¹Ø±": 3632,
      "ĠØ³ÛĮÚ©Ø±Ù¹Ø±ÛĮ": 3633,
      "Ġsom": 3634,
      "ÙĮ": 3635,
      "ĠÚĨÙĦÛĴ": 3636,
      "ĠØ·ÛĴ": 3637,
      "Ġocc": 3638,
      "ats": 3639,
      "ĠBy": 3640,
      "ØµÛĴ": 3641,
      "ĠØ±Ú©ÙĨ": 3642,
      "ĠÙħÛĮÙ¹Ø±": 3643,
      "ĠÙĨØ´Ø§ÙĨÛģ": 3644,
      "ined": 3645,
      "ĠÚ©ÙĨÙ¹Ø±ÙĪÙĦ": 3646,
      "Ġnow": 3647,
      "ĠÚ©Ø§ÙĨÚ¯": 3648,
      "ĠOn": 3649,
      "Ú©Ø±Ø¯Ú¯ÛĮ": 3650,
      "ĠØ§ÙĤØªØ¯Ø§Ø±": 3651,
      "ĠØ¹ÙĤ": 3652,
      "ĠØ¯ÛģÙĦÛĮ": 3653,
      "ĠØ³Ø§Ø¦Ù¹": 3654,
      "Ø§ÛĴ": 3655,
      "angu": 3656,
      "Ġequ": 3657,
      "Ø¯ÙĪØ³": 3658,
      "ĠÙ¹Ú¾ÛĮÚ©": 3659,
      "Ġconf": 3660,
      "ĠØ¨Ø±ÛĮ": 3661,
      "ĠÙħØµÙĨÙĪØ¹": 3662,
      "Ø¯ÙĦ": 3663,
      "ĠØ¢ØªÛĴ": 3664,
      "ĠØ³ÙĦ": 3665,
      "ĠÛģÙĪØ±Ûģ": 3666,
      "ĠØ¯ÙĦÚĨ": 3667,
      "Ġlearning": 3668,
      "Ġpos": 3669,
      "ÙħÙĪÙĨ": 3670,
      "ĠØĮÙĴ": 3671,
      "ĠÙĦÛĮØªÛĴ": 3672,
      "ĠØ±Ø¯": 3673,
      "Ġmight": 3674,
      "Ø§ÙģØ¸": 3675,
      "ĠØŃÙģØ§Ø¸": 3676,
      "ner": 3677,
      "ĠØ§Ø¹Øª": 3678,
      "Ġcult": 3679,
      "ÙĨÚ¯ÙĦ": 3680,
      "oid": 3681,
      "ĠÙĨÙĪÙħØ¨Ø±": 3682,
      "21": 3683,
      "ĠØªØ´Ø¯Ø¯": 3684,
      "ĠØ¨ÛĮÙħØ§Ø±ÛĮ": 3685,
      "Ġlight": 3686,
      "ÙĪÛĮØ¯": 3687,
      "ÙĦÛĮÛģ": 3688,
      "ĠØªØµÙĪØ±": 3689,
      "ert": 3690,
      "ĠØ®Ø²": 3691,
      "Ġpost": 3692,
      "ĠÚ©Ú¾ÙĪÙĦ": 3693,
      "Ġcell": 3694,
      "ĠÙ¾Ø±ÛĮØ³": 3695,
      "ĠØªØ¹Ø±ÛĮÙģ": 3696,
      "ĠÙħØ³ØªÙĤØ¨ÙĦ": 3697,
      "ĠØ§ÙĦØŃÙĤ": 3698,
      "Ġproject": 3699,
      "Ġwant": 3700,
      "ĠÙĨÙĪØ±": 3701,
      "ĠÙģØ±ÙĤ": 3702,
      "ĠØ±Ùħ": 3703,
      "ĠØ³Ú©Ú¾": 3704,
      "Ġmeth": 3705,
      "ired": 3706,
      "Ġ$": 3707,
      "ĠØ§Ø±Ø´": 3708,
      "ĠÙģØ±ÙĪØ±ÛĮ": 3709,
      "Ġident": 3710,
      "Ġrisk": 3711,
      "Ġlit": 3712,
      "Ø±Ø§Ø¬": 3713,
      "ared": 3714,
      "ĠÚ©Ø§Ø±Ú©Ø±Ø¯Ú¯ÛĮ": 3715,
      "ĠÙħØ´Ø±": 3716,
      "ÙĦÛĮÙħÛĮ": 3717,
      "ĠØ¯ÙĪØ³Ø±Ø§": 3718,
      "ĠØŃØ¶ÙĪØ±": 3719,
      "Ġmet": 3720,
      "03": 3721,
      "Ġchang": 3722,
      "Ġkeep": 3723,
      "ĠÚ¯Ø°": 3724,
      "ĠØªÙĪÚĳ": 3725,
      "Ûµ": 3726,
      "Ġprom": 3727,
      "Ġtem": 3728,
      "ĠÛģÙģØªÛĴ": 3729,
      "ĠØ¨ÙĨÙĨÛĴ": 3730,
      "ĠØ¨Ø§Ø±Ø´": 3731,
      "ĠØ¢ÛĮØª": 3732,
      "Ø¦ÛĮÛĴ": 3733,
      "ĠØ¬Ø§Ø¦Ø²Ûģ": 3734,
      "ĠØ´ÛģØ±ÛĮÙĪÚº": 3735,
      "ĠØ°Ø±Ø§Ø¦Ø¹": 3736,
      "ĠØ¬ÙĪÙĦØ§Ø¦ÛĮ": 3737,
      "hers": 3738,
      "Ø§ÙĦÙĪØ¬ÛĮ": 3739,
      "Ø³ÛĮØŃ": 3740,
      "ĠÙģÙĦØ³Ø·": 3741,
      "ĠÙħØ¹ÛĮØ§Ø±": 3742,
      "the": 3743,
      "Ġbo": 3744,
      "Ġwithout": 3745,
      "ĠØ³ÙĦÙħ": 3746,
      "ĠØ¨Ø±Ø¯": 3747,
      "Ġphys": 3748,
      "ÙİÙĳ": 3749,
      "ĠÚ©ÙħØ²": 3750,
      "ÛĮØ³Ú©": 3751,
      "Ġnumber": 3752,
      "ination": 3753,
      "ĠØ³Ø§ÙĨ": 3754,
      "Ġknown": 3755,
      "Ġest": 3756,
      "Ø³ÛĮÙĨ": 3757,
      "ĠHowever": 3758,
      "ĠØ·ÙĦ": 3759,
      "hy": 3760,
      "ÙĤÛĮÙĨ": 3761,
      "ering": 3762,
      "ĠØ§ÙħÚ©Ø§ÙĨ": 3763,
      "Ġconst": 3764,
      "ĠÙħØ°Ø§Ú©Ø±Ø§Øª": 3765,
      "ĠØ§ÙģØ³ÙĪØ³": 3766,
      "Ġclass": 3767,
      "ØµØŃ": 3768,
      "ron": 3769,
      "Ġpotential": 3770,
      "ĠØ´ÙĨ": 3771,
      "ĠØ±Ú©Ú¾ÛĴ": 3772,
      "ĠØ¯ÛģØ´ØªÚ¯Ø±": 3773,
      "Øĵ": 3774,
      "ĠØ±Ú©Ú¾ÛĮ": 3775,
      "Ø§ÙħÙĨ": 3776,
      "Ġcaus": 3777,
      "Ø±Ú©Ûģ": 3778,
      "Ġpain": 3779,
      "Ġair": 3780,
      "ĠÙĨØ§Ø²": 3781,
      "rap": 3782,
      "ĠÚ©Ø§ÙĦØ¬": 3783,
      "ĠØ¢Ù¾Ø±ÛĮØ´ÙĨ": 3784,
      "ĠÚ©Ø±ÙĨ": 3785,
      "ĠØŃÛĮØ¯": 3786,
      "ĠØ¯Ø¹ÙĪÛĮ": 3787,
      "ĠØªØ¹ÙĦÛĮÙħÛĮ": 3788,
      "ĠØ·ÙĪÛĮÙĦ": 3789,
      "What": 3790,
      "ource": 3791,
      "ÙĨØ¯ÙĨ": 3792,
      "ĠØ¨ÙĤ": 3793,
      "ior": 3794,
      "ĠØ§ÙħÛĮØ¯ÙĪØ§Ø±": 3795,
      "Ø§Ø¯Ø§Øª": 3796,
      "ĠÙĨØ³ÙĦ": 3797,
      "ĠØ¬Ú¾ÙĪÙ¹": 3798,
      "Ġaccess": 3799,
      "ĠØ§Ú©ØªÙĪØ¨Ø±": 3800,
      "Ġhand": 3801,
      "ĠÛģÙĪÚĨ": 3802,
      "ĠÙ¾Ø§": 3803,
      "Ġide": 3804,
      "Ø®ÙĪØ§Ûģ": 3805,
      "27": 3806,
      "ĠØ¹Ø²ÛĮØ²": 3807,
      "ĠÙħØŃØª": 3808,
      "26": 3809,
      "ĠÙħØªØ¹Ø¯Ø¯": 3810,
      "ĠÙ¹ÛĮÚ©ÙĨ": 3811,
      "ĠÛģØ§Ø±": 3812,
      "Ġpoint": 3813,
      "ĠÙģØ§Ø¦Ø±ÙĨÚ¯": 3814,
      "ĠØ³Ú©ÛĮÚº": 3815,
      "une": 3816,
      "ĠØ¨ÛĮÙ¹ÛĴ": 3817,
      "ĠÚ©Ø±ÙĨÛĮ": 3818,
      "ĠØ´Ø±ÛĮÚ©": 3819,
      "ĠØ³Ø±ØŃ": 3820,
      "ĠÙ¾ÙĨ": 3821,
      "ĠØ®ÙĪØ¨Øµ": 3822,
      "ĠSc": 3823,
      "Ø¹ÙĦ": 3824,
      "ĠØ¯Ú¾ÙĪ": 3825,
      "Ġgovern": 3826,
      "ĠØ¢Ø®Ø±": 3827,
      "ĠØªØ¨Øµ": 3828,
      "ense": 3829,
      "ĠÚ©ÛģØ§ÙĨÛĮ": 3830,
      "Ø°Ûģ": 3831,
      "ĠÙ¾Øª": 3832,
      "Ġindu": 3833,
      "Ø´ÛĮØ§": 3834,
      "ĠØ¨ÛĮÙ¹ÛĮ": 3835,
      "Ġwithin": 3836,
      "ĠÙĤØ§Ø¨": 3837,
      "ĠØ§Ø´Ø§Ø¹Øª": 3838,
      "ĠÙħÙĪØ¨": 3839,
      "ĠÙĨØ´Ø§ÙĨ": 3840,
      "Ġbetter": 3841,
      "ÛĤ": 3842,
      "ÛģØ±Ø³Øª": 3843,
      "ĠØ´Ø±ØŃ": 3844,
      "ĠØ±Ú©Ú¾ØªØ§": 3845,
      "Ġanal": 3846,
      "Ø¨ÙĪØ¶Ûģ": 3847,
      "Ġperform": 3848,
      "It": 3849,
      "ĠÙĦÛĮÚĪØ±": 3850,
      "Ø¯Ø§Ø±ÛĮ": 3851,
      "Ġ2013": 3852,
      "ĠØ¹Ø¨Ø¯": 3853,
      "ead": 3854,
      "ĠÙħØŃØ¯": 3855,
      "ĠÙ¾ÚĳØ§": 3856,
      "Ġcour": 3857,
      "ĠÙĨÛĮØ´ÙĨÙĦ": 3858,
      "ĠØ¹ÙĦÙħØ§Ø¡": 3859,
      "ĠÚ¾ÛĴ": 3860,
      "ï®": 3861,
      "ĠÚĪÙ¾": 3862,
      "ÙĦÛĮÙĪ": 3863,
      "ĠØ§ÛĮØ¬": 3864,
      "An": 3865,
      "ĠØ§Ø®Ø¨": 3866,
      "ï·º": 3867,
      "Ġprevent": 3868,
      "ĠØ§ÛĮØ±": 3869,
      "ĠÙĦÚ¯ØªØ§": 3870,
      "ĠØ®ÙĪØ§Ø¨": 3871,
      "Ġimm": 3872,
      "28": 3873,
      "ĠÙĦÚ©": 3874,
      "Ġchange": 3875,
      "ĠØ¹Ø¨Ø§Ø¯": 3876,
      "Ġsignificant": 3877,
      "ĠThere": 3878,
      "ĠÙħØ§ÙĦÚ©": 3879,
      "ĠØ¯Ø¹ÙĪØª": 3880,
      "ĠÙħÙĨØªÙĤÙĦ": 3881,
      "ĠØ®Ø¯ÙħØ§Øª": 3882,
      "ĠÙħØ¹ÙĨÛĮ": 3883,
      "ĠØ¨Ùħ": 3884,
      "ĠÙģØ±ÙĪØº": 3885,
      "ĠØ³ØªÙħØ¨Ø±": 3886,
      "Ġinvol": 3887,
      "ĠÙ¾ÙĪÚĨÚ¾Ø§": 3888,
      "Ġwrit": 3889,
      "conom": 3890,
      "ĠÙĦÚ¯ÛĮ": 3891,
      "ĠØªØ±Ø¨ÛĮØª": 3892,
      "Û±": 3893,
      "Ø¨Ø§Ø¨": 3894,
      "ĠÚ¯ÙĪØ±ÙĨ": 3895,
      "ĠBut": 3896,
      "Ġdon": 3897,
      "ĠØ±Ø§Ø³": 3898,
      "ĠÚĨÚ¾ÙĪÙ¹ÛĴ": 3899,
      "Ġmat": 3900,
      "ĠÙĨÙħØ§Ø¦ÙĨØ¯": 3901,
      "orts": 3902,
      "iod": 3903,
      "ĠÙĨÛĮÚĨÛĴ": 3904,
      "oad": 3905,
      "Ġdem": 3906,
      "ĠØ¬Ø§Ø³Ú©ØªØ§": 3907,
      "ĠØ³Ø±ÙĪØ³": 3908,
      "Ø²Ûģ": 3909,
      "be": 3910,
      "ĠÚ©ÙħØ´ÙĨ": 3911,
      "ĠEx": 3912,
      "iven": 3913,
      "Ġplace": 3914,
      "ĠØ¯ÛĮØ¦ÛĴ": 3915,
      "less": 3916,
      "oci": 3917,
      "05": 3918,
      "agn": 3919,
      "ĠÙħÙĨØ¸ÙĪØ±": 3920,
      "ĠÙģØ±ÙħØ§ØªÛĴ": 3921,
      "Ġcreat": 3922,
      "ration": 3923,
      "ĠEng": 3924,
      "ĠØŃÙħÙĦ": 3925,
      "Ø§Ø¨Ûģ": 3926,
      "ĠØ¨ÙĨØ§Ø¦ÛĴ": 3927,
      "ÙĢÙĢ": 3928,
      "ÙĪØ§ÙĨÙĪÚº": 3929,
      "ĠØ´Ø§Ø¦Ø¹": 3930,
      "Ġnat": 3931,
      "ĠÙħØ¹ÛĮØ´Øª": 3932,
      "Ø§ÛģØ¯": 3933,
      "ĠØ¯Ø³ØªÛĮ": 3934,
      "ĠSe": 3935,
      "Ù¾ÙĨ": 3936,
      "ĠÙĨÙĪÙ¹Ø³": 3937,
      "ĠÙħØ§ØŃÙĪÙĦ": 3938,
      "ĠØ¨ÙĨÛĴ": 3939,
      "ĠØ²Ø±": 3940,
      "ØµØ§Ø¯ÛĮ": 3941,
      "Ø·Ø±": 3942,
      "Û¡": 3943,
      "ĠØ§ÙĨØªÙĤ": 3944,
      "Ġhome": 3945,
      "ĠØ·Ø¨ÛĮ": 3946,
      "ĠØ¨Ø§ÙĤ": 3947,
      "Ġ29": 3948,
      "ĠÙĪØ¬ÙĪØ¯": 3949,
      "ially": 3950,
      "ains": 3951,
      "ĠÙħØ¬Ø¨ÙĪØ±": 3952,
      "ĠØ±Ø¶Ø§": 3953,
      "âĢĵ": 3954,
      "Ġpublic": 3955,
      "Ġcap": 3956,
      "ÚĪØ§Ú©Ù¹Ø±": 3957,
      "ĠÛĮÙĪÙĨÛĮÙĨ": 3958,
      "ĠÚ©ÛģÙĨÛĴ": 3959,
      "ĠØ¨Ú¾Ø±Ù¾ÙĪØ±": 3960,
      "ĠÚ©ÙĦÙĪ": 3961,
      "ĠÚ©Ú¾ÚĳÛĴ": 3962,
      "Ġmethod": 3963,
      "ĠØ±ÙĨØ²": 3964,
      "ĠØ§ÙĦÙģ": 3965,
      "pect": 3966,
      "raph": 3967,
      "ĠÙ¾Ø§Ø±ÙĦÛĮÙħÙĨÙ¹": 3968,
      "ĠÙħÙĦÙĨÛĴ": 3969,
      "Ġlarge": 3970,
      "ÚĪØ§": 3971,
      "ĠØªØŃÙĤÛĮÙĤØ§Øª": 3972,
      "ÙĪÙħØªÛĮ": 3973,
      "ĠØ§Ù¾ÙĪØ²ÛĮØ´ÙĨ": 3974,
      "ĠÙ¾Ø±ÙĪÛĮØ²": 3975,
      "ĠØ±ÛģØªØ§": 3976,
      "ĠÙĦØ§Ø²": 3977,
      "Ġfeel": 3978,
      "iversity": 3979,
      "ury": 3980,
      "ĠÙĨÙħØ§": 3981,
      "ai": 3982,
      "ĠÙ¾Ø±ÙĪÙģ": 3983,
      "ĠØ§ÙģØª": 3984,
      "ĠØµØ§Ø±Ùģ": 3985,
      "ĠØ®ÙĪØ´ÛĮ": 3986,
      "Ġvarious": 3987,
      "Ġquest": 3988,
      "ÙĳÙ°": 3989,
      "01": 3990,
      "ĠØ¯Ú¾ÙħØ§Ú©": 3991,
      "ĠØ¨ØŃØ«": 3992,
      "ason": 3993,
      "ĠØ¨Ø±Ø§": 3994,
      "Ġbecome": 3995,
      "ĠØ¨Ø§Øº": 3996,
      "Ġstill": 3997,
      "29": 3998,
      "ĠÙĥØ±": 3999,
      "Ġcost": 4000,
      "ĠØ¸ÙĦÙħ": 4001,
      "ĠÙħÙĪØ¨Ø§Ø¦ÙĦ": 4002,
      "Û²Û": 4003,
      "ØªÙģ": 4004,
      "ØªÙħØ§Ø¯": 4005,
      "ĠØ±ÛĮÙĦ": 4006,
      "ĠÙģØ¶ÙĦ": 4007,
      "ĠÙħØ´ØªÙħÙĦ": 4008,
      "ocus": 4009,
      "Ø§ÙħØ§": 4010,
      "ertain": 4011,
      "ĠØ¹ÙĦØ§ÙħÛģ": 4012,
      "Ø³Ù¹Ø±ÛĮÙĦ": 4013,
      "ĠØ¢ØªÛĮ": 4014,
      "ĠØ¯ÛĮØªÛĮ": 4015,
      "ĠØ¨Ø´": 4016,
      "ĠØ¯Ø±Ø¬Ûģ": 4017,
      "ories": 4018,
      "ĠØ¹Ø´": 4019,
      "cle": 4020,
      "ĠÚ¯Ø§Ûģ": 4021,
      "ĠØ³Ø±ÛĮ": 4022,
      "ĠÙĨØ§ÙĤ": 4023,
      "ĠØ§Ø¦": 4024,
      "ĠÙģÙĬ": 4025,
      "ĠÙ¾Ø´Ø§ÙĪØ±": 4026,
      "Ġopp": 4027,
      "Ġmark": 4028,
      "Ġoper": 4029,
      "09": 4030,
      "ĠØ¨Ø±Ø·Ø§ÙĨÛĮÛģ": 4031,
      "ĠÙĨØ¸Ø±ÛĮ": 4032,
      "Ġreal": 4033,
      "08": 4034,
      "Ġsit": 4035,
      "ĠØ¨Ø±Ø§Ûģ": 4036,
      "ĠØ¨ÙĨÚ¯": 4037,
      "ids": 4038,
      "apt": 4039,
      "Ġthree": 4040,
      "ĠØ±ÙħØ¶Ø§ÙĨ": 4041,
      "ĠØ¬Ø¬": 4042,
      "inal": 4043,
      "Ġcontrol": 4044,
      "ÙĪÙħÙĨ": 4045,
      "man": 4046,
      "Ġhim": 4047,
      "ĠÙħÙĦØ²": 4048,
      "04": 4049,
      "ina": 4050,
      "ember": 4051,
      "Ġconn": 4052,
      "ĠÙħØ¹Ø±ÙĪÙģ": 4053,
      "Ġfew": 4054,
      "ĠØ¹Ø¨Ø§Ø³": 4055,
      "ccess": 4056,
      "ĠÚ©Ú¾ÙĦ": 4057,
      "Ø³Ø§ÙĦ": 4058,
      "ÙĪØ·": 4059,
      "Ġmaking": 4060,
      "07": 4061,
      "Ø®ÙĪØ§": 4062,
      "ĠAll": 4063,
      "ĠØ§ÙħØª": 4064,
      "Ġcause": 4065,
      "ĠØ³Ø¹ÛĮØ¯": 4066,
      "ØµÙĪÙĦ": 4067,
      "ĠØ¨Ø·": 4068,
      "ĠÚ©Ø±Ø§Ùħ": 4069,
      "uk": 4070,
      "ĠØ¬Ø§Ø±ÛģØ§": 4071,
      "ĠÙĪØ§": 4072,
      "mber": 4073,
      "ĠÙ¹Ø§Ø¦Ùħ": 4074,
      "ank": 4075,
      "à¥": 4076,
      "ĠØ¬ÙħØ§Ø¹ØªÙĪÚº": 4077,
      "ling": 4078,
      "ÙĨØ§Ùħ": 4079,
      "Ġmeas": 4080,
      "ote": 4081,
      "Ġeffective": 4082,
      "ÙģØªØ±": 4083,
      "ots": 4084,
      "Ø§Ø¦Ù¹": 4085,
      "ĠØ¬Ø§ÙĪÛĮØ¯": 4086,
      "ĠØªØ±Ú©": 4087,
      "Ø§Ø¦ÛĮÚ¯ÛĮ": 4088,
      "??": 4089,
      "ĠÚ¯ÛĮØ³": 4090,
      "hile": 4091,
      "ĠØ§ÙĦØ±": 4092,
      "ĠØ§ØµÙĦØ§ØŃ": 4093,
      "ÚĨØ§": 4094,
      "ØŃÙĤ": 4095,
      "ĠÙħØ±Ú©Ø²": 4096,
      "Ġblood": 4097,
      "ording": 4098,
      "ĠÙĨØªÛĮØ¬Ûģ": 4099,
      "ĠÚĨÚĳÚ¾": 4100,
      "Ġdel": 4101,
      "ÙĦÛĮÛĴ": 4102,
      "Ġleg": 4103,
      "ĠÛĮÙĪÙħ": 4104,
      "·²": 4105,
      "ĠØ´Ùģ": 4106,
      "Ġaddition": 4107,
      "ĠÙħØºØ±Ø¨ÛĮ": 4108,
      "ØªÚ¾ÛĮ": 4109,
      "ĠØ§Ø¯Ø¨": 4110,
      "ĠØªÛĮØ±": 4111,
      "Ġdev": 4112,
      "ĠÙ¾ÛģÙĨÚĨØ§": 4113,
      "ĠÛģÙĪØ¬Ø§Ø¦ÛĴ": 4114,
      "Ø³Ø§ÙĨÛĮ": 4115,
      "ĠØ¬Ø§ÙĨØªÛĴ": 4116,
      "Ø¹Ø¨": 4117,
      "ĠØ®Ø§ÙĨÛģ": 4118,
      "ÛĮØ§Ø¡": 4119,
      "As": 4120,
      "ĠØªØ¨Ø§Ûģ": 4121,
      "ĠØµÙĪØ¨ÛĴ": 4122,
      "agement": 4123,
      "Ġavail": 4124,
      "Ù¾Ø§": 4125,
      "Ø³Ø§Ø¨": 4126,
      "port": 4127,
      "ÙħÙĦÚ©": 4128,
      "ĠØ¬ÙħÛģÙĪØ±ÛĮØª": 4129,
      "ĠÙģÙ¹": 4130,
      "ĠÙħØ³ÛĮØŃ": 4131,
      "ĠÚĨÙħ": 4132,
      "Ġchall": 4133,
      "orn": 4134,
      "ĠÙħÙĨØ¹ÙĤØ¯": 4135,
      "ĠØ§Ù¹Ú¾Ø§": 4136,
      "ĠØ®ØµÙĪØµ": 4137,
      "ĠØ³Ø¬": 4138,
      "ĠÙħØŃØ¶": 4139,
      "Ġpar": 4140,
      "ĠÙĨØªØ§Ø¦Ø¬": 4141,
      "ĠÙħØ±Ø§Ø¯": 4142,
      "ĠÙħÛĮÚĪ": 4143,
      "ĠØ¯ÛĮÚ©Ú¾ØªÛĴ": 4144,
      "Ġtool": 4145,
      "Ġdisease": 4146,
      "Ġtop": 4147,
      "ĠÙĤØµ": 4148,
      "ĠØ¹ÙĦØ§ÙĤÛģ": 4149,
      "outh": 4150,
      "oh": 4151,
      "ĠØ¨Ø§Ø²ÛĮ": 4152,
      "rence": 4153,
      "ĠÙ¾ÛĮÙħ": 4154,
      "ision": 4155,
      "ways": 4156,
      "Ġret": 4157,
      "ogn": 4158,
      "Ġlangu": 4159,
      "lu": 4160,
      "ØªÙħØ§Ø¹": 4161,
      "ĠÛģÙ¹": 4162,
      "ĠØ§Ú©Ø±Ùħ": 4163,
      "iver": 4164,
      "ÙħØ´": 4165,
      "ĠÙ¾Ú¾ÛĮ": 4166,
      "ĠØ¹Ø²Øª": 4167,
      "ĠÙĤØ±Ø¶": 4168,
      "Ġcond": 4169,
      "ĠÙĨÙĪÚº": 4170,
      "ĠÙĪØ¹Ø¯": 4171,
      "ĠØ´Ø¯Øª": 4172,
      "ĠÙ¹Ø±": 4173,
      "ÙģÛĮÙĤ": 4174,
      "ries": 4175,
      "200": 4176,
      "Ø±Ú¯": 4177,
      "ĠØ§ÙĤØªØµØ§Ø¯ÛĮ": 4178,
      "Ø¯Ø§Ø¦ÛĮ": 4179,
      "www": 4180,
      "ĠÙħÙĪØ±": 4181,
      "erest": 4182,
      "ĠTo": 4183,
      "2016": 4184,
      "ĠÙ¾ÚĨÚ¾": 4185,
      "ĠÙĪÙĨ": 4186,
      "Ġbusiness": 4187,
      "Ġtreatment": 4188,
      "ĠÙĥÙī": 4189,
      "ĠØ¨ÛĮØ³": 4190,
      "ĠØ¹Ø«": 4191,
      "ĠØ³Ú©ÙĪÙĦ": 4192,
      "ĠØ¨Ø§Ø¯Ø´Ø§Ûģ": 4193,
      "ĠÙĨØ§ÙĦ": 4194,
      "ÙĪÙĦÛĮØª": 4195,
      "ĠÙĨØ§Ø±": 4196,
      "ĠØªØ³ÙĦÛĮÙħ": 4197,
      "ĠÙħÙĪØ³Ùħ": 4198,
      "rodu": 4199,
      "lished": 4200,
      "ĠØ³ÙĨØ§": 4201,
      "ield": 4202,
      "Ø®ØªÙĪÙĨØ®ÙĪØ§": 4203,
      "ĠØ§Ø¹ØªÙħØ§Ø¯": 4204,
      "ĠØ±Ø§Ø³ØªÛģ": 4205,
      "ĠØ¨Ø±ÙĪ": 4206,
      "ĠØ§ÛĮÚ©Ø³": 4207,
      "ĠØ¯Ø±Ø¯": 4208,
      "Ġcreate": 4209,
      "Ġsever": 4210,
      "ĠØªÙģØµÛĮÙĦØ§Øª": 4211,
      "ĠØ´Ø±Ùħ": 4212,
      "ĠÚĨØ§ÛģÛĴ": 4213,
      "Û¹": 4214,
      "ĠØ°Ø§ØªÛĮ": 4215,
      "Ø±Ø§Ø±": 4216,
      "ĠÙ¾ÛĮØ³": 4217,
      "ĠÙģÙĤ": 4218,
      "Ġarticle": 4219,
      "Û²": 4220,
      "ency": 4221,
      "Ġpass": 4222,
      "Ġplant": 4223,
      "Ġmove": 4224,
      "ĠØªØ§Ø¬": 4225,
      "ØªØ§ÛģÛĴ": 4226,
      "ĠÚ©ÙħØ´ÙĨØ±": 4227,
      "Ġrest": 4228,
      "ĠÚ¯Ø±Ùħ": 4229,
      "Ġexperience": 4230,
      "ĠÙħÙĪØ§Ø¯": 4231,
      "ĠÙ¾ÙĪØ³Ù¹": 4232,
      "ention": 4233,
      "ĠØ±ØŃÙħ": 4234,
      "ĠØ¬ÙĨØ§Ø¨": 4235,
      "ĠÙģØ±Ø§ÛģÙħÛĮ": 4236,
      "ĠÙĨØ§Ùģ": 4237,
      "ĠØ§ÙĨÙĤÙĦØ§Ø¨": 4238,
      "ĠØ§Ø³Ùħ": 4239,
      "Ġstand": 4240,
      "Ġ×": 4241,
      "ĠØ´Ø®ØµÛĮØª": 4242,
      "ients": 4243,
      "ĠØ§ØŃÚ©": 4244,
      "ĠÚ¯Ú¾Ø±ÙĪÚº": 4245,
      "ĠÙħØ´ØªØ±Ú©Ûģ": 4246,
      "Ø§Ø¹Ø¯Ûģ": 4247,
      "Ġcalled": 4248,
      "Ġspecific": 4249,
      "ĠÙ¾ÙĨØ§Ûģ": 4250,
      "ĠÙ¾ÛĮÙĨ": 4251,
      "ĠØ³Ø§ØªÚ¾ÛĮ": 4252,
      "ÙħØŃÙħØ¯": 4253,
      "ĠÙħØ§ÛģØ±ÛĮÙĨ": 4254,
      "ĠØŃÚ©ÙħØª": 4255,
      "ĠØ§Ø®Ø¨Ø§Ø±Øª": 4256,
      "How": 4257,
      "Ù¾ÙĨÚĪÛĮ": 4258,
      "ÙĦÚĪ": 4259,
      "ĠØªØ±Ø¬ÙħØ§ÙĨ": 4260,
      "Û·": 4261,
      "Ġinterest": 4262,
      "Ġtechnology": 4263,
      "Ġdid": 4264,
      "ĠØ¨ÛĮÚ¯": 4265,
      "Ġopt": 4266,
      "ĠÙħØµÙĨÙĪØ¹Ø§Øª": 4267,
      "ĠØ¢ØµÙģ": 4268,
      "Ġsystems": 4269,
      "Û¶": 4270,
      "Ø±Ø¶": 4271,
      "Ġlow": 4272,
      "ĠØ§Ø®Ø¨Ø§Ø±ØªØ§Ø²Ûģ": 4273,
      "ĠØ´Ø§ÛģØ¯": 4274,
      "ĠÙĪØ§ÙĦØ¯ÛĮÙĨ": 4275,
      "Ú¾ÙĪÚº": 4276,
      "Ø¹ÙĪØ¯": 4277,
      "ĠÙħÙĤØ¯ÙħÛģ": 4278,
      "Ġimprove": 4279,
      "ĠÙħØ±ÛĮÙħ": 4280,
      "ĠØ§ÙģØ±ÛĮ": 4281,
      "hor": 4282,
      "Ù¹Ú¾ÛĮ": 4283,
      "osed": 4284,
      "ĠØ±ÙĪØ³": 4285,
      "ĠØ§ÙģØ³Ø±Ø§ÙĨ": 4286,
      "ÚĨØ§Ø±": 4287,
      "bers": 4288,
      "ĠØ§ÛĮØ¬ÙĨØ³ÛĮ": 4289,
      "ĠØ§ÙĪÙĨ": 4290,
      "ĠØªÚ¾ÙĪÚĳ": 4291,
      "ĠØ¹ÛģØ¯": 4292,
      "ÙĳÙĲ": 4293,
      "ĠØ¨ØŃØ±Ø§ÙĨ": 4294,
      "ĠØªØ´Ú©ÛĮÙĦ": 4295,
      "ÛĮÚ©Ù¹": 4296,
      "Ġant": 4297,
      "ĠÙģØªØŃ": 4298,
      "ĠÙħÙĤØ±Ø±": 4299,
      "ified": 4300,
      "ĠØ¹Ø·Ø§": 4301,
      "eed": 4302,
      "ĠØ¯Ø§Ø±Ø§ÙĦ": 4303,
      "Ġà¤": 4304,
      "Ø²ÙĨ": 4305,
      "Ġessential": 4306,
      "to": 4307,
      "Ø¹ÙħØ±Ø§ÙĨ": 4308,
      "ĠÙ¹Ø±ÛĮÙĨ": 4309,
      "ently": 4310,
      "ĠØ¨Ø®Ø´": 4311,
      "ĠÚĪÛĮØ³Ú©": 4312,
      "ication": 4313,
      "ards": 4314,
      "Ġter": 4315,
      "ĠØ¨ÛĮØª": 4316,
      "ĠÚ¯Ø±ÙĪÛģ": 4317,
      "ĠÙħÙĨÛĮ": 4318,
      "orld": 4319,
      "ĠØ«Ø¨ÙĪØª": 4320,
      "ĠØ®Ø·ÛĴ": 4321,
      "Ù¾Ú¾Ø±": 4322,
      "osted": 4323,
      "ï·²": 4324,
      "ĠÂ»": 4325,
      "Ġdirect": 4326,
      "Ġprogram": 4327,
      "Ø¹Ø§ÙĦ": 4328,
      "ĠÙ¾ÙĪÚĨÚ¾": 4329,
      "Ñģ": 4330,
      "uture": 4331,
      "ĠÙħØŃÙĨØª": 4332,
      "ĠÙĦØ§ÙĨÛĴ": 4333,
      "Ø¯ÛĮÙĤ": 4334,
      "Ø³Ù¹Ø±ÛĮ": 4335,
      "Ø§Ø¦ÛĮÙĪÚº": 4336,
      "ĠØ¢Ø¨Ø§Ø¯ÛĮ": 4337,
      "Ġlook": 4338,
      "Ġsl": 4339,
      "ĠPl": 4340,
      "ĠÙĦÙĪÚĪ": 4341,
      "ploy": 4342,
      "ĠØŃÙĤÛĮÙĤÛĮ": 4343,
      "lement": 4344,
      "ĠØ¯ÛĮÙĨÛĮ": 4345,
      "ĠØ§Ø¬ØªÙħØ§Ø¹": 4346,
      "ĠÙħØ¹Ø§ÛģØ¯ÛĴ": 4347,
      "Ø±ÛĮØ²ÛĮ": 4348,
      "ĠÙĤØ¨Ø±": 4349,
      "Ġfac": 4350,
      "ĠÚ¯ÙĪÙĦ": 4351,
      "ĠØ±ÙĪÙħ": 4352,
      "ĠØ¯ÙģØªØ±": 4353,
      "Ø¨Ø§": 4354,
      "Ġarea": 4355,
      "ĠÙĤØ±Ø¨Ø§ÙĨÛĮ": 4356,
      "ĠÚ©Ø§ÙĦÙħ": 4357,
      "ĠØ¢ÙĦ": 4358,
      "ĠØ¬ÙĨÛģÙĪÚº": 4359,
      "Ø§Ø®Øª": 4360,
      "Ġdiff": 4361,
      "ĠÚĨÛĮØª": 4362,
      "ÙħØ³ÙĦÙħ": 4363,
      "Ġanother": 4364,
      "ĠØªÛĮÙĦ": 4365,
      "ĠØ¢Ûģ": 4366,
      "Ġtru": 4367,
      "ĠÙħØ´ÛĮÙĨ": 4368,
      "Ġfocus": 4369,
      "ĠØ³ÙĨÛĮ": 4370,
      "Ġold": 4371,
      "ique": 4372,
      "Ġmean": 4373,
      "ĠÙħØ§Ø¶ÛĮ": 4374,
      "Ġeconom": 4375,
      "Ûİ": 4376,
      "Ø§Ø¦ÛĮØ¯": 4377,
      "ĠÙ¹ÛĮÚ©ÙĨØ§ÙĦÙĪØ¬ÛĮ": 4378,
      "ïºħ": 4379,
      "ĠØªØ§Ø±ÛĮØ®ÛĮ": 4380,
      "Ø³Ø¨": 4381,
      "ĠØ³ÙħØ¬Ú¾ØªÛĴ": 4382,
      "!!": 4383,
      "Ġinvest": 4384,
      "ÑĤ": 4385,
      "33": 4386,
      "ĠØ³Ø§ÙħØ§ÙĨ": 4387,
      "ĠØªÛĮØ²ÛĮ": 4388,
      "Ú©Ø´Ø§Ùģ": 4389,
      "Ġpresent": 4390,
      "ÛĮÙĨØ¯": 4391,
      "ortun": 4392,
      "ĠØ§ÛģØªÙħØ§Ùħ": 4393,
      "Ġmeans": 4394,
      "Ġneeds": 4395,
      "ĠÙħØ¶ÙħÙĪÙĨ": 4396,
      "ĠÙ¾ÙĪÙĦ": 4397,
      "ĠÙģÛģØ±Ø³Øª": 4398,
      "02": 4399,
      "ĠÙģØ±Ø§ÙĨØ³": 4400,
      "ĠÙģØ±Ø¯": 4401,
      "Û¸": 4402,
      "ĠØ¯Ú©Ú¾Ø§Ø¦ÛĮ": 4403,
      "Ġbas": 4404,
      "Ø¢Ø¬": 4405,
      "ĠØ¨Øº": 4406,
      "ĠØ§ÚĨÚ¾ÛĴ": 4407,
      "ĠØ§Ø³Ú©ÙĪÙĦ": 4408,
      "ĠØ±Ø§Ø³ØªÛĴ": 4409,
      "ological": 4410,
      "Ġconsider": 4411,
      "ÚĨÛĮÙĨ": 4412,
      "ari": 4413,
      "ĠÚ©Ú¾Ø§ÙĨØ§": 4414,
      "ÛĮØ§Ûģ": 4415,
      "ĠCon": 4416,
      "Ġtoo": 4417,
      "ÙĪØ§ÙĨÛĮÙĨ": 4418,
      "atic": 4419,
      "ĠØ³ÙĦØ§ÙħØªÛĮ": 4420,
      "ĠWhen": 4421,
      "ĠØ§ÙģÙĪ": 4422,
      "ĠØ¬Ø§Ø±ÛģÛĮ": 4423,
      "Ø§ÙħÛĮÙĨ": 4424,
      "ĠØ±Ú©Ú¾ÛĮÚº": 4425,
      "ĠØ±Ú©Ú¾ÙĨØ§": 4426,
      "Ø±ÙĪÙħ": 4427,
      "ĠÚ©Ø§ÙĨÚ¯Ø±ÛĮØ³": 4428,
      "ĠÙħØ°ÙħØª": 4429,
      "amp": 4430,
      "ĠPh": 4431,
      "Ø¦ÛĮÙĨ": 4432,
      "ÙħÛĮÙĪÚº": 4433,
      "ĠÙĪØ±ÙĦ": 4434,
      "ĠÃ": 4435,
      "inc": 4436,
      "ĠÚ©Ø±ÙĦÛĮ": 4437,
      "ĠÚ¯Ø±Ø¯ÙĪÚº": 4438,
      "ĠØ¢Ø³Ø§ÙĨ": 4439,
      "ĠØŃÛĮØ§Øª": 4440,
      "ĠÙĪØ±ÙĦÚĪ": 4441,
      "Ġbelie": 4442,
      "ĠÙĦÛĮÙĨØ§": 4443,
      "Ġagainst": 4444,
      "ĠÚ©Ø§Ø±ÙĪØ¨Ø§Ø±": 4445,
      "Ġ40": 4446,
      "ĠÙħÙĦÙĪØ«": 4447,
      "Ø±ÛĮÚ©Ù¹Ø±": 4448,
      "ends": 4449,
      "ĠÙĲ": 4450,
      "ĠØ¨ÛĮÚĨ": 4451,
      "Ù¾ÛĮØ±": 4452,
      "Ġfamily": 4453,
      "ĠØ¹Ø¯Ùħ": 4454,
      "Ø³Ù¹Ùħ": 4455,
      "Ġtype": 4456,
      "ĠØ´Ø¨": 4457,
      "Ø®Ø·": 4458,
      "ĠØ³Ø§Ø²Ø´": 4459,
      "ĠÙģÙĨÚĪ": 4460,
      "ĠÙĦÚ¯Ø§ÙĨÛĴ": 4461,
      "ĠÙħØ¸Ø§ÛģØ±Ûģ": 4462,
      "ĠØµØŃØ§ÙģÛĮ": 4463,
      "ĠØŃÛĮØ¯Ø±": 4464,
      "Ġapplic": 4465,
      "Ġprofess": 4466,
      "Ø¹ÙĤØ§Ø¯": 4467,
      "ĠÙ¾ÙĦØ§ÙĨ": 4468,
      "Ġel": 4469,
      "ones": 4470,
      "ĠÙĥÛģ": 4471,
      "ĠØ¨ÛĮÙ¹Ú¾ÛĴ": 4472,
      "Ø§ÙĪÛĮ": 4473,
      "ĠÚ¯Ø±ÛĮ": 4474,
      "min": 4475,
      "Ġlim": 4476,
      "ĠÙĨÙĪØ¬ÙĪØ§ÙĨÙĪÚº": 4477,
      "urther": 4478,
      "ĠØ¨Ø¬Ù¹": 4479,
      "ĠÙħÙĦØ²Ùħ": 4480,
      "ĠØ±ÙĪØ´ÙĨ": 4481,
      "Ġhig": 4482,
      "Ú©Ùħ": 4483,
      "Ġareas": 4484,
      "Ġïº": 4485,
      "ĠØ®Ø±ÚĨ": 4486,
      "ĠÚ©Ø±ÙĪÚº": 4487,
      "Ġwomen": 4488,
      "ĠÙĨÙĤÙĦ": 4489,
      "ĠÚ©Ø§Ø¨": 4490,
      "ØĴ": 4491,
      "ĠØªÙħÛģØ§Ø±ÛĴ": 4492,
      "Ġrequire": 4493,
      "ĠÙĤÙĪØ§ÙĨÛĮÙĨ": 4494,
      "ĠÙħÙĨØ¸ÙĪØ±ÛĮ": 4495,
      "Ġpossible": 4496,
      "ĠÛģÙĨ": 4497,
      "Ġavailable": 4498,
      "ĠØ§ØªÙģØ§ÙĤ": 4499,
      "Ġlaw": 4500,
      "ĠÙħÙĤØ¨ÙĪØ¶Ûģ": 4501,
      "ĠÙħØ¬ÙħÙĪØ¹": 4502,
      "ya": 4503,
      "ĠØŃÙģØ§Ø¸Øª": 4504,
      "ĠÙĨØ«Ø§Ø±": 4505,
      "ĠAb": 4506,
      "ĠØ¨Ø¬ÛĴ": 4507,
      "Ġhapp": 4508,
      "Ġparticular": 4509,
      "ĠØŃÚ©ÙĪÙħØªÛĮ": 4510,
      "ĠØ®Ø±Ø§Ø¨": 4511,
      "ĠØ´Ú©Ø§": 4512,
      "Ø§Ø¬Ø¯": 4513,
      "ĠÙ¾Ø§Ø¨ÙĨØ¯": 4514,
      "Ġintern": 4515,
      "ĠØ§Ú¯ÙĦÛĴ": 4516,
      "ĠÙ¾ÚĳÚ¾ÙĨÛĴ": 4517,
      "ledge": 4518,
      "ĠÙĪØ¬": 4519,
      "Ġrole": 4520,
      "Ġseveral": 4521,
      "If": 4522,
      "Ġnatural": 4523,
      "org": 4524,
      "Ø¨Ø±Ø¯": 4525,
      "ĠÙħÙĦÚ©ÙĪÚº": 4526,
      "ator": 4527,
      "Ġanim": 4528,
      "ĠØ¨Ø·ÙĪØ±": 4529,
      "ĠÚĨÙĨØ§ÙĨÚĨÛģ": 4530,
      "Ø¦ÛĮØ±": 4531,
      "ĠØ§ØªØ±": 4532,
      "ÙĪØ²ÛĮØ±Ø§Ø¹Ø¸Ùħ": 4533,
      "ĠØ§ÙĨÚ©Ø´Ø§Ùģ": 4534,
      "Ġkey": 4535,
      "ptoms": 4536,
      "Ø¯Ùģ": 4537,
      "ĠÙĪÙĪ": 4538,
      "Ġdue": 4539,
      "ern": 4540,
      "47": 4541,
      "Ġhere": 4542,
      "ÙĬØ±": 4543,
      "oint": 4544,
      "ÙħÙĪÙĦÛĮ": 4545,
      "Ġothers": 4546,
      "2017": 4547,
      "ode": 4548,
      "ÙĤØ±Ø§Ø±": 4549,
      "eral": 4550,
      "Ø°ÛĮØ±": 4551,
      "Ù¾Ûģ": 4552,
      "ĠØªØµØ¯ÛĮÙĤ": 4553,
      "Ġhistory": 4554,
      "ĠÚ¯Ú¾ÙĨÙ¹ÛĴ": 4555,
      "Ġmult": 4556,
      "ĠØ®Ø·Ø±Ûģ": 4557,
      "ĠØ³ÙĦÛĮÙħ": 4558,
      "ĠÚĨØ±": 4559,
      "Ø§Ùĩ": 4560,
      "urity": 4561,
      "ĠØ§Ø·ÙĦØ§Ø¹Ø§Øª": 4562,
      "par": 4563,
      "ĠÙħØªÙĨ": 4564,
      "ĠÚ©ÛĮÙĪ": 4565,
      "ĠÙĦÚ¯Ø§ÛĮØ§": 4566,
      "Ġcal": 4567,
      "Ġorder": 4568,
      "Ġconsum": 4569,
      "ilities": 4570,
      "view": 4571,
      "ng": 4572,
      "Ø¨Ú¾Ø§Ø±Øª": 4573,
      "ĠØ¬ÛĮØ³ÛĮ": 4574,
      "ĠÙħÙħØ¨Ø±": 4575,
      "Ġbehav": 4576,
      "ĠÙħÚ©Ø§ÙĨ": 4577,
      "ÛĮØ¯Ú¯ÛĮ": 4578,
      "etw": 4579,
      "Ġstruct": 4580,
      "ĠØ§ÙĨØ¹ÙĤØ§Ø¯": 4581,
      "Ø§Ø·Ø±": 4582,
      "Ġdig": 4583,
      "Ġable": 4584,
      "ĠÙģØ§Ø±Ùħ": 4585,
      "ĠØªØ±Ø¬ÙħÛģ": 4586,
      "ĠØ§Ø±Ú©": 4587,
      "ĠØ§ÙĨÚ¯ÙĦ": 4588,
      "Ġopen": 4589,
      "ĠØ¨Ø±Ø§Ø¨Ø±": 4590,
      "Ġ2012": 4591,
      "ĠÚ©Ø±Ø³Ú©ØªÛĴ": 4592,
      "Ġconditions": 4593,
      "ĠØ§Ø¯Ø§Ø±Ûģ": 4594,
      "ĠÙģÙĪØ±Ø³Ø²": 4595,
      "ĠÛĮÙĪØ³": 4596,
      "por": 4597,
      "ÙĪØ¬ÛģØ¯": 4598,
      "ĠØ§ÙĨØ¯Ø§Ø²Ûģ": 4599,
      "ĠÛģØ²Ø§Ø±ÙĪÚº": 4600,
      "ĠNew": 4601,
      "Ø±ÛĮÙģÚ©": 4602,
      "ĠÙ¾ÛģÙĦÙĪ": 4603,
      "Ġfree": 4604,
      "ĠÚ¯ÙĪØ±ÙĨØ±": 4605,
      "ĠØªÙħÛģÛĮÚº": 4606,
      "ĠØ«ÙĤ": 4607,
      "Ġ2011": 4608,
      "ged": 4609,
      "45": 4610,
      "ajor": 4611,
      "ograph": 4612,
      "ST": 4613,
      "ĠØ®ÙĪØ¨ØµÙĪØ±Øª": 4614,
      "Ġlevels": 4615,
      "ĠÙħØ´Ú©ÙĦØ§Øª": 4616,
      "35": 4617,
      "Ġcurrent": 4618,
      "ĠÙ¾ÛģÙĨÚĨÛĴ": 4619,
      "ÙĪÙĨÚĪ": 4620,
      "ĠØ´Ø¹Ø¨Ûģ": 4621,
      "ek": 4622,
      "ĠÙ¾Ø§ÛĮØ§": 4623,
      "ĠØ²ÙħØ§ÙĨÛĴ": 4624,
      "Ġpress": 4625,
      "Ġensure": 4626,
      "Ġcertain": 4627,
      "ĠÙĪØ¢": 4628,
      "Ø³Ø§Ø¦": 4629,
      "ĠÙĨÛģØ§ÛĮØª": 4630,
      "ĠÚĪÛĮØ²": 4631,
      "ĠÙĨØ§ÙħÛĮ": 4632,
      "ĠÛ²Û°": 4633,
      "ĠØ±Ø®": 4634,
      "gin": 4635,
      "Ġcir": 4636,
      "ĠØ§Ø«Ø±Ø§Øª": 4637,
      "Ø§Ù¾ÙĨÛĴ": 4638,
      "ĠØ§Ø±Ú©Ø§ÙĨ": 4639,
      "ĠØ®ÙĪØ§Ø¬Ûģ": 4640,
      "ĠØ³ÙĨØª": 4641,
      "ĠÙģÛĮØµÙĦ": 4642,
      "Ġenc": 4643,
      "Ġmar": 4644,
      "Ø³Ø¹": 4645,
      "ĠÚ©ÙĦØ§Ùħ": 4646,
      "ĠØ³ÙĪÙĦ": 4647,
      "ĠBl": 4648,
      "Ġthings": 4649,
      "Ø±Ø²Ø§": 4650,
      "ÙĪÙ¾": 4651,
      "ĠØ´ÙħØ§ÙĦÛĮ": 4652,
      "ĠÙĦÙĪÙ¹": 4653,
      "Ø§ÙĪÛĮØ²": 4654,
      "ĠØ¬ÙħØ¹Ûģ": 4655,
      "ÙĲÙĳ": 4656,
      "Ġearly": 4657,
      "Ø¨Ú¾ÛĮ": 4658,
      "ĠØ¯ÛĮØ¯": 4659,
      "ĠØ³ÙĨØ¬": 4660,
      "ĠÙħØ³Ø§Ùģ": 4661,
      "ĠØ¹Ø¨Ø§Ø¯Øª": 4662,
      "ĠÙħØµØ±ÙĪÙģ": 4663,
      "ĠÛģØªÚ¾ÛĮ": 4664,
      "ĠÛģÙĪÚ©Ø±": 4665,
      "Ġbased": 4666,
      "Ø§Ú©ÛĮ": 4667,
      "Ġsay": 4668,
      "aut": 4669,
      "acy": 4670,
      "ĠÙĪÙĦ": 4671,
      "und": 4672,
      "39": 4673,
      "ĠØŃØµÙĪÙĦ": 4674,
      "Ø³ÙħØ§ÙĨ": 4675,
      "ĠØ´ÙĪÛģØ±": 4676,
      "ĠÙħÙĪÙĤÙģ": 4677,
      "Ġfuture": 4678,
      "ĠØ±ÛĮÙĦÛĮ": 4679,
      "round": 4680,
      "ĠØ¬Ø¯ÙĪØ¬ÛģØ¯": 4681,
      "Ú©Ø³ÛĮ": 4682,
      "ĠØ°Ø§Øª": 4683,
      "Ø¥": 4684,
      "ĠTe": 4685,
      "ÙĦØ§Ø¦ÛĮ": 4686,
      "ĠÙĪØ§Ù¾Ø³ÛĮ": 4687,
      "Ø¹Ø§Øª": 4688,
      "Ġcontrib": 4689,
      "Ø¨ÙĪÚº": 4690,
      "ĠÙħÙĨØ§Ø³Ø¨": 4691,
      "ĠØ¹Ø¬": 4692,
      "ÙĨÛģÛĮÚº": 4693,
      "ĠØªÙĪØ§ÙĨ": 4694,
      "48": 4695,
      "Ġhy": 4696,
      "ĠØŃØ§ÙħÙĦ": 4697,
      "Ġfunction": 4698,
      "Ġcome": 4699,
      "ĠØ§ÙĨÚĪÛĮØ§": 4700,
      "Ø§Ø¤Ø³": 4701,
      "Ø¬ÛĮØŃ": 4702,
      "ÙĨÚ¯ÛĴ": 4703,
      "ĠÚ©ÙĦÛĮ": 4704,
      "ĠØ¹Ø¨Ø¯Ø§ÙĦÙĦÛģ": 4705,
      "Ġindividuals": 4706,
      "ending": 4707,
      "ĠÙħØ®ØµÙĪØµ": 4708,
      "ĠØªÛĮØ§Ø±ÛĮ": 4709,
      "Ġz": 4710,
      "ĠIm": 4711,
      "Ġfore": 4712,
      "gen": 4713,
      "ĠÙħÙĪØ³ÛĮ": 4714,
      "ĠØ°ÛģÙĨ": 4715,
      "icult": 4716,
      "ĠRes": 4717,
      "Ø°ÛĮ": 4718,
      "ĠÚ©ÙħØ²ÙĪØ±": 4719,
      "Ġmill": 4720,
      "ÙĤØ±Ø¢ÙĨ": 4721,
      "Ġreport": 4722,
      "âĢĺâĢĺÛĶ": 4723,
      "erc": 4724,
      "ĠÙħÙĤØ§ÙħØ§Øª": 4725,
      "ÙĳÙı": 4726,
      "36": 4727,
      "ĠMay": 4728,
      "Ġperiod": 4729,
      "ĠØ¨ÙĦØª": 4730,
      "Ñĥ": 4731,
      "Ġsuccess": 4732,
      "ĠØ§Ú©Ø«": 4733,
      "Ø§ÙĦØŃ": 4734,
      "ĠÛĮÙĪØ±Ù¾": 4735,
      "Ø§Ø¦Ø³": 4736,
      "abor": 4737,
      "Ø·Ûģ": 4738,
      "ĠÙĪØ³Ø§Ø¦ÙĦ": 4739,
      "ĠGo": 4740,
      "Ø¨ØªÛģ": 4741,
      "Ġfre": 4742,
      "Ø²Ø§Ø²": 4743,
      "ĠØ§ÙħØ¯Ø§Ø¯": 4744,
      "ames": 4745,
      "ĠÚĨÛĮÙĦ": 4746,
      "ression": 4747,
      "Ġoccur": 4748,
      "ĠØ´ÛģØ±ÙĪÚº": 4749,
      "arc": 4750,
      "ox": 4751,
      "na": 4752,
      "ĠØ§ÙĨØªÙĤØ§ÙĦ": 4753,
      "ĠÚ¯ÙĦÚ¯Øª": 4754,
      "ĠÚ©Ø±Ø§ÙĨÛĴ": 4755,
      "Ġsw": 4756,
      "37": 4757,
      "Ġ197": 4758,
      "ĠØ³ÙĦÙħØ§ÙĨ": 4759,
      "ĠÙ¾ÛĮØ³ÛĴ": 4760,
      "Ġwhe": 4761,
      "ĠØ¨Ø±Ø¯Ø§Ø´Øª": 4762,
      "Ø±Ø§Ùģ": 4763,
      "ĠCl": 4764,
      "ĠÙĦÙħ": 4765,
      "Ø§ÙħØ±ÛĮÚ©ÛĮ": 4766,
      "ĠÙĦØŃ": 4767,
      "ances": 4768,
      "Ġamount": 4769,
      "ĠÛĮØ§ÙģØªÛģ": 4770,
      "ĠÙĦÛģØ°Ø§": 4771,
      "ised": 4772,
      "ĠÙ¾Ø§Ø¦ÛĴ": 4773,
      "ĠÙħØ´Ø±Ùģ": 4774,
      "ĠØ±ÙĪØ§Úº": 4775,
      "Ġreduce": 4776,
      "ÚĳÙĪÚº": 4777,
      "Ù¾Ø³": 4778,
      "ĠØ§ÙĪÛģ": 4779,
      "ĠØ±ÛģØªÛĮ": 4780,
      "Ġsays": 4781,
      "ĠØ®ÙĦÛĮ": 4782,
      "ĠÙ¾Ø§ÙĨ": 4783,
      "ĠÙĪÙĦÛĮ": 4784,
      "ĠØŃÙĪØµ": 4785,
      "Ġur": 4786,
      "Ø§ÛĮÙħ": 4787,
      "oring": 4788,
      "ĠØ¨ÙĦØªØ³ØªØ§ÙĨ": 4789,
      "ape": 4790,
      "ĠÙĤÙĦ": 4791,
      "ĠØ§ÛĮØ±Ø§ÙĨÛĮ": 4792,
      ")ÛĶ": 4793,
      "ĠØ°ÛĮÙĦ": 4794,
      "ĠØ§ØŃØªØ³Ø§Ø¨": 4795,
      "ĠÚĪÛĮÙħ": 4796,
      "Ø§ÙħØª": 4797,
      "ĠÙħØ³ØªØ±Ø¯": 4798,
      "38": 4799,
      "ĠSo": 4800,
      "ĠØ¢Ø¦ÙĨØ¯Ûģ": 4801,
      "ĠÙ¾Ú©": 4802,
      "ĠØ§ÙĦØ²Ø§ÙħØ§Øª": 4803,
      "ĠØ¯Ø§Ø¦Ø±": 4804,
      "ĠÙĨØ¬ÛĮ": 4805,
      "ips": 4806,
      "Ú¯ÙĨ": 4807,
      "ĠÚ©ÙĪØ¦Ù¹Ûģ": 4808,
      "ye": 4809,
      "ĠØªØ±Ø¬ÛĮØŃ": 4810,
      "ÛģØ±Ûģ": 4811,
      "ĠØ®ÛĮØ§ÙĦØ§Øª": 4812,
      "ĠØ®Ø§ØªÙħÛģ": 4813,
      "ĠÙħÙĦØ§Ø²ÙħÛĮÙĨ": 4814,
      "Ø§Ø¸Ø±": 4815,
      "ĠØ³ÛģÙĪÙĦØª": 4816,
      "ĠØ±ÛĮÙĨ": 4817,
      "ĠØ´Ø±ÛĮ": 4818,
      "br": 4819,
      "Ø´ÙĪØ±": 4820,
      "Ġ198": 4821,
      "ÙĪÙĦÛĮØ§Øª": 4822,
      "ĠÙĪØ§Ø¨": 4823,
      "Ø§ØŃØ¯": 4824,
      "ĠØŃÙħÙĦÙĪÚº": 4825,
      "ĠÙħØŃØ±ÙĪÙħ": 4826,
      "Ð´": 4827,
      "ission": 4828,
      "ÛģÙĪ": 4829,
      "ended": 4830,
      "ĠØ¹Ø±ØµÛĴ": 4831,
      "Ġstep": 4832,
      "ÛĮÚ©Ù¹Ø±": 4833,
      "ÙħÙĦÚ©Øª": 4834,
      "Ġtimes": 4835,
      "ĠØŃØµÛĴ": 4836,
      "ĠØ§ï·²": 4837,
      "ĠØ§Ø±Ø´Ø§Ø¯": 4838,
      "ived": 4839,
      "Ø§ÙĪÛĮØ±": 4840,
      "Ġskills": 4841,
      "Ġlast": 4842,
      "ĠØ¯ÙģØ¹Ûģ": 4843,
      "Ġeducation": 4844,
      "Ġlanguage": 4845,
      "ĠÙ¾Ú©Úĳ": 4846,
      "ĠWhat": 4847,
      "Ġgovernment": 4848,
      "ĠØ¬ÙĦØ³": 4849,
      "ĠÛĮÙĪØ³Ùģ": 4850,
      "Ġquality": 4851,
      "ĠØ±ØŃÙħØª": 4852,
      "ÙĨØ§ÙħÛģ": 4853,
      "ĠÙħÙĦØª": 4854,
      "ĠØ§ÛĮØ¦Ø±": 4855,
      "ĠØ·Ø±Ø²": 4856,
      "ĠÚ©Ú¾ÚĳØ§": 4857,
      "ÙĦÙĪÚ©": 4858,
      "Ġhard": 4859,
      "ĠØªØ¨Ø§Ø¯": 4860,
      "Ġmen": 4861,
      "ÛģÙĪÙħ": 4862,
      "ĠØµÙĪØ¨Ûģ": 4863,
      "Ù¾ÙĦ": 4864,
      "ered": 4865,
      "asing": 4866,
      "atch": 4867,
      "ĠØ³ÙħØ¬Ú¾Ø§": 4868,
      "ĠØ¨Ø±Ø·Ø§ÙĨÙĪÛĮ": 4869,
      "ĠØ§ÙĨØªØ¸Ø§Ø±": 4870,
      "Ġ>": 4871,
      "Ġprotect": 4872,
      "sy": 4873,
      "Home": 4874,
      "ĠØ®Ø§Ø·Ø±": 4875,
      "Ġmonth": 4876,
      "ĠÚ©Ú¾ÙĪ": 4877,
      "ÙĪÙĤØª": 4878,
      "ĠÛģÙĪØ³Ú©ØªØ§": 4879,
      "Ġproblems": 4880,
      "ilar": 4881,
      "Ġrun": 4882,
      "ĠÙħÙĨÙ¹": 4883,
      "comm": 4884,
      "ĠØ¨Ø±Ø§Ø¯Ø±ÛĮ": 4885,
      "Ø±ÛĮØŃ": 4886,
      "âĢ®": 4887,
      "Ðµ": 4888,
      "ĠØ§ÙħØªØŃ": 4889,
      "Ġnut": 4890,
      "ĠØ¯ÙĪØ³Ø±ÙĪÚº": 4891,
      "ĠØ³Ø±Ø¯Ø§Ø±": 4892,
      "over": 4893,
      "ĠWith": 4894,
      "ĠØ³ÛĮÙ¹": 4895,
      "ĠØ¯ÙĪÙĦØª": 4896,
      "ĠÙħØ¯Øª": 4897,
      "Ø§Ø³ØªÛĮ": 4898,
      "Ġunderstanding": 4899,
      "ĠÙĨØ²Ø¯": 4900,
      "ĠØ¬ÛģØ§Ø²": 4901,
      "Ġdam": 4902,
      "ĠÙĨÛĮÚ©": 4903,
      "ĠØ³ÛĮÚ©Ú¾": 4904,
      "ĠUS": 4905,
      "Ġnon": 4906,
      "ØªØ±Ø¬": 4907,
      "ĠØ§Ø¨ØªØ¯Ø§Ø¦ÛĮ": 4908,
      "Ġmil": 4909,
      "Ġmajor": 4910,
      "ĠØ±ÙĪÚ©ÙĨÛĴ": 4911,
      "ĠØ³Ú©ÛĮÙĪØ±Ù¹ÛĮ": 4912,
      "ĠØªÙĪÙĤ": 4913,
      ")ØĮ": 4914,
      "Ġheart": 4915,
      "ÙĦØ§ÙĤÛĮ": 4916,
      "ĠØ·Ø§ÛģØ±": 4917,
      "Ġsymptoms": 4918,
      "ÙĨÚ¯Ø²": 4919,
      "Ġnecess": 4920,
      "Ġflow": 4921,
      "ĠÙĦÙĨØ¯ÙĨ": 4922,
      "ĠUniversity": 4923,
      "Ø³ÙĦ": 4924,
      "ĠØ±Ø´": 4925,
      "ĠÚĪÛĮÙĪ": 4926,
      "Ġeffic": 4927,
      "Ġissues": 4928,
      "ĠÛĶÛĶ": 4929,
      "ĠÙĨÙĪØ§Ø²Ø´Ø±ÛĮÙģ": 4930,
      "Ġincrease": 4931,
      "Ġproblem": 4932,
      "ÙĪØ¬Ú¾": 4933,
      "ush": 4934,
      "ðŁ": 4935,
      "Ġland": 4936,
      "ĠØ§ÙĦØ¨": 4937,
      "Ġonline": 4938,
      "Ġlot": 4939,
      "Ù¾Ø§Ø±Ù¹ÛĮ": 4940,
      "ĠØ¢Ø¦ÛĮÚº": 4941,
      "ĠAM": 4942,
      "ĠØ±Ø´ÛĮØ¯": 4943,
      "ĠâĨ": 4944,
      "ĠØ§Ù¾ÛĮÙĦ": 4945,
      "Ġlocal": 4946,
      "Ø§Ø¯Ùħ": 4947,
      "ton": 4948,
      "oot": 4949,
      "Ġtypes": 4950,
      "ĠÙĦØ§Ø´": 4951,
      "ĠØ³ÛĮØ±ÛĮØ²": 4952,
      "Ġbi": 4953,
      "aging": 4954,
      "ĠÙ¾Ø±ÙĪÙģÛĮØ³Ø±": 4955,
      "ØĲ": 4956,
      "Ġcomput": 4957,
      "ĀĀ": 4958,
      "Ġcase": 4959,
      "of": 4960,
      "ĠÙ¾Ø±ÛĮØ´Ø§ÙĨ": 4961,
      "Ø§Ø±Ù¹": 4962,
      "Ġcommunity": 4963,
      "ĠØ¹ÙĪØ±ØªÙĪÚº": 4964,
      "ĠØ§ÙĬ": 4965,
      "Ġteam": 4966,
      "ĠØ¬Ø§Ø³": 4967,
      "Ġrespons": 4968,
      "ĠØµØ§Ø±ÙģÛĮÙĨ": 4969,
      "ĠÙħØŃØ¯ÙĪØ¯": 4970,
      "ĠÙħØ¹ÙħÙĪÙĦÛĮ": 4971,
      "ĠÚ©Ø«": 4972,
      "ĠØŃØ§ÙĦÛĮÛģ": 4973,
      "Ø¶ÙĦ": 4974,
      "__": 4975,
      "ÙĪÙĨØ¯": 4976,
      "ĠÚ©ÛĮÙħÙ¾": 4977,
      "ĠØ§Ø³ÙĦ": 4978,
      "Ġtoday": 4979,
      "ĠÛģØ¬": 4980,
      "Ġrece": 4981,
      "ØªÙĨ": 4982,
      "Ġdog": 4983,
      "Ø§Ø¹Ø´": 4984,
      "2019": 4985,
      "ĠÚĨØ§ÙĦ": 4986,
      "crib": 4987,
      "ĠØ¯ÙħØ§Øº": 4988,
      "ĠÚ©ÛģØªØ§": 4989,
      "obal": 4990,
      "ÙĪØ§Úº": 4991,
      "Ġassoci": 4992,
      "ĠÙĦÙĨÚ©": 4993,
      "ĠØ¨Ø±ÙĤØ±Ø§Ø±": 4994,
      "Ø§Ø²ÛĴ": 4995,
      "Ġcy": 4996,
      "ĠÙħÙģØª": 4997,
      "Ø§Ø¦ÛĮÙĪ": 4998,
      "ffic": 4999,
      "St": 5000,
      "ĠÙĥØ§": 5001,
      "ĠÙĪÚ©ÛĮÙĦ": 5002,
      "face": 5003,
      "ĠÙ¹ÙĪÙ¹": 5004,
      "aster": 5005,
      "Ġamong": 5006,
      "We": 5007,
      "ĠÙĪØ¶Ø§ØŃØª": 5008,
      "Ġfil": 5009,
      "Ġunt": 5010,
      "ĠØ³ÛĮÚ©ÛĮ": 5011,
      "ĠØªØ¬ÙĪÛĮØ²": 5012,
      "atory": 5013,
      "ĠØ¢Ùħ": 5014,
      "ĠØ¹ÙħØ§Ø±Øª": 5015,
      "Ġlet": 5016,
      "utions": 5017,
      "46": 5018,
      "ÙģÛĮÛģ": 5019,
      "Ø§Ø¦ÙĪ": 5020,
      "ĠÚ©Ø§Ø±ÚĪ": 5021,
      "Â»": 5022,
      "ĠÙĥÙĪ": 5023,
      "Ø·ÙĦ": 5024,
      "Ġmaintain": 5025,
      "Ġfollowing": 5026,
      "ĠØ¯Ø³ØªÛĮØ§Ø¨": 5027,
      "Ġwar": 5028,
      "ÛĮÙĦÛĴ": 5029,
      "Ġage": 5030,
      "ours": 5031,
      "Ġphysical": 5032,
      "ding": 5033,
      "ĠØ§Ø±Ø¯": 5034,
      "ware": 5035,
      "ole": 5036,
      "Ġtemper": 5037,
      "ĠÙħØ§ÚĪÙĦ": 5038,
      "ĠÚĪÙ¾Ù¹ÛĮ": 5039,
      "Ġcr": 5040,
      "ĠØ¶ÙħØ§ÙĨ": 5041,
      "ĠBe": 5042,
      "ĠØªØ®ÙĦÛĮ": 5043,
      "ret": 5044,
      "ĠØŃØ§ÙģØ¸": 5045,
      "ators": 5046,
      "ĠÙħØªØ¹ÙĦÙĤÛģ": 5047,
      "Ġcomb": 5048,
      "ĠØ³ÙĨØ¨Ú¾": 5049,
      "ana": 5050,
      "ÛĮÙĨØ§": 5051,
      "Ø®Ø±ÛĮ": 5052,
      "idence": 5053,
      "ĠØ¨Ø±Ø¢ÙħØ¯": 5054,
      "ĠÙ¾ÚĳØªØ§": 5055,
      "ĠØ§ÙĤØ¯Ø§Ùħ": 5056,
      "ÙĪØ§Ø¦ÛĮ": 5057,
      "ĠØ³Ø³Ù¹Ùħ": 5058,
      "ĠâĢĮ": 5059,
      "ĠÙħÙĨØµÙĪØ¨ÙĪÚº": 5060,
      "chie": 5061,
      "Ġcrit": 5062,
      "Ġcru": 5063,
      "Ġlist": 5064,
      "ĠØ§ÙĨÚ¯Ø±ÛĮØ²ÛĮ": 5065,
      "ĠÙĪÚ©Ù¹": 5066,
      "leep": 5067,
      "fact": 5068,
      "Ø®Ø§Ø±": 5069,
      "ecially": 5070,
      "ĠØªØµØ§ÙĪÛĮØ±": 5071,
      "Ġdifficult": 5072,
      "ĠØ§Ø¯Ø§Ø¦ÛĮÚ¯ÛĮ": 5073,
      "Ûĵ": 5074,
      "ĠØ¯ÙĪØ±ÛĴ": 5075,
      "ĠØªÙĪÚº": 5076,
      "Ġgroup": 5077,
      "ĠÙ¾Ø§Ø¦ÛĮ": 5078,
      "ĠÙģØ§Ø¦ÙĨ": 5079,
      "Ġmind": 5080,
      "mit": 5081,
      "ĠØ¨ÚĨÛģ": 5082,
      "Ø¹ÙħÙĦ": 5083,
      "https": 5084,
      "Ġspecial": 5085,
      "li": 5086,
      "oney": 5087,
      "Ġâ": 5088,
      "ĠØ¹Ø±ØµÛģ": 5089,
      "Ø±Ø§Ø¡": 5090,
      "ething": 5091,
      "Ø¯Ø§ÙĨÙĪÚº": 5092,
      "ĠÚĨÛĮÙĦÙĨØ¬": 5093,
      "ĠÛģÙĪÙĨÛĮ": 5094,
      "ÙħØ§ÙĨÛĮ": 5095,
      "alk": 5096,
      "izing": 5097,
      "ĠØªØ¬Ø§Ø±Øª": 5098,
      "ĠÙħØ¹Ø§ÙĪÙĨ": 5099,
      "ĠØ¨ÙĨØ§ÙĨØ§": 5100,
      "Ġgrowth": 5101,
      "''": 5102,
      "sh": 5103,
      "49": 5104,
      "Ġrele": 5105,
      "Ġplants": 5106,
      "ĠÙ¹Ø±ÛĮÙģÚ©": 5107,
      "ĠÛĮÙĪØ±Ù¾ÛĮ": 5108,
      "ĠØ´Ø§Ø¹Ø±": 5109,
      "sel": 5110,
      "ung": 5111,
      "ĠÙħØ¬ÙħÙĪØ¹ÛĮ": 5112,
      "ĠØ¨ÛģØªØ±ÛĮ": 5113,
      "ĠØ±ÙĪÙ¾": 5114,
      "ĠÙģØ§Ø±ÙĪÙĤ": 5115,
      "ians": 5116,
      "Ġchalleng": 5117,
      "ĠØ³Ø§ÙĦÙĪÚº": 5118,
      "ĠÙĪØ³ÛĮØ¹": 5119,
      "osp": 5120,
      "Ø³Ù¹Ø±ÛĮÙĦÛĮØ§": 5121,
      "raw": 5122,
      "ÙĪÙĨÚ¯": 5123,
      "ÙħØ²ÛĮØ¯": 5124,
      "ĠÛģØ§Ø¤Ø³": 5125,
      "ĠØ·ÙĦØ¨Ûģ": 5126,
      "Ġchanges": 5127,
      "ibility": 5128,
      "Ø§ÙĨÚ©Ûģ": 5129,
      "Ġdeterm": 5130,
      "ĠÚ©ÙħØ§ÙĦ": 5131,
      "ety": 5132,
      "ĠÛģÙĨÚ¯": 5133,
      "ĠØ¹Ø±Ø§ÙĤ": 5134,
      "Ġbir": 5135,
      "ĠØ²ÛĮ": 5136,
      "ĠØ¹ÙĦÙħÛĮ": 5137,
      "Ġsens": 5138,
      "Ġknowledge": 5139,
      "Ġname": 5140,
      "Ġacross": 5141,
      "Ġobject": 5142,
      "ĠØ³ÛĮÚ©ÛĮÙĪØ±Ù¹ÛĮ": 5143,
      "Ġbro": 5144,
      "Ġthink": 5145,
      "ĠCan": 5146,
      "ĠØ²ÙħØ§ÙĨÛģ": 5147,
      "Ġways": 5148,
      "ĠØ®Ø·Ø±": 5149,
      "ĠÙĨÛĮÙ¹": 5150,
      "ĠÚĨÙĪÙĨÚ©Ûģ": 5151,
      "ĠØ³Ø§ÙĦØ§ÙĨÛģ": 5152,
      "ĠÙħÛģØ§Ø¬": 5153,
      "ĠØ§ÙĨØ³Ø§ÙĨÛĮØª": 5154,
      "ĠÙħÙĦØ²ÙħØ§ÙĨ": 5155,
      "ĠØ§Ù¹": 5156,
      "ĠÙħØ¨Øª": 5157,
      "ĠÚĨÛĮÙħ": 5158,
      "Ġsecond": 5159,
      "ĠÛģÙĬÚº": 5160,
      "ĠØ¯ÛĮÚ©Ú¾ÛĮÚº": 5161,
      "ER": 5162,
      "ĠØ±Ø§ÙĪÙĦ": 5163,
      "ĠØ¯ÛĮÙĪØ§Ø±": 5164,
      "Pre": 5165,
      "ĠØ³ÙĪØ¯": 5166,
      "edia": 5167,
      "ately": 5168,
      "ĠÙħØ«Ø¨Øª": 5169,
      "aring": 5170,
      "ĠØ§ÙģÙĪØ§Ø¬": 5171,
      "ke": 5172,
      "ĠØ¨Ú¾ÙĪÙĦ": 5173,
      "ĠØ´Ø§Ø¹Ø±ÛĮ": 5174,
      "Ġbenefits": 5175,
      "yn": 5176,
      "60": 5177,
      "ĠÚĪØ§Ø¦Ø±ÛĮÚ©Ù¹Ø±": 5178,
      "Ġaddress": 5179,
      "Ġcountry": 5180,
      "ÛĶâĢĺ": 5181,
      "olution": 5182,
      "Ø³Ù¾ÛĮ": 5183,
      "ØªØ¨": 5184,
      "Ø±ÛĮØ§": 5185,
      "ĠCol": 5186,
      "ÙĪÛĮÙ¹": 5187,
      "ÙĪÙ¹ÙĪ": 5188,
      "ĠØ®Ø§ØªÙħÛĴ": 5189,
      "Ġwhy": 5190,
      "ĠÙĨØ²Ø¯ÛĮÚ©": 5191,
      "ØŃÚ©Ø§Ùħ": 5192,
      "ĠØªÙĪØ§ÙĨØ§Ø¦ÛĮ": 5193,
      "ĠØ¹Ø¯": 5194,
      "Ġnews": 5195,
      "ÙĨÚĪØ§": 5196,
      "ÙģÛĴ": 5197,
      "ĠÙħØ²Ø§ØŃ": 5198,
      "Ġhealthy": 5199,
      "ĠÙĤØ¨Ø¶Ûģ": 5200,
      "rist": 5201,
      "ĠØ§Ø®ØªØª": 5202,
      "Ġhead": 5203,
      "ÛĮÙĨØ³": 5204,
      "Ø§Ø¦ÙĪÚº": 5205,
      "ÙĦÛĮØª": 5206,
      "ĠØ§ÙĪÙĤØ§Øª": 5207,
      "Ø®Ûģ": 5208,
      "ĠÚ©ÛĮÙħ": 5209,
      "ĠÙħÙĨØ³": 5210,
      "Ġalways": 5211,
      "atures": 5212,
      "ĠØ¨ÙĨØ§Ø¦ÛĮ": 5213,
      "ĠØ§ÙĨÙ¹Ø±ÙĨÛĮØ´ÙĨÙĦ": 5214,
      "urop": 5215,
      "ĠØ§Ø³Ù¾ØªØ§ÙĦ": 5216,
      "ires": 5217,
      "especially": 5218,
      "Ġhttps": 5219,
      "ĠÙħØ®Ø§ÙĦÙģØª": 5220,
      "Ø§ÛģÙĦ": 5221,
      "ĠÛģÛĮÙĦ": 5222,
      "ĠØ¹Ø±Ø¶": 5223,
      "Ġvir": 5224,
      "ĠØ§ØªÙĨÛĴ": 5225,
      "Ø²ÛĮÛģ": 5226,
      "ĠÚĨÚ¾ÙĪÙ¹ÛĮ": 5227,
      "Ġ2010": 5228,
      "Ġscient": 5229,
      "ĠØ¬ÙĨØ³ÛĮ": 5230,
      "Ú©ÙĪØ±Ûģ": 5231,
      "ĠAf": 5232,
      "ĠÙĨÚ¯Ø§Ø±": 5233,
      "Ø§Ø¦ÙĤ": 5234,
      "31": 5235,
      "Ø¬Ø¦ÛĴ": 5236,
      "ĠÙħÙħÙĦÚ©Øª": 5237,
      "Ġ31": 5238,
      "ĠØ¬ÙĨØª": 5239,
      "ĠØ¢ÙĨÚ©Ú¾ÙĪÚº": 5240,
      "ope": 5241,
      "ĠØªØ±ÙħÛĮÙħ": 5242,
      "ĠÙģÙĦØ³Ø·ÛĮÙĨ": 5243,
      "ĠÙħÙģØªÛĮ": 5244,
      "ï¯": 5245,
      "ĠØ³ÛĮÙĨØ¦Ø±": 5246,
      "ĠØ§ØµÙĪÙĦ": 5247,
      "ĠØ¨Ø²Ø±Ú¯": 5248,
      "ĠÙħØŃØ¨": 5249,
      "Ø¯ÙĪØ³Ø±ÛĮ": 5250,
      "Ø§Ø±Ø§Øª": 5251,
      "ĠÚĨÛĮÚ©": 5252,
      "Ġactivities": 5253,
      "ĠØ¬Ø§Ø±": 5254,
      "ĠÙģØ±ÙħØ§": 5255,
      "Ġdiet": 5256,
      "Ġsince": 5257,
      "ĠUnited": 5258,
      "ĠÚ©ÙĦØ§Ø³": 5259,
      "ĠÚ©ÛĮÚº": 5260,
      "ĠÙĦØŃØ§Ø¸": 5261,
      "ĠØ§ÙĨØªØ®Ø§Ø¨ÛĮ": 5262,
      "ĠØ¹Ø³Ú©": 5263,
      "Ġspecies": 5264,
      "Ø±ÛĮÙ¹Ø±ÛĮ": 5265,
      "Ø§Ø¯ÙĤ": 5266,
      "ĠÙ¾ÛĮØ¯Ø§ÙĪØ§Ø±": 5267,
      "ĠÙģØ¶Ø§Ø¦ÛĮ": 5268,
      "ĠØ§ÙĦØ±ØŃÙħÙĨ": 5269,
      "Ġput": 5270,
      "ĠØºÙħ": 5271,
      "There": 5272,
      "Ġnear": 5273,
      "ÙĬÙħ": 5274,
      "ĠÙģÙĪØ±Ùħ": 5275,
      "ĠÙħÙĪÙ¹Ø±": 5276,
      "ĠØ¨Ø®Ø§Ø±ÛĮ": 5277,
      "ĠÙ¾Ø±Ø³Øª": 5278,
      "Ø°Ø±": 5279,
      "orth": 5280,
      "ĠØ±ÙĪØ§": 5281,
      "ĠÙĪØ§ØŃØ¯": 5282,
      "ĠØ§Ø±Ø§Ø¯": 5283,
      "ÙģØ±ÛĮ": 5284,
      "ĠJan": 5285,
      "ĠÙħØŃØªØ±Ùħ": 5286,
      "ĠØ¢Ø±ÙħÛĮ": 5287,
      "Ġgive": 5288,
      "ĠÚ©Ú¾ÙĦØ§ÚĳÛĮ": 5289,
      "ĠØ¶ÙħØ§ÙĨØª": 5290,
      "ĠÚ¯Ø±ÙģØªØ§Ø±ÛĮ": 5291,
      "ĠÙĨØ§ÙģØ°": 5292,
      "Ġstrateg": 5293,
      "ĠØ§ÙĦØ·": 5294,
      "ĠØ§Ø¶Ø§ÙģÛĴ": 5295,
      "ĠÚ©ÙĦØ¨": 5296,
      "Ġshort": 5297,
      "Ø³Ø§Ùħ": 5298,
      "ØŃÚ©Ùħ": 5299,
      "ĠÙħØ±Ø²Ø§": 5300,
      "Ġsure": 5301,
      "Ġrange": 5302,
      "ĠØ¯Ø§Ø¯": 5303,
      "Ġorig": 5304,
      "ĠØ³Ø±ØŃØ¯": 5305,
      "Ġele": 5306,
      "Ġaffect": 5307,
      "ĠÙ¾ÚĨ": 5308,
      "ÙĪØ¯Ûģ": 5309,
      "ĠØ´ÙĪØ±": 5310,
      "ights": 5311,
      "Ġworking": 5312,
      "ØªØ±Ø§Ùħ": 5313,
      "ĠØ§ÛĮÙ¹": 5314,
      "put": 5315,
      "ĠØ§ÙħØªØŃØ§ÙĨ": 5316,
      "Ġhigher": 5317,
      ".,": 5318,
      "Ø±Ø¯ÛĮ": 5319,
      "55": 5320,
      "ĠØ²Ø¨Ø±Ø¯": 5321,
      "ĠÙħÙĨØ¯Ø±": 5322,
      "Ø°ÛĮØ¨": 5323,
      "ĠØµØŃØ§Ø¨Ûģ": 5324,
      "ĠÚ©Ø±ÛĮ": 5325,
      "Ġresources": 5326,
      "ĠÙģØ±Ø¶": 5327,
      "ĠØ¨Ù¹": 5328,
      "ĠÚĨÚ¾Ù¾": 5329,
      "ĠØ§Ø®ÙĦØ§ÙĤÛĮ": 5330,
      "app": 5331,
      "ĠÙ¹Ø±ÛĮ": 5332,
      "Ġlikely": 5333,
      "Ø³Ø¹ÙĪØ¯ÛĮ": 5334,
      "ØªÛĮØ¨": 5335,
      "Ġsomething": 5336,
      "ables": 5337,
      "ĠØ§ÙĨØ³Ø§ÙĨÙĪÚº": 5338,
      "ĠÚ©Ú¾ÙĦØ§ÚĳÛĮÙĪÚº": 5339,
      "ĠØŃØ±Ø§Ùħ": 5340,
      "ÛĮÙĨÙĪÚº": 5341,
      "ÙĨÚĪÛĴ": 5342,
      "ĠØªÙĨØ§Ø²": 5343,
      "Ù¹Ø±ÙĪÛĮÙĪ": 5344,
      "aces": 5345,
      "ĠØ±ÙĪØ§ÙĨÛģ": 5346,
      "ĠÚ¯Ø°Ø´ØªÛģ": 5347,
      "ĠØ´Ø§ÙĨØ¯Ø§Ø±": 5348,
      "Ø§ÙħØ±ÛĮÚ©Ûģ": 5349,
      "ĠAmerican": 5350,
      "ĠÙħØ¨ÙĨÛĮ": 5351,
      "âĢ¬âĢ®": 5352,
      "ĠØŃÛĮØ±Øª": 5353,
      "ĠØ´ÛģØ§Ø¯Øª": 5354,
      "ÛĨ": 5355,
      "ĠÚ©Ø§Ø¨ÛĮÙĨÛģ": 5356,
      "Ø§ÙĦØ§": 5357,
      "Ø§Ø³Ù¹": 5358,
      "AR": 5359,
      "ĠØªØ´ÙĪÛĮ": 5360,
      "Ġachie": 5361,
      "Ġï»": 5362,
      "ĠØ¨Ú¾Ø§Ø±ÛĮ": 5363,
      "ĠØµØ¯Ø§Ø±Øª": 5364,
      "Ġspace": 5365,
      "ĠÙģØ§Ø¦ÙĨÙĦ": 5366,
      "Ġstress": 5367,
      "ĠÙ¹ÛĮÚ©": 5368,
      "ĠØ´ÛģØ²Ø§Ø¯": 5369,
      "Ø¯ÙĨÛĮØ§": 5370,
      "ĠØ¯Ú¾ÙħØ§Ú©ÛĴ": 5371,
      "ĠÙĪÛģÛĮÚº": 5372,
      "Ø§Ø³Ùħ": 5373,
      "ĠÙ¾ÛģÚĨ": 5374,
      "ĠØ¹Ø±Ùģ": 5375,
      "ĠØ§Ú¯Ø±ÚĨÛģ": 5376,
      "99": 5377,
      "ĠØ§ÙĦØ¨ØªÛģ": 5378,
      "oura": 5379,
      "Ø³ÛĮØ±": 5380,
      "Ġexperien": 5381,
      "ĠØ±ÙģØªØ§Ø±": 5382,
      "ored": 5383,
      "Ġespecially": 5384,
      "ĠÙħØ¬ÛĮØ¯": 5385,
      "Ġturn": 5386,
      "ns": 5387,
      "ĠØµØŃØ§Ùģ": 5388,
      "Ġstrong": 5389,
      "ĠÙħØ¤": 5390,
      "ĠØ¯ÛĮØ´": 5391,
      "Ø§Ø¤ÙĨÙ¹": 5392,
      "Ø¹Ø§": 5393,
      "ĠÙ¾Ø¨ÙĦ": 5394,
      "ĠØ¬ÙĨÛģÛĮÚº": 5395,
      "Ġdays": 5396,
      "Ø§Ø±Ø´": 5397,
      "ĠØ§ÙĪÙĦØ§Ø¯": 5398,
      "Ø§Ø¦ÛĮØ§Úº": 5399,
      "iting": 5400,
      "not": 5401,
      "ĠÙĪØ¢ÙĦÛģ": 5402,
      "Ġtre": 5403,
      "ĠÙħØ±ÛĮØ¶ÙĪÚº": 5404,
      "ĠÙħØ®ØªØµØ±": 5405,
      "ĠØ´Ù¾": 5406,
      "Ø±ÙħÛĮ": 5407,
      "ĠØ¨Ø§ÙĦØ§": 5408,
      "ĠØ³ÙĦØ·Ø§ÙĨ": 5409,
      "ĠÚĨØ§ÙĨØ¯": 5410,
      "Ú¯Ø§ÙĨ": 5411,
      "ĠØ¯Ø§Ø¦": 5412,
      "ĠÙħØ¬ÙĦØ³": 5413,
      "ĠÛģÛĮØ±": 5414,
      "ĠÙħÙĤØ¨ÙĪÙĦ": 5415,
      "ivity": 5416,
      "ĠØ¨Ø§ØªÙĪÚº": 5417,
      "Ø§ØªØ°Ûģ": 5418,
      "ĠØ±Ø§ÙĪÙĦÙ¾ÙĨÚĪÛĮ": 5419,
      "ĠØ§ÚĨØ§ÙĨÚ©": 5420,
      "stry": 5421,
      "Ø¯Ø³": 5422,
      "ĠØ§ØªØ§Ø±": 5423,
      "ĠWorld": 5424,
      "ĠØ°ÛģÙĨÛĮ": 5425,
      "ĠØ¹Ø§ÙħØ±": 5426,
      "ĠØ±Ú©Ú¾ØªÛĮ": 5427,
      "Ġhttp": 5428,
      "pos": 5429,
      "ØªØ§ØŃ": 5430,
      "ĠØ³Ú©Ø§": 5431,
      "for": 5432,
      "ĠÙĤÙĦÙħ": 5433,
      "Ġcontent": 5434,
      "Ġproducts": 5435,
      "ym": 5436,
      "ĠÙħØ·Ø§ÙĦØ¹Ûģ": 5437,
      "ĠØ¨ÛģÙĨ": 5438,
      "ooks": 5439,
      "Ġsafe": 5440,
      "Ġalong": 5441,
      "Ġrepres": 5442,
      "ĠØ¢Ø±Ûģ": 5443,
      "Ø§ØªÚ¾Ø§": 5444,
      "Ġrelations": 5445,
      "etic": 5446,
      "Ú©Ø´ÙĨ": 5447,
      "ĠÙĦØ§Ø¦ÛĴ": 5448,
      "ĠÚ©Ù¾ØªØ§ÙĨ": 5449,
      "ĠØ´Ø¹Ø¨ÛĴ": 5450,
      "ĠØ§ÙĦØµ": 5451,
      "ĠÙĨÙħØ§ÛĮØ§Úº": 5452,
      "ĠØ§Ø¹ØªØ±Ø§Ø¶": 5453,
      "oor": 5454,
      "Ġfactors": 5455,
      "ĠÚĨØ§ÛģØªÛĮ": 5456,
      "ĠØªØ¬Ø±Ø¨Ûģ": 5457,
      "ÙĪØ¨Ûģ": 5458,
      "ĠÙħÙĦØ§Ø²ÙħØª": 5459,
      "Ġusually": 5460,
      "ĠÛģÙħØ±Ø§Ûģ": 5461,
      "Ġhelps": 5462,
      "ĠØ§Ú©Ø«Ø±ÛĮØª": 5463,
      "ĠÚ¯ÙĦÛĮ": 5464,
      "Ġnetw": 5465,
      "Ø§Ø´ÛĮ": 5466,
      "ĠÚ¯ÙĪØ±": 5467,
      "ĠØ§ÙĨÚ¯ÛĮ": 5468,
      "AA": 5469,
      "ober": 5470,
      "'t": 5471,
      "Ø¨Ú¾Ø§Ø±ØªÛĮ": 5472,
      "Ġcells": 5473,
      "Ġsaf": 5474,
      "ĠÙħÛģÛĮÙĨÛĴ": 5475,
      "When": 5476,
      "ĠÚĨÛģØ±ÛĴ": 5477,
      "ĠPr": 5478,
      "ems": 5479,
      "ĠØ®Ø²Ø§ÙĨÛģ": 5480,
      "ĠOr": 5481,
      "Ø¤Úº": 5482,
      "Ġtext": 5483,
      "ĠÙħØ¯ÛĮÙĨÛģ": 5484,
      "ĠÙĪØ±ÙĨÛģ": 5485,
      "2015": 5486,
      "Ġdiscuss": 5487,
      "Ġopportun": 5488,
      "Ġconcer": 5489,
      "ĠX": 5490,
      "Ġresults": 5491,
      "ĠÙĤØ§Ø¨ÙĪ": 5492,
      "ØŃØ¯": 5493,
      "ĠØŃÛĮØ±Ø§ÙĨ": 5494,
      "Ø§ÙĨÚĪØ±": 5495,
      "Ġclear": 5496,
      "ĠVi": 5497,
      "ĠØªØ§Ø±": 5498,
      "Ġaccount": 5499,
      "ÙĨØ¯ÛĴ": 5500,
      "Ø§ÛĮØ³": 5501,
      "ĠØ¢Ø¦ÛĮÙĨ": 5502,
      "urope": 5503,
      "Ġemploy": 5504,
      "Ġmot": 5505,
      "ĠÙħØ¨ØªÙĦØ§": 5506,
      "ĠØªÚ©ÙĦÛĮÙģ": 5507,
      "ĠÙħÙĪØ¬ÙĪØ¯Ú¯ÛĮ": 5508,
      "Ġmedical": 5509,
      "ĠØ¯ÛĮÚ©": 5510,
      "ĠØ§Ø¹Ø²Ø§Ø²": 5511,
      "Ù¾ÙĨØ¬Ø§Ø¨": 5512,
      "Ġmanagement": 5513,
      "ĠÙħÙĦØªÛĮ": 5514,
      "ĠØ¨Ú¾Ø§Ú¯": 5515,
      "Ġ60": 5516,
      "ooking": 5517,
      "Ġeffects": 5518,
      "Ġpay": 5519,
      "ĠØ®Ø§ÙĦÛĮ": 5520,
      "ĠÚ©ÙħÛĮÙĪÙĨ": 5521,
      "ĠÚ©ÛĮØ³Ø§ØªÚ¾": 5522,
      "ÙģØ³": 5523,
      "ĠØ§Ø®ØªØ±": 5524,
      "ĠÙħØ±Ø¶ÛĮ": 5525,
      "ĠØ¨ÛĮÙĦ": 5526,
      "hi": 5527,
      "ĠÙĪÙģØ¯": 5528,
      "Ġmaterials": 5529,
      "ĠØ³ÛĮÚ©ÙĪØ±Ù¹ÛĮ": 5530,
      "ĠØ³ÙĪØ§": 5531,
      "ĠÚĪØ§Ø¤ÙĨ": 5532,
      "ÛĶ[": 5533,
      "ĠØŃÚ©ÙħØ±Ø§ÙĨÙĪÚº": 5534,
      "ĠØ±ÛĮØ§Ø¶": 5535,
      "Ġtoget": 5536,
      "Ø§Ú©ÛĮÙĨ": 5537,
      "Ġtogether": 5538,
      "ĠØŃÙĪØµÙĦÛģ": 5539,
      "ĠØ³ÙģÛĮØ±": 5540,
      "Ġworks": 5541,
      "Ġavoid": 5542,
      "ĠØ§Ø´Ø§Ø±Ûģ": 5543,
      "ĠØªÙĤØ±ÛĮØ±": 5544,
      "Ġbat": 5545,
      "ĠØ±ÙĪØŃØ§ÙĨÛĮ": 5546,
      "ĠÙħØ²Ø¯": 5547,
      "ruction": 5548,
      "Ġclean": 5549,
      "Ø¸Ø±": 5550,
      "ĠÙħÙĦØªØ§": 5551,
      "ĠØ±Ø´ØªÛģ": 5552,
      "ĠØªÚ©ÙħÛĮÙĦ": 5553,
      "ĠØ§ÙĨØªÛģØ§": 5554,
      "Ø´ØªØ±": 5555,
      "ĠØ¬ÙħÛģÙĪØ±ÛĮ": 5556,
      "Ø³ÛĮØ¯": 5557,
      "ĠÙĨÙģØ±Øª": 5558,
      "Ġbrain": 5559,
      "Ú©ÙĪØ±": 5560,
      "Ø§ÙħØ§Ùħ": 5561,
      "Ġet": 5562,
      "Ġself": 5563,
      "34": 5564,
      "ĠÙħØºØ±Ø¨": 5565,
      "ĠÙĦØ§ÙĦ": 5566,
      "ĠÙĤÛĮÙħØªÙĪÚº": 5567,
      "ĠØ§Ø¹ØªØ¨Ø§Ø±": 5568,
      "ĠØ³ÛģÙĪÙĦÛĮØ§Øª": 5569,
      "ĠÙ¾ÚĳÛĮ": 5570,
      "ĠÙĦØ¨Ø§Ø³": 5571,
      "ray": 5572,
      "Ġsoil": 5573,
      "ides": 5574,
      "ĠØ®Ø·Ø±ÙĨØ§Ú©": 5575,
      "ØµÙĪÙħ": 5576,
      "ĠØ·ÙĦØ§ÙĤ": 5577,
      "iple": 5578,
      "Ġvol": 5579,
      "ĠÙĪÙģØ§Øª": 5580,
      "by": 5581,
      "ured": 5582,
      "ÙĪØ§Ø¶ØŃ": 5583,
      "ĠÙħÛĮÚĪÛĮÚ©ÙĦ": 5584,
      "Ø±Ø§Ùħ": 5585,
      "ĠØ³Ù¾Ø±": 5586,
      "ĠØ³Ø§Ø²ÛĮ": 5587,
      "Ù¾Ø±ÛĮØ´ÙĨ": 5588,
      "ĠØ²Ø¨": 5589,
      "NA": 5590,
      "ĠØ§ÙĨÙ¹Ø±ÙĪÛĮÙĪ": 5591,
      "ĠÙĦØ§Ú©Ú¾ÙĪÚº": 5592,
      "ĠØ±ÛĮÙĦÙĪÛĴ": 5593,
      "ĠEnglish": 5594,
      "ĠÙħÙĤØ¯Ùħ": 5595,
      "Ø¹ÛĮØª": 5596,
      "Ġsust": 5597,
      "Ġthought": 5598,
      "go": 5599,
      "ĠØ¹Ø¨Ø§Ø³ÛĮ": 5600,
      "ĠÙ¾Ø´Øª": 5601,
      "Ġpersonal": 5602,
      "Ġtry": 5603,
      "ĠÙħØ¬Ø±Ùħ": 5604,
      "Ú©Ø´ÙħÛĮØ±": 5605,
      "Ġsal": 5606,
      "Ġapproach": 5607,
      "istic": 5608,
      "ĠØŃØ§Ø¶Ø±": 5609,
      "ising": 5610,
      "57": 5611,
      "Ġinflu": 5612,
      "Ø²Ø¨": 5613,
      "ĠÙĦØ§Ú¯": 5614,
      "Ġtradition": 5615,
      "ĠÚĨÙĪØª": 5616,
      "bon": 5617,
      "ĠAt": 5618,
      "ĠØ§ØŃØªØ±Ø§Ùħ": 5619,
      "ery": 5620,
      "Ù¾ÙĪÙĦÛĮØ³": 5621,
      "ĠØ§Ø®Ø±Ø§Ø¬": 5622,
      "ĠØ¨Ø§Ø²Ø§Ø±": 5623,
      "ysis": 5624,
      "ĠÛģÙĪØ³": 5625,
      "ÙħØ¬Ú¾ÛĴ": 5626,
      "Ġmakes": 5627,
      "ĠØ¨ÙĪØ¬Ú¾": 5628,
      "ĠÙĨØ§ÙħÛģ": 5629,
      "ĠÙħØµØ±": 5630,
      "ĠØ§ÛĮØ´ÙĨ": 5631,
      "ĠØ¯Ø±Ø®Øª": 5632,
      "ĠØ¯ÙĦÚĨØ³Ù¾ÛĮ": 5633,
      "Ġlittle": 5634,
      "ĠØ¹Ø«ÙħØ§ÙĨ": 5635,
      "Ø§Ø¦Ø´ÛĮ": 5636,
      "ĠâĨĴ": 5637,
      "Ġpast": 5638,
      "ĠØ±ÛĮØ§Ø³ØªÛĮ": 5639,
      "ĠØ¨Ø¯Ú¾": 5640,
      "ĠØ¯Ø¨Ø¦ÛĮ": 5641,
      "Ġ+": 5642,
      "ĠØ¢Ù¹Ú¾": 5643,
      "ĠØ§ÙģØ³Ø±": 5644,
      "ĠÙĪØ±Ø²ÛĮ": 5645,
      "ÙĪØ§Ø±ÚĪ": 5646,
      "ÛģØ±Ø§": 5647,
      "ĠÙ¹Ø§Ø¦ÙħØ²": 5648,
      "Ġloss": 5649,
      "Ġsing": 5650,
      "Ġcho": 5651,
      "ĠØ§Ø´Øª": 5652,
      "ĠÙĤØ¯ÛĮÙħ": 5653,
      "Ø¬Ø§ÙĨ": 5654,
      "ØŃØ§ÙĨ": 5655,
      "Ġcomplex": 5656,
      "Ġmarket": 5657,
      "ann": 5658,
      "Ġcourse": 5659,
      "Ġfar": 5660,
      "ĠØ³Ø±Ú©Ø§Ø±": 5661,
      "ably": 5662,
      "ĠÙĬÛģ": 5663,
      "ĠØ§Ø®ØªØªØ§Ùħ": 5664,
      "Ġcontain": 5665,
      "ĠØ±ÛģÙĨØ§": 5666,
      "ĠÚ©Ø§Øº": 5667,
      "self": 5668,
      "Ġcharacter": 5669,
      "ĠÚ©ÙħØ±ÛĴ": 5670,
      "ĠØµØ¯ÛĮÙĤÛĮ": 5671,
      "Ġservices": 5672,
      "ĠGe": 5673,
      "ĠØ¨Ø§Ø±Ûģ": 5674,
      "amm": 5675,
      "ĠØ§ÙĦØª": 5676,
      "ĠÛĮÙĤÛĮÙĨØ§": 5677,
      "ĠÚ©Ø§Ø±ÙĪÚº": 5678,
      "ĠÙĤØ±Ø§": 5679,
      "ĠØ¬Ø±ÙħÙĨÛĮ": 5680,
      "ĠØ§Ø¹Ø¯Ø§Ø¯": 5681,
      "Ġsustain": 5682,
      "Ġability": 5683,
      "ĠØ§Ø³Ú©ÛĴ": 5684,
      "aa": 5685,
      "Ù¹Ú¾Ø§": 5686,
      "ĠÙħØ³Ø¦ÙĦÛĴ": 5687,
      "Ġparent": 5688,
      "inking": 5689,
      "Ġcancer": 5690,
      "Ġcirc": 5691,
      "Ø§Ø¯ÛĮØ§": 5692,
      "Ġpolic": 5693,
      "ĠØªÙĨØ®ÙĪØ§Ûģ": 5694,
      "ĠØºÙĦØ·ÛĮ": 5695,
      "ĠØ¯ÙĦÛĮÙĦ": 5696,
      "aves": 5697,
      "ĠØ§ÛĮÚĪÛĮ": 5698,
      "Ġproduction": 5699,
      "ancial": 5700,
      "56": 5701,
      "Ú©Ø§ÙĪÙ¹": 5702,
      "ĠLe": 5703,
      "Next": 5704,
      "ĠÙĪØ§Ø¬": 5705,
      "Ġtoward": 5706,
      "----": 5707,
      "ĠÙ¾ÛĮØ´Ûģ": 5708,
      "ØªÙģØµÛĮÙĦ": 5709,
      "Ġskin": 5710,
      "idd": 5711,
      "ĠØºØ§ÙĦØ¨": 5712,
      "Ú¾ÛĮÚº": 5713,
      "ĠØ´Ú©Ø±": 5714,
      "side": 5715,
      "ĠÙħØµØ·": 5716,
      "Ú©Ø§Ø±ÛĮ": 5717,
      "icro": 5718,
      "ĠØ¨ÛĮÚ©": 5719,
      "ĠØ³Ø§ÙĨØŃÛģ": 5720,
      "ÙĨØ§ÙĨ": 5721,
      "ĠØ´Ø®ØµÛĮØ§Øª": 5722,
      "Ġcrucial": 5723,
      "44": 5724,
      "Ġsoft": 5725,
      "Ġpolit": 5726,
      "ÛģØ²Ø§Ø±": 5727,
      "Ġer": 5728,
      "aken": 5729,
      "ĠØ²ÛĮØ§Ø¯ØªÛĮ": 5730,
      "Ú¯Ú¾": 5731,
      "Ġfurther": 5732,
      "ĠØ¯Ø§Ø±Ø§ÙĦØŃÚ©ÙĪÙħØª": 5733,
      "Ø¨ÙĦØ§": 5734,
      "ØŁØŁ": 5735,
      "ÙĪÙĪ": 5736,
      "ĠÙħÙĪØ³": 5737,
      "ĠØªØ§Ø¨": 5738,
      "58": 5739,
      "ĠÙģØ·": 5740,
      "ĠÙ¹Ø§Ø¤ÙĨ": 5741,
      "duct": 5742,
      "ÙĪØ¯Ú¾Ø±ÛĮ": 5743,
      "Ú©ÛĮØ´ÙĨ": 5744,
      "ĠSome": 5745,
      "ĠÙĨÙĪÚ©Ø±ÛĮ": 5746,
      "though": 5747,
      "ĠØ§Øº": 5748,
      "ĠÚ©Ø´ÙħÛĮØ±ÛĮÙĪÚº": 5749,
      "ĠGod": 5750,
      "Ø¨ÙĨ": 5751,
      "ĠØ±ÛĮÙ¹": 5752,
      "ĠÙĨØ´Ø³Øª": 5753,
      "ĠÙħØ¨ÛĮÙĨÛģ": 5754,
      "ĠØ¨Ø§Ø±ÛĮ": 5755,
      "Ġobs": 5756,
      "Ġi": 5757,
      "Ġrecomm": 5758,
      "Ø°Ú©Ø±": 5759,
      "ĠØªØ±ÙĤÛĮØ§ØªÛĮ": 5760,
      "ĠÂ«": 5761,
      "Ġsimilar": 5762,
      "ĠÙħÙĦÛĮÙĨ": 5763,
      "ream": 5764,
      "ĠØ§Úĳ": 5765,
      "Ġfour": 5766,
      "Ø§Ø¦ÙĨØ§Øª": 5767,
      "Ch": 5768,
      "ĠØ¯Ø§Ø¹Ø´": 5769,
      "ĠÙĨØ§Ø¦Ø¨": 5770,
      "ÙĨÙĪØ§Ø²": 5771,
      "Ù¾Ø§Ú©": 5772,
      "ØĶ": 5773,
      "ĠÙĪØ§ÙĤØ¹ÛĴ": 5774,
      "ĠØ±Ø§Ø¬Ûģ": 5775,
      "ĠØ¯Ø±ÙĪØ§Ø²ÛĴ": 5776,
      "ØªØ¹": 5777,
      "ĠØ¹ÙĤÛĮØ¯": 5778,
      "ĠEurope": 5779,
      "ĠØŃÙĪØ§ÙĦÛģ": 5780,
      "ĠØªØ¬Ø§Ø±ØªÛĮ": 5781,
      "ĠØ´Ú©Ø±ÛĮÛģ": 5782,
      "ĠØ®ÙģÛĮÛģ": 5783,
      "ĠÙħØ¶Ø§ÙħÛĮÙĨ": 5784,
      "ĠØ¹ÙĨÙĪØ§ÙĨ": 5785,
      "Ø¹ÙĦÙĪÙħ": 5786,
      "ĠMan": 5787,
      "ĠÛĮØ§Ø±": 5788,
      "Ġaway": 5789,
      "ĠÛģÙĪØ¦ÛĮÚº": 5790,
      "ĠÚĨÙĦÛĮ": 5791,
      "ĠØ§ØªÚ¾": 5792,
      "ĠÙĨØ¨": 5793,
      "Ġline": 5794,
      "Ġclimate": 5795,
      "ÛĮÙĪÙ¹Ø±": 5796,
      "Ġ70": 5797,
      "ĠØ§ÙģØªØªØ§ØŃ": 5798,
      "ĠÙģØ³": 5799,
      "ĠÚĨÙĦÙĨÛĴ": 5800,
      "Posted": 5801,
      "ĠÙ¾ÚĨÚ¾ÙĦÛĴ": 5802,
      "ĠØ¨Ø§ÙĤØ§Ø¹Ø¯Ûģ": 5803,
      "ĠÚ©ØªÙĨÛĴ": 5804,
      "ĠÙħØ³ØªÙĤÙĦ": 5805,
      "Ġcases": 5806,
      "Ð°Ð": 5807,
      "selves": 5808,
      "ĠØªØ¹ÛĮÙĨØ§Øª": 5809,
      "ĠØ¬Ø²": 5810,
      "Ġlive": 5811,
      "ĠØ³ÙĪÙĨ": 5812,
      "Ġlower": 5813,
      "hem": 5814,
      "ĠÙĨØ¬Ø§Øª": 5815,
      "ÙħÙĨÛĮ": 5816,
      "ĠÚ¾ÙĪ": 5817,
      "ID": 5818,
      "ĠØ³ÙĪØ§ÙĦØ§Øª": 5819,
      "ĠØ§Ø°": 5820,
      "Ġestab": 5821,
      "Ġill": 5822,
      "Ġteac": 5823,
      "ĠØ§Ø³Ø§ØªØ°Ûģ": 5824,
      "ĠÙħØ¹Ø§ÛģØ¯Ûģ": 5825,
      "ĠØµØ§Ø¯ÙĤ": 5826,
      "Im": 5827,
      "ÙĬÙĩ": 5828,
      "Ġcomplete": 5829,
      "Ġauthor": 5830,
      "ĠØ±ÛĮÙħ": 5831,
      "Ø§ÙĦÛĴ": 5832,
      "upp": 5833,
      "Ø§ÙĤØ¹": 5834,
      "ĠØ¬Ø¹ÙĦÛĮ": 5835,
      "Ø±ÛĮØ±ÛĮ": 5836,
      "Ø§Ø¦ÛĮÚĪ": 5837,
      "ØªØ´": 5838,
      "ĠÙ¾ÙĨØ¬": 5839,
      "ĠÚĪÙĪÙĨ": 5840,
      "ĠØ§ÙĦØ´": 5841,
      "ĠÚĨÛĮØ²ÛĮÚº": 5842,
      "ĠØ¯ÙĪØ³ØªÙĪÚº": 5843,
      "Ġexist": 5844,
      "ĠØ³ÙģÛĮØ¯": 5845,
      "ĠØ´Ø±Ú©": 5846,
      "ĠÙ¾Ø°ÛĮØ±": 5847,
      "ĠØ³ÙħÙĨØ¯Ø±": 5848,
      "ĠMus": 5849,
      "tic": 5850,
      "ĠØ¹ÛģØ¯ÛĴ": 5851,
      "ĠØ³ÛĮØ§Ûģ": 5852,
      "thing": 5853,
      "ney": 5854,
      "ĠÙ¾Ø§Ø±Ú©": 5855,
      "ĠNational": 5856,
      "Ġcountries": 5857,
      "ĠCO": 5858,
      "Ġchem": 5859,
      "ĠApr": 5860,
      "ĠStates": 5861,
      "ĠÙħÚĨ": 5862,
      "Ø§ØªØ±": 5863,
      "Ġ06": 5864,
      "ïºİ": 5865,
      "Ġsleep": 5866,
      "ĠInst": 5867,
      "ggest": 5868,
      "ĠÙħØ«ÙĦØ§": 5869,
      "ĠCent": 5870,
      "Ġsuggest": 5871,
      "Ġrecogn": 5872,
      "ĠØ§ÛĮÙĪØ§ÙĨ": 5873,
      "ĠØ§ÛģÙĦÚ©Ø§Ø±ÙĪÚº": 5874,
      "Ġenough": 5875,
      "ĠØ§ÛĮÙĪØ§Ø±ÚĪ": 5876,
      "Ø§Ø¯ÛĮØ«": 5877,
      "Ø¦ÙĨØ¯Ûģ": 5878,
      "ĠØŃØ§ÙĦØ§ÙĨÚ©Ûģ": 5879,
      "ĠØ¨ÙĨØ§Ø¦ÛĮÚº": 5880,
      "ĠComm": 5881,
      "ĠDaily": 5882,
      "Ġpatients": 5883,
      "Ø´ÙĪ": 5884,
      "Ġprovides": 5885,
      "ĠØ§Ø¯Ø§Ú©Ø§Ø±Ûģ": 5886,
      "ĠÙħØ´ÙĪØ±Ûģ": 5887,
      "ĠHealth": 5888,
      "ĠAm": 5889,
      "ĠØ´ÙĨØ§Ø®Øª": 5890,
      "Ø°Ø§Ø¨": 5891,
      "ustom": 5892,
      "ĠØ§Ø³Ø¯": 5893,
      "ÙħÚ¯Ø±": 5894,
      "Ġmov": 5895,
      "ĠÙĪÛĮÙĦ": 5896,
      "Ġappear": 5897,
      "ĠÚ©ÛĮÙģ": 5898,
      "ØŃØµ": 5899,
      "ĠØ§Ú©Ø¨Ø±": 5900,
      "ĠØ¹ÙĨØ§ØµØ±": 5901,
      "ĠMar": 5902,
      "Ġprim": 5903,
      "ification": 5904,
      "ĠØŃØ¶Ø±Ø§Øª": 5905,
      "Ġfull": 5906,
      "59": 5907,
      "ĠÙģØª": 5908,
      "ĠÙĨØ¸Ùħ": 5909,
      "ĠØ¯ÙĪØ¯Ú¾": 5910,
      "ĠØªÙģØªÛĮ": 5911,
      "ĠØªØ§Ø«": 5912,
      "ples": 5913,
      "Ø¬Ø§": 5914,
      "ĠÙģØ§Ø¦ÙĦ": 5915,
      "ĠØªÙĪØ³ÛĮØ¹": 5916,
      "ÚĨÙĨ": 5917,
      "ĠØªÙĤØ§Ø¶": 5918,
      "yle": 5919,
      "Ġnext": 5920,
      "Ġbegin": 5921,
      "verse": 5922,
      "ĠÙħØ±Ø¯ÙĪÚº": 5923,
      "ĠÚĨÛĮØ²ÙĪÚº": 5924,
      "For": 5925,
      "ĠØ§Ù¾ÙĨ": 5926,
      "Ġwr": 5927,
      "rug": 5928,
      "Ġcomes": 5929,
      "Ø§ÙĨØ¯Ú¾ÛĮ": 5930,
      "ĠØ¨Ø§ÛģÙħÛĮ": 5931,
      "ĠØ¬Ø§Ù¾": 5932,
      "ĠØ¨ÙĦØ§ÙĪÙĦ": 5933,
      "Ġsitu": 5934,
      "Ø¢Ø¦ÛĮ": 5935,
      "ÛģÙħØ§Ø±ÛĴ": 5936,
      "ĠÙ¾ØªÚ¾Ø±": 5937,
      "ĠØ¹Ø§Ø´": 5938,
      "ĠÚ©Ø±Ø±ÛģÛĮ": 5939,
      "Ġvalue": 5940,
      "ĠAug": 5941,
      "ĠIndia": 5942,
      "ĠØ±Ø§Ø´": 5943,
      "ane": 5944,
      "ĠOct": 5945,
      "ĠØªØ¬Ø²ÛĮÛģ": 5946,
      "oon": 5947,
      "Ġbook": 5948,
      "Ġbal": 5949,
      "ÙŃ": 5950,
      "ÙĤÙĪÙħÛĮ": 5951,
      "ĠØ³Ø§Ø¦ÛĮÚ©ÙĦ": 5952,
      "ĠØ¨ÛĮØ±ÙĪÙĨ": 5953,
      "aps": 5954,
      "ĠÙĪØ¹Ø¯Ûģ": 5955,
      "ĠÙģÙĪØ±Ø§": 5956,
      "ĠØªÛģØ°ÛĮØ¨": 5957,
      "utes": 5958,
      "Ġnecessary": 5959,
      "ĠØ¹Ø±Ø¨ÛĮ": 5960,
      "Ġrad": 5961,
      "ĠØ¨ÚĨØ§ÙĨÛĴ": 5962,
      "ĠØ¬Ø±Ø§Ø¦Ùħ": 5963,
      "ĠÙģÛĮÙĦ": 5964,
      "Ø¬ÙĨÚ¯": 5965,
      "itle": 5966,
      "Ġpred": 5967,
      "ĠØ§Ø´Ø±Ùģ": 5968,
      "ĠÚ©ÙħÙ¾ÙĨÛĮÙĪÚº": 5969,
      "ĠØ§Ø±Ø§Ú©ÛĮÙĨ": 5970,
      "ĠÙģÛĮÚ©": 5971,
      "Ø¨Ø±Ø·": 5972,
      "ĠÚĪØ±Ø§Ø¦ÛĮ": 5973,
      "Ġexerc": 5974,
      "Ġbig": 5975,
      "ĠÙ¾ÛĮÙ¹": 5976,
      "ĠÙĨÛģÙĬÚº": 5977,
      "ĠÙĪÛĮØ²": 5978,
      "ÛĮÙħÙĨ": 5979,
      "ĠÙ¾ÙĪØ±Ù¹": 5980,
      "ĠØ®Ø§ÙħÙĪØ´": 5981,
      "ĠÙħØ´Ø±ÙĤÛĮ": 5982,
      "ĠØµÙģØ§Ø¦ÛĮ": 5983,
      "Previous": 5984,
      "Ġtherap": 5985,
      "ada": 5986,
      "ĠÙ¹ÛĮÙĦÛĮ": 5987,
      "Ġuntil": 5988,
      "ĠØ³Ø¹Ø¯": 5989,
      "Ø§ØµØ¯": 5990,
      "ĠØ°Ø±Ø§": 5991,
      "ĠØ³Ø§Ø±Ø§": 5992,
      "ĠÚĪÛĮØ²Ø§Ø¦ÙĨ": 5993,
      "Ø¨Ø§Ø¯ÛĮ": 5994,
      "edi": 5995,
      "ĠÙħØ¯Ø§Ø±": 5996,
      "ĠØ³ÙĨØ¯": 5997,
      "41": 5998,
      "Ġgiven": 5999,
      "Ġpressure": 6000,
      "ither": 6001,
      "Ġwhether": 6002,
      "ĠÚ©Ø±Ùħ": 6003,
      "Ġhaving": 6004,
      "Ġregular": 6005,
      "Ġsun": 6006,
      "ĠØ¯ÛģØ´ØªÚ¯Ø±Ø¯ÛĮ": 6007,
      "ump": 6008,
      "Ø¬Ø±Ø²": 6009,
      "Ġneg": 6010,
      "Ð°ÑĢ": 6011,
      "ÛĮØ¹ÙĨÛĮ": 6012,
      "ĠØ§ÛĮÛģ": 6013,
      "ĠØ§Ø³ØªØŃÚ©Ø§Ùħ": 6014,
      "ĠØŃØ±Ú©Øª": 6015,
      "ĠØ³ÙħØ§Ø¬": 6016,
      "To": 6017,
      "Ġoffer": 6018,
      "ØĮØĮ": 6019,
      "ĠÙĨÚ¯Ø§Ûģ": 6020,
      "ĠÚ©Ø§ÙħÙĪÚº": 6021,
      "Ø§ÙģØºØ§ÙĨ": 6022,
      "Ø±Ø§ÙĨÛĮ": 6023,
      "ĠØ¨ÛĮÙ¹Ø§": 6024,
      "ĠÚ¯ÛĮÙĦ": 6025,
      "Ġemot": 6026,
      "ØªÙħÛĮ": 6027,
      "ĠÙħØ§ÛģØ±": 6028,
      "AN": 6029,
      "ĠØ§Ø¨Ø±Ø§Ûģ": 6030,
      "ĠØ§ÛĮÙ¾": 6031,
      "Ġwind": 6032,
      "Ġindustry": 6033,
      "ĠØ¹Ø¬ÛĮØ¨": 6034,
      "ØªÙģØµÛĮÙĦØ§Øª": 6035,
      "ĠÙ¾ÛģÙĨÚĨÙĨÛĴ": 6036,
      "ĠØ¯ÙĪÚĳ": 6037,
      "ĠÛ²Û°Û±Û": 6038,
      "ĠØ¹ÙĦÙĪÙħ": 6039,
      "ĠØ§ØªÛĴ": 6040,
      "ĠÛģÙģØªÛģ": 6041,
      "ÙħØ¨Ø¦ÛĮ": 6042,
      "ĠØ´ÛĮØ¹Ûģ": 6043,
      "Ġmental": 6044,
      "reng": 6045,
      "ĠØ´Ø±ÛĮØ¹Øª": 6046,
      "Ø§Ø¦ÛĮÚ©ÙĪØ±Ù¹": 6047,
      "32": 6048,
      "Ù¾Ø§Ú©Ø³ØªØ§ÙĨÛĮ": 6049,
      "Ġtraining": 6050,
      "ÙĦØ±": 6051,
      "Ġago": 6052,
      "Ġut": 6053,
      "ipp": 6054,
      "ĠÙĤØ±ÛĮØ´ÛĮ": 6055,
      "ÙħÙĪ": 6056,
      "ĠØ³Ø±Ú¯Ø±ÙħÛĮÙĪÚº": 6057,
      "ĠÙĦÚ¯Ø§Ø¦ÛĴ": 6058,
      "ĠØ§Ø®ØªÛĮØ§Ø±Ø§Øª": 6059,
      "Ø´ÛĮØ§Øª": 6060,
      "ĠØªØ¨ØµØ±ÛĴ": 6061,
      "ĠØŃØ³Ø§Ø¨": 6062,
      "ĠØ¸ÙģØ±": 6063,
      "ĠÚ©Ø§Ø¦ÙĨØ§Øª": 6064,
      "ĠÚ¯Ø§Ø¤Úº": 6065,
      "Ø§ÛĮØªÛĮ": 6066,
      "ĠÚ©ÙĪÛģ": 6067,
      "uly": 6068,
      "ument": 6069,
      "Ġwords": 6070,
      "Ġfri": 6071,
      "ches": 6072,
      "Ġoil": 6073,
      "ĠÙħÛģÙĨÚ¯": 6074,
      "ĠÚ©ØªØ¨": 6075,
      "Ø¸ÙħÛĮ": 6076,
      "Ġcondition": 6077,
      "ÙĪØ§Ø¨": 6078,
      "Ġresearc": 6079,
      "ĠÛģÛĮÚĪ": 6080,
      "ĠØµÙĨØ¹Øª": 6081,
      "Ø§ÙĪØª": 6082,
      "ring": 6083,
      "\\\":": 6084,
      "Ġpercent": 6085,
      "ĠØ¬Ø§ÙĨØªØ§": 6086,
      "You": 6087,
      "ĠÙħØ§Ø¨": 6088,
      "Ġrelationship": 6089,
      "ĠØ¬Ø¹": 6090,
      "ĠØ³ÛĮÙĨÙ¹Ø±": 6091,
      "ĠØµØŃØ§ÙģÛĮÙĪÚº": 6092,
      "ĠÚ©ØªÙĨÛĮ": 6093,
      "ÙĨØ¯ÙĪÚº": 6094,
      "ĠØªØ±ØªÛĮØ¨": 6095,
      "Ú©ÙĪØ¦ÛĮ": 6096,
      "Ø³Ø§Ø¨ÙĤ": 6097,
      "×Ļ": 6098,
      "ĠØ³Ø®": 6099,
      "Ġheat": 6100,
      "Ġ80": 6101,
      "ÙĬÙĦ": 6102,
      "ĠØªÙĨØ¸ÛĮÙħÙĪÚº": 6103,
      "ĠØµÙģØŃ": 6104,
      "uary": 6105,
      "ĠØ¯Ø±ÛĮØ§ÙģØª": 6106,
      "ĠØ§Ø³Ú©ÛĮ": 6107,
      "ĠOne": 6108,
      "ĠØ¨ÚĨÛĮ": 6109,
      "ĠØ¨ÚĳÚ¾Ø§ÙĨÛĴ": 6110,
      "Ġengine": 6111,
      "ites": 6112,
      "Ù¾ÛĮØ´": 6113,
      "aching": 6114,
      "ules": 6115,
      "ĠÙĨØ§ÙħØ²Ø¯": 6116,
      "alu": 6117,
      "Ġquick": 6118,
      "ĠØ¹ÛĮØ³": 6119,
      "ening": 6120,
      "Ø³Ûģ": 6121,
      "ĠÙħØªØ¹Ø§Ø±Ùģ": 6122,
      "oose": 6123,
      "ĠÙħØ§ÛĮÙĪ": 6124,
      "Ù´": 6125,
      "80": 6126,
      "Ġwide": 6127,
      "ĠÙ¾Ø³ÙĨØ¯ÛĮ": 6128,
      "Ġlay": 6129,
      "âĢıâĢıâĢıâĢı": 6130,
      "ÙĬØ¯": 6131,
      "Ġfield": 6132,
      "Ġfeed": 6133,
      "au": 6134,
      "ĠØ¬Ø°Ø¨Ø§Øª": 6135,
      "Ø±ÙĪÛĮ": 6136,
      "ĠØ§ÙĦÛĮ": 6137,
      "fer": 6138,
      "Ġcoll": 6139,
      "ĠØ¢Ú¯Ø§Ûģ": 6140,
      "ĠÙħØ°Ú©ÙĪØ±Ûģ": 6141,
      "ĠØ±Ø³Ø§Ø¦ÛĮ": 6142,
      "Ġpopular": 6143,
      "ĠØ§ÙħÛĮ": 6144,
      "ĠÚ©ÙĪØ±ÛĮØ§": 6145,
      "Ġside": 6146,
      "ĠØ¯Ø¨Ø§Ø¤": 6147,
      "Ġdetail": 6148,
      "ÙĤØ§ÙĨ": 6149,
      "ĠÙħÚ©Ûģ": 6150,
      "70": 6151,
      "ĠÙ¾Ø§ÙĨÛĴ": 6152,
      "Ø§Ø±Ø¨": 6153,
      "usion": 6154,
      "Ġsafety": 6155,
      "ĠÚ¯ÙĨ": 6156,
      "Ġterm": 6157,
      "ĠØ¢Ø¤": 6158,
      "ufact": 6159,
      "ara": 6160,
      "ĠÚĨÙĪØ±ÛĮ": 6161,
      "Ġ05": 6162,
      "Ġca": 6163,
      "ĠØ§Ú©Ø§Ø¤ÙĨÙ¹": 6164,
      "Ø§ÛĮÙĨ": 6165,
      "Ġunique": 6166,
      "sw": 6167,
      "ĠÙĪØ§Ø¨Ø³ØªÛģ": 6168,
      "Ø®Ø¨Ø±": 6169,
      "Ġmach": 6170,
      "Ø´ÛĴ": 6171,
      "ĠÙħØ¹ØµÙĪÙħ": 6172,
      "ĠØ¬Ø§ÙĨÛĮ": 6173,
      "ĠÙħØªØ§Ø«Ø±Ûģ": 6174,
      "Ġpractice": 6175,
      "ĠÙĪØ§ÙĦØ¯Ûģ": 6176,
      "Ù¾ÙĪØ±ÛĮ": 6177,
      "ĠØ®Ø§ÙĦØ¯": 6178,
      "Ġcolle": 6179,
      "ler": 6180,
      "ĠØ³ÙħØ¬Ú¾ÙĨÛĴ": 6181,
      "ØŃÛĮØ¯": 6182,
      "Ø²ÙħÛĮÙĨ": 6183,
      "ĠÚ©ØªØ§Ø¨ÙĪÚº": 6184,
      "sp": 6185,
      "ĠØ±ÙĪØ²Ø§ÙĨÛģ": 6186,
      "ĠÙĤÛĮØ§ÙħØª": 6187,
      "ĠMore": 6188,
      "Ġ35": 6189,
      "ÛĶ(": 6190,
      "Ø§Ø±ÙĤ": 6191,
      "ĠØ±ÛģØ§Ø¦Ø´": 6192,
      "ĠTr": 6193,
      "ĠÙĪØ§ÙĤØ¹ÛĮ": 6194,
      "ĠÙħØ³Ø¹ÙĪØ¯": 6195,
      "Ġsound": 6196,
      "ÙĪØ¹Ûģ": 6197,
      "ĠØ®ÙĦ": 6198,
      "Ġsource": 6199,
      "ĠÙħØ§Ø³": 6200,
      "Ġgreen": 6201,
      "Ġview": 6202,
      "ĠÙħÙģØ§Ø¯Ø§Øª": 6203,
      "Ġmoney": 6204,
      "Ġgoing": 6205,
      "ĠØ¹ÙĤÙĦ": 6206,
      "let": 6207,
      "ĠÙĨØ§ÙĤØ§Ø¨ÙĦ": 6208,
      "Ø¬Ø§Ùħ": 6209,
      "Ú©ÚĨÚ¾": 6210,
      "ĠØ¨Ú¯": 6211,
      "ĠÙĦØ§ÛĮØ§": 6212,
      "ÙħÛĮØ§Úº": 6213,
      "ideo": 6214,
      "rect": 6215,
      "Ð¸Ð": 6216,
      "Ġyoung": 6217,
      "AT": 6218,
      "ĠÙħÙĤØ¯ÙħØ§Øª": 6219,
      "ÛģÙħÛĮÚº": 6220,
      "Ġ''": 6221,
      "ĠÙĪØ§Ø¯ÛĮ": 6222,
      "ĠØ§Ø³ØªÙĤ": 6223,
      "Ú©Ø±ÙĪ": 6224,
      "ĠÙģÙĤÛģ": 6225,
      "ĠØ¬ÙħÙĪÚº": 6226,
      "ĠØ§ÙģØ±ÛĮÙĤÛģ": 6227,
      "ÙħÛĮÙ¹Ø±": 6228,
      "ĠÙĦÚ©Ú¾ØªÛĴ": 6229,
      "Ġassociated": 6230,
      "ĠDr": 6231,
      "ises": 6232,
      "amin": 6233,
      "ĠØ³ÙģØ§Ø±Øª": 6234,
      "ĠÚ©Ú¾Ø§": 6235,
      "Ø¨ÛģØª": 6236,
      "ĠÙĦÙĬ": 6237,
      "ĠÙħÙĨØ²ÙĦ": 6238,
      "ĠØ³ÛĮÙĨÛĮÙ¹": 6239,
      "Ġkind": 6240,
      "Ġinteract": 6241,
      "Al": 6242,
      "Sh": 6243,
      "Ø§ÙģÙ¹": 6244,
      "ÙĤÙĪÚº": 6245,
      "ĠÚĨÙĪ": 6246,
      "ae": 6247,
      "ĠÚ©Ù¹": 6248,
      "ogle": 6249,
      "ĠÙħØ¹ÙħÙĪÙĦ": 6250,
      "Ġmodel": 6251,
      "ĠØ³ÛĮÙħ": 6252,
      "Ġhouse": 6253,
      "Ø§ØŃÙĦ": 6254,
      "ges": 6255,
      "ĠØ±Ú©Ø§ÙĪÙ¹": 6256,
      "ĠÚ©Ù¾ÚĳÛĴ": 6257,
      "ĠØ¨Ø§Ø¬": 6258,
      "Ġhab": 6259,
      "ĠØ§Ø¨Ø±Ø§ÛģÛĮÙħ": 6260,
      "Ġidentify": 6261,
      "Ø¢Ø¨Ø§Ø¯": 6262,
      "ĠØ±ÙĪÙĨ": 6263,
      "ĠÚ©ÙĪØ´Ø´ÙĪÚº": 6264,
      "ĠÚĨÙĦØ§ÙĨÛĴ": 6265,
      "Ø±Ø§Ø²": 6266,
      "Ú©Ø§ÙĦÙħ": 6267,
      "ĠÙ¾ÛĮÙħØ§ÙĨÛĴ": 6268,
      "ĠØ¨ØŃØ§ÙĦÛĮ": 6269,
      "ĠØ¨ÙĨÚ¯ÙĦÛģ": 6270,
      "ĠØ¬ÛģØ§Ø¯": 6271,
      "Ø§Ø´ÙĨÚ¯": 6272,
      "Ġglobal": 6273,
      "ĠØ¨ÚĳÚ¾Ø§": 6274,
      "Ġinit": 6275,
      "ĠØ§ÙĨÚ©ÛĴ": 6276,
      "ĠØ°ÛĮ": 6277,
      "ĠØ´ÙĪÙĤ": 6278,
      "ĠØ¨Ø³Øª": 6279,
      "ĠÙ¾ÙĦÛĮÙ¹": 6280,
      "Ø§Ù¾ÙĨÛĮ": 6281,
      "ØŃØ¯Ûģ": 6282,
      "ĠØŃÙĤØ§Ø¦ÙĤ": 6283,
      "Ġbuilding": 6284,
      "Ġfinancial": 6285,
      "ilt": 6286,
      "ĠØ¬Ø§ÙħØ¹Ûģ": 6287,
      "Ġlif": 6288,
      "Ġtar": 6289,
      "ĠÙĨØ¯": 6290,
      "emic": 6291,
      "Ġrecord": 6292,
      "Ġnorm": 6293,
      "sc": 6294,
      "Ø®ÙĦ": 6295,
      "ĠØªÙĨÚ¯": 6296,
      "ĠØ²ÛĮÙĨ": 6297,
      "Ġparticip": 6298,
      "ĠAfric": 6299,
      "Ġactivity": 6300,
      "ĠÙģØ®Ø±": 6301,
      "ĠÙ¾ÛĮÙ¾ÙĦØ²Ù¾Ø§Ø±Ù¹ÛĮ": 6302,
      "Ġsecurity": 6303,
      "ĠÙĪÛĮØ³ÛĴ": 6304,
      "ÚĳÛĮØ§Úº": 6305,
      "ĠØ§ÙĨÚ¯ÛĮØ²": 6306,
      "By": 6307,
      "ĠÙħØ¹Ø§Ø´Ø±Ûģ": 6308,
      "ĠØ¬ÙĨÚ¯ÛĮ": 6309,
      "ĠØ¬ÙĨØ³": 6310,
      "ĠØ§Ø¹ØªØ±Ø§Ùģ": 6311,
      "Ġ{": 6312,
      "ĠØ¯ÛĮÚ©Ú¾ÛĮ": 6313,
      "Ø³ÙĦØ§Ùħ": 6314,
      "Ø¹ÙĪØ§Ùħ": 6315,
      "âĨĲ": 6316,
      "Ġmeet": 6317,
      "Ø§ÙĨÛĮØ§Úº": 6318,
      "Ġdeath": 6319,
      "ĠÚ©Ø§ØºØ°": 6320,
      "ĠÙħÙĤØ¯Ø§Ø±": 6321,
      "ĠØ§Ø³ØªØ§Ø¯": 6322,
      "ĠAI": 6323,
      "ĠØ§ÛĮÚ©Ø´ÙĨ": 6324,
      "42": 6325,
      "ĠChrist": 6326,
      "Ġ2009": 6327,
      "Øĳ": 6328,
      "Ø§ÙģØ±Ø§Ø¯": 6329,
      "ĠØ±Ø§Ùħ": 6330,
      "ĠÙ¹Ú©Ù¹": 6331,
      "ĠØ³ÙĪØ§Ø±": 6332,
      "ĠÙħØ³ÙĦØŃ": 6333,
      "ĠÚ¯ÙĨØ¬": 6334,
      "ÙĬØª": 6335,
      "ĠØ¬Ø§ÙħØ¹": 6336,
      "Ú¾ÛĮØ±": 6337,
      "ĠØ°Ø®": 6338,
      "ags": 6339,
      "ĠÙĦØ¹": 6340,
      "ĠØ¯ÛĮÚ©Ú¾ÙĨØ§": 6341,
      "acc": 6342,
      "Ø´ÛĮØ®": 6343,
      "ĠØ¨Ø±Ø³ÙĪÚº": 6344,
      "ĠIntern": 6345,
      "Ġground": 6346,
      "ĠFeb": 6347,
      "ĠØ³ÙĪÙĨÛĴ": 6348,
      "ĠÚĪØ§ÙĦØ§": 6349,
      "Ø±Ø¨Øª": 6350,
      "Ġenvironmental": 6351,
      "Ġcollect": 6352,
      "Ġsize": 6353,
      "roll": 6354,
      "Ġnature": 6355,
      "ĠÙħÙĨÙģÛĮ": 6356,
      "ĠØ§Ø´ÛĮØ§Ø¡": 6357,
      "Ġsum": 6358,
      "ĠØ¨Ú¾ÛĮØ¬Ø§": 6359,
      "ried": 6360,
      "ims": 6361,
      "ÙħÛĮØ±ÛĴ": 6362,
      "ĠÛģØ¯Ùģ": 6363,
      "ĠÚ©Ø§Ø±Ú©ÙĨÙĪÚº": 6364,
      "ÙħÛĮØ²": 6365,
      "Ġcompany": 6366,
      "ÛĮÙĨÚ¯ÛĴ": 6367,
      "ĠØ¬Ø³ÙħØ§ÙĨÛĮ": 6368,
      "most": 6369,
      "ma": 6370,
      ".\"": 6371,
      "Ġallows": 6372,
      "ĠØ±Ø§ÙĨØ§": 6373,
      "Ġcut": 6374,
      "comes": 6375,
      "ĠØŃØ§Ø¯Ø«ÛĴ": 6376,
      "ĠÙħÙĪØ§ÙĤØ¹": 6377,
      "ĠØ§Ø³ÙĦØŃÛģ": 6378,
      "ĠÚ©Ø§Ø±ÙĪØ¨Ø§Ø±ÛĮ": 6379,
      "ready": 6380,
      "ĠÙ¾ÙĦØ§": 6381,
      "ÙģØ¹": 6382,
      "ĠGen": 6383,
      "ĠÚĪÙĪÛĮ": 6384,
      "ĠÙħØ¯Ø±": 6385,
      "ĠØ³ÛĮÙĨÛĮÙ¹Ø±": 6386,
      "Ù¹ÙĪÚº": 6387,
      "ibr": 6388,
      "Ġlater": 6389,
      "ĠÙĨØ¨ÙĪØª": 6390,
      "Ø§Ú©ÙĪ": 6391,
      "Ù¾Ø±ÙĪ": 6392,
      "Ġstory": 6393,
      "Ġsubject": 6394,
      "pro": 6395,
      "ĠØ§Ø³Ø±Ø§Ø¦ÛĮÙĦÛĮ": 6396,
      "ĠØ¹Ø²Ùħ": 6397,
      "ĠØ¯Ø§Ø±ÙĪÚº": 6398,
      "ĠÙ¾Ø§Ú©Ø³ØªØ§ÙĨÛĮÙĪÚº": 6399,
      "ĠØ´ÙħÙĪÙĦÛĮØª": 6400,
      "Ø³Ø·": 6401,
      "ĠWhile": 6402,
      "Ġleast": 6403,
      "Ġrepl": 6404,
      "ĠÚ©Ø§Ù¹": 6405,
      "ĠÚĨÙĪÚ©": 6406,
      "verage": 6407,
      "ĠØ®Ø§ÙĨÛĴ": 6408,
      "ĠØ§Ø®ÙĦØ§ÙĤ": 6409,
      "ĠÙ¾Ø¨ÙĦÚ©": 6410,
      "ÙħÙĪÙĦØ§ÙĨØ§": 6411,
      "Ġabove": 6412,
      "ĠÚĪÛĴ": 6413,
      "Ø·Ø§ÙĨ": 6414,
      "ĠØ§ÛĮÚ©Ø³Ù¾": 6415,
      "ÙĪÙĨØ³": 6416,
      "ĠÙħØ±ØªØ¨": 6417,
      "sych": 6418,
      "ĠÙĨÚ¯Ø±Ø§ÙĨÛĮ": 6419,
      "Ġpositive": 6420,
      "acks": 6421,
      "based": 6422,
      "ĠÙĢ": 6423,
      "rams": 6424,
      "ĠÙħÙĦØªØ§ÙĨ": 6425,
      "ĠØ§ØªÚ¾Ø§Ø±Ù¹ÛĮ": 6426,
      "Ġinteg": 6427,
      "http": 6428,
      "Ġreason": 6429,
      "ĠØ³ÚĳÚ©ÙĪÚº": 6430,
      "ĠÙħÛģÙħØ§ÙĨ": 6431,
      "ĠÛģÙĪÙ¹ÙĦ": 6432,
      "inks": 6433,
      "Ġweight": 6434,
      "ĠØ´Ú©Ø§ÛĮØª": 6435,
      "Ġfrequ": 6436,
      "Ġdone": 6437,
      "ĠÚ©Ø±Ø±ÛģØ§": 6438,
      "ĠØ§ÙĨÛģÛĮ": 6439,
      "ĠØŃØ¯ÙĪØ¯": 6440,
      "Ġmillion": 6441,
      "ĠÙħØ±Ø¶": 6442,
      "ĠØªØ´ÙĪÛĮØ´": 6443,
      "ĠØ®ÛĮØ²": 6444,
      "Ġoverall": 6445,
      "ĠÙħØ±ØŃÙĪÙħ": 6446,
      "ĠØ§ÙĨÙ¹Ø±ÙĨÛĮÙ¹": 6447,
      "Ġpaper": 6448,
      "ĠÙħØ±Ø¨": 6449,
      "iation": 6450,
      "ask": 6451,
      "ÙĪÙĨÛģ": 6452,
      "Ø¯Ø§Ø¡": 6453,
      "Ġconnect": 6454,
      "ĠØ§ØŃØ§Ø¯ÛĮØ«": 6455,
      "ĠÚĨÙĪØ¯Ú¾Ø±ÛĮ": 6456,
      "ĠÙ¾Ø±ÙĪØ§Ø²": 6457,
      "ÙħØªØ§Ø²": 6458,
      "Ġleft": 6459,
      "ĠØ±ÙĪØ²Ú¯Ø§Ø±": 6460,
      "ĠMe": 6461,
      "ĠØ¬Ø§Ø±ÛģÛĴ": 6462,
      "Ġla": 6463,
      "ĠØ§ØŃØ³ÙĨ": 6464,
      "iency": 6465,
      "ĠÚ¯ÙĪØ´Øª": 6466,
      "ØªØ±Ø¬ÙħÛģ": 6467,
      "Ġstreng": 6468,
      "ĠCont": 6469,
      "Ù¹ÛĮØ§Úº": 6470,
      "Ġrepresent": 6471,
      "ĠÙĦÚĳØ§Ø¦ÛĮ": 6472,
      "ĠEm": 6473,
      "ÙģÙ¹": 6474,
      "Ġnever": 6475,
      "ĠÙĨØ¹ÙħØª": 6476,
      "rel": 6477,
      "ĠÙ¾ÛģÚĨØ§ÙĨ": 6478,
      "Ø§Ú©Ø³": 6479,
      "Ġphot": 6480,
      "ĠØ±Ø§Ø²": 6481,
      "ptember": 6482,
      "ĠØ§ÙĨØ¹Ø§Ùħ": 6483,
      "Ġharm": 6484,
      "ĠÚ©Ø±Ø³": 6485,
      "ĠÚĨØ§ÛģÛĮ": 6486,
      "Ġpopulation": 6487,
      "ĠÙħØ®ÙĦÙĪ": 6488,
      "ĠØªØ¨Ø§Ø¯ÙĦÛģ": 6489,
      "ĠØ¨Ø§Ø·": 6490,
      "ĠØ¯ÛĮÙĪ": 6491,
      "ĠÙģÛĮÚ©Ù¹Ø±ÛĮ": 6492,
      "ĠÙ¾ÙĪØ²ÛĮØ´ÙĨ": 6493,
      "ĠÙ¾ÛĮÙĨÛĴ": 6494,
      "ĠØ§ÙĪÙĪØ±": 6495,
      "ystem": 6496,
      "Ø§Ø¤ÙĨÚĪ": 6497,
      "osis": 6498,
      "ĠØ¦ÛĴ": 6499,
      "ele": 6500,
      "ĠÙģØ§Ø·": 6501,
      "Ø§Ø¦Ùģ": 6502,
      "ĠØ³Ø±Ùģ": 6503,
      "ĠÙĨÚ©Ø§ØŃ": 6504,
      "ĠØ¹Ø°Ø§Ø¨": 6505,
      "ĠØ¯Ø±Ø§ØµÙĦ": 6506,
      "Ġmedic": 6507,
      "Ġfall": 6508,
      "Ġindic": 6509,
      "ĠÙħÙģØ§Ø¯": 6510,
      "ĠØ¯Ú©Ø§ÙĨ": 6511,
      "ĠÙĨØ§ØµØ±": 6512,
      "ĠÙħØ´Ø±ÙĤ": 6513,
      "ĠÙ¾Ø§ÙĦÛĮØ³": 6514,
      "ĠØªØ¯": 6515,
      "Ġgeneral": 6516,
      "icial": 6517,
      "ĠØ¯ÙĦÚĨØ³Ù¾": 6518,
      "ÙĪØ´ÛĮ": 6519,
      "ĠÙħÙĤØ§ØµØ¯": 6520,
      "Ø¬ÙħØ¹": 6521,
      "ĠÙ¾Ø®ØªÙĪÙĨØ®ÙĪØ§": 6522,
      "ÙĨØ¯Ú¯ÛĮ": 6523,
      "ï´": 6524,
      "ÚĨÛĮÙģ": 6525,
      "ird": 6526,
      "Ġsimple": 6527,
      "load": 6528,
      "Ú©ÙĨÛģ": 6529,
      "chan": 6530,
      "Ġtools": 6531,
      "Ġreally": 6532,
      "Ú©Ù¹Ø±": 6533,
      "Ġ196": 6534,
      "Ġdoct": 6535,
      "ĠÙĤØ§Øª": 6536,
      "ĠØ´Ø¹Ø±": 6537,
      "ĠÙĪØ³Ø·ÛĮ": 6538,
      "Ġwin": 6539,
      "ĠÙ¹Ú©Ø±": 6540,
      "Ø¬Ø²": 6541,
      "ĠØ¦ÛĮ": 6542,
      "ÚĪÛĴ": 6543,
      "ĠØªÚ¾Ø§Ùħ": 6544,
      "reme": 6545,
      "ÛĮÛģØ§Úº": 6546,
      "ison": 6547,
      "Ġred": 6548,
      "Ø¬Ø§Ø²": 6549,
      "ĠÙģÙĦØ§ØŃ": 6550,
      "ulations": 6551,
      "ming": 6552,
      "ĠRep": 6553,
      "Ġstudies": 6554,
      "ĠÙħØ´ÛĮØ±": 6555,
      "Ġcompon": 6556,
      "ĠÙĦÙĨÚ©Ø§": 6557,
      "Ø¹ÙĦÙħ": 6558,
      "ĠÚ¯Ø§ÚĳÛĮÙĪÚº": 6559,
      "Ø´Ø§Ø±": 6560,
      "Ġflu": 6561,
      "ĠÙĦÛĮØªØ§": 6562,
      "Ġcat": 6563,
      "ĠÚ©ÙĬ": 6564,
      "ĠÙ¾ÛģØ§Úĳ": 6565,
      "elling": 6566,
      "ĠØ§Ø¹ÙħØ§ÙĦ": 6567,
      "âĢ¢": 6568,
      "ĠØ§Ø¦ÛĮØ±": 6569,
      "Ø§ÙĦÙģ": 6570,
      "ĠÙ¾Ø§ÙĪØ±": 6571,
      "ĠÙ¹Ú©": 6572,
      "ensive": 6573,
      "Ġconcept": 6574,
      "ĠÛģÙĪÙĨÚ¯ÛĴ": 6575,
      "Ġjob": 6576,
      "Ġassess": 6577,
      "ĠØ§ÙĦÛĮÚ©Ù¹Ø±": 6578,
      "ĠØ±ÙĪØ§ÛĮØ§Øª": 6579,
      "ĠÛģØ§Ø¦ÛĮÚ©ÙĪØ±Ù¹": 6580,
      "Ġscience": 6581,
      "ĠØ¨Ø§ÙĨ": 6582,
      "ĠÙĪØ²ÙĨ": 6583,
      "Ø§Ø´ÙĨÚ¯Ù¹ÙĨ": 6584,
      "ĠÙħØ±ØŃÙĦÛĴ": 6585,
      "lying": 6586,
      "ĠØ¨Ø§Ø´": 6587,
      "ĠØ§ÛĮØ³ÙĪØ³ÛĮ": 6588,
      "care": 6589,
      "ĠThat": 6590,
      "Ġclose": 6591,
      "ĠØ´Ø±Ø·": 6592,
      "ĠÚ©ÙĪÚĨ": 6593,
      "Ġincreased": 6594,
      "Ø¶ÛĴ": 6595,
      "ĠÙĦÚ©Ú¾ÙĨÛĴ": 6596,
      "Com": 6597,
      "ĠÛĮØ§Ø³": 6598,
      "ĠÙģØ±ÙħØ§ÙĨ": 6599,
      "light": 6600,
      "ĠÚ¯ÙĪÛĮØ§": 6601,
      "aff": 6602,
      "Ġcompan": 6603,
      "AS": 6604,
      "ĠØ§ÙĨÚ©ÛĮ": 6605,
      "ĠØªØ¨Ø§ÛģÛĮ": 6606,
      "aling": 6607,
      "Ġalready": 6608,
      "Ġabs": 6609,
      "itor": 6610,
      "Ġjour": 6611,
      "Ġrequired": 6612,
      "Ġbehavior": 6613,
      "ott": 6614,
      "Ġcustom": 6615,
      "ĠØ§Ø¯Ø¨ÛĮ": 6616,
      "ĠØ´Ø±Ø§Ø¨": 6617,
      "ÛĶâĢľ": 6618,
      "ĠØ®Ø´Ú©": 6619,
      "lex": 6620,
      "Ġpath": 6621,
      "Ġquestions": 6622,
      "Ø¨ÙĪØ¯": 6623,
      "idered": 6624,
      "anced": 6625,
      "ÙĪÙĨÙ¹": 6626,
      "ĠÙ¹Ø±Ø§ÙĨØ³": 6627,
      "ĠØ¨Ø§ÙĨØ¯": 6628,
      "ĠØªÙĪÙĤØ¹": 6629,
      "ÙĪØ±ÙĪ": 6630,
      "ĠÙħØµÙĨÙģ": 6631,
      "ĠØ³ÙĪØ±Ø¬": 6632,
      "ĠÚĨÛĮÙĨÙĦ": 6633,
      "ĠØ§ÙĦÛģ": 6634,
      "ĠØ§Ú©ÛĮ": 6635,
      "Ø¬Ø±Ø§Øª": 6636,
      "ÙĨØ³Ø±": 6637,
      "ĠÙĨØ§Ú¯": 6638,
      "Ø§ÛģÙĪÚº": 6639,
      "ØŃØª": 6640,
      "ĠViews": 6641,
      "ĠÙħØ¹Ø°": 6642,
      "eds": 6643,
      "ĠJune": 6644,
      "ĠÙħØ¹Ø§Ùģ": 6645,
      "ĠÙħØ·Ø§ÙĦØ¨": 6646,
      "ÚĨÙĦ": 6647,
      "ĠØ¨ØŃØ§ÙĦ": 6648,
      "Ù¹ÚĪ": 6649,
      "Ġhold": 6650,
      "Ġ07": 6651,
      "Ġbreak": 6652,
      "Ġperformance": 6653,
      "ĠÙĦÚ©Ú¾ÛĮ": 6654,
      "ĠØŃÙĦÙĤÛģ": 6655,
      "Ø¯Ø§Øª": 6656,
      "Ġstat": 6657,
      "ĠÙħØµØ·ÙģÛĮ": 6658,
      "ĠØ§Ù¹Ú¾Ø§ÛĮØ§": 6659,
      "ned": 6660,
      "ĠShe": 6661,
      "Ġpriv": 6662,
      "ĠÚ©Ùģ": 6663,
      "×ķ": 6664,
      "order": 6665,
      "ĠØ¬ÙĨÙħ": 6666,
      "ĠØ§ÙħØªÛĮ": 6667,
      "ĠÚĨÙĦØªØ§": 6668,
      "bo": 6669,
      "ĠØ¬ÙĪØ§ÙĨ": 6670,
      "ĠÚ©Ø±Ø³Ú©ØªØ§": 6671,
      "Ġeasy": 6672,
      "Øį": 6673,
      "ĠØ³Ø¨Ø²": 6674,
      "Ġneeded": 6675,
      "ØŃÛĮ": 6676,
      "ĠØ§Ø¯Ø§Ú©Ø§Ø±": 6677,
      "Ø§Ø±Ø¯ÙĪ": 6678,
      "ĠØ±ØŃÙħÛģ": 6679,
      "ĠÛģÙĪØ¬Ø§ØªØ§": 6680,
      "ĠÚ©Ø±Ø§": 6681,
      "ĠØªÙħÛģØ§Ø±ÛĮ": 6682,
      "ĠEar": 6683,
      "ĠÛ³": 6684,
      "ĠØ§ÛĮØ´ÛĮØ§": 6685,
      "ĠØ¯Ø¦ÛĮÛĴ": 6686,
      "ĠÚ©Ø§Ø±ÙĪØ§Ø¦ÛĮ": 6687,
      "Ġask": 6688,
      "ØºØ±": 6689,
      "cember": 6690,
      "ĠÙĨØ¸Ø±ÛĮÛģ": 6691,
      "ÛĶâĢĿ": 6692,
      "Ú©ÚĳÙĪÚº": 6693,
      "ĠØ¯ÙĪØ³ØªÛĮ": 6694,
      "Ú©ÙĪÚº": 6695,
      "ĠØ¨ÛģØ§Ø±": 6696,
      "ĠÙĤÙħØ±": 6697,
      "ĠÙĪØµÙĪÙĦ": 6698,
      "IN": 6699,
      "ĠAss": 6700,
      "nov": 6701,
      "ĠØ³Ù¾ÙĪØ±Ù¹": 6702,
      "ĠÙĦÛģØ±": 6703,
      "ĠØ±Ú©ÙĨÛĮ": 6704,
      "Ġintrodu": 6705,
      "Ġfru": 6706,
      "ging": 6707,
      "rict": 6708,
      "Ġincreasing": 6709,
      "ĠØ¨Ø±Ùģ": 6710,
      "ĠØ±ÙĪØ³ÛĮ": 6711,
      "astic": 6712,
      "Ġsurface": 6713,
      "ĠØ§ÙĨØªØ¸Ø§ÙħØ§Øª": 6714,
      "Ġpattern": 6715,
      "ĠÙĦØ§Ú©": 6716,
      "ĠÚĨÚ©": 6717,
      "Ġcity": 6718,
      "ĠÙħØ§Ø±ÛĴ": 6719,
      "ĠØ§ØªÙĪØ§Ø±": 6720,
      "ĠÙĨØ±ÛĮ": 6721,
      "Ġsingle": 6722,
      "ĠØ±ÙĪÛĮÛģ": 6723,
      "ĠØªÙĨÛģ": 6724,
      "ĠØªÙĪÛģ": 6725,
      "ĠÙĦÙħØ¨": 6726,
      "Ġdom": 6727,
      "ĠØ±ÛģÙĨÙħØ§Ø¤Úº": 6728,
      "Ġquestion": 6729,
      "ØªØ±Ø§ÙĦ": 6730,
      "ĠÙ¾Ø±ÛĮØ´Ø§ÙĨÛĮ": 6731,
      "43": 6732,
      "Ġliving": 6733,
      "ĠØ¯Ø³ØªØ§ÙĪÛĮØ²": 6734,
      "Ġmusic": 6735,
      "ÙĨØ§Ø¡": 6736,
      "ĠØ¯ÙĦÛĮ": 6737,
      "ovember": 6738,
      "ĠDo": 6739,
      "Ġcentury": 6740,
      "ĠÙħØ´ÙĨ": 6741,
      "ĠØ¨ÛĮØ±ÙĪÙĨÛĮ": 6742,
      "ĠØ³ÙĨÚ¯ÛĮÙĨ": 6743,
      "urs": 6744,
      "Ġexce": 6745,
      "ĠÙħÙĨØ´ÛĮØ§Øª": 6746,
      "ĠÙħØ§Ø¨ÛĮÙĨ": 6747,
      "ØµØ¨": 6748,
      "ĠMarch": 6749,
      "iques": 6750,
      "Ġfat": 6751,
      "ĠØ®ÙĪØ±Ø§Ú©": 6752,
      "ÙĪØ§ÙĦÛĴ": 6753,
      "Ġimplement": 6754,
      "ĠØ³ÙģØ§Ø±Ø´": 6755,
      "ĠØ³Ø±ÙĪ": 6756,
      "Ġdamage": 6757,
      "Ġwebs": 6758,
      "):": 6759,
      "ĠØ¬Ø±ÙħÙĨ": 6760,
      "Ġrelated": 6761,
      "ÙħØ§Ûģ": 6762,
      "ĠØ³ÙĦÙĪÚ©": 6763,
      "omet": 6764,
      "Ġconsidered": 6765,
      "Ġchallenges": 6766,
      "ĠØ·ÙĦØ¨Ø§Ø¡": 6767,
      "Ø§Ø¨Ø·Ûģ": 6768,
      "ĠYour": 6769,
      "ĠÙĦØ§Ø²ÙħÛĮ": 6770,
      "Ġbar": 6771,
      "oman": 6772,
      "erve": 6773,
      "ĠØ³Ø±Ø®": 6774,
      "ĠØ§ÙĨÙĪØ±": 6775,
      "ĠÙħÙĤØ¯Ø³": 6776,
      "Ġsite": 6777,
      "ÙħÙĪÚº": 6778,
      "Ġelectric": 6779,
      "Ø®Ø§ÙĨ": 6780,
      "ule": 6781,
      "Ġfish": 6782,
      "ĠÙĤÛĮÙħØªÛĮ": 6783,
      "ĠÚ¯Ø§ÙĨØ¯Ú¾ÛĮ": 6784,
      "Ġmethods": 6785,
      "ĠÛĮÙħÙĨ": 6786,
      "ĠÛģÙĪØ³Ú©ØªÛĮ": 6787,
      "ĠØ³ÛĮÚ©Ø±ÛĮÙ¹Ø±ÛĮ": 6788,
      "ĠÙ¾Ú¾ÙĦ": 6789,
      "ĠÚĪÙĪÙĨÙĦÚĪ": 6790,
      "ĠÙģÙĪÙ¹ÙĪ": 6791,
      "Ġaccording": 6792,
      "ĠØ±Ø§": 6793,
      "ĠØ¢Ø³ÙħØ§ÙĨ": 6794,
      "Ġsubst": 6795,
      "ĠØ¬ÙĦØ¯ÛĮ": 6796,
      "Ġanalysis": 6797,
      "ĠÙħØ¯Ø§Ø®": 6798,
      "hing": 6799,
      ",\"": 6800,
      "Ø§Ø¦Ø´Ûģ": 6801,
      "Ġseen": 6802,
      "ĠØªØ®ÙĦÛĮÙĤ": 6803,
      "isc": 6804,
      "ES": 6805,
      "Ġsyn": 6806,
      "cri": 6807,
      "Ð³": 6808,
      "ĠApril": 6809,
      "ĠÙħÙ¹ÛĮ": 6810,
      "ĠÚ©ØªÙĨØ§": 6811,
      "ĠÙĦÛĮÚ©Ø±": 6812,
      "ĠÙħØ³Ø§ÙģØ±": 6813,
      "ĠÙ¾ÚĳÚ¾Ø§": 6814,
      "ĠØ³Ø§ÙĨØ³": 6815,
      "ĠÙ¾ÛĮØ¯Ø§Ø¦Ø´": 6816,
      "ĠØ§Ù¹Ú¾Ø§ÙĨÛĴ": 6817,
      "ĠMed": 6818,
      "51": 6819,
      "ference": 6820,
      "ĠØªÛĮÙĨÙĪÚº": 6821,
      "Ġmeaning": 6822,
      "ĠÙ¾ÛĮØºÙħØ¨Ø±": 6823,
      "ĠØ§ÙĦØ§": 6824,
      "ĠÙģØ±ÙĤÛģ": 6825,
      "Ġparts": 6826,
      "Ġtaking": 6827,
      "Ġremain": 6828,
      "ĠØ§Ø¬ØªÙħØ§Ø¹ÛĮ": 6829,
      "ĠØ§ÙĨÙģØ±": 6830,
      "ĠØ¬ÙĪÚĳ": 6831,
      "oud": 6832,
      "ĠÙħÙħÚ©ÙĨÛģ": 6833,
      "ĠÛĴ": 6834,
      "ĠØ¨ÙĦØ§Ú©": 6835,
      "Ġhowever": 6836,
      "Ø§Ø¦Ø·": 6837,
      "Ġsense": 6838,
      "ront": 6839,
      "ĠØ®Ø·Ø±ÛĴ": 6840,
      "Ġap": 6841,
      "ĠÚĨÙĪØ±": 6842,
      "Ġdescrib": 6843,
      "ÙĨØ§Úº": 6844,
      "ĠÚ©Ø´ÛĮ": 6845,
      "Ġinj": 6846,
      "Ġeconomic": 6847,
      "ĠØ§Ø±Øª": 6848,
      "ĠÙĤØ±Ø§Ø±Ø¯Ø§Ø¯": 6849,
      "ÙģÛĮØµØ¯": 6850,
      "Ġmass": 6851,
      "way": 6852,
      "ĠÙ¾ØªØ§": 6853,
      "Ġevent": 6854,
      "ĠØ¯Ú¾ÙħØ§Ú©Ûģ": 6855,
      "Ġwriting": 6856,
      "ĠØ§ÙĦØ±ØŃÙħØ§ÙĨ": 6857,
      "ĠØ¨ÙĪÙĦØ§": 6858,
      "Ø§Ø¦Ù¾": 6859,
      "ÙħØ§Ø±ÚĨ": 6860,
      "Ġdigital": 6861,
      "ĠØ¶Ø±ÙĪØ±ÛĮØ§Øª": 6862,
      "\".": 6863,
      "la": 6864,
      "Ġlove": 6865,
      "Ġencoura": 6866,
      "Ġdeg": 6867,
      "Ġ03": 6868,
      "Ġcontinu": 6869,
      "Ġthemselves": 6870,
      "ĠÙħØ¯Ø§Ø®ÙĦØª": 6871,
      "On": 6872,
      "ĠÙĨØ³Ø¨Øª": 6873,
      "Ø´Ø§": 6874,
      "ĠØ³Ø²": 6875,
      "ĠÙĨÙģØ³": 6876,
      "Ġvariety": 6877,
      "fort": 6878,
      "ÙĪØ§ÙĦÛģ": 6879,
      "ruary": 6880,
      "ĠØ§ØªØŃØ§Ø¯ÛĮ": 6881,
      "Ø¬ÛĮÛĴ": 6882,
      "Ġgroups": 6883,
      "Ø®ÙĪØ¯": 6884,
      "Ġdiagn": 6885,
      "ĠNo": 6886,
      "ÙĨÚ©": 6887,
      "Ġgas": 6888,
      "ĠØ¸Ø§ÙĦÙħ": 6889,
      "alf": 6890,
      "ĠÙģØ±ÙħØ§Ø¦ÛĴ": 6891,
      "ĠØ§ÙĨØ¬ÛĮÙĨ": 6892,
      "Ú¾Ùħ": 6893,
      "aged": 6894,
      "ĠØ§Ø¯Ú¾Ø±": 6895,
      "ival": 6896,
      "erous": 6897,
      "ĠÙħÙĨØ³ÙĦÚ©": 6898,
      "Ú¯Ø²Ø´ØªÛģ": 6899,
      "ĠØªØ¨ØµØ±Ûģ": 6900,
      "Ġdesigned": 6901,
      "ĠAg": 6902,
      "Ġcheck": 6903,
      "ĠØ§ÙĨØ³Ø¯Ø§Ø¯": 6904,
      "ĠØ§Ø®Ø±Ø§Ø¬Ø§Øª": 6905,
      "ĠÙ¾Ø±Ø§ÙĨÛĴ": 6906,
      "ĠÛĮÚ©Ø³": 6907,
      "ĠÛģØ§Ø´": 6908,
      "ĠØ³ÛĮØ±": 6909,
      "ĠØµÙĪ": 6910,
      "ĠØªÛĮØ³Ø±ÛĮ": 6911,
      "ĠÚ©Ú¾ÚĳÛĮ": 6912,
      "Ø±Ú©Ø§Ø±": 6913,
      "ronic": 6914,
      "ĠÙ¾Ø§Ø±ÙĦÛĮÙħØ§ÙĨÛĮ": 6915,
      "ĠÙ¾Ø³ÙĨØ¯ÙĪÚº": 6916,
      "Ġdeep": 6917,
      "ĠÚĪÙĪÛĮÚĺÙĨ": 6918,
      "Ġdrug": 6919,
      "ĠÛĮÛģÙĪØ¯": 6920,
      "Ġmanufact": 6921,
      "ĠÙĤÙĪÙĦ": 6922,
      "Ø±ÙĪØ²": 6923,
      "rences": 6924,
      "ĠØµØ¨Ø±": 6925,
      "Ġ*": 6926,
      "ĠÚ©ØªØ§Ø¨ÛĮÚº": 6927,
      "ĠÙ¾ÛĮØ³Ûģ": 6928,
      "Ú©Ø§Ø±ÙĪÚº": 6929,
      "ĠÚĨØ§Ø¦ÛĴ": 6930,
      "like": 6931,
      "Ø¨Ø§Ø¯ÙĦ": 6932,
      "ĠØ¬ÙĪØ´": 6933,
      "ĠÚĨÙ¾": 6934,
      "Ġfail": 6935,
      "ĠØ±ÙģÛĮÙĤ": 6936,
      "ĠÙģØ±ÙħØ§Ø¦ÛĮ": 6937,
      "53": 6938,
      "ĠÙħÙĨØ³ÙĪ": 6939,
      "vere": 6940,
      "ĠØ§ÙģØ²": 6941,
      "ĠÙ¹ÛĮÙĨ": 6942,
      "ĠÚĪÛĮÙ¹Ø§": 6943,
      "Ù¹ÛĮÙģ": 6944,
      "ÙĤØ§": 6945,
      "Ġvers": 6946,
      "illed": 6947,
      "Ø´Ø§Ùħ": 6948,
      "Ġonce": 6949,
      "ama": 6950,
      "ÙĦÛĮØº": 6951,
      "Ø¹Ú©Ø³": 6952,
      "Ø§Ø³ÛĴ": 6953,
      "epend": 6954,
      "ÚĳÚ¾ÛĴ": 6955,
      "Ġmodern": 6956,
      "ĠØ¯ÙĪÚº": 6957,
      "Ġtraditional": 6958,
      "54": 6959,
      "Ġdoc": 6960,
      "ĠÙĪØ¬ÙĪÛģ": 6961,
      "ĠØ§ØŃØªØ¬Ø§Ø¬ÛĮ": 6962,
      "ĠØ¯Ø±Ø¢ÙħØ¯": 6963,
      "Ø§Ø¦ÙĦÛĮ": 6964,
      "ÛĮÚ©ÚĨØ±": 6965,
      "ĠØ¨ÚĳÚ¾ØªÛĮ": 6966,
      "Ġbelow": 6967,
      "ĠØªÙĪÛģÛĮÙĨ": 6968,
      "ĠØ¹Ø¯Ø§ÙĦØªÙĪÚº": 6969,
      "Ġhours": 6970,
      "ĠÙĨÛĮØ²": 6971,
      "Ø²ÛĮØ²": 6972,
      "Ġtemperature": 6973,
      "ĠØ§Ø±Ø§Ø¯Ûģ": 6974,
      "ĠÙħÛĮÚ©": 6975,
      "ĠÙĨØ§Ø²ÙĦ": 6976,
      "ĠØ§ØŃÚ©Ø§ÙħØ§Øª": 6977,
      "ores": 6978,
      "Ġrate": 6979,
      "Ġresearchers": 6980,
      "ĠÙģÛģ": 6981,
      "ĠØ±ÛģØ§Ø¦Ø´ÛĮ": 6982,
      "Ġanimals": 6983,
      "ĠØ§Ø¨ÛĮ": 6984,
      "Ġcreated": 6985,
      "ØªÛĮØ§Ø·": 6986,
      "ĠÚĪØ§ÙĦÙĨÛĴ": 6987,
      "ĠJuly": 6988,
      "ĠÙħØ³Ú©Ø±": 6989,
      "ĠØ±ÛĮÙĨØ¬Ø±Ø²": 6990,
      "Ġdeveloped": 6991,
      "Ġlives": 6992,
      "ÙĪÙĦØ±": 6993,
      "ĠÚ©ÙĪÙ¹": 6994,
      "ĠØ³Ø±Ø¨Ø±Ø§ÛģÛĮ": 6995,
      "ĠPre": 6996,
      "Ġprec": 6997,
      "ĠÚ©Ø±ÙĪÙĨØ§": 6998,
      "88": 6999,
      "ĠØ¨ÛĮÙħØ§Ø±": 7000,
      "Ġpublished": 7001,
      "Ø§Ø¨ÙĨ": 7002,
      "ØŃØ§ÙĤ": 7003,
      "ĠØ·ÙĪÙģ": 7004,
      "ĠÙħØ¹Ø·ÙĦ": 7005,
      "use": 7006,
      "ĠØªÙģØªÛĮØ´": 7007,
      "earch": 7008,
      "52": 7009,
      "ĠØ°ÙĪØ§ÙĦ": 7010,
      "ĠØ¨ÛĮØ¯": 7011,
      "ÙĦØ§Úº": 7012,
      "ĠØ¨ÚĨØ§": 7013,
      "Ġrather": 7014,
      "ĠØ¢Ø±Ø§Ùħ": 7015,
      "Ġface": 7016,
      "Ġfamil": 7017,
      "ences": 7018,
      "ĠØ§Ø¶Ø§ÙģÛĮ": 7019,
      "Ú¯ÛĮØ±": 7020,
      "ĠÙħØ¹Ø§ÙģÛĮ": 7021,
      "ĠStud": 7022,
      "ĠØ§ØŃÚ©Ø§Ùħ": 7023,
      "ĠÙ¾Ø±ÙĪØ±": 7024,
      "ĠØ¢ÙĨÚ©Ú¾ÛĮÚº": 7025,
      "oles": 7026,
      "ĠØºØ±Ø¶": 7027,
      "ĠØ²Ø¨Ø±Ø¯Ø³Øª": 7028,
      "aving": 7029,
      "ĠØ³ÙĨÛģ": 7030,
      "ØµØ¯Ø±": 7031,
      "Ú¯Ø§Ø±ÛĮ": 7032,
      "mar": 7033,
      "ĠØŃØªÙħÛĮ": 7034,
      "ĠÙ¾ÛĮØ´Ú©Ø´": 7035,
      "ĠØ®ÛĮØ¨Ø±Ù¾": 7036,
      "ÙĤØ³Ùħ": 7037,
      "ĠÚ¯ÛĮÙħ": 7038,
      "ĠÙ¾ÚĳÚ¾ÛĮ": 7039,
      "ĠØ¹Ø³Ú©Ø±ÛĮ": 7040,
      "ĠÙĨÙģØ³ÛĮ": 7041,
      "bb": 7042,
      "ĠØ³Ø±ÙĪØ±": 7043,
      "Ġincludes": 7044,
      "ĠØ§Ø³Ù¹ÛĮØ´ÙĨ": 7045,
      "Ġproduce": 7046,
      "sequ": 7047,
      "ĠÛģØªÚ¾ÛĮØ§Ø±": 7048,
      "Ġhom": 7049,
      "ĠÚĪÚ¯Ø±ÛĮ": 7050,
      "ĠØªØ´Ø±ÛĮÙģ": 7051,
      "Ġcolor": 7052,
      "ÚĳÚ¾ÛĮ": 7053,
      "ĠØ±ÙĪØ§ÛĮØªÛĮ": 7054,
      "ĠØ³ÙĪØ³Ø§Ø¦": 7055,
      "Ġcannot": 7056,
      "ĠÙĪØ§ÙĤÙģ": 7057,
      "Ġmedia": 7058,
      "ĠØ§ØŃØ³Ø§ÙĨ": 7059,
      "Ø±ÙĪØ¬": 7060,
      "ØªØ§Ø±ÛĮØ®": 7061,
      "ĠØ§ÙĦÙĤØ±Ø¢ÙĨ": 7062,
      "Ġspe": 7063,
      "Ġthroughout": 7064,
      "Ġcarbon": 7065,
      "Ø¯ÛģØ´Øª": 7066,
      "Ġport": 7067,
      "ĠÙĦÙħØŃ": 7068,
      "nal": 7069,
      "Ġï®": 7070,
      "ĠÚ©ÙħÙ¾ÛĮÙĪÙ¹Ø±": 7071,
      "ĠØ§ÛĮÙ¹ÙħÛĮ": 7072,
      "ĠØ³ÙĪØ³Ø§Ø¦Ù¹ÛĮ": 7073,
      "rior": 7074,
      "2014": 7075,
      "ĠØ´Ø¹ÙĪØ±": 7076,
      "Ġwhite": 7077,
      "ĠØ¨Øµ": 7078,
      "Ø§ÙĨØ³ÛĮ": 7079,
      "ÙĨØ¯Ø±Ûģ": 7080,
      "rad": 7081,
      "ĠÙĨØ§Ù¾": 7082,
      "ĠØ¯Ø±Ø³": 7083,
      "ĠØ´Ø¹Ø¨ÙĪÚº": 7084,
      "Ġemb": 7085,
      "ropri": 7086,
      "ĠØ¢Ø³Ø§ÙĨÛĮ": 7087,
      "Ø§ÙĤØ¨": 7088,
      "Ġdaily": 7089,
      "ĠGu": 7090,
      "ĠÙĪØ§Ø¬Ø¨": 7091,
      "ĠØ§ÙĪØ³": 7092,
      "ĠÙĨÛĮØª": 7093,
      "Ġmembers": 7094,
      "tal": 7095,
      "ĠØ´Ø±Ø§Ø¦Ø·": 7096,
      "tery": 7097,
      "ĠØ¨Ø§ÙĨÛĮ": 7098,
      "ĠAugust": 7099,
      "ÙĨÚ¯Ø±": 7100,
      "rast": 7101,
      "ĠÚ¯ÙĪÙĦÛĮ": 7102,
      "Ġ90": 7103,
      "ĠØ§ÙĨÚ©ÙĪ": 7104,
      "ÚĪÙĪ": 7105,
      "ĠØ³Ú©ÙĪÙĨ": 7106,
      "ĠIslam": 7107,
      "Ġï¿½ï¿½ï¿½ï¿½ï¿½": 7108,
      "Ø´Ú©Ø±": 7109,
      "ĠÙħÙħØªØ§Ø²": 7110,
      "ĠØ³ÙĨØ¨Ú¾Ø§ÙĦ": 7111,
      "ĠÚ©ÙĦÚ©": 7112,
      "Ġmonths": 7113,
      "Ø³ÙĪØ§ÙĦ": 7114,
      "Ú©ÛĮÙĪÚº": 7115,
      "ÙģØ±Ø¯": 7116,
      "ĠØŃØ§Ø¯Ø«Ûģ": 7117,
      "Ġ09": 7118,
      "ĠÙģØ±Ø§Ø±": 7119,
      "Ġstudent": 7120,
      "Ġwhole": 7121,
      "ĠØ¨ÙĤÙĪÙĦ": 7122,
      "ĠØ®ØµÙĪØµÛĮØ§Øª": 7123,
      "Ġminim": 7124,
      "Ġfoods": 7125,
      "ĠÚ©Ø§ÙģØ±": 7126,
      "ĠÙħÙĨÚ¯ÙĦ": 7127,
      "Ġemerg": 7128,
      "Ø¸Ûģ": 7129,
      "Ġshare": 7130,
      "ĠOctober": 7131,
      "ĠÚ©Ø§Ø´": 7132,
      "ĠØ¹Ø´ÙĤ": 7133,
      "ĠÙĤØ¯Ø±ØªÛĮ": 7134,
      "raft": 7135,
      "ino": 7136,
      "Ġpractices": 7137,
      "pa": 7138,
      "ĠØ§Ø«Ø§Ø«": 7139,
      "oll": 7140,
      "ĠÚ©ÛĮÙģÛĮØª": 7141,
      "ĠØ¹ÛģØ¯ÛĮØ¯": 7142,
      "Ġ04": 7143,
      "ĠØ§Ø®Ø°": 7144,
      "Ø¹ØªÛĮ": 7145,
      "ÚĪÛĮÙħ": 7146,
      "Ġentire": 7147,
      "arr": 7148,
      "ulate": 7149,
      "isions": 7150,
      "Ġconduct": 7151,
      "ĠÙĦØ§Ù¾": 7152,
      "ĠÙĨÙħØ§Ø¦Ø´": 7153,
      "ÙĩØ§": 7154,
      "Ġchemical": 7155,
      "ĠÚ©Ø±Ø§ÛĮØ§": 7156,
      "ĠÙ¾ÛĮØ§Ø±": 7157,
      "ĠØŃÙĦÙĤÙĪÚº": 7158,
      "ÙĪÚ©Ø±ÛĮ": 7159,
      "ĠØ±Ø§Ø¨Ø·ÛĴ": 7160,
      "ĠØ¨ÙĦØ§Ú¯": 7161,
      "ĠØ³ÙĨÙĨÛĴ": 7162,
      "ĠÚ©ÙĪÚĪ": 7163,
      "ï¿½ï¿½ï¿½ï¿½ï¿½ï¿½ï¿½ï¿½": 7164,
      "ÛĶÛĶÛĶÛĶÛĶÛĶÛĶÛĶ": 7165,
      "Ġaction": 7166,
      "ĠØŃØ±Ùħ": 7167,
      "Ġproviding": 7168,
      "ĠJanuary": 7169,
      "joy": 7170,
      "ĠBrit": 7171,
      "Ġ08": 7172,
      "ĠØ¨ÛĮØ§ÙĨØ§Øª": 7173,
      "ĠÙĤØ±ÛĮØ¨ÛĮ": 7174,
      "Ġtarget": 7175,
      "ĠØ¬ÙħØ¹Ø±Ø§Øª": 7176,
      "ĠØŃØ²Ø¨": 7177,
      "ĠØªØ¹Ø§ÙĦ": 7178,
      "Ġcontact": 7179,
      "asc": 7180,
      "itation": 7181,
      "ĠÚ©Ø±Ø¯ÛĮÚº": 7182,
      "Ġhistor": 7183,
      "ĠØ¬ÙĪÛģØ±ÛĮ": 7184,
      "ØªÛĮØ³": 7185,
      "ĠÚ©ÛĮØ³Ø²": 7186,
      "ĠØ§ÙĦØ§Ø³ÙĦØ§Ùħ": 7187,
      "BC": 7188,
      "ĠÛ±Û¹": 7189,
      "aches": 7190,
      "istance": 7191,
      ");": 7192,
      "ØŃØ§ÙĦÛĮ": 7193,
      "('": 7194,
      "ĠØ«ÙĤØ§ÙģØª": 7195,
      "ĠØ±Ø¬ØŃØ§ÙĨ": 7196,
      "Ġcauses": 7197,
      "ĠÙħØ¯Ø§Ø±Ø³": 7198,
      "Ġwon": 7199,
      "ĠØ¬Ø§ÙĨÙĪØ±": 7200,
      "ĠØ³Ø³Øª": 7201,
      "Ù¹Ø±ÙĨÚ¯": 7202,
      "ĠÛģØ¯Ø§ÛĮØ§Øª": 7203,
      "Ġattention": 7204,
      "Ġsources": 7205,
      "Ġapplications": 7206,
      "gest": 7207,
      "ĠØ¬ØªÙĨØ§": 7208,
      "ĠØ³ÙħØ¬Ú¾ØªØ§": 7209,
      "ÚĪÛĮÙĨ": 7210,
      "Ø¨Ø¹": 7211,
      "ĠÙħØ·ÙĦ": 7212,
      "ĠÙģÛĮÚĪ": 7213,
      "Ġbring": 7214,
      "Ġprote": 7215,
      "ĠØ§ÙĪØ¨": 7216,
      "ÙĦØ§Ú©Ú¾": 7217,
      "ĠÙ¾Ø±Ø¯Ûģ": 7218,
      "Ġann": 7219,
      "âĢ¦âĢ¦": 7220,
      "ĠØ¹Ø¯Ø§ÙĦØªÛĮ": 7221,
      "Ø¸Ø§ÛģØ±": 7222,
      "Ġ500": 7223,
      "Ġsociety": 7224,
      "ĠØ¯ÛĮÚ©Ú¾ÛĴ": 7225,
      "Ġanaly": 7226,
      "Ġgain": 7227,
      "Ġreact": 7228,
      "overed": 7229,
      "Ø±ÛĮÙĦÙĪ": 7230,
      "ĠØ®Ø§ÙħÙĪØ´ÛĮ": 7231,
      "ĠÙħØŃÙĦ": 7232,
      "Ġword": 7233,
      "ĠØ³Ø§Ø¯Ûģ": 7234,
      "Ġste": 7235,
      "ÙĨØ¦ÛĮ": 7236,
      "86": 7237,
      "pose": 7238,
      "ÙĨÚ©Ú¾": 7239,
      "ĠÙħÛģØ±Ø¨": 7240,
      "ĠØ§ÙĨÚ¯ÙĦÛĮÙĨÚĪ": 7241,
      "ĠâĢ¢": 7242,
      "ĠØ¢Ø³Ù¹Ø±ÛĮÙĦÛĮØ§": 7243,
      "ĠØ§ÙĤÙĦÛĮ": 7244,
      "Ġadult": 7245,
      "Ġ2008": 7246,
      "ĠÙ¾ÛģÙĨÚĨØ§ÙĨÛĴ": 7247,
      "Ġeither": 7248,
      "ĠÙģØ¹Ø§ÙĦ": 7249,
      "Ġnetwork": 7250,
      "Ù¾Ø´Ø§ÙĪØ±": 7251,
      "ĠÙĨØ§Ø¸": 7252,
      "ĠÚĪÛĮÙĨ": 7253,
      "ĠÙģØ§Øµ": 7254,
      "Ġaccur": 7255,
      "ĠØ³ÛĮÙģ": 7256,
      "ĠØ¯Ø§ÙĨØ´": 7257,
      "ĠØ§ØŃØªÛĮØ§Ø·": 7258,
      "Ġguid": 7259,
      "ĠØ§Ø³ÙĦØ§ÙħÛĮÛģ": 7260,
      "¡Ù": 7261,
      "ĠØ¨ÙĪÙĦÛĮ": 7262,
      "ĠØ¨ÛĮØ´ØªØ±": 7263,
      "ĠØ³ÛĮØ§ÙĦ": 7264,
      "ĠØ³ÛĮØ§ØŃ": 7265,
      "ĠÚ©Ø±ÙĪØ§": 7266,
      "Ú©Ø§Ùħ": 7267,
      "Ø³Ø§": 7268,
      "Ġnational": 7269,
      "ĠÙĦÚ©Ú¾ÛĴ": 7270,
      "rab": 7271,
      "ĠØ¬Ø§Ø¦ÛĮ": 7272,
      "Ġsuper": 7273,
      "ĠÚ©Ø±ÙĪØ§ÙĨÛĴ": 7274,
      "ĠÙħØ³ØªØŃÚ©Ùħ": 7275,
      "fully": 7276,
      "ĠÚĨÚ¾Ù¹ÛĮ": 7277,
      "Ø§Ø¹Ø¯": 7278,
      "ley": 7279,
      "ØªÙĤ": 7280,
      "hold": 7281,
      "ĠØ¬ÙĨØ§ØŃ": 7282,
      "Ġcritical": 7283,
      "ners": 7284,
      "Ġï¿½": 7285,
      "Ġservice": 7286,
      "ĠÙĪÙĪÚĪ": 7287,
      "One": 7288,
      "Ø³ÙĨØ¯Ú¾": 7289,
      "ĠØ®Ø±ÛĮ": 7290,
      "ĠÙħÛģØ±": 7291,
      "Ġtaken": 7292,
      "Ø³Ù¹Ø±Ú©Ù¹": 7293,
      "Ġcommunication": 7294,
      "ĠØªÛĮØ³Ø±ÛĴ": 7295,
      "ĠØ¢ÙĨØ§": 7296,
      "ĠSeptember": 7297,
      "Ġreturn": 7298,
      "ÙĦØ§ÛĮØ§": 7299,
      "ĠÚĨÚ¾Ø§Ù¾": 7300,
      "Ġdevices": 7301,
      "Ø¯ÛĮÛģ": 7302,
      "Ø¬ÙĦ": 7303,
      "ĠÙĦØº": 7304,
      "Ġdest": 7305,
      "Ġver": 7306,
      "ĠCar": 7307,
      "Ġaspect": 7308,
      "Ù¹ÛĮÚ©ÙĦ": 7309,
      "Ġsoftware": 7310,
      "bol": 7311,
      "ĠØ¨Ø±Øª": 7312,
      "ĠØ¢Ø²Ùħ": 7313,
      "Ġlink": 7314,
      "Ġtechniques": 7315,
      "onse": 7316,
      "play": 7317,
      "ÙģÙĤØ§Ø±": 7318,
      "ĠØ·Ø¨ÙĤÛģ": 7319,
      "ĠÛģØ§ÙĦ": 7320,
      "ĠÙ¾Ú¾ÙĪÙĦ": 7321,
      "ĠÙħØŃÙģÙĦ": 7322,
      "ĠÛģÙĨØ¯ÙĪØ³ØªØ§ÙĨÛĮ": 7323,
      "icles": 7324,
      "val": 7325,
      "Ġarch": 7326,
      "ØµÛĮÙĦÛĮ": 7327,
      "Ø¨Ø±ÛĮ": 7328,
      "ĠØŃÚ©ÙĪÙħØªÙĪÚº": 7329,
      "Ġweek": 7330,
      "ĠÛģÙĪØ±ÛģÛĮ": 7331,
      "Ġreading": 7332,
      "ervation": 7333,
      "ĠØ§Ù¹Ú¾Ø§Ø¦ÛĴ": 7334,
      "ĠÙĦÚĳÚ©ÛĮÙĪÚº": 7335,
      "ublic": 7336,
      "ĠØ¯Ø³ØªØ®Ø·": 7337,
      "Ġansw": 7338,
      "ØªØ§ÛģÙħ": 7339,
      "ĠØ³ÙĦØ·ÙĨØª": 7340,
      "istics": 7341,
      "Ġregard": 7342,
      "Ġtypically": 7343,
      "îĢ": 7344,
      "ĠÙħÙĪØ«Ø±": 7345,
      "Ġ36": 7346,
      "Ġbacter": 7347,
      "ĠÙħÛģØ§Ø¬Ø±ÛĮÙĨ": 7348,
      "Ġactually": 7349,
      "ĠÛģÙħØ¯": 7350,
      "ĠØªØ¹ÙĦÛĮÙħØ§Øª": 7351,
      "Ġstructure": 7352,
      "Ø§Ø¦Ø¶": 7353,
      "lease": 7354,
      "Ø¨ÛĮÙĨ": 7355,
      "ØµÙĪØ¨": 7356,
      "ĠÙħØ§Øª": 7357,
      "ĠÛģÚĳ": 7358,
      "ĠØºÙģ": 7359,
      "90": 7360,
      "ĠØ¯ÙĦØ§Ø¦ÙĦ": 7361,
      "Ø¬ÛģØªÛĮ": 7362,
      "Ġpoll": 7363,
      "ÙĨÛĮÙģ": 7364,
      "Ġblack": 7365,
      "ĠÚĪØ§Ø±": 7366,
      "Ġcomputer": 7367,
      "Ġspread": 7368,
      "ĠØ§Ø³ÙħØ§Ø¹": 7369,
      "ĠØ¹ÙĦØ§ÙĤØ§Ø¦ÛĮ": 7370,
      "Ã©": 7371,
      "ĠÚĪØ¨": 7372,
      "ĠØ¹Ø¸Ùħ": 7373,
      "Ġrights": 7374,
      "ĠØ¶ÙĦ": 7375,
      "ĠØ¬Úĳ": 7376,
      "Un": 7377,
      "Ġpolitical": 7378,
      "à¸": 7379,
      "ĠÚ¯Ø±ÙħÛĮ": 7380,
      "reg": 7381,
      "ÚĨÙĪÛģØ¯Ø±ÛĮ": 7382,
      "ows": 7383,
      "ØªÚ©": 7384,
      "ĠÚ©ÙĦÙĪÙħÛĮÙ¹Ø±": 7385,
      "ĠØªÛĮØ±ÛĴ": 7386,
      "ĠPe": 7387,
      "Ø¬ÙĪØ§Ø¨": 7388,
      "ĠÙģÛĮÙħ": 7389,
      "Ġmeasure": 7390,
      "Ġfarm": 7391,
      "Ðº": 7392,
      "ĠÚĨÛģØ±Ûģ": 7393,
      "ĠÙĦØ¹ÙĨØª": 7394,
      "ĠÚ©ÙħØ§Ø±": 7395,
      "cies": 7396,
      "ĠØµÙĦ": 7397,
      "ĠØªÙģØ³ÛĮØ±": 7398,
      "ĠÚ©Ø«ÛĮØ±": 7399,
      "ĠÚ©ÙĪØ´Ø´ÛĮÚº": 7400,
      "ÙħØ±Ú©": 7401,
      "hol": 7402,
      "Ġparents": 7403,
      "ĠØ¬Ø§Ø±ØŃ": 7404,
      "ĠØºÙĨÛĮ": 7405,
      "ĠÙ¾ÙĪÙĦÛĮÙĪ": 7406,
      "Ġsent": 7407,
      "ply": 7408,
      "ĠØ¨Ø¯ÙĨ": 7409,
      "Ġbecame": 7410,
      "ĠÛģÙĦØ§Ú©Øª": 7411,
      "ĠØŃØ±Ø§Ø³Øª": 7412,
      "ĠØ§ÙĨÚĪØ³Ù¹Ø±ÛĮ": 7413,
      "Ø§ÛĮØ±Ø§ÙĨ": 7414,
      "ĠØ§Ø¹ÙĪØ§ÙĨ": 7415,
      "Ġrelig": 7416,
      "aced": 7417,
      "ĠÙĨÛĮÙĨØ¯": 7418,
      "ĠÚ©ÙħØ±": 7419,
      "ĠÙĨÙĪØ¹ÛĮØª": 7420,
      "ĠØ¨Ø§Ø¨Ø§": 7421,
      "iction": 7422,
      "Ø§Ù¹Ø§": 7423,
      "bl": 7424,
      "atest": 7425,
      "gar": 7426,
      "ĠÙĪÚ©": 7427,
      "Ø¯Ø§Ø¯ÛĮ": 7428,
      "ala": 7429,
      "hib": 7430,
      "ĠØ®ÙĦØ§ÙģØª": 7431,
      "Ġparticularly": 7432,
      "97": 7433,
      "room": 7434,
      "Ġren": 7435,
      "Ġmultiple": 7436,
      "Ãĺ": 7437,
      "ively": 7438,
      "ani": 7439,
      "Ġpatient": 7440,
      "ĠÚ©ÛĮÙĦ": 7441,
      "ĠÙĨØ§Ú©Ø§ÙħÛĮ": 7442,
      "Ġcalc": 7443,
      "ĠDecember": 7444,
      "ĠØ³ÙĨØ§Ø¦ÛĮ": 7445,
      "ÛĮÙĨÚ¯": 7446,
      "ĠØ¹Ø§Ø¦Ø´Ûģ": 7447,
      "ĠØ±ÛĮÙģØ±ÙĨØ³": 7448,
      "med": 7449,
      "Ġlab": 7450,
      "uck": 7451,
      "ĠØ¹Ø¯ÙĦÛĮÛģ": 7452,
      "Ú©ÛĮØ§Úº": 7453,
      "ĠÙ¹ÙĪØ¦": 7454,
      "ĠØ·Ø§Ø±ÙĤ": 7455,
      "imin": 7456,
      "ĠØ®Ø§Ú©": 7457,
      "ĠÙħÙĤÛĮÙħ": 7458,
      "ĠAct": 7459,
      "ĠØ¢Ø³": 7460,
      "ĠÙģÙĦÙħÙĪÚº": 7461,
      "ĠØ§Ø³ØªÙĤØ¨Ø§ÙĦ": 7462,
      "ĠÙħØªÙĨØ§Ø²": 7463,
      "Ġculture": 7464,
      "Ø¨ÛĮØ§": 7465,
      "ĠØ§ÙħØ§ÙĨ": 7466,
      "Ġachieve": 7467,
      "Ġstop": 7468,
      "ĠØ¯Ø±Ø¬ÙĨ": 7469,
      "Ġge": 7470,
      "ÙħØ¨Ø§Ø±Ú©": 7471,
      "ĠÛģÛĮÙĦØªÚ¾": 7472,
      "ÛģÛĮÚº": 7473,
      "ĠØ§ÛĮÚ¯Ø²": 7474,
      "ÙĨØ¯ÙĪ": 7475,
      "ĠØªÚ¾ÙĪÚĳÛĮ": 7476,
      "Ġever": 7477,
      "ÙĪÙģØ§ÙĤÛĮ": 7478,
      "ĠÙĪØ§Ø³": 7479,
      "mon": 7480,
      "Ġidea": 7481,
      "Ġwaste": 7482,
      "ĠØ§Ø¶ÙĦØ§Ø¹": 7483,
      "ĠSoc": 7484,
      "Ġthreat": 7485,
      "ĠÛĮÛģÙĪØ¯ÛĮ": 7486,
      "ĠÙ¾Ø±Ø§ÙĨÛĮ": 7487,
      "osing": 7488,
      "Ġleading": 7489,
      "ĠØ®Ø³": 7490,
      "ĠÙĨØµÛĮØ¨": 7491,
      "ĠSouth": 7492,
      "ĠGerm": 7493,
      "Ġcorrect": 7494,
      "ĠÙģÙĦØ³Ø·ÛĮÙĨÛĮ": 7495,
      "Ġstay": 7496,
      "Ġcreating": 7497,
      "lick": 7498,
      "Ġgard": 7499,
      "ĠÚ©Ø´ÛĮØ¯Ú¯ÛĮ": 7500,
      "lation": 7501,
      "Ø³Ù¾Ø±ÛĮÙħ": 7502,
      "Ġlonger": 7503,
      "Ġevidence": 7504,
      "Ø§Ø¬Ø§Ø¦Ø²": 7505,
      "Ù¹Ú¾ÛĴ": 7506,
      "ĠØ³Ø±Ø²ÙħÛĮÙĨ": 7507,
      "ĠÙ¾ÛĮÚĨ": 7508,
      "Ġsex": 7509,
      "ĠÙ¾ÙĨØ¯Ø±Ûģ": 7510,
      "Ø±ØªÛĮ": 7511,
      "Ġfire": 7512,
      "Ø¹Ø¯Ùħ": 7513,
      "ĠApp": 7514,
      "Ġcompet": 7515,
      "ĠØ§ÙħØ§Ø±Ø§Øª": 7516,
      "IS": 7517,
      "ÙĪÛĮØ§Øª": 7518,
      "ĠÙĨØ§ÙĪÙĦ": 7519,
      "ĠØ¢Ú¯ÛĮØ§": 7520,
      "Ø°Ú©Ø±Ûģ": 7521,
      "ĠØ¬ØªÙĨÛĮ": 7522,
      "ĠØ¨ÛĮÚ¯Ùħ": 7523,
      "ĠÚĨÛģ": 7524,
      "ĠØ¯ÙĦÙĪÚº": 7525,
      "ĠUs": 7526,
      "issions": 7527,
      "Ġlooking": 7528,
      "ĠØ±Ø¯Ø¹ÙħÙĦ": 7529,
      "ĠØ¢ÛģØ³ØªÛģ": 7530,
      "ĠNovember": 7531,
      "ĠRead": 7532,
      "ĠÛģÙĪØ±ÛģØ§": 7533,
      "Ġfive": 7534,
      "opy": 7535,
      "Ġmechan": 7536,
      "ĠÙĦÙĪÚ©": 7537,
      "ĠØ®Ø§Ø±Ø¬": 7538,
      "ĠØŃØµÙĪÚº": 7539,
      "Ġprofessional": 7540,
      "ĠÚ©ÙħØ§ÙĨÚĪØ±": 7541,
      "hab": 7542,
      "ĠØ²ÙĦØ²": 7543,
      "ĠÚĪØ±Ø§Ùħ": 7544,
      "ĠÙĨØ¹Ø±ÛĴ": 7545,
      "eration": 7546,
      "ĠØ§ÙģØ¶ÙĦ": 7547,
      "ĠÙĤØµÙĪØ±": 7548,
      "ĠØ³ÙħÛĮ": 7549,
      "ĠÙģØ§Ø·ÙħÛģ": 7550,
      "ĠÙģÛĮØ¶": 7551,
      "ØµÙĪÙģ": 7552,
      "ĠØ§ÙĨÙĪ": 7553,
      "ĠØ¨Ú¾Ú¯": 7554,
      "ĠØ¬Ø¨Ø±": 7555,
      "Ġcompanies": 7556,
      "Ġsam": 7557,
      "ĠØ¹ÙĤÛĮØ¯Øª": 7558,
      "Ġrev": 7559,
      "ĠØ´ÛģØ±Øª": 7560,
      "Ġmatter": 7561,
      "ÙħØ®Øª": 7562,
      "ĠØ§Ø³Ù¹ÛĮÙ¹": 7563,
      "Ø§Ú©Øª": 7564,
      "ivil": 7565,
      "ĠDep": 7566,
      "ĠØ±ÛĮØ³": 7567,
      "ĠØ¹Ø§Ø±Ùģ": 7568,
      "book": 7569,
      "ĠØ±ÛģØ§Ø¦ÛĮ": 7570,
      "Ø§ÙĩØ¯": 7571,
      "Ú©Ú¾Ø§": 7572,
      "onom": 7573,
      "ÚĪÙĨ": 7574,
      "ese": 7575,
      "ĠÙĨØ±ÛĮÙĨØ¯Ø±": 7576,
      "Ġstates": 7577,
      "Ġ@": 7578,
      "hens": 7579,
      "ĠÙĪØ¬ÙĪÛģØ§Øª": 7580,
      "×ķ×": 7581,
      "ccording": 7582,
      "ÙĪØªÚ¾": 7583,
      "Ġtowards": 7584,
      "ĠÙĪÛĮÚº": 7585,
      "atives": 7586,
      "Ø¨Ø¯Ú¾": 7587,
      "ĠÙĦÚĳÚ©ÛĴ": 7588,
      "ÙĬÛģ": 7589,
      "ĠØ¬Ø§ÙĨÚĨ": 7590,
      "ĠØŃØ§Ø¬ÛĮ": 7591,
      "Ø·Ùģ": 7592,
      "Ø§ÙĪØ²": 7593,
      "ĠØ¨Ú¾Ø§Ø¦ÛĮÙĪÚº": 7594,
      "ĠPol": 7595,
      "Ø§ØŃÙħØ¯": 7596,
      "Ġthough": 7597,
      "ĠØ¨ÙĨÛĮØ§Ø¯ÙĪÚº": 7598,
      "Ø¢Ø®Ø±": 7599,
      "ĠWh": 7600,
      "Ġlog": 7601,
      "ĠØ³ÙĪÚĨØ§": 7602,
      "ĠÙħÛĮØ²Ø§Ø¦ÙĦ": 7603,
      "fect": 7604,
      "ĠØ¯ÙģØ§Ø¹ÛĮ": 7605,
      "ÙħØµ": 7606,
      "ĠØ·ÛĮØ§Ø±ÛĴ": 7607,
      "ØºØ§": 7608,
      "Ġgetting": 7609,
      "ĠØ§Ø¹Ø¬Ø§Ø²": 7610,
      "ĠÙĨØ§Ø±Ø§Ø¶": 7611,
      "Ø¦ÙĦ": 7612,
      "ĠÙ¾Ø±Ø³ØªÛĮ": 7613,
      "Ġsat": 7614,
      "ÙģÛĮØ¸": 7615,
      "izations": 7616,
      "ĠÙħÙĪÙĦÙĪÛĮ": 7617,
      "ĠÙģØ¶Ø§": 7618,
      "ĠÙĪÛĴ": 7619,
      "ĠÚ¯ÚĳÚ¾": 7620,
      "ĠÚ©ÙĦÙħ": 7621,
      "ĠMin": 7622,
      "Ġremov": 7623,
      "uel": 7624,
      "ĠÙħÙĤØ§Ø¨ÙĦ": 7625,
      "ÙĪÙĨÚ©": 7626,
      "Ġenjoy": 7627,
      "Ġgame": 7628,
      "ĠÚĨÚ¾ÙĪÙ¹Ø§": 7629,
      "Ġtax": 7630,
      "ĠÚĪÙĪØ¨": 7631,
      "ĠÛģÙĪØ¬Ø§ØªÛĮ": 7632,
      "ĠÛģØ§": 7633,
      "ĠÙħØ¸ÙĦÙĪÙħ": 7634,
      "Ø²Ø®": 7635,
      "wit": 7636,
      "ØªØ±ÛĮÙĨ": 7637,
      "ze": 7638,
      "Ø´ÛĮÙĨ": 7639,
      "ĠÙħØŃØ¨ÙĪØ¨": 7640,
      "Ãł": 7641,
      "ĠÙħÙģÛĮØ¯": 7642,
      "ĠÙĨÚ©Ø§ÙĦÙĨÛĴ": 7643,
      "Ġupon": 7644,
      "Ġterms": 7645,
      "ologies": 7646,
      "ĠPar": 7647,
      "Ġcommunities": 7648,
      "ister": 7649,
      "ĠØºØ±Ø¨Øª": 7650,
      "ricult": 7651,
      "Ø§ÙħÙĨÙ¹": 7652,
      "Ġprograms": 7653,
      "ED": 7654,
      "ĠÙĦØ¦ÛĮ": 7655,
      "ĠØ´Ø§ÛģÛĮ": 7656,
      "ĠØ§ØµÙĦØ§ØŃØ§Øª": 7657,
      "Ġeat": 7658,
      "ĠØ±ÛģÙĨÙħØ§Ø¦ÛĮ": 7659,
      "ĠWar": 7660,
      "Ġrout": 7661,
      "ties": 7662,
      "aq": 7663,
      "ĠÙģØ±Ø§Ø¦Ø¶": 7664,
      "Ø³ÙĦÙħ": 7665,
      "ĠÙ¾Ø±ÚĨ": 7666,
      "ĠØ·Ø§ÙĤØªÙĪØ±": 7667,
      "ĠÙħÙĪÙħÙĨ": 7668,
      "Ġprinc": 7669,
      "Ġconsist": 7670,
      "ĠØ¨ÙĨØ§ØªÛĴ": 7671,
      "ĠØ¨ÙĦØ¯ÛĮ": 7672,
      "66": 7673,
      "ĠØ²Ø¯Ûģ": 7674,
      "ĠØ¨Ø±Ø¹Ú©Ø³": 7675,
      "ĠØ¬Ø°Ø¨Ûģ": 7676,
      "ĠÚ¯ÙĪÙĨ": 7677,
      "ĠÚ¯Ø±Ø§Ùħ": 7678,
      "Â°": 7679,
      "Ø¯Ú¾Ø±": 7680,
      "Ù¹ÛĮÙĦÛĮ": 7681,
      "Ø§Ø¯ÛĮØ§ÙĨÛĮ": 7682,
      "Ø¨Ø·": 7683,
      "ĠØ±Ø¬ÙĪØ¹": 7684,
      "Ġcaused": 7685,
      "Ġsuff": 7686,
      "Ġposition": 7687,
      "ĠØ´ÙģØ§Ùģ": 7688,
      "duc": 7689,
      "Ø§ÙĦØ±": 7690,
      "Ġusers": 7691,
      "Ġindustr": 7692,
      "Ø¬ÙĨÙĪØ±ÛĮ": 7693,
      "Ġpsych": 7694,
      "Ġdeveloping": 7695,
      "Ġmicro": 7696,
      "apan": 7697,
      "cient": 7698,
      "ief": 7699,
      "Ø¶Ø±": 7700,
      "ÙĪÙĤØ¹": 7701,
      "ĠÛģÙĪØ§Ø¦ÛĮ": 7702,
      "ĠÛģÙĪØ¬Ø§Ø¦ÛĮÚº": 7703,
      "ĠÙĨØ¸Ø±ÛĮØ§Øª": 7704,
      "my": 7705,
      "AM": 7706,
      "ĠGoogle": 7707,
      "Ø¹Ø§ÙĦÙħÛĮ": 7708,
      "ĠÙ¾Ú¾ÛĮÙĨÚ©": 7709,
      "Ġgrowing": 7710,
      "ĠÙĪÛĮÚ©ÛĮ": 7711,
      "ĠFebruary": 7712,
      "Ø¹Ø¨Ø¯Ø§ÙĦ": 7713,
      "ĠCo": 7714,
      "ĠØ´ÙħØ§Ø±ÛĮ": 7715,
      "ales": 7716,
      "Ġexplore": 7717,
      "Ġsolar": 7718,
      "Ø§Ø®ÛĮØ±": 7719,
      "Ø§ÙĨÚ¾ÙĪÚº": 7720,
      "Ġtravel": 7721,
      "Ġec": 7722,
      "Ø¯ÛģÛĮ": 7723,
      "ĠØ³ÛĮÙĨÚ©ÚĳÙĪÚº": 7724,
      "abet": 7725,
      "Ġuses": 7726,
      "Ø¨ÙĦÙĪÚĨ": 7727,
      "itud": 7728,
      "Ġvisit": 7729,
      "ĠHere": 7730,
      "ĠØ¬Ø§Ø³Ú©ØªÛĮ": 7731,
      "ĠØ¯Ú¾ÛĮ": 7732,
      "ĠØ¹ÛĮØ³ÛĮ": 7733,
      "Ġir": 7734,
      "ĠØ¬Ø§ÙĨÙĪØ±ÙĪÚº": 7735,
      "Ð°Ð½": 7736,
      "yes": 7737,
      "ÙħÙĨÚ¯ÙĦ": 7738,
      "Ø§Ø¬Ø§Ø¦ÛĴ": 7739,
      "ĠÙħÙĨØ§Ø¸Ø±": 7740,
      "ĠØ¶ÙħÙĨ": 7741,
      "pd": 7742,
      "ĠØ·Ø¨ÙĤÛĴ": 7743,
      "Ø¹ÛĮØ¯": 7744,
      "Ġteeth": 7745,
      "term": 7746,
      "Ġcontinue": 7747,
      "Ġoptim": 7748,
      "ĠÙ¾Ù¹ÛĮ": 7749,
      "ĠÚ©Ø±ÚĨ": 7750,
      "ipment": 7751,
      "ened": 7752,
      "ÙĪØ§ÙĦÛĮ": 7753,
      "Ġrecent": 7754,
      "ĠÙĤØ¯Ø±Øª": 7755,
      "ĠÙĨÚ©ÙĦÛĴ": 7756,
      "ĠÙħÙĨØ³ÙĪØ®": 7757,
      "Ġaud": 7758,
      "Ġfeatures": 7759,
      "ĠØ·ÙĪØ±Ù¾Ø±": 7760,
      "Ad": 7761,
      "ĠØ³Ø§ØªÚ¾ÛĮÙĪÚº": 7762,
      "ÛĶ\"": 7763,
      "ĠÙĤØ§Ø¶ÛĮ": 7764,
      "ias": 7765,
      "Ġprob": 7766,
      "ĠÚ©Ú¾ÛĮÙĦÙĨÛĴ": 7767,
      "à¤¾": 7768,
      "Ø¬Ø±Ùħ": 7769,
      "ĠÚĪÛĮÙĦ": 7770,
      "hood": 7771,
      "ume": 7772,
      "77": 7773,
      "orks": 7774,
      "ĠØ³ÛĮÙĦØ§Ø¨": 7775,
      "Ø¯Ø§Ø±ØªÛĮ": 7776,
      "ĠØ¨Ú¾ÙĦØ§": 7777,
      "ĠCal": 7778,
      "ÙĨÛĮÙĪØ²": 7779,
      "Ġrequires": 7780,
      "ĠQu": 7781,
      "×Ļ×": 7782,
      "Ġhyd": 7783,
      "ÙĪØ§Øª": 7784,
      "ĠÚ©Ø±Ø§Ø¦ÛĴ": 7785,
      "ĠØ§ÙĨÚ¯Ø±ÛĮØ²": 7786,
      "ØªØŃØ±ÛĮÚ©": 7787,
      "ĠÚ©ÛĮØ¬Ø¦ÛĴ": 7788,
      "ÙĨÚĪØ±": 7789,
      "Ø¹Ø¯Ø§ÙĦØª": 7790,
      "Ø§ÙĨÚ¯ÛĮØ±": 7791,
      "Ġï¿½ï¿½ï¿½": 7792,
      "Ġissue": 7793,
      "uh": 7794,
      "ĠÚ©Ø±Ø¯ÛĴ": 7795,
      "ĠØ±ÛĮØ²": 7796,
      "ĠÙĨÙħÙ¹ÙĨÛĴ": 7797,
      "ĠÚ©Ø±Ø§Ø¦ÛĮ": 7798,
      "ĠCons": 7799,
      "ÙĨØ³ÙĪ": 7800,
      "ĠOf": 7801,
      "ĠÙĪÚĪ": 7802,
      "ĠØ´ÛĮØ¦Ø±": 7803,
      "ĠØªÙģØµÛĮÙĦÛĮ": 7804,
      "ÙĪÙĨÛĴ": 7805,
      "Ġsect": 7806,
      "gu": 7807,
      "ĠÙĤØ§ÙĦ": 7808,
      "Ø¯ÛĮØ´": 7809,
      "ĠØ³ÛĮØ¯ÙĨØ§": 7810,
      "ĠÙĪÛĮÙĨ": 7811,
      "ĠKe": 7812,
      "ĠØ¢Ú©Ø±": 7813,
      "ctions": 7814,
      "Ø¯Ø¨": 7815,
      "ĠGr": 7816,
      "Ø§Ø¯ÙĪ": 7817,
      "ĠØ¬Ø§ÙĨÙĨÛĴ": 7818,
      "Ġsepar": 7819,
      "Ù¾ÛĮÚĪÛĮØ§": 7820,
      "ĠØ§ÙħØ±Ø§Ø¶": 7821,
      "Ø±ÙĪÙ¾ÛĴ": 7822,
      "ĠØ¨ÛĮÙ¹Ú¾Ø§": 7823,
      "ĠØ§ÙĦØ·Ø§Ùģ": 7824,
      "Ġsomeone": 7825,
      "ĠÚ©ÛģØªÛĮ": 7826,
      "ĠØ²Ø¯": 7827,
      "ĠØ§ÙĤØ¯Ø§Ø±": 7828,
      "Ġeasily": 7829,
      "ĠÑ": 7830,
      "Ġcultural": 7831,
      "Ú¯Ø¦ÛĮ": 7832,
      "ĠÙ¾Ø§Ø¤Úº": 7833,
      "92": 7834,
      "Ġheav": 7835,
      "ĠØ¨ÚĨÙĨÛĴ": 7836,
      "ĠØ¨ÙĦÛĴ": 7837,
      "ĠÚ©Ú¾ÙĦÛĴ": 7838,
      "ĠØµÙĪØ¨ÙĪÚº": 7839,
      "ÙĨÙ¹Ø³": 7840,
      "yl": 7841,
      "pid": 7842,
      "ON": 7843,
      "ades": 7844,
      "aries": 7845,
      "ĠÙĦÚ¯Ø§Ø¦ÛĮ": 7846,
      "Ġful": 7847,
      "ĠØ§Ø³ÙħØ§Ø¹ÛĮÙĦ": 7848,
      "Ø§ÙĩØ¯Ø©": 7849,
      "ta": 7850,
      "Ġthing": 7851,
      "ĠÙĤØ·Ø±": 7852,
      "ĠÙģÙĪØ¬ÛĮÙĪÚº": 7853,
      "ground": 7854,
      "ĠÙĨØ§Ø¯": 7855,
      "Ú©Ú¾ÛĮÙĦ": 7856,
      "ĠÚĪØ±Ø§Ø¦ÛĮÙĪØ±": 7857,
      "ÙĪÙħØ§": 7858,
      "ĠØªØŃØµÛĮÙĦ": 7859,
      "Ġhar": 7860,
      "ĠÙħÙĪØ±Ø®Ûģ": 7861,
      "Ġprop": 7862,
      "ÚĪÙ¹": 7863,
      "ĠÛģÙħØª": 7864,
      "Ø¬ÙħØ¹Ø±Ø§Øª": 7865,
      "ĠÙĨØ°Ø±": 7866,
      "amb": 7867,
      "Ġvacc": 7868,
      "ĠÚĪØ§ÙĦÛĮ": 7869,
      "ĠÚ©Ú¾ÙĦÛĮ": 7870,
      "Ġbab": 7871,
      "vant": 7872,
      "ĠØ³Ø§Ø¦ÙĨ": 7873,
      "Ġimportance": 7874,
      "Ġregion": 7875,
      "ĠØ¨Ø§ÙĦÛĮ": 7876,
      "Ø²Ø§Ø¯Ûģ": 7877,
      "ĠÙĦØ§Ø¦ÛĮ": 7878,
      "ÙĪØ±ÙĨØ§ÙħÙĨÙ¹": 7879,
      "ĠÚĨÙħÚ©": 7880,
      "Ġ}": 7881,
      "Ùĸ": 7882,
      "Ġpan": 7883,
      "ĠØªØŃØ³ÛĮÙĨ": 7884,
      "Ġvari": 7885,
      "ĠÚ©ÛģÛĮ": 7886,
      "Ġetc": 7887,
      "ĠÙĨÙĤØ·Ûģ": 7888,
      "rs": 7889,
      "Ġquickly": 7890,
      "ĠØ¨Ø¯ÙĪÙĦØª": 7891,
      "Ġeye": 7892,
      "ĠÛĮÙĪÙĨÙ¹": 7893,
      "Ġdiseases": 7894,
      "ĠÚ©ÙħÛĮÙĪÙĨÙ¹ÛĮ": 7895,
      "Ġresponse": 7896,
      "ĠÛģØ§Ø¦": 7897,
      "Ø²Ø±": 7898,
      "ĠÙĦØ§Ø²Ùħ": 7899,
      "Ġevents": 7900,
      "ĠÙĪØ§Ø¦Ø³": 7901,
      "ĠØ§Ø®ØªÙĦØ§ÙģØ§Øª": 7902,
      "AC": 7903,
      "Ġappropri": 7904,
      "ĠØ®Ø±Ø§Ø¬": 7905,
      "Ġdoing": 7906,
      "ĠÙ¾Ù¹": 7907,
      "OR": 7908,
      "Ø±ØŃØ§ÙĦ": 7909,
      "Ġselect": 7910,
      "ils": 7911,
      "ĠArch": 7912,
      "Ġ02": 7913,
      "ĠØ¢Ø¤Ù¹": 7914,
      "Ġarr": 7915,
      "izes": 7916,
      "ĠÚ¯ÙĪØ¦ÛĮ": 7917,
      "Ø¨Ø³": 7918,
      "ĠØªÙĤØ±": 7919,
      "ĠØµØ§ÙĦØŃ": 7920,
      "Ġitself": 7921,
      "Ġhot": 7922,
      "Ø§ÙĪØ±Øª": 7923,
      "Ġexercise": 7924,
      "ĠÚĪØ§Ù¹": 7925,
      "ĠØ§ÙĦÚ©": 7926,
      "AL": 7927,
      "Ø§ÙĦØ³": 7928,
      "Ø¬ÙĪÙĨ": 7929,
      "Ġmovement": 7930,
      "ĠØŃØªÛĮ": 7931,
      "ÙĬØ©": 7932,
      "........": 7933,
      "Ġbur": 7934,
      "artment": 7935,
      "ĠÙģØ§Ø±Ø³ÛĮ": 7936,
      "Ġadapt": 7937,
      "Ø¨Ø¯": 7938,
      "Ġspeed": 7939,
      "ĠÙ¾ÚĨØ§Ø³": 7940,
      "ĠØ¹Ø§Ø¨": 7941,
      "ĠØ§ÙĨØ¯Ø±ÙĪÙĨÛĮ": 7942,
      "ĠØ¬ÙħÛģÙĪØ±ÛĮÛģ": 7943,
      "Ġefficient": 7944,
      "title": 7945,
      "Ġyet": 7946,
      "ĠØ§ÙĨØ¬ÛĮÙĨØ¦Ø±": 7947,
      "ĠÛĮÚ©Ø¬ÛģØªÛĮ": 7948,
      "ĠØ¹ÛĮÙĨ": 7949,
      "ĠÙħØ±Ø§Ú©": 7950,
      "ĠÙĨÚ©ÙĦÙĨÛĴ": 7951,
      "ĠØ§ÛģÙĦÛĮÛģ": 7952,
      "ĠÙģÛĮÙħÙĦÛĮ": 7953,
      "ĠÙħÙĨÚ¯": 7954,
      "Ø¬ÙħØ¹Ûģ": 7955,
      "umb": 7956,
      "Ġdraw": 7957,
      "ÚĳÙ¾": 7958,
      "ĠØ¯Ø±Ø¨": 7959,
      "ĠØ§ÛĮÚ©Ø³Ù¾Ø±ÛĮØ³": 7960,
      "Ø§ÙĦÛĮÛģ": 7961,
      "ĠÙħÛģÙĨÚ¯Ø§Ø¦ÛĮ": 7962,
      "ĠÙħØ¨Ø§Ø±Ú©Ø¨Ø§Ø¯": 7963,
      "ĠØ¢Ù¾Ø³": 7964,
      "ÙĪØ²ÛĮØ±Ø§Ø¹ÙĦÛĮ": 7965,
      "ĠØ¯Ø±ÙĪØ§Ø²Ûģ": 7966,
      "ĠÙĤØ§Ø¯Ø±ÛĮ": 7967,
      "eter": 7968,
      "ĠÚ¯ÛĮØ±": 7969,
      "Ġ01": 7970,
      "Ġautom": 7971,
      "ĠÙħÛģÛĮØ§": 7972,
      "ĠØ¨Ø²ÙĨØ³": 7973,
      "ĠÙĨÙĪØ§Ø¨": 7974,
      "ĠÙĤØ¨Ø§Ø¦ÙĦÛĮ": 7975,
      "ĠÙĨÛĮÙĪØ²ÛĮ": 7976,
      "ĠØ§Ø³ØŃØ§ÙĤ": 7977,
      "ĠØ¬Ø§Ø¤": 7978,
      "inary": 7979,
      "Ġlack": 7980,
      "Ġtrue": 7981,
      "orpor": 7982,
      "Ġï¿½ï¿½": 7983,
      "Ġcommit": 7984,
      "ĠØ¹ÙħØ¯": 7985,
      "ĠÙĦÚ¯ÙĨÛĴ": 7986,
      "ĠØªØ¨ÙĦÛĮØº": 7987,
      "Ġproced": 7988,
      "ĠÚ©ÛĮÙĦÛĮÛĴ": 7989,
      "Ġprogress": 7990,
      "ĠÚ©ÛĮÙĨÛĮ": 7991,
      "back": 7992,
      "Ú¯ÙĪØ§Ø±": 7993,
      "ÙħÛĮØ´ÙĨ": 7994,
      "avor": 7995,
      "Ø²Ø¦ÛĮ": 7996,
      "Ġslow": 7997,
      "ĠÙħØ¹Ø§ÙĪ": 7998,
      "Ġveh": 7999,
      "oph": 8000,
      "ĠÙĪÙĤØ§Ø±": 8001,
      "minist": 8002,
      "ĠØ§Ú©Ú¾": 8003,
      "ĠÚĨØªØ±Ø§ÙĦ": 8004,
      "ÛĮØ´": 8005,
      "ĠØ§Ø¯ÙĪÛĮØ§Øª": 8006,
      "Ġveget": 8007,
      "ĠÙ¾Ú©Ø§Ø±": 8008,
      "ĠÚĨÙĦØªÛĴ": 8009,
      "itary": 8010,
      "ene": 8011,
      "Ø¹ÙĨ": 8012,
      "ĠØ´Ø±Ø¹ÛĮ": 8013,
      "Ġinvolved": 8014,
      "ØªÛĮÙĪÚº": 8015,
      "ĠÚ¯ÙĨØ¯": 8016,
      "ĠØ¬Ú¾Ú¯": 8017,
      "Ġinnov": 8018,
      "ĠØ³ÙĪØ¦": 8019,
      "ĠØ²ÛĮØ¯": 8020,
      "ĠÙĨØµØ¨": 8021,
      "ĠÙħÙĦØ§ØŃ": 8022,
      "rown": 8023,
      "ÙĦÙĪÚ¯": 8024,
      "ĠÙħØ§ÙĨÛĮ": 8025,
      "ÛĮÚ©Ø§": 8026,
      "Ġ45": 8027,
      "ÙħØ¦ÛĮ": 8028,
      "ĠSec": 8029,
      ",\\\"": 8030,
      "urch": 8031,
      "ĠØ¯Ø±Ù¾ÛĮØ´": 8032,
      "Ġprocesses": 8033,
      "ĠØ¶ÙĦØ¹ÛĮ": 8034,
      "ĠÙħÙĨØ¹": 8035,
      "ĠÚĨØ§ÛģÛĮÚº": 8036,
      "Ø±Ù¾ÙĪØ±Ù¹": 8037,
      "ĠØ¯Ø±ÛĮØ§": 8038,
      "Ø±ÛĮÙĪÚº": 8039,
      "right": 8040,
      "Ø§ÛģÙ¹": 8041,
      "ĠÙģÙĨÚĪØ²": 8042,
      "aren": 8043,
      "ĠÙģØ§Øª": 8044,
      "\\\":\\\"": 8045,
      "know": 8046,
      "ĠØ±ÙĪÙĦ": 8047,
      "ĠFl": 8048,
      "uted": 8049,
      "\\\",\\\"": 8050,
      "ĀĀĀĀ": 8051,
      "ĠÚ¾ÛĮÚº": 8052,
      "Ġprovided": 8053,
      "ĠØ®ÙĦÛĮÙģÛģ": 8054,
      "ĠÛģØ±Ú¯Ø²": 8055,
      "ĠØ³ÛĮÚ©Ù¹Ø±": 8056,
      "78": 8057,
      "Ø§Ù¾Ø±ÛĮÙĦ": 8058,
      "ĠØ¢ÙģØ³": 8059,
      "ĠØ¨ØºØ§ÙĪØª": 8060,
      "\"ÛĶ": 8061,
      "ĠÙ¹Ú¾ÛģØ±": 8062,
      "rag": 8063,
      "ĠØ¶Ø§Ø¦Ø¹": 8064,
      "Ġvit": 8065,
      "Ø¨Ø±Ø·Ø§ÙĨÛĮÛģ": 8066,
      "Ġprior": 8067,
      "Ġhealthcare": 8068,
      "ĠÙħØ±ÙĨÛĴ": 8069,
      "ĠÙ¾Ú¾ÙĨØ³": 8070,
      "EN": 8071,
      "ĠAust": 8072,
      "Ġinstall": 8073,
      "Ġinternational": 8074,
      "ÚĪØ²": 8075,
      "ÙĦÛĮÙĪÚº": 8076,
      "ĠReg": 8077,
      "Ġwild": 8078,
      "Ø§ØŃÙĤ": 8079,
      "ĠChina": 8080,
      "ĠÙħÙĤØ¯ÙħÛĴ": 8081,
      "ĠÙħØ§Ø¦": 8082,
      "Ġdeb": 8083,
      "ĠØ³Ø¨Ú¾ÛĮ": 8084,
      "Ġaltern": 8085,
      "ĠÙ¹ÙĪØ±ÙĨØ§ÙħÙĨÙ¹": 8086,
      "ĠØªÛĮØ±ÛĮ": 8087,
      "Ġx": 8088,
      "ĠØ¢ÙĦÛģ": 8089,
      "ĠÚ©ÛĴÙĦØ¦ÛĴ": 8090,
      "Ġmess": 8091,
      "ĠÙĤØ§ØªÙĦ": 8092,
      "Ġoffers": 8093,
      "Ġshows": 8094,
      "Ġbeaut": 8095,
      "atform": 8096,
      "ÙģØ±ÙĪØ±ÛĮ": 8097,
      "Ġnegative": 8098,
      "rid": 8099,
      "ellig": 8100,
      "ÙĨÚĪÛĮØ´ÙĨ": 8101,
      "Ġdoesn": 8102,
      "ĠÙħÙĦØªÙĪÛĮ": 8103,
      "ĠØŃÙĦÙģ": 8104,
      "asons": 8105,
      "Ġalmost": 8106,
      "ĠÚĨØ§ÛģÛĮØ¦ÛĴ": 8107,
      "Ø§Ø±Ø¦ÛĮÙĨ": 8108,
      "iber": 8109,
      "ÃĻ": 8110,
      "Ġevalu": 8111,
      "ĠØ§ÙĦØ¯": 8112,
      "yond": 8113,
      "Ġmor": 8114,
      "IC": 8115,
      "ĠÚ©ÛģÙĦ": 8116,
      "Ġbuilt": 8117,
      "ĠAmerica": 8118,
      "ĠØ³Ø¨ÙĤ": 8119,
      "Ġliter": 8120,
      "ĠÙĦÛĮØ¦ÛĴ": 8121,
      "ĠÙģØ§Ø±Øº": 8122,
      "Ø§Ø¦ÛĮØ¯Ø§Ø¯": 8123,
      "Ġcapt": 8124,
      "itable": 8125,
      "ĠÚ¯ÛĮÙĦØ§ÙĨÛĮ": 8126,
      "Ġadvant": 8127,
      "ĠÚ¯Ú¾ÙĨÙ¹ÙĪÚº": 8128,
      "ĠØ¹Ø§Ø±": 8129,
      "ĠÙĨÚ©ÙĦØ§": 8130,
      "Â¤": 8131,
      "ĠÙĨÛĮÙĦ": 8132,
      "ĠAfter": 8133,
      "imately": 8134,
      "100": 8135,
      "irl": 8136,
      "Ġoptions": 8137,
      "Ú¯Ø±Ûģ": 8138,
      "ĠØ³ÙĪØ±Ûģ": 8139,
      "ĠØ¹Ø§Ø¯Øª": 8140,
      "Ø¬ÛģØ§Úº": 8141,
      "ĠÚ¯ÙħØ±": 8142,
      "Ġtell": 8143,
      "Ġcame": 8144,
      "Ġfram": 8145,
      "Ġdecision": 8146,
      "ĠState": 8147,
      "Ø§Ø¹ÛĮ": 8148,
      "ĠØ¨ÙĨØªØ§": 8149,
      "ĠØ´Ø§ÙħÛĮ": 8150,
      "Ġwebsite": 8151,
      "ĠÚ©ÛĮÙ¾": 8152,
      "Ġextreme": 8153,
      "ift": 8154,
      "Ø¬Ø³Ù¹Ø±": 8155,
      "ĠØ§ÙĨØ¯Ú¾ÛĮ": 8156,
      "ĠØŃØ±Ø§Ø±Øª": 8157,
      "Ú¯Ú¾Ø±": 8158,
      "hel": 8159,
      "ÙĦÙĩ": 8160,
      "Ġyourself": 8161,
      "ĠÙĪØ³ÛĮÙħ": 8162,
      "ĠØ¹Ø¸ÙħØª": 8163,
      "Ġblock": 8164,
      "Ú¯Ø¦ÛĴ": 8165,
      "ĠØªØ§Ø®ÛĮØ±": 8166,
      "enn": 8167,
      "ĠØºØ²ÙĦ": 8168,
      "ĠÙħÙĪØ³ÙħÛĮ": 8169,
      "ĠÙħØ§Ø±Ø§": 8170,
      "Ġcard": 8171,
      "ĠÚ©ÛģÛĴ": 8172,
      "==": 8173,
      "ĠØ¨ÚĳÚ¾ÙĨÛĴ": 8174,
      "ĠØ§ÙĦÙħØ¹": 8175,
      "ched": 8176,
      "ĠÙħØ¹Øª": 8177,
      "ÙĪØ´ÙĨ": 8178,
      "Ġvideo": 8179,
      "Ġprevious": 8180,
      "ĠÙħÙĨØ¯Ø±Ø¬Ûģ": 8181,
      "ĠÚ©ÛĮÙĨØ³Ø±": 8182,
      "ĠØ§Ø¨ÙĦ": 8183,
      "Ġprotection": 8184,
      "ĠÛģÛĮØ±ÙĪ": 8185,
      "Ġuser": 8186,
      "ban": 8187,
      "ĠØ³ÙħØª": 8188,
      "Ġaccept": 8189,
      "ĠJoh": 8190,
      "Ġinvolves": 8191,
      "ĠØ¬ÙĦØ³Ûģ": 8192,
      "ĠÙħØªØ§Ø«Ø±ÛĮÙĨ": 8193,
      "Ġwood": 8194,
      "ĠÙħÙĨØ¸Ùħ": 8195,
      "just": 8196,
      "Ġstandard": 8197,
      "ĠØ¨Ø§Ø¨Ø±": 8198,
      "ĠÙħÛĮØ³Ø±": 8199,
      "ÙĦØ§ÙĪØª": 8200,
      "ĠØ´Ø§Ø¯": 8201,
      "ĠØŃØ§ÙħØ¯": 8202,
      "ĠØ¨Ùĩ": 8203,
      "ÙĪØ±Ø§": 8204,
      "Ġtotal": 8205,
      "ĠØµØ¯Ø§Ø±ØªÛĮ": 8206,
      "ĠØ³Ø§Ø¨ÙĤÛģ": 8207,
      "Ø´ÙĪÚº": 8208,
      "Ġexc": 8209,
      "ĠØºØ§Ø¦Ø¨": 8210,
      "Ø³Ø±ÛĮ": 8211,
      "Ġgreater": 8212,
      "Ġlands": 8213,
      "ÙĨØ¨ÛĮ": 8214,
      "ĠÙģÙĪØ§Ø¯": 8215,
      "While": 8216,
      "ĠØ®Ø·Ø±Ø§Øª": 8217,
      "igation": 8218,
      "ĠØ±ÛĮØ§Ø³ØªÙĪÚº": 8219,
      "ï´¾": 8220,
      "Äģ": 8221,
      "ĠÙĨØµÙģ": 8222,
      "Ġschools": 8223,
      "ĠÚ©Ø§Ø³": 8224,
      "ror": 8225,
      "php": 8226,
      "Ġwa": 8227,
      "Ġcosts": 8228,
      "Ġcred": 8229,
      "Ġsimply": 8230,
      "ĠÚ©ÙĨØ§Ø±ÛĴ": 8231,
      "ĠÙĤØ§Ø³Ùħ": 8232,
      "Ġweb": 8233,
      "Ġtur": 8234,
      "Ġ2007": 8235,
      "come": 8236,
      "Ġviews": 8237,
      "time": 8238,
      "Ġcoun": 8239,
      "Ġtakes": 8240,
      "Ġled": 8241,
      "vey": 8242,
      "Ġequipment": 8243,
      "Ġforms": 8244,
      "Ø¬ÙĨÙĪØ¨ÛĮ": 8245,
      "ĠÚĨØ§Ø±ÙĪÚº": 8246,
      "being": 8247,
      "Ø¯ÛĮØ±": 8248,
      "ÙĪÛĮØ¨": 8249,
      "dom": 8250,
      "Image": 8251,
      "Ø¨ÛĮØ¨": 8252,
      "Ġsupply": 8253,
      "ĠØ¨ÙĨØ¯ÛĴ": 8254,
      "ÙħÚ©ÙĨ": 8255,
      "ĠØ¨Ú¾ÙĪÚ©": 8256,
      "ĠÚ¯Ø±ÛĮÙĨ": 8257,
      "ĠØŃÚ©ÛĮÙħ": 8258,
      "ĠØ´Ø¨Ûģ": 8259,
      "ĠÙĪÙĦØ§": 8260,
      "Ú©ÙĪØ¦": 8261,
      "ĠÙĨØ¸ÛĮØ±": 8262,
      "Úķ": 8263,
      "ÙĦÙĪØ¯": 8264,
      "Ø³ÙĨØ¯": 8265,
      "ĠØ³Ø±Ù¾Ø±": 8266,
      "Ø¢Ø±": 8267,
      "Ġbreat": 8268,
      "ĠÙĦØ´Ú©Ø±": 8269,
      "ĠÙ¾ÛģÙĨÚĨØ§ÛĮØ§": 8270,
      "ÚĨÙĪÚº": 8271,
      "Ġdry": 8272,
      "ĠØ§Ø³Ú©ÙĪ": 8273,
      "Ġrespect": 8274,
      "ĠRec": 8275,
      "Ġserious": 8276,
      "Ġdetermine": 8277,
      "ĠÚ¯Ø¬Ø±Ø§Øª": 8278,
      "ĠÙħØ®Ø§ÙĦÙģÛĮÙĨ": 8279,
      "ĠØªØ°Ú©Ø±Ûģ": 8280,
      "Ġprint": 8281,
      "Ð¼": 8282,
      "ĠØ§ÙĦØ£": 8283,
      "ĠÙħÙĦØªÛĴ": 8284,
      "ĠØŃØ³Ø§Ø³": 8285,
      "Ø²ÛĮØª": 8286,
      "Ø¬ÙĪÙĦØ§Ø¦ÛĮ": 8287,
      "ĠØ¹ÙĦØ§ÙħØª": 8288,
      "ĠÚ©Ú¾ÛĮÙĨ": 8289,
      "ĠÙĦÛķ": 8290,
      "Ġcomment": 8291,
      "Ġoutside": 8292,
      "ÙĪÛĮØª": 8293,
      "Ġchoose": 8294,
      "ĠØ¯Ú¾ÙħÚ©ÛĮ": 8295,
      "Ġ32": 8296,
      "Ġsurv": 8297,
      "ĠØªÚ¾ÙĪÚĳØ§": 8298,
      "anks": 8299,
      "Ġsustainable": 8300,
      "ĠÚ¯Ø§Ø±": 8301,
      "iment": 8302,
      "ĠØ³ÙĨÙ¹Ø±": 8303,
      "ĠØªÙĪØ¨Ûģ": 8304,
      "ĠÙħØ²Ø§Ø¬": 8305,
      "ĠØ§ÛĮØ¬ÙĪ": 8306,
      "ĠØ¯ÛĮÛģ": 8307,
      "irit": 8308,
      "Ġstrategies": 8309,
      "ĠNorth": 8310,
      "ĠÙĥÙĬ": 8311,
      "Ø§Ø´Ø§": 8312,
      "96": 8313,
      "ĠØ§Ø³ÙĦÙħ": 8314,
      "ĠÚ¯ÙĦÛĴ": 8315,
      "ĠØ¯Ø±Ø¬ÛĴ": 8316,
      "att": 8317,
      "ĠØ§ÛĮÚ©Ù¹": 8318,
      "ĠÛģÙĪÚĨÚ©ÛĮ": 8319,
      "Ø«ÛĮ": 8320,
      "ĠØªØ±Ø¯": 8321,
      "Ø§Ø·Ø¨": 8322,
      "ĠØ§ÙĦØ®": 8323,
      "âĢĺÛĶ": 8324,
      "ĠÙĨÙħØ§Ø¦ÙĨØ¯Ú¯ÛĮ": 8325,
      "ĠÚ¯ÛĮÙĨØ¯": 8326,
      "ĠÙħØ°Ø§ÙĤ": 8327,
      "ditionally": 8328,
      "Ø§ÚĳÛĮ": 8329,
      "ĠØ§ÙĦÙħØ¨Ø§Ø±Ú©": 8330,
      "ÙħÛĮÙĨØ§ÙĨ": 8331,
      "ĠØ¯Ø±Ú©Ø§Ø±": 8332,
      "ĠÚ©Ø§Ù¾": 8333,
      "ĠÙħÙĨÚĪÛĮ": 8334,
      "Ġreflect": 8335,
      "Ġsteps": 8336,
      "Ġnutri": 8337,
      "ĠÛĶÛĶÛĶÛĶ": 8338,
      "ĠØ´ÛĮØ·Ø§ÙĨ": 8339,
      "ÛĮÙĨÙ¹": 8340,
      "ĠØ¯Ø§Ø³Øª": 8341,
      "ĠComp": 8342,
      "+]": 8343,
      "Ġadditional": 8344,
      "arily": 8345,
      "ĠÙħØ³Ø§Ø¬Ø¯": 8346,
      "ÙħÛĮÛģ": 8347,
      "ĠÙħÛģØ§Ø±Øª": 8348,
      "Ġanx": 8349,
      "Ġexpress": 8350,
      "ĠØ¨ÙĪÙĦÙĨÛĴ": 8351,
      "ĠÙģÙĪØ§Ø¦Ø¯": 8352,
      "Ġideas": 8353,
      "ĠØ§Ø³ØªØ¹ÙģÛĮ": 8354,
      "Ġfoot": 8355,
      "Ø´Ø§ÙĨ": 8356,
      "ĠÙĤØ¨Ø¶ÛĴ": 8357,
      "ĠÙĦÛĮÚ©Ø³": 8358,
      "ĠÙĦÚ¯ÛĮÚº": 8359,
      "Ġextra": 8360,
      "ĠØ§ÙħÛĮÙĨ": 8361,
      "ĠSchool": 8362,
      "Ġox": 8363,
      "ĠØ¨ÙĦÛĮÚ©": 8364,
      "Ø§ÙģØªÛĮ": 8365,
      "Ġ[+]": 8366,
      "ĠØ¨Ø§ÙĨØ¯Ú¾": 8367,
      "mb": 8368,
      "lies": 8369,
      "Ù¾Ù¹": 8370,
      "ĠØµÙĦØ§ØŃÛĮØªÙĪÚº": 8371,
      "ĠÙħØ²Ø§ØŃÙħØª": 8372,
      "lear": 8373,
      "Ġtherapy": 8374,
      "Ġprojects": 8375,
      "ĠØ¨ØªØ§Ø±ÛĮØ®": 8376,
      "Is": 8377,
      "Ġroad": 8378,
      "Ġbasic": 8379,
      "ĠDes": 8380,
      "ĠØ¬ÙħÙĦÛģ": 8381,
      "ĠÚĪØ³Ù¹Ø±Ú©Ù¹": 8382,
      "ĠÙĦØ·Ùģ": 8383,
      "Ġapplication": 8384,
      "US": 8385,
      "Ġopportunities": 8386,
      "ĠØ¬Ø§Ø¦ÛĮØ¯Ø§Ø¯": 8387,
      "ĠØ¨Ø§ÙĦØ®ØµÙĪØµ": 8388,
      "ĠÙħØ´Ø§ÙĪØ±Øª": 8389,
      "ĠØ¯Ú©Ú¾Ø§ÛĮØ§": 8390,
      "Ġbelieve": 8391,
      "ĠÚ¯Ø§ÙĦ": 8392,
      "ĠØ³ÛģÛĮÙĦ": 8393,
      "Ø¹ÛĮÙĨ": 8394,
      "ĠÛĮØ³": 8395,
      "ĠÙĤØ§Ø±ÛĮ": 8396,
      "lamm": 8397,
      "ĠØ¬Ø§Ø³Ú©ÛĴ": 8398,
      "ĠÙħØ±ÙĪ": 8399,
      "ĠØ¢ÛĮØ§Øª": 8400,
      "Ġconc": 8401,
      "ÛĮØ³Ø§": 8402,
      "ĠØ³ÛģØ§Ø±": 8403,
      "Ġlo": 8404,
      "Ġsomet": 8405,
      "ĠØ±ÛĮÙĦÛĮØ²": 8406,
      "ĠØ¨ÚĨÙ¾ÙĨ": 8407,
      "ĠØ±ÙĪØ²ÛĴ": 8408,
      "iddle": 8409,
      "obile": 8410,
      "ĠØ´Ø§ÛģØ±": 8411,
      "ĠØ·ÙĪÙģØ§ÙĨ": 8412,
      "ĠÙ¾Ø§ÙĦÛĮØ³ÛĮÙĪÚº": 8413,
      "ĠØ®ÙĪØ´ØŃØ§ÙĦÛĮ": 8414,
      "Ú©Ø±ÙĪÚĳ": 8415,
      "ĠØ³Ø§ÚĳÚ¾ÛĴ": 8416,
      "ĠØ¬ÙħØ¹ÛĮØª": 8417,
      "gn": 8418,
      "Ġdistrib": 8419,
      "Ġviol": 8420,
      "itute": 8421,
      "ĠØ¹Ø±ÙģØ§ÙĨ": 8422,
      "Ġnormal": 8423,
      "Ù¹Ø±ÛĮÙ¹": 8424,
      "Ġfund": 8425,
      "ĠÙħÙĪØ¶ÙĪØ¹Ø§Øª": 8426,
      "Ø§Ø¦ÙħÛģ": 8427,
      "rition": 8428,
      "Ġpromot": 8429,
      "Ġobserv": 8430,
      "ĠØ¨ÙĪÚĳ": 8431,
      "ĠØŃÚ©ÙħØ±Ø§ÙĨÛĮ": 8432,
      "Ġfa": 8433,
      "Úµ": 8434,
      "ĠÙĨÙģØ§Ø°": 8435,
      "Ø§ÛĮÙģ": 8436,
      "Ú©ØªØ§Ø¨": 8437,
      "ÙĤÛĮÙĤØª": 8438,
      "ĠØªØ¬Ø§ÙĪØ²": 8439,
      "ĠÙĦØ·ÛĮ": 8440,
      "ØŃØ±": 8441,
      "ĠØ¨ÙĨØ¯Ûģ": 8442,
      "aug": 8443,
      "ĠÙħØŃØ§Ø°": 8444,
      "Ø¬Ø³Ù¹": 8445,
      "osure": 8446,
      "Ġaccom": 8447,
      "ĠÙħÙĤØª": 8448,
      "ÙĨØ±": 8449,
      "Ø¨ÛĮØ§Ø¡": 8450,
      "Ù¾Ú¾": 8451,
      "ĠÙĤØ³ÙħØª": 8452,
      "ÙĤØ¨": 8453,
      "Ġprimary": 8454,
      "ĠÙħÙħÙĨ": 8455,
      "Ø°Ø±Ø§Ø¦Ø¹": 8456,
      "ĠÚ©Ø§ÙħÙĦ": 8457,
      "Ġstrength": 8458,
      "ĠØ§Ø²Ø§Úº": 8459,
      "Ġbill": 8460,
      "ĠÚ©Ø§Ø±Ú©ÙĨØ§ÙĨ": 8461,
      "76": 8462,
      "IT": 8463,
      "ĠØ¹Ø±ÙĪØ¬": 8464,
      "ĠÙĨØ´Ø§ÙĨØ¯ÛģÛĮ": 8465,
      "75": 8466,
      "ĠØ³ÙĨØ¬ÛĮØ¯Ûģ": 8467,
      "ĠØŃÙĨ": 8468,
      "Ú©ÙĪÚ©": 8469,
      "ĠÚ¯ÙĪØ§Ûģ": 8470,
      "Ġcover": 8471,
      "ĠØ¨ÛĮÙħØ§Ø±ÛĮÙĪÚº": 8472,
      "ĠÚ©Ø±ÙĨØ³ÛĮ": 8473,
      "ĠEarth": 8474,
      "ĠÛĮÚ©Ùħ": 8475,
      "ĠÚĪÚ¾ÙĪÙĨÚĪ": 8476,
      "ĠØ¨ÙĬ": 8477,
      "Ġdoctor": 8478,
      "Ġpolicy": 8479,
      "ÙĨÙħÙĨÙ¹": 8480,
      "ĠØ§ÙĨÙĨÚ¯Ø²": 8481,
      "Ġsevere": 8482,
      "ĠÙħØ®ÙĦÙĪÙĤ": 8483,
      "ØŁâĢĺâĢĺ": 8484,
      "Ø¬Ø¨Ú©Ûģ": 8485,
      "Ġshown": 8486,
      "onstr": 8487,
      "ĠØ³Ø®ØªÛĮ": 8488,
      "ĠØ¹ÙħÙĦØ¯Ø±": 8489,
      "ĠØ§Ø³Ú©Ø§": 8490,
      "Ġhighly": 8491,
      "Ġexplain": 8492,
      "Ø§Ø±ÛĮÙĪÚº": 8493,
      "ĠÙ¾Ø±Ø§Ø¦ÛĮ": 8494,
      "ĠHis": 8495,
      "empt": 8496,
      "ÙĪØ§ÙĨÛĮ": 8497,
      "ĠÛ´": 8498,
      "Ġtend": 8499,
      "ĠØ§ÙģØªØ®Ø§Ø±": 8500,
      "ĠØ³Ø±ÚĨ": 8501,
      "ĠØ«ÙĪØ§Ø¨": 8502,
      "uge": 8503,
      "ĠØ¯ÛģØ§Ø¦ÛĮ": 8504,
      "ĠÙħÙĪÙĨ": 8505,
      "ĠØ¨Ø§Ø²ÙĪ": 8506,
      "oes": 8507,
      "ĠØ¬Ø´ÙĨ": 8508,
      "ĠØ®Ùħ": 8509,
      "ĠPart": 8510,
      "Ġbad": 8511,
      "âĢĭ": 8512,
      "ĠØ¬Ø§Ø¦ÛĮÚ¯Ø§": 8513,
      "ĠÙħÙĨÙģØ±Ø¯": 8514,
      "ĠØ¬ÛģØ§ÙĨÚ¯ÛĮØ±": 8515,
      "ĠÛģÙĪÚĨÚ©Ø§": 8516,
      "ĠÚ©ÙĦÛĮØ¯ÛĮ": 8517,
      "Ġcamp": 8518,
      "ĠÛģÙĪÚĨÚ©ÛĴ": 8519,
      "Ġtransform": 8520,
      "Ġtesting": 8521,
      "ĠØ¨Ø±ÛĮÙģ": 8522,
      "Ø®ÛĮØ§ÙĦ": 8523,
      "Ø®ØªÛģ": 8524,
      "Ġtiss": 8525,
      "Ġdang": 8526,
      "ĠTra": 8527,
      "kh": 8528,
      "ĠOff": 8529,
      "ĠÚ¯Ø±ÛĮØ²": 8530,
      "ĠØ³Ø±ÙģØ±Ø§Ø²": 8531,
      "ĠÚ¯Ø§Ø±ÚĪ": 8532,
      "Ġattack": 8533,
      "itution": 8534,
      "Ġfem": 8535,
      "Ġnight": 8536,
      "Ġcla": 8537,
      "ĠØ¹Øµ": 8538,
      "Ġhalf": 8539,
      "ĠØ§ÛĮØ´ÛĮ": 8540,
      "ĠØ§ÛĮÙħØ±": 8541,
      "ĠÚĨÚ©Ø±": 8542,
      "ĠØ§Ø´ØªÛģØ§Ø±": 8543,
      "overy": 8544,
      "ament": 8545,
      "ï¿½ï¿½ï¿½ï¿½ï¿½": 8546,
      "Ġï¿½ï¿½ï¿½ï¿½ï¿½ï¿½": 8547,
      "Ġrefer": 8548,
      "Ġpack": 8549,
      "ension": 8550,
      "ĠÙ¾ÚĳÚ¾ÛĴ": 8551,
      "ĠÙ¹Ø§Ù¾": 8552,
      "Ġtransport": 8553,
      "ĠÚ©ÛĴÙĦÛĮÛĴ": 8554,
      "âĢ¦.": 8555,
      "Ġlegal": 8556,
      "ĠÙĦÚ¯ØªÛĮ": 8557,
      "ĠØ®ÛĮØ¨Ø±Ù¾Ø®ØªÙĪÙĨØ®ÙĪØ§": 8558,
      "ĠÙħÛĮÙ¹ÙĨÚ¯": 8559,
      "ĠÙħØ¸Ø§ÛģØ±ÛĮÙĨ": 8560,
      "Ġgenerally": 8561,
      "Ġelements": 8562,
      "Ġrisks": 8563,
      "Ø§Ø¦Ø±ÛĮ": 8564,
      "Ġreducing": 8565,
      "Ø¶Ø§": 8566,
      "ĠØ¬Ø§Ù¾Ø§ÙĨ": 8567,
      "98": 8568,
      "ĠÙĪØµ": 8569,
      "Ø±Ú©ÛĴ": 8570,
      "ĠØ¹ÙĤÛĮØ¯Ûģ": 8571,
      "ĠÚ©ÙĨÙ¹": 8572,
      "ĠMany": 8573,
      "Ø§Ø±ÛĮÛģ": 8574,
      "ĠÙħÙĪØµÙĪÙĦ": 8575,
      "ĠÙ¹ÛĮÙħÙĪÚº": 8576,
      "ĠÙħØ¹ÛĮØ§Ø±ÛĮ": 8577,
      "ĠÙĨØ¹ÛĮÙħ": 8578,
      "ĠØ¨Ú¾Ø±ÛĮ": 8579,
      "ĠØ§ØµÙĪÙĦÙĪÚº": 8580,
      "ĠØ·Ø§ÙĤ": 8581,
      "ĠÙ¾Ø±Ø§Ø³": 8582,
      "ĠÙĨØ§Ø¬Ø§Ø¦Ø²": 8583,
      "vest": 8584,
      "Ġeth": 8585,
      "ĠIndian": 8586,
      "ĠØ¶ÛĮØ§Ø¡": 8587,
      "ĠPer": 8588,
      "ÙĦÙĨ": 8589,
      "Ø¹Ø¨Ûģ": 8590,
      "ĠØ¬Ø°Ø¨": 8591,
      "ĠÚ©Ø±ÙĪÚĳÙĪÚº": 8592,
      "ĠØºØ°": 8593,
      "uries": 8594,
      "ĠÚ¯ÛĮØ§Ø±Ûģ": 8595,
      "ÛĮÙĨÚĪÙĦ": 8596,
      "ching": 8597,
      "ĠÙħÙħØ¨Ø±Ø§ÙĨ": 8598,
      "Ġplatform": 8599,
      "ĠÙħØ¸Ø§ÙĦÙħ": 8600,
      "Ġmeasures": 8601,
      "ĠÙħÙĨØ§ÙģØ¹": 8602,
      "ĠØ§ØµØ·": 8603,
      "Ġsometimes": 8604,
      "Ø³Ù¹ÛĮ": 8605,
      "iot": 8606,
      "Ġfit": 8607,
      "Ġfast": 8608,
      "ength": 8609,
      "ĠResearch": 8610,
      "Ġcompre": 8611,
      "ĠÙ¾ÙĪØ¯": 8612,
      "wik": 8613,
      "Ġbehind": 8614,
      "ĠØ§Ø·ÙħÛĮÙĨØ§ÙĨ": 8615,
      "Ø§Ø®Ø°": 8616,
      "Ġfig": 8617,
      "Ġcontribute": 8618,
      "ĠÙ¾Ø§ÙĨØ§ÙħÛģ": 8619,
      "ĠÙ¾Ø®ØªÙĪÙĨ": 8620,
      "ĠÙħÙĦØ§ØŃØ¸Ûģ": 8621,
      "Ø§Ø¨Ú¾ÛĮ": 8622,
      "ĠØªØ¹Ø¨ÛĮØ±": 8623,
      "ĠÚ¯Ø±Ø§": 8624,
      "ÛĮØ¨Øª": 8625,
      "ĠØªÚ¾Ø§ÙĨÛģ": 8626,
      "ĠØªØ§Ø«Ø±": 8627,
      "ĠØ§ÙħØªÛĮØ§Ø²": 8628,
      "Ġpage": 8629,
      "ÚĨÚ©": 8630,
      "ĠØŃØ§ÙħÛĮ": 8631,
      "Ø§Ú¯Ø³Øª": 8632,
      "ĠÚ©ÙĪØ±Ø³": 8633,
      "ĠØ®Ø¯Ø´Ûģ": 8634,
      "ĠJapan": 8635,
      "ÛģÙĨØ¯ÙĪ": 8636,
      "Ġleaders": 8637,
      "ĠÚ¯ÙĦÙĪ": 8638,
      "ĠÙĤØ§Ø¯ÛĮØ§ÙĨÛĮ": 8639,
      "Ġhumans": 8640,
      "ÙĨÙģ": 8641,
      "lim": 8642,
      "ĠØ®ØµÙĪØµØ§": 8643,
      "ĠØ¢ÙĪØ±": 8644,
      "coming": 8645,
      "ĠÙĨØ±Ùħ": 8646,
      "ĠØ§ÙĪÙ¾ÙĨ": 8647,
      "ĠÙħÙĨØµØ¨": 8648,
      "ÙĤÙĪÙĦ": 8649,
      "ĠÙģØ·Ø±Øª": 8650,
      "ĠØ¬ÙĨØ§Ø²Ûģ": 8651,
      "ĠØªÙĦØ§ÙĪØª": 8652,
      "Ù¾Ø§ÙĦ": 8653,
      "ĠÙĦÙħØ¨ÛĮ": 8654,
      "ĠDis": 8655,
      "Ġexperiences": 8656,
      "ĠÙħØ±ØŃÙĦÛģ": 8657,
      "ĠØ°ÙĪØ§ÙĦÙģÙĤØ§Ø±": 8658,
      "ĠÚĨÚ¾Øª": 8659,
      "Ġdifference": 8660,
      "rew": 8661,
      "ĠÚĨØ§ÙĦÛĮØ³": 8662,
      "Ġpoints": 8663,
      "ĠFrom": 8664,
      "Ġones": 8665,
      "ĠÛĮØ±": 8666,
      "Ġvirus": 8667,
      "Ġkids": 8668,
      "ĠØ±Ø¬Ø³Ù¹Ø±": 8669,
      "Ġsolution": 8670,
      "ĠØ¨Ø¯ÙĦÛĴ": 8671,
      "ÙħÙĪØ¬ÙĪØ¯": 8672,
      "urdu": 8673,
      "ĠÙħÛĮÙ¹Ø±ÙĪ": 8674,
      "Ø¨ÙĦÙĪÚĨØ³ØªØ§ÙĨ": 8675,
      "Ġbuy": 8676,
      "Ġwarm": 8677,
      "ĠÙĨÚ©Ø§ÙĦØ§": 8678,
      "ĠØ´Ø¬": 8679,
      "ĠØ¹Ø§Ø´ÙĤ": 8680,
      "ĠØ®ÙĪØ±Ø´ÛĮØ¯": 8681,
      "Ġtree": 8682,
      "ĠAllah": 8683,
      "Ġimage": 8684,
      "aly": 8685,
      "ĠØ±Ø¹": 8686,
      "Ġstarted": 8687,
      "ĠÙ¾ÚĳÚ¾ØªÛĴ": 8688,
      "ĠÙħØªØ¨Ø§Ø¯ÙĦ": 8689,
      "ÙħØ§Ùħ": 8690,
      "ÙĪØ¶": 8691,
      "ĠØ¨Ø§Ø¬ÙĪÛģ": 8692,
      "Ġmagn": 8693,
      "Ø¹Ø§Ø±": 8694,
      "Ø§ÙģØºØ§ÙĨØ³ØªØ§ÙĨ": 8695,
      "Ġemp": 8696,
      "ĠÙħØ¹Ø§Ø´Ø±ØªÛĮ": 8697,
      "ography": 8698,
      "Ø§Ø³Ø¯": 8699,
      "ĠÙ¾Ø§Ùħ": 8700,
      "idents": 8701,
      "ÙĦÙĪØ§Ø±": 8702,
      "ĠØ¢Ø¦ÛĮÙĨÛĮ": 8703,
      "ster": 8704,
      "Ġpoor": 8705,
      "ĠØ¬ÙħØ§Ø¹ØªÛĮÚº": 8706,
      "ĠØ³ÛĮÙĨÙ¹": 8707,
      "Ġcollabor": 8708,
      "ĠÚ©ÙģØ±": 8709,
      "px": 8710,
      "Ġdirectly": 8711,
      "ĠÚĪØ¨ÙĦÛĮÙĪ": 8712,
      "ĠÚĪØ±ÙĪÙĨ": 8713,
      "ĠÙ¹ÙĨ": 8714,
      "ĠInternational": 8715,
      "ĠÙĪÛĮØ³Ù¹": 8716,
      "ĠØ²ÛĮØ¨": 8717,
      "Ġsn": 8718,
      "Ġcaption": 8719,
      "Ġprep": 8720,
      "Ġbroad": 8721,
      "Ø¬ÙħÙĨÙ¹": 8722,
      "ĠÙĪØ¨": 8723,
      "ees": 8724,
      "ĠÙĪØª": 8725,
      "ĠØ²Ø±Ø§Ø¹Øª": 8726,
      "Ø§Ø±Ù¹ÙħÙĨÙ¹": 8727,
      "Ġdemand": 8728,
      "ĠØªØ¹Ø§Ø±Ùģ": 8729,
      "ĠØ§Ø±Ø¨ÙĪÚº": 8730,
      "Ġinside": 8731,
      "Ġdecre": 8732,
      "ĠØ¨ØªØ§Ø¦ÛĮ": 8733,
      "Ġaverage": 8734,
      "Ġbacteria": 8735,
      "head": 8736,
      "ĠØ§ÙĪØ±Ø§Ø³": 8737,
      "ĠØ³Ø§ÙģÙ¹": 8738,
      "Ġappropriate": 8739,
      "ĠØ¹ÙĦÙħØ§Ø¦ÛĴ": 8740,
      "Ø§ÛģØ¨": 8741,
      "Ex": 8742,
      "ĠÚĪÛĮÙģ": 8743,
      "ĠÙħÙĨØ§ÛĮØ§": 8744,
      "ĠÚ¯ÛģØ±ÛĮ": 8745,
      "enge": 8746,
      "ĠÚ©Ø§ÙĦØ¹Ø¯Ùħ": 8747,
      ".)": 8748,
      "che": 8749,
      "Ø´ÙĨØ²": 8750,
      "ÙĪÛĮØ§Ø±Ú©": 8751,
      "Ġsolutions": 8752,
      "ĠØ¨ÙĨØªÛĮ": 8753,
      "za": 8754,
      "ĠÙĨØ§ÙħØ¹ÙĦÙĪÙħ": 8755,
      "ĠÙĤØ§Ùģ": 8756,
      "Ġinfection": 8757,
      "ĠØ¨Ø§Ø¦": 8758,
      "ĠÙħØ³ÙĦÙħÛģ": 8759,
      "ĠØ§ÙĪÙĦÛĮÙĨ": 8760,
      "ĠÙ¾ÙĪØ´": 8761,
      "ĠØŃØ§Ú©": 8762,
      "ĠØ¹ÙĦÛĮØŃØ¯Ûģ": 8763,
      "ĠØ´ÙĪÚ©": 8764,
      "Ġcompared": 8765,
      "alls": 8766,
      "ĠÙĦÛĮØ§ÙĤØª": 8767,
      "Ġvisual": 8768,
      "ĠEduc": 8769,
      "Ġsymbol": 8770,
      "ĠØ¯ÙĪÚĨØ§Ø±": 8771,
      "ÙħØ±Ú©Ø²ÛĮ": 8772,
      "Pro": 8773,
      "ØºØ§Ø±": 8774,
      "Ġimmedi": 8775,
      "ulated": 8776,
      "ĠØ±Ø§ØŃ": 8777,
      "Ġcool": 8778,
      "ĠØªÙħÛģØ§Ø±Ø§": 8779,
      "But": 8780,
      "ĠÚ©ÛĮØ±ÛĮ": 8781,
      "ĠEd": 8782,
      "ĠGl": 8783,
      "ĠDay": 8784,
      "ÛģÙĨ": 8785,
      "00000000": 8786,
      "Ġinsp": 8787,
      "standing": 8788,
      "asks": 8789,
      "][": 8790,
      "ĠØ¹Ø§Øµ": 8791,
      "Ġcode": 8792,
      "ĠØµÙģØŃØ§Øª": 8793,
      "ĠØ³Ø±Ø§Ø¬": 8794,
      "ĠÚ©Ø±ÙĦÛĮÚº": 8795,
      "Ġbalance": 8796,
      "Ġvalues": 8797,
      "ĠØ§ÙĦÙģØ·Ø±": 8798,
      "ĠTechn": 8799,
      "ĠØ¨Ø¯ØªØ±ÛĮÙĨ": 8800,
      "ĠØŃÙĦØ§ÙĦ": 8801,
      "ĠØ²ÙħØ§ÙĨ": 8802,
      "ĠÙĪØ¨Ø§": 8803,
      "Ġdemonstr": 8804,
      "Ġcomponents": 8805,
      "Ø´Ø§Ø¡": 8806,
      "Ø³ØªÙħØ¨Ø±": 8807,
      "ĠÙģØ§Ø¦Ø²": 8808,
      "ipedia": 8809,
      "ĠÙģØµÙĦ": 8810,
      "ÙģÙĦ": 8811,
      "Ġanimal": 8812,
      "Ġsil": 8813,
      "ĠÛģÙĪØ´": 8814,
      "ĠØ§ÚĨÚ¾": 8815,
      "ira": 8816,
      "hance": 8817,
      "Ú¾Ø§Ø±": 8818,
      "ĠÙ¾ÛģÙĨÚĨÛĮ": 8819,
      "eks": 8820,
      "lied": 8821,
      "Ø±Ø¯Ûģ": 8822,
      "ĠØ§Ø²ÛĮÚº": 8823,
      "ÙĪØ§Ø³": 8824,
      "ops": 8825,
      "Ġtook": 8826,
      "ĠÙħÙĪÚĳ": 8827,
      "Ġindepend": 8828,
      "ĠII": 8829,
      "Ġmachine": 8830,
      "ĠÚ©Ú¾Ø±": 8831,
      "ĠÙħØ§ÙĨÙĨÛĴ": 8832,
      "Ġ48": 8833,
      "ĠÛģÙĪØ¬Ø§ØªÛĴ": 8834,
      "Ġteachers": 8835,
      "ĠØ³ÛĮÚ©ÙĨ": 8836,
      "Ġseem": 8837,
      "ĠØ§ÙĪØ¨Ø§ÙħØ§": 8838,
      "ĠÛģÚĳØªØ§ÙĦ": 8839,
      "Ġreach": 8840,
      "ĠÙ¾ÛĴ": 8841,
      "Ġmom": 8842,
      "ĠØ¹ÙħØ¯Ûģ": 8843,
      "DA": 8844,
      "Ġsix": 8845,
      "ĠÚ©Ø§Ø´Øª": 8846,
[...]
