{
  "version": "1.0",
  "truncation": null,
  "padding": null,
  "added_tokens": [
    {
      "id": 0,
      "content": "[unk]",
      "single_word": false,
      "lstrip": false,
      "rstrip": false,
      "normalized": false,
      "special": true
    },
    {
      "id": 1,
      "content": "[pad]",
      "single_word": false,
      "lstrip": false,
      "rstrip": false,
      "normalized": false,
      "special": true
    },
    {
      "id": 2,
      "content": "[endoftext]",
      "single_word": false,
      "lstrip": false,
      "rstrip": false,
      "normalized": false,
      "special": true
    }
  ],
  "normalizer": null,
  "pre_tokenizer": {
    "type": "ByteLevel",
    "add_prefix_space": false,
    "trim_offsets": true,
    "use_regex": true
  },
  "post_processor": null,
  "decoder": null,
  "model": {
    "type": "BPE",
    "dropout": null,
    "unk_token": "[unk]",
    "continuing_subword_prefix": null,
    "end_of_word_suffix": null,
    "fuse_unk": false,
    "byte_fallback": false,
    "ignore_merges": false,
    "vocab": {
      "[unk]": 0,
      "[pad]": 1,
      "[endoftext]": 2,
      "!": 3,
      "\"": 4,
      "#": 5,
      "$": 6,
      "%": 7,
      "&": 8,
      "'": 9,
      "(": 10,
      ")": 11,
      "*": 12,
      "+": 13,
      ",": 14,
      "-": 15,
      ".": 16,
      "/": 17,
      "0": 18,
      "1": 19,
      "2": 20,
      "3": 21,
      "4": 22,
      "5": 23,
      "6": 24,
      "7": 25,
      "8": 26,
      "9": 27,
      ":": 28,
      ";": 29,
      "<": 30,
      "=": 31,
      ">": 32,
      "?": 33,
      "@": 34,
      "A": 35,
      "B": 36,
      "C": 37,
      "D": 38,
      "E": 39,
      "F": 40,
      "G": 41,
      "H": 42,
      "I": 43,
      "J": 44,
      "K": 45,
      "L": 46,
      "M": 47,
      "N": 48,
      "O": 49,
      "P": 50,
      "Q": 51,
      "R": 52,
      "S": 53,
      "T": 54,
      "U": 55,
      "V": 56,
      "W": 57,
      "X": 58,
      "Y": 59,
      "Z": 60,
      "[": 61,
      "\\": 62,
      "]": 63,
      "^": 64,
      "_": 65,
      "`": 66,
      "a": 67,
      "b": 68,
      "c": 69,
      "d": 70,
      "e": 71,
      "f": 72,
      "g": 73,
      "h": 74,
      "i": 75,
      "j": 76,
      "k": 77,
      "l": 78,
      "m": 79,
      "n": 80,
      "o": 81,
      "p": 82,
      "q": 83,
      "r": 84,
      "s": 85,
      "t": 86,
      "u": 87,
      "v": 88,
      "w": 89,
      "x": 90,
      "y": 91,
      "z": 92,
      "{": 93,
      "|": 94,
      "}": 95,
      "~": 96,
      "¡": 97,
      "¢": 98,
      "£": 99,
      "¤": 100,
      "¥": 101,
      "¦": 102,
      "§": 103,
      "¨": 104,
      "©": 105,
      "ª": 106,
      "«": 107,
      "¬": 108,
      "®": 109,
      "¯": 110,
      "°": 111,
      "±": 112,
      "²": 113,
      "³": 114,
      "´": 115,
      "µ": 116,
      "¶": 117,
      "·": 118,
      "¸": 119,
      "¹": 120,
      "º": 121,
      "»": 122,
      "¼": 123,
      "½": 124,
      "¾": 125,
      "¿": 126,
      "Â": 127,
      "Ã": 128,
      "Ä": 129,
      "Å": 130,
      "Æ": 131,
      "Ç": 132,
      "È": 133,
      "É": 134,
      "Ê": 135,
      "Ë": 136,
      "Ì": 137,
      "Í": 138,
      "Î": 139,
      "Ï": 140,
      "Ð": 141,
      "Ñ": 142,
      "Ò": 143,
      "Ó": 144,
      "Ô": 145,
      "Õ": 146,
      "Ö": 147,
      "×": 148,
      "Ø": 149,
      "Ù": 150,
      "Ú": 151,
      "Û": 152,
      "Ü": 153,
      "Ý": 154,
      "Þ": 155,
      "ß": 156,
      "à": 157,
      "á": 158,
      "â": 159,
      "ã": 160,
      "ä": 161,
      "å": 162,
      "æ": 163,
      "ç": 164,
      "è": 165,
      "é": 166,
      "ê": 167,
      "ë": 168,
      "ì": 169,
      "í": 170,
      "î": 171,
      "ï": 172,
      "ð": 173,
      "ñ": 174,
      "ò": 175,
      "ó": 176,
      "ô": 177,
      "Ā": 178,
      "ā": 179,
      "Ă": 180,
      "ă": 181,
      "Ą": 182,
      "ą": 183,
      "Ć": 184,
      "ć": 185,
      "Ĉ": 186,
      "ĉ": 187,
      "Ċ": 188,
      "ċ": 189,
      "Č": 190,
      "č": 191,
      "Ď": 192,
      "ď": 193,
      "Đ": 194,
      "đ": 195,
      "Ē": 196,
      "ē": 197,
      "Ĕ": 198,
      "ĕ": 199,
      "Ė": 200,
      "ė": 201,
      "Ę": 202,
      "ę": 203,
      "Ě": 204,
      "ě": 205,
      "Ĝ": 206,
      "ĝ": 207,
      "Ğ": 208,
      "ğ": 209,
      "Ġ": 210,
      "ġ": 211,
      "Ģ": 212,
      "ģ": 213,
      "Ĥ": 214,
      "ĥ": 215,
      "Ħ": 216,
      "ħ": 217,
      "Ĩ": 218,
      "ĩ": 219,
      "Ī": 220,
      "ī": 221,
      "Ĭ": 222,
      "ĭ": 223,
      "Į": 224,
      "į": 225,
      "İ": 226,
      "ı": 227,
      "Ĳ": 228,
      "ĳ": 229,
      "Ĵ": 230,
      "ĵ": 231,
      "Ķ": 232,
      "ķ": 233,
      "ĸ": 234,
      "Ĺ": 235,
      "ĺ": 236,
      "Ļ": 237,
      "ļ": 238,
      "Ľ": 239,
      "ľ": 240,
      "Ŀ": 241,
      "ŀ": 242,
      "Ł": 243,
      "ł": 244,
      "Ń": 245,
      "Ø§": 246,
      "ÛĮ": 247,
      "ĠØ": 248,
      "Ú©": 249,
      "ĠÙ": 250,
      "Ø±": 251,
      "ÙĪ": 252,
      "Ûģ": 253,
      "ÛĴ": 254,
      "ĠÚ©": 255,
      "ÙĨ": 256,
      "Ø§Ø": 257,
      "ÙĦ": 258,
      "Ùħ": 259,
      "ĠØ§": 260,
      "Úº": 261,
      "ĠÙħ": 262,
      "Øª": 263,
      "ĠÛģ": 264,
      "Ø¯": 265,
      "Ø³": 266,
      "ÛĮÚº": 267,
      "Ú¾": 268,
      "ĠØ³": 269,
      "ĠØ¨": 270,
      "Ú¯": 271,
      "ĠÙ¾": 272,
      "ĠÙĨ": 273,
      "Ø¨": 274,
      "Ø§ÙĨ": 275,
      "ĠÚ©ÛĮ": 276,
      "Ġt": 277,
      "ÙĪØ±": 278,
      "ĠØª": 279,
      "ĠÚ©ÛĴ": 280,
      "Ġa": 281,
      "ĠØ§Ø": 282,
      "Ø§Ø±": 283,
      "ĠØ¬": 284,
      "ÛĶ": 285,
      "in": 286,
      "ĠØ¯": 287,
      "he": 288,
      "Ùģ": 289,
      "ÙĤ": 290,
      "ĠÙħÛĮÚº": 291,
      "ĠÙĪ": 292,
      "Ù¹": 293,
      "Ø¹": 294,
      "Ø§ÙĦ": 295,
      "ÚĨ": 296,
      "ÙĪÚº": 297,
      "re": 298,
      "ĠÚ©Ø±": 299,
      "ĠÛģÛĴ": 300,
      "ĠØ±": 301,
      "ĠÙĦ": 302,
      "Ø´": 303,
      "Ù¾": 304,
      "Ø¬": 305,
      "Ø¦": 306,
      "Ø§Ø¦": 307,
      "ĠØ§ÙĪØ±": 308,
      "on": 309,
      "ĠÚ¯": 310,
      "Ø§Ùħ": 311,
      "Ø§Øª": 312,
      "Ø²": 313,
      "ĠØ³ÛĴ": 314,
      "Ø±ÛĮ": 315,
      "ĠÚ©ÙĪ": 316,
      "Ġthe": 317,
      "er": 318,
      "ØĮ": 319,
      "at": 320,
      "ĠØ§Ø³": 321,
      "ØŃ": 322,
      "Ġs": 323,
      "ÛĮØ§": 324,
      "ĠÚ©Ø§": 325,
      "âĢ": 326,
      "ĠØ¹": 327,
      "ĠÚ©Ûģ": 328,
      "Ġo": 329,
      "ĠÛģÙĪ": 330,
      "Ġc": 331,
      "en": 332,
      "ÛĮÚ©": 333,
      "ÛĮÙĨ": 334,
      "an": 335,
      "es": 336,
      "ĠØŃ": 337,
      "ÚĪ": 338,
      "ĠØ§ÙĨ": 339,
      "ĠØ®": 340,
      "ÙĨÛĴ": 341,
      "ĠØ´": 342,
      "ĠÙ¾Ø±": 343,
      "is": 344,
      "ĠÙĨÛĴ": 345,
      "it": 346,
      "ĠØ¢": 347,
      "Ú¾ÛĮ": 348,
      "Ġw": 349,
      "al": 350,
      "ĠÙģ": 351,
      "or": 352,
      "Ġp": 353,
      "Ø§Ø¯": 354,
      "Ġan": 355,
      "ing": 356,
      "Øµ": 357,
      "ÙĦÛĮ": 358,
      "Ġb": 359,
      "ĠÚĨ": 360,
      "ÛĮØ±": 361,
      "Ġf": 362,
      "Ø§Ø¨": 363,
      "ed": 364,
      "ar": 365,
      "ou": 366,
      "ĠÙĤ": 367,
      "ĠÛĮ": 368,
      "ĠÛģÛĮÚº": 369,
      "Ø§Ûģ": 370,
      "Ġm": 371,
      "Ġin": 372,
      "Ġof": 373,
      "Ø¦ÛĴ": 374,
      "Ø®": 375,
      "Ġand": 376,
      "Úĳ": 377,
      "Ġto": 378,
      "ic": 379,
      "ĠÙĨÛģ": 380,
      "ĠØ§ÙĦ": 381,
      "Ø§Ú©": 382,
      "Ġd": 383,
      "ion": 384,
      "Ø§Ø³": 385,
      "Ø³Øª": 386,
      "Ø¦ÛĮ": 387,
      "Ùİ": 388,
      "le": 389,
      "Ø·": 390,
      "ÙĪÙĨ": 391,
      "ĠØµ": 392,
      "ro": 393,
      "ĠØ¨Ú¾ÛĮ": 394,
      "ÙħÛĮ": 395,
      "ØªÛĴ": 396,
      "ØªÛĮ": 397,
      "as": 398,
      "ĠØªÚ¾": 399,
      "ĠØ·": 400,
      "Ġh": 401,
      "ent": 402,
      "ÙĨØ¯": 403,
      "ĠÛĮÛģ": 404,
      "ĠØ§ÛĮÚ©": 405,
      "ÙĨØ§": 406,
      "ÙĨÛĮ": 407,
      "ĠÙĨÛģÛĮÚº": 408,
      "ÙĦØ§": 409,
      "ÛĮØ³": 410,
      "ĠØ²": 411,
      "ĠØªÙĪ": 412,
      "ÛĮØ¯": 413,
      "Ø¸": 414,
      "ØªØ§": 415,
      "ĠØ±Ûģ": 416,
      "Ġth": 417,
      "ct": 418,
      "Ġ2": 419,
      "ÙĦÛģ": 420,
      "Ø§Ø²": 421,
      "om": 422,
      "ĠØ§Ù¾": 423,
      "ÙĪÙĦ": 424,
      "Ø§Ø¦ÛĮ": 425,
      "Ø¶": 426,
      "il": 427,
      "Ġe": 428,
      "ÙĲ": 429,
      "Ġre": 430,
      "ĠÚ©ÛĮØ§": 431,
      "Ġ1": 432,
      "ve": 433,
      "âĢĻ": 434,
      "st": 435,
      "Ø§Ø±ÛĮ": 436,
      "ĠÚĪ": 437,
      "Ġl": 438,
      "ĠÙĪÛģ": 439,
      "ĠÙ¹": 440,
      "Ġn": 441,
      "ÛĮÙħ": 442,
      "Ġ(": 443,
      "ÙĪÙħ": 444,
      "ÙĪØ¯": 445,
      "Ùĵ": 446,
      "Ø³ØªØ§ÙĨ": 447,
      "Ùı": 448,
      "ĠØĮ": 449,
      "âĢĺ": 450,
      "ÙĨÚ¯": 451,
      "et": 452,
      "Ġis": 453,
      "ĠØ¬ÙĪ": 454,
      "ly": 455,
      "Ø±ÙĪ": 456,
      "Ú¯Ø±": 457,
      "ĠT": 458,
      "Ø§Ø¦ÛĴ": 459,
      "ĠÙĦÛĮ": 460,
      "Ø³ÛĮ": 461,
      "ĠÙĪØ§ÙĦ": 462,
      "Ġg": 463,
      "id": 464,
      "Ø§ÙĨÛĮ": 465,
      "ĠÙħÙĦ": 466,
      "im": 467,
      "ol": 468,
      "Ù¹ÛĮ": 469,
      "ation": 470,
      "us": 471,
      "ÙĬ": 472,
      "ur": 473,
      "ĠØ±ÙĪ": 474,
      "Ø§Ø¹": 475,
      "ĠÛĶ": 476,
      "ĠÛģÙħ": 477,
      "ÛĮÙĦ": 478,
      "ĠA": 479,
      "ĠØªÚ¾Ø§": 480,
      "Ø§Úº": 481,
      "Ú©Ú¾": 482,
      "Ġbe": 483,
      "Ġy": 484,
      "ce": 485,
      "ch": 486,
      "ĠÙ¾ÛĮ": 487,
      "ra": 488,
      "Ø¨Ø±": 489,
      "ot": 490,
      "ĠØ¯ÛĮ": 491,
      "Ú¾Ø±": 492,
      "ÙĦÙħ": 493,
      "ut": 494,
      "ow": 495,
      "ï¿": 496,
      "ï¿½": 497,
      "Ù¹Ø±": 498,
      "ĠÙħØ¹": 499,
      "Ø§ÙĨÛĴ": 500,
      "Ġ20": 501,
      "Øº": 502,
      "ĠÚ©Ø±ÙĨÛĴ": 503,
      "Ø§Ú©Ø³ØªØ§ÙĨ": 504,
      "ig": 505,
      "ĠÙħÙĨ": 506,
      "Ø§Ùģ": 507,
      "ÙĦÛĴ": 508,
      "Ø«": 509,
      "ĠS": 510,
      "ĠØ§Ùħ": 511,
      "ĠÙħÙĪ": 512,
      "ÛĮØª": 513,
      "ĠÙħØŃ": 514,
      "Ġfor": 515,
      "Ø§ØªÚ¾": 516,
      "Ø±Ø¯": 517,
      "Ú©ÛĮ": 518,
      "Ø°": 519,
      "Ø±Ùħ": 520,
      "ĠØ¯ÙĪ": 521,
      "Ø±Ùģ": 522,
      "Ø´ÙĨ": 523,
      "Ú©Ûģ": 524,
      "ĠÛģÛĮ": 525,
      "ay": 526,
      "ir": 527,
      "ĠØªØ¹": 528,
      "Ġon": 529,
      "ĠØ¬Ø³": 530,
      "ĠÙ¾Ûģ": 531,
      "am": 532,
      "un": 533,
      "ĠI": 534,
      "ul": 535,
      "ĠÙħØ³": 536,
      "Ø§ÙĤ": 537,
      "Ġst": 538,
      "ĠØ¨ÛĮ": 539,
      "Ġyou": 540,
      "Ø§Ø¬": 541,
      "ĠÙ¾Ø§Ú©Ø³ØªØ§ÙĨ": 542,
      "el": 543,
      "ver": 544,
      "Ġthat": 545,
      "ÙĦØ§Ùħ": 546,
      "ĠØ³ÛĮ": 547,
      "ĠC": 548,
      "ÙĴ": 549,
      "ĠØº": 550,
      "ĠÚ¯ÛĮØ§": 551,
      "ad": 552,
      "Ø§ØŃ": 553,
      "Ø¹Ø¯": 554,
      "Ġpro": 555,
      "ĠâĢ": 556,
      "ĠØ¨ÙĨ": 557,
      "ĠØ¨Ûģ": 558,
      "ÙĪØ¨": 559,
      "ĠØ§Ù¾ÙĨÛĴ": 560,
      "se": 561,
      "ĠØŃÚ©": 562,
      "ith": 563,
      "ÚĨÚ¾": 564,
      "ÛĮÛģ": 565,
      "ÙħØ¯": 566,
      "ĠØ¨Ú¾": 567,
      "ĠØ§Ø¨": 568,
      "..": 569,
      "ĠØ¢Ù¾": 570,
      "Ġas": 571,
      "Ġcon": 572,
      "ĠØ³Ø§ØªÚ¾": 573,
      "ĠÙĦÛĮÛĴ": 574,
      "Ġare": 575,
      "ĠP": 576,
      "ï¿½ï¿½": 577,
      "ĠØ³Ú©": 578,
      "Ú¯ÛĮ": 579,
      "if": 580,
      "ĠÚ©ÛģØ§": 581,
      "ĠØ¨Ø±": 582,
      "ĠØ§ÛĮ": 583,
      "ÙĪÛĮ": 584,
      "ĠØ°": 585,
      "ĠØªÚ©": 586,
      "ĠØ¬ÙĨ": 587,
      "ĠØ§Ùģ": 588,
      "ĠÙĦØ¦ÛĴ": 589,
      "Ø±ØŃ": 590,
      "Ø§Ø±ÛĴ": 591,
      "Ġwith": 592,
      "Ġ201": 593,
      "ĠØ§ÙĦÙĦÛģ": 594,
      "ĠÙĦÙĪ": 595,
      "Ġor": 596,
      "ĠM": 597,
      "ment": 598,
      "ÙĤØª": 599,
      "ab": 600,
      "ĠØ¹Ùħ": 601,
      "ĠØ§ÛĮØ³": 602,
      "Ġit": 603,
      "ĠØ§Ø¹": 604,
      "Ù°": 605,
      "ĠÛģÙĪØ¦ÛĴ": 606,
      "her": 607,
      "Ġal": 608,
      "od": 609,
      "ÙĪØ±ÛĮ": 610,
      "ĠÚ¯Ø§": 611,
      "Ø¯ÛĮ": 612,
      "ĠÙħÙĤ": 613,
      "ag": 614,
      "Ø±Ø¨": 615,
      "ter": 616,
      "Ø±Ú©": 617,
      "ess": 618,
      "ĠØ¯ÛĮØ§": 619,
      "00": 620,
      "ĠÙħÛĮ": 621,
      "ak": 622,
      "Ġk": 623,
      "ÙĪØ¬": 624,
      "ĠØ¬Ø¨": 625,
      "ĠÚ©Ùħ": 626,
      "ĠØ¨Ø¹Ø¯": 627,
      "ĠØ¨Úĳ": 628,
      "Ùĳ": 629,
      "Ø´Øª": 630,
      "ĠØ³ÙĪ": 631,
      "ĠØªÚ¾ÛĴ": 632,
      "ÙħÛģ": 633,
      "ÙĤÛĮ": 634,
      "Ø§ÙĨÛģ": 635,
      "ĠØ¯Ø±": 636,
      "ate": 637,
      "ĠØ¨ÙĦ": 638,
      "ĠÙħØª": 639,
      "Ø²ÛĮØ±": 640,
      "Ġwh": 641,
      "th": 642,
      "Ø§Ø´": 643,
      "ĠØ¬Ø§ÙĨ": 644,
      "ist": 645,
      "Ġhe": 646,
      "ĠB": 647,
      "ers": 648,
      "ĠØ¨ÛģØª": 649,
      "ÛĶÛĶ": 650,
      "Ø§Øµ": 651,
      "ĠÛĮØ§": 652,
      "Ġcan": 653,
      "Ø¯Ø±": 654,
      "ĠÚ©Ø±ØªÛĴ": 655,
      "Ø¢": 656,
      "ĠThe": 657,
      "ĠÚ©ÙĪØ¦ÛĮ": 658,
      "ĠØ¶": 659,
      "ies": 660,
      "ĠØ¬Ø§Øª": 661,
      "Ø¬Ûģ": 662,
      "op": 663,
      "ÛĮÚ©ÙĨ": 664,
      "ĠØ¯ÙĨ": 665,
      "Ġde": 666,
      "ÛģØ±": 667,
      "Ġcom": 668,
      "ĠÚ©Ú¾": 669,
      "ĠØ³Ø¨": 670,
      "ĠØ§Ø¯": 671,
      "Ø¬Ú¾": 672,
      "ity": 673,
      "ect": 674,
      "Ú©Ø±": 675,
      "Ġex": 676,
      "ore": 677,
      "Ø¯Ûģ": 678,
      "ĠÚ©Ø§Ùħ": 679,
      "ĠØªØŃ": 680,
      "ure": 681,
      "ĠØ±ÛģÛĴ": 682,
      "ĠÙħØ·": 683,
      "ive": 684,
      "ĠØ§Ù¾ÙĨÛĮ": 685,
      "Ø±Øª": 686,
      "ĠØ¨Ø§Øª": 687,
      "um": 688,
      "ĠØªÚ¾ÛĮ": 689,
      "ĠØ®ÙĪ": 690,
      "Ø§Ø¯ÛĮ": 691,
      "ĠØ§ÙĨÛģ": 692,
      "ĠØ±Ú©Ú¾": 693,
      "ill": 694,
      "Ùĩ": 695,
      "ĠÚ©Ø³ÛĮ": 696,
      "Ġv": 697,
      "ĠÙģÛĮ": 698,
      "ain": 699,
      "ĠÚ©Ø§Ø±": 700,
      "ÙĪØ±Øª": 701,
      "ĠØ¬Ø§Ø¦ÛĴ": 702,
      "ÙĪÙħØª": 703,
      "Ø±ÛĮÙĨ": 704,
      "ĠØ§ØŃ": 705,
      "ĠÙĪØ§ÙĦÛĴ": 706,
      "ĠÙĦÙĪÚ¯": 707,
      "ac": 708,
      "em": 709,
      "Ø±Ûģ": 710,
      "Ø®Øª": 711,
      "est": 712,
      "ĠD": 713,
      "ant": 714,
      "Ġ-": 715,
      "Ú©ÛĴ": 716,
      "Ø§ÙĦÛĮ": 717,
      "ĠØ®Ø§ÙĨ": 718,
      "ÛĮØ§Úº": 719,
      "ÙĨÙ¹": 720,
      "ĠH": 721,
      "ĠÚ¯ÛĴ": 722,
      "ÙĪÙ¹": 723,
      "ĠØªÙħ": 724,
      "ÛĮØ§Ø¯": 725,
      "ĠÙĦÚ¯": 726,
      "Ø§Ø±Øª": 727,
      "qu": 728,
      "pp": 729,
      "and": 730,
      "ĠØªØ±": 731,
      "ĠØ¯ÙĪØ±": 732,
      "Ø±Ø§ÙĨ": 733,
      "ew": 734,
      "ĠÙĨØ¸": 735,
      "iv": 736,
      "ĠØ¹ÙĦÛĮ": 737,
      "Ġsu": 738,
      "ĠÙĪØ²ÛĮØ±": 739,
      "ht": 740,
      "ĠÙ¾ÙĪ": 741,
      "Ġha": 742,
      "os": 743,
      "ial": 744,
      "ĠÚĨØ§Ûģ": 745,
      "Ø±ÛĴ": 746,
      "Ø§Ø¨ÙĤ": 747,
      "Ø§Ù¾": 748,
      "ĠØ§ÙĨØª": 749,
      "Ġwe": 750,
      "Ø§Ø³Øª": 751,
      "ĠW": 752,
      "ĠÚ¯Ø¦ÛĮ": 753,
      "Ġch": 754,
      "ĠÚĨÚ¾": 755,
      "ort": 756,
      "ĠÙĦÛĮÚ©ÙĨ": 757,
      "Ù¹Ú¾": 758,
      "ÙĦØ§Ùģ": 759,
      "ØŁ": 760,
      "ĠÙħÙĦÚ©": 761,
      "ĠØŃÚ©ÙĪÙħØª": 762,
      "ĠÛģÙĪÙĨÛĴ": 763,
      "ĠØ³Ùħ": 764,
      "ĠÙ¾Úĳ": 765,
      "ĠØ³Ø±": 766,
      "oun": 767,
      "ÛģÙħ": 768,
      "ÛĮÙĪ": 769,
      "Ġus": 770,
      "ĠN": 771,
      "ĠÙħØ´": 772,
      "ÛĮØ²": 773,
      "ÙĪÛģ": 774,
      "ĠF": 775,
      "Ø¨ÛĮ": 776,
      "ld": 777,
      "du": 778,
      "ÙħÙĦ": 779,
      "ÛĮÚ©Ú¾": 780,
      "rom": 781,
      "Ú©Ø§": 782,
      "ÙĪØ§Ùħ": 783,
      "oc": 784,
      "ĠR": 785,
      "ÙħØ§ÙĦ": 786,
      "ÙĨØ³": 787,
      "Ø§Ø¡": 788,
      "ud": 789,
      "ĠÙĨÙĪ": 790,
      "Ġat": 791,
      "ĠØ§Ø®": 792,
      "Ġ3": 793,
      "ĠØ·Ø±ØŃ": 794,
      "ĠØ³Ø§ÙĦ": 795,
      "ĠÛģÙĪÚº": 796,
      "Ġr": 797,
      "Ø§Ø¤": 798,
      "Ø§Ø±Ûģ": 799,
      "20": 800,
      "ĠÙģØ±": 801,
      "Ġby": 802,
      "ĠE": 803,
      "Ġen": 804,
      "ĠØ§Ø³Øª": 805,
      "ĠÛģÙĪØ§": 806,
      "ÙĦÙĤ": 807,
      "ĠØ¨ÚĨ": 808,
      "res": 809,
      "ÙĪØ³": 810,
      "ĠÙĨØ§Ùħ": 811,
      "ĠÚ¯ÛĮ": 812,
      "Ø¨Ø§Ø¯": 813,
      "Ø§ÛĮØ§": 814,
      "Ø§Ø¶": 815,
      "ĠÚ¯Ø¦ÛĴ": 816,
      "Ġle": 817,
      "ĠÙĪÙĤØª": 818,
      "ĠÛģØ±": 819,
      "Ġse": 820,
      "ÙĦØ§ÙĤ": 821,
      "ĠØ§Ø³ÙĦØ§Ùħ": 822,
      "âĢĿ": 823,
      "og": 824,
      "Ø±ÛĮÙģ": 825,
      "ĠØ¯ÛĮÚ©Ú¾": 826,
      "ĠØ¬Ùħ": 827,
      "ren": 828,
      "ĠÚ©ÚĨÚ¾": 829,
      "ĠØ¯ÛĴ": 830,
      "Ú©ÙĦ": 831,
      "ĠØ²ÛĮØ§Ø¯": 832,
      "ĠØ±ÛģØ§": 833,
      "ĠØ§Ú¯Ø±": 834,
      "Ø¯Ø§Ø±": 835,
      "ĠØ¬Ø§": 836,
      "ĠâĢĻ": 837,
      "ĠØ§Øª": 838,
      "ÙĦØ¦ÛĴ": 839,
      "Ġyour": 840,
      "Ø¨Ûģ": 841,
      "Ġfrom": 842,
      "ĠÚ©Ø±ÛĮÚº": 843,
      "ĠÙĨÙħ": 844,
      "Ø§Ø¦ÛĮÚº": 845,
      "ĠØ±ÛĮ": 846,
      "ĠÛģÙĪÚ¯": 847,
      "art": 848,
      "ĠØ·ÙĪØ±": 849,
      "ĠG": 850,
      "ical": 851,
      "ĠL": 852,
      "ÙģÛĮ": 853,
      "Ø¸Ùħ": 854,
      "ØªÙħ": 855,
      "ĠØ¯ÛĮÙĨ": 856,
      "Ø§ÙĨØ§": 857,
      "ÙĪØ±Ù¹": 858,
      "Ø¹Ûģ": 859,
      "ÙģØª": 860,
      "pt": 861,
      "ĠÚ©Ø±ÙĨØ§": 862,
      "ÙĪØ§ÙĦ": 863,
      "Ġsh": 864,
      "Ø³Ùħ": 865,
      "ost": 866,
      "ĠØ²ÛĮØ§Ø¯Ûģ": 867,
      "Ġ|": 868,
      "ĠÚ©ÛĮÙĦØ¦ÛĴ": 869,
      "ÙĦØ³": 870,
      "ri": 871,
      "ĠÙħØ³ÙĦÙħ": 872,
      "ĠÙ¾Ú¾Ø±": 873,
      "âĢĺâĢĺ": 874,
      "ÙĨØ¬": 875,
      "Ġun": 876,
      "ĠÙģÛĮØµ": 877,
      "ÙĪØª": 878,
      "Ġim": 879,
      "Ġhave": 880,
      "ĠØ¯ÙĪØ³": 881,
      "ÙģØ±": 882,
      "ĠÙ¾ÛĮØ´": 883,
      "ĠÙĤØ±": 884,
      "ions": 885,
      "ÛĮÙĪÚº": 886,
      "ĠU": 887,
      "Ø§Ø¦ÙĦ": 888,
      "Ġnot": 889,
      "Ġsp": 890,
      "Ø±Ø§Ø¯": 891,
      "ĠÙĥ": 892,
      "ĠØ®ÙĦØ§Ùģ": 893,
      "ight": 894,
      "ĠØ´Ûģ": 895,
      "Ø¨ÙĦ": 896,
      "Ġ:": 897,
      "ÙĦÛĮÙħ": 898,
      "Ø´Ùħ": 899,
      "ge": 900,
      "ĠÙħØ·Ø§Ø¨ÙĤ": 901,
      "Ø§Ø®": 902,
      "ĠØ¶Ø±": 903,
      "all": 904,
      "ome": 905,
      "Ø§ÙĨÙĪÚº": 906,
      "per": 907,
      "ĠØ§ÙħØ±ÛĮ": 908,
      "ff": 909,
      "ĠØ·Ø±Ùģ": 910,
      "Ø´ÛĮ": 911,
      "Ø¯Ø§": 912,
      "ĠØ§ÙĨØ³": 913,
      "ĠØ§Ø¬": 914,
      "Ø¬ÙĪØ¯": 915,
      "Ø§Ø¹Øª": 916,
      "ĠIn": 917,
      "ÛĮØ¨": 918,
      "ine": 919,
      "Ġthis": 920,
      "ÙħØª": 921,
      "Ġtheir": 922,
      "Ġwor": 923,
      "act": 924,
      "Ø§ØªÛĮ": 925,
      "iz": 926,
      "Ġwas": 927,
      "our": 928,
      "ĠÙ¾ÛģÙĦÛĴ": 929,
      "ĠØ§Ú©": 930,
      "Ġpl": 931,
      "Ġne": 932,
      "Ø§Ø±ÙĪÚº": 933,
      "ĠØ¯Ûģ": 934,
      "Ø§ÙĪØ±": 935,
      "Ø¡": 936,
      "ĠÙħØ²": 937,
      "ĠÙ¾Ø§Ø±": 938,
      "Ġab": 939,
      "ide": 940,
      "ĠO": 941,
      "Ø§ØµÙĦ": 942,
      "ÙĨÛģ": 943,
      "Ø¯Ø§ÙĦ": 944,
      "ĠÙħÛĮØ±": 945,
      "age": 946,
      "ĠÙħØŃÙħØ¯": 947,
      "ÙĦÙĪ": 948,
      "ĠØªÙĤ": 949,
      "The": 950,
      "pl": 951,
      "Ø³Ù¹": 952,
      "ĠÛģÙĪØªØ§": 953,
      "ÚĨÛĮ": 954,
      "ĠØªØ¨": 955,
      "ther": 956,
      "Ø±ÛĮØ¨": 957,
      "ĠØªÙħØ§Ùħ": 958,
      "ĠØŃØ§ÙĦ": 959,
      "ÙĨÚĪ": 960,
      "ĠØ§ÙĤ": 961,
      "ĠØ¹ÙĪØ§Ùħ": 962,
      "ĠØµØ±Ùģ": 963,
      "ÙĪÚĳ": 964,
      "ĠØ´Ø§Ùħ": 965,
      "Ø®Øµ": 966,
      "red": 967,
      "ĠØ¨ÛĴ": 968,
      "ru": 969,
      "ĠØµØŃ": 970,
      "ĠÙģØ±Ùħ": 971,
      "ÛĮÙĨÛĮ": 972,
      "Ġ19": 973,
      "Ø§ÛģØ±": 974,
      "Ġ5": 975,
      "ard": 976,
      "ĠÙħØ¯": 977,
      "ĠØ±ÛģÛĮ": 978,
      "ĠÙ¹ÛĮ": 979,
      "Ġ4": 980,
      "ĠØ³Ø§Ùħ": 981,
      "ĠØ®Ø·": 982,
      "Ø±ÛĮÚ©": 983,
      "ĠØ¨Ø¯": 984,
      "Ø²ÛĮ": 985,
      "ĠØ§Ø³ÛĴ": 986,
      "ĠØ¨Ø§Ø±": 987,
      "out": 988,
      "ous": 989,
      "ĠÙ¾ÛģÙĨ": 990,
      "ĠØ§ÙĪ": 991,
      "ated": 992,
      "ĠØ¬Ûģ": 993,
      "Ġad": 994,
      "ich": 995,
      "Ġint": 996,
      "ĠÛģÙĪØ¦ÛĮ": 997,
      "ĠØ§ÛĴ": 998,
      "ia": 999,
      "ĠØ±ÙĪØ²": 1000,
      "Ø±Ø§": 1001,
      "ĠØ§ÙĨÛģÙĪÚº": 1002,
      "ĠÙħÙĪØ¬ÙĪØ¯": 1003,
      "Ø§Ø³ÛĮ": 1004,
      "ĠØŃØ³": 1005,
      "ĠØ«": 1006,
      "ĠØ§Ûģ": 1007,
      "ell": 1008,
      "ĠØ¯ÙĨÛĮØ§": 1009,
      "ik": 1010,
      "ĠØ§ÛĮÙħ": 1011,
      "der": 1012,
      "ĠÙĦÙĪÚ¯ÙĪÚº": 1013,
      "ult": 1014,
      "ĠØ¯ÙĦ": 1015,
      "ĠÙĪØ¬Ûģ": 1016,
      "ĠÚ©Øª": 1017,
      "ĠØ®ÙĪØ¯": 1018,
      "ĠØ¬Ø§ØªØ§": 1019,
      "ans": 1020,
      "Ùī": 1021,
      "ec": 1022,
      "ould": 1023,
      "ast": 1024,
      "Ú©Ø§Ø±": 1025,
      "ood": 1026,
      "ĠJ": 1027,
      "Ġ0": 1028,
      "ip": 1029,
      "ib": 1030,
      "ĠÚ©ÙħÛĮ": 1031,
      "Ġinc": 1032,
      "ĠÙĦÛĴ": 1033,
      "ĠÙĪØ§ÙĦÛĮ": 1034,
      "Ø§ÙĪ": 1035,
      "hen": 1036,
      "ĠØ¬Ø§Ø±ÛĮ": 1037,
      "Ġcomp": 1038,
      "âĢı": 1039,
      "ÙĪÙĨÛĮ": 1040,
      "Ġcont": 1041,
      "ĠØŃØ§ØµÙĦ": 1042,
      "ĠÙħÚ©": 1043,
      "Ø§Ø¦ÙĨ": 1044,
      "ØªØ±": 1045,
      "ĠØ§Ø³ØªØ¹": 1046,
      "ĠØ³ÙĨ": 1047,
      "ations": 1048,
      "oug": 1049,
      "ust": 1050,
      "Ġmore": 1051,
      "Ġthey": 1052,
      "ĠØŃØ¶": 1053,
      "ĠØ²ÙĨØ¯": 1054,
      "Ù¾ÛĮ": 1055,
      "ĠØ¹Ø¨": 1056,
      "able": 1057,
      "ĠØ¨ÙĨØ¯": 1058,
      "ĠâĢľ": 1059,
      "ĠÛ": 1060,
      "ap": 1061,
      "ĠÙħØ°": 1062,
      "cc": 1063,
      "ĠØ¢Ø¦ÛĮ": 1064,
      "ĠÙħØ§Ø±": 1065,
      "ĠÚ¯Ú¾Ø±": 1066,
      "Ġimp": 1067,
      "so": 1068,
      "Ú©ÙĨ": 1069,
      "ĠÙħØ¬": 1070,
      "Ø±ÙĪØ¹": 1071,
      "ĠØ¯Ú¾": 1072,
      "ĠÙ¾ÛģÙĨÚĨ": 1073,
      "Ġall": 1074,
      "Ġj": 1075,
      "ĠÙĨØ¸Ø±": 1076,
      "ĠØ¨ÙĨØ§": 1077,
      "ĠÚĪÛĮ": 1078,
      "ĠØªÙĨ": 1079,
      "ĠØŃÙĤ": 1080,
      "Ġwill": 1081,
      "ound": 1082,
      "ÙĳÙİ": 1083,
      "Ø¬Ú¾ÛĴ": 1084,
      "Ġres": 1085,
      "ĠÚ©ÙĦ": 1086,
      "Ø±Ø²": 1087,
      "ance": 1088,
      "ĠØ§ÙģØ±Ø§Ø¯": 1089,
      "ear": 1090,
      "ĠØºÛĮØ±": 1091,
      "Ùĭ": 1092,
      "ĠØ¬Ø§ÙĨØ¨": 1093,
      "orm": 1094,
      "Ø¯Ø§Ø¯": 1095,
      "end": 1096,
      "ÙĪØ§ÙĨ": 1097,
      "ĠØ´Ø±ÙĪØ¹": 1098,
      "vel": 1099,
      "ĠØ¨Ø¬": 1100,
      "Ġdis": 1101,
      "ĠTh": 1102,
      "ep": 1103,
      "ÙĦÛĮØ³": 1104,
      "ĠÙĦÛĮØ§": 1105,
      "ĠØ§Ø³ÛĮ": 1106,
      "Ġar": 1107,
      "ÙĦÙģ": 1108,
      "Ġ\"": 1109,
      "201": 1110,
      "Ġme": 1111,
      "ÙħØ§ÙĨ": 1112,
      "ĠÚ¯Ø²": 1113,
      "ÙĪØ§": 1114,
      "ĠÚ©ÛĮØ³": 1115,
      "ks": 1116,
      "ĠØ±Ø³": 1117,
      "ĠØ¨Ú¾Ø±": 1118,
      "ong": 1119,
      "ind": 1120,
      "ĠÙħÛģ": 1121,
      "Ġwhich": 1122,
      "ary": 1123,
      "Ġ..": 1124,
      "Ø§ÛģÙħ": 1125,
      "ĠØ¬ÛĮØ³": 1126,
      "ĠK": 1127,
      "ual": 1128,
      "Ø¨Øª": 1129,
      "ĠÙħØ®Øª": 1130,
      "Ø§Ø¦Ùħ": 1131,
      "Ġte": 1132,
      "Ø§Ø¦Ø±": 1133,
      "ĠØŃÙħ": 1134,
      "ĠØ§Ø³ØªØ¹ÙħØ§ÙĦ": 1135,
      "ĠØ¹ÙħÙĦ": 1136,
      "ĠÙĪØ§ÙĤ": 1137,
      "Ø§ØŃØ¨": 1138,
      "ĠÙĪØ³": 1139,
      "ĠØ§Ø´": 1140,
      "Ø§Ø¦Ø¯": 1141,
      "reat": 1142,
      "Ġhas": 1143,
      "ÙħÛĮÙĨ": 1144,
      "ĠØ¹ÙĦØ§ÙĤ": 1145,
      "ï¿½ï¿½ï¿½ï¿½": 1146,
      "ÙĪØ¯ÛĮ": 1147,
      "ĠâĢĻâĢĻ": 1148,
      "ĠØ¨ØŃ": 1149,
      "ign": 1150,
      "Ùĥ": 1151,
      "ÙĪØ§Ø±": 1152,
      "Ġalso": 1153,
      "Ġman": 1154,
      "ĠÙģÙĪØ¬": 1155,
      "ÚĪÛĮØ§": 1156,
      "Ø³Ú©": 1157,
      "ĠÙ¾ÛĮØ¯": 1158,
      "ĠÙħØµ": 1159,
      "ĠÚ©Ø±ØªØ§": 1160,
      "ØµÙĪ": 1161,
      "ĠÙħÚ¯Ø±": 1162,
      "ØºÛĮØ±": 1163,
      "Ø§ØªÛĴ": 1164,
      "ah": 1165,
      "ĠÚ¯Ú¾": 1166,
      "ĠØ§ÙĨÛģÛĮÚº": 1167,
      "ach": 1168,
      "ĠØ¬Ø§ÙĨÛĴ": 1169,
      "oo": 1170,
      "ry": 1171,
      "ĠØµØ§ØŃØ¨": 1172,
      "Ø¯Ùħ": 1173,
      "Ġdo": 1174,
      "ĠØ´Ø®Øµ": 1175,
      "ence": 1176,
      "Ġ6": 1177,
      "Ø§Ø¸": 1178,
      "up": 1179,
      "ĠØ³ÙħØ¬Ú¾": 1180,
      "ĠØ¨Ø§ÙĦ": 1181,
      "ÙħØ¨": 1182,
      "ake": 1183,
      "are": 1184,
      "Ø¦Ø±": 1185,
      "ĠÚ¯Ø±Ø¯": 1186,
      "ĠÚ©ÛģÙĨØ§": 1187,
      "Ø§Ú©Ù¹Ø±": 1188,
      "ress": 1189,
      "ĠÛģÙĪØªÛĮ": 1190,
      "ĠØ´Ø§Ûģ": 1191,
      "ĠØ§Øµ": 1192,
      "ĠÚ©Ø±Ø¯": 1193,
      "ĠØ´Ø±ÛĮÙģ": 1194,
      "Ù¹Ø³": 1195,
      "Ø±Ø§Øª": 1196,
      "ĠØ®ÛĮ": 1197,
      "ĠØŃØµ": 1198,
      "ĠâĢĵ": 1199,
      "ĠÙĨÙĪØ§Ø²": 1200,
      "ater": 1201,
      "ough": 1202,
      "ĠØ¸": 1203,
      "ÙĪÙħÛĮ": 1204,
      "ĠØ§ÛĮÙĨ": 1205,
      "ĠÙ¾ÚĳÚ¾": 1206,
      "ber": 1207,
      "Ú©ÙĪ": 1208,
      "ÙĦÙĪÙħ": 1209,
      "ĠÙĨÛĮ": 1210,
      "av": 1211,
      "Ġother": 1212,
      "Ø´Ûģ": 1213,
      "Ø´Ø´": 1214,
      "ild": 1215,
      "ĠÙĪÛĮ": 1216,
      "ĠØªØ¬": 1217,
      "Ø§Ø¨ÛĮ": 1218,
      "ĠÙ¾Ø§Ø³": 1219,
      "ĠÙħØ²ÛĮØ¯": 1220,
      "Ġcl": 1221,
      "Ù¾ÙĪØ±Ù¹": 1222,
      "ĠØµØ¯Ø±": 1223,
      "ents": 1224,
      "ĠÙĨÙĤ": 1225,
      "ÙĪÙĤ": 1226,
      "ĠÚĨÛĮ": 1227,
      "ĠÚĪØ§ÙĦ": 1228,
      "ĠØ¨ÚĳÚ¾": 1229,
      "ĠØ¹ÙĦÛĮÛģ": 1230,
      "ÚĳÛĮ": 1231,
      "ĠØ¯ÙĪØ±Ø§ÙĨ": 1232,
      "ĠØ²ÙĨØ¯Ú¯ÛĮ": 1233,
      "ition": 1234,
      "ÙĤÛģ": 1235,
      "ÙħÛĮØª": 1236,
      "ÙĪØ¹": 1237,
      "ang": 1238,
      "ĠØ¢Ø¬": 1239,
      "Ø±ÙĦ": 1240,
      "ĠÙħØ±": 1241,
      "ĠØ¨ÛĮØ§ÙĨ": 1242,
      "ĠØ¨ÙĦÚ©Ûģ": 1243,
      "ĠØ´ÛĮ": 1244,
      "Ø¨Ø§ÙĨ": 1245,
      "ÙĪÙĦÛĮ": 1246,
      "ĠÛģÙħØ§Ø±ÛĴ": 1247,
      "ĠÚ©Ø¨": 1248,
      "Ø§ÙĦÙħ": 1249,
      "ĠÙħØªØ¹": 1250,
      "ĠÙħØ¬Ú¾ÛĴ": 1251,
      "ĠØ¨ÙĨÛĮ": 1252,
      "ĠØ´Ø§ÙħÙĦ": 1253,
      "Ø§Ø·": 1254,
      "ÙĦØ§ÙĨ": 1255,
      "ĠØ¨Ø§Ø±ÛĴ": 1256,
      "ĠÙĦÚ©Ú¾": 1257,
      "Ø§Ú©Ûģ": 1258,
      "one": 1259,
      "Ù¾Ø±": 1260,
      "ĠØŃÙĪØ§ÙĦ": 1261,
      "ĠÚ©Ø±ÛĴ": 1262,
      "ase": 1263,
      "Ø§ÚĨÛĮ": 1264,
      "Ġapp": 1265,
      "ÙĪÙĨÚ©Ûģ": 1266,
      "ice": 1267,
      "ĠØŃÚ©Ùħ": 1268,
      "fe": 1269,
      "ĠÙ¾ÙĪØ±": 1270,
      "ĠÙ¾Ø³": 1271,
      "ews": 1272,
      "ÙĪÙĨÙĪÚº": 1273,
      "ail": 1274,
      "ĠÚĨÙĦ": 1275,
      "Ø§Ø±ÛĮØ®": 1276,
      "Ġ7": 1277,
      "ÙĨÙħ": 1278,
      "ĠÙ¾Ø±ÙĪ": 1279,
      "ĠØªÛĮ": 1280,
      "ĠâĢĺ": 1281,
      "ĠØ¬ÙĨÚ¯": 1282,
      "ĠÙ¾ÙĪÙĦÛĮØ³": 1283,
      "ĠØ¹Ø§Ùħ": 1284,
      "Ġbut": 1285,
      "ĠØ¹ÙĦÙħ": 1286,
      "ĠØ³Ú©ØªØ§": 1287,
      "Ġper": 1288,
      "ĠÚ©ÙĪØ´Ø´": 1289,
      "ÚĪÛĮ": 1290,
      "ĠØµÙĪØ±Øª": 1291,
      "ĠØ¬ÛĮ": 1292,
      "Ø±Ø¯ÙĪ": 1293,
      "Ø§ÙħØ§Øª": 1294,
      "ction": 1295,
      "ĠØŃØ¶Ø±Øª": 1296,
      "ĠØ¬Ø¨Ú©Ûģ": 1297,
      "Ø¬ÙĨ": 1298,
      "ÙħÙĨ": 1299,
      "Ú¾ÛĮÙĦ": 1300,
      "ĠØ´ÛģØ±": 1301,
      "Ġso": 1302,
      "Ġsy": 1303,
      "ĠÙħÙĪÙĤ": 1304,
      "ass": 1305,
      "ÙĨØ¬Ø§Ø¨": 1306,
      "ime": 1307,
      "ĠØ³Ø§ÙħÙĨÛĴ": 1308,
      "Ø§ÙĨÚ¯": 1309,
      "Ø¨Ø§Ø±": 1310,
      "Ø§Ø¹Ø¸Ùħ": 1311,
      "ĠÛģÙĪÚ¯Ø§": 1312,
      "ĠØªÛĮÙĨ": 1313,
      "com": 1314,
      "ÙĦØ¨": 1315,
      "ĠØ¯Ø¹": 1316,
      "ÙħÛĮÚº": 1317,
      "ack": 1318,
      "ace": 1319,
      "ors": 1320,
      "ĠØ¯ÛģØ´Øª": 1321,
      "Ø§ÛģÙĪØ±": 1322,
      "Ø®ÙĪ": 1323,
      "ĠØ¬Ú¾": 1324,
      "ÛģØ§Ø±": 1325,
      "ĠØ§Ù¹Ú¾": 1326,
      "ĠØ§ØŃÙħØ¯": 1327,
      "Ø§Ø±ØªÛĮ": 1328,
      "ĠÙħØ³Øª": 1329,
      "Ù¹Ø±ÛĮ": 1330,
      "Ø´ÙħÛĮØ±": 1331,
      "ĠØ§ÛĮØ³ÛĴ": 1332,
      "Ø¯ÛĮØ¯": 1333,
      "ĠÚ©ÙĨ": 1334,
      "ĠÙħØ®ØªÙĦÙģ": 1335,
      "ike": 1336,
      "form": 1337,
      "ens": 1338,
      "ces": 1339,
      "Ø¬ÛĮ": 1340,
      "ĠÙĦÛĮÙĨ": 1341,
      "ĠØ¬ÙĦ": 1342,
      "ire": 1343,
      "Ø§Ø«": 1344,
      "Ø§ÙĨÚĨ": 1345,
      "Ġ10": 1346,
      "aus": 1347,
      "ĠØ¯ÛĮÙĨÛĴ": 1348,
      "alth": 1349,
      "Ġthem": 1350,
      "Ø§ÙħÛĮ": 1351,
      "ĠØ§ÛģÙħ": 1352,
      "Ġï": 1353,
      "ĠIt": 1354,
      "Ġout": 1355,
      "ĠØ§Ù¾ÙĨØ§": 1356,
      "Ø©": 1357,
      "ĠØ³ÛĮØ§Ø³ÛĮ": 1358,
      "Ġ8": 1359,
      "Ġcomm": 1360,
      "ile": 1361,
      "ÙĬÚº": 1362,
      "ĠØ¯ÙĪÙĨÙĪÚº": 1363,
      "ĠÙĨÚ©": 1364,
      "ÛĮØ§Øª": 1365,
      "ĠØ®Ø¨Ø±": 1366,
      "ĠÚĪØ§Ú©Ù¹Ø±": 1367,
      "ĠÛĮÛģØ§Úº": 1368,
      "rent": 1369,
      "Ġpe": 1370,
      "âĢľ": 1371,
      "very": 1372,
      "ub": 1373,
      "Ûĥ": 1374,
      "ĠØ§ÙĨØ¯": 1375,
      "Ø§Øº": 1376,
      "ĠØ¢Ú¯": 1377,
      "ish": 1378,
      "ĠÙ¾Ú¾": 1379,
      "ĠØ§Ø¶": 1380,
      "Ġone": 1381,
      "ĠÙĦÚĳ": 1382,
      "ÙĦØ·": 1383,
      "ĠØ³ÛĮÚ©": 1384,
      "Ø§ÛĮØª": 1385,
      "ĠØ¨ÚĳÛĮ": 1386,
      "ĠØ¯ÛĮÚ¯Ø±": 1387,
      "ĠÙģÛĮØµÙĦÛģ": 1388,
      "ĠÙħÙĨØµ": 1389,
      "ĠØ¨ØªØ§": 1390,
      "Ġpart": 1391,
      "ĠÙ¾Ø§Ø±Ù¹ÛĮ": 1392,
      "ue": 1393,
      "Ø¹ÛĴ": 1394,
      "âĢ¦": 1395,
      "ĠÙĨØ´": 1396,
      "ĠØ¯ÙĪØ³Ø±ÛĴ": 1397,
      "ÙĪØ±Ø³": 1398,
      "ĠØ¢Ø±": 1399,
      "ĠÚ©ØªØ§Ø¨": 1400,
      "ite": 1401,
      "ĠÛģÙĨØ¯": 1402,
      "ĠØ°Ø±ÛĮ": 1403,
      "Ġev": 1404,
      "ĠÙħÛĮØ±ÛĴ": 1405,
      "ĠÙĤØ§ÙĨ": 1406,
      "ĠThis": 1407,
      "Ġmay": 1408,
      "ie": 1409,
      "Ø²Ø§Ø±": 1410,
      "±Û": 1411,
      "ĠØ§ÛĮØ³Ø§": 1412,
      "Ġabout": 1413,
      "ĠØªØ¹ÙĦÙĤ": 1414,
      "ĠØªØ±ÛĮÙĨ": 1415,
      "Ø³Ù¾": 1416,
      "Ø´ØªÛģ": 1417,
      "Ø§Ø²Ûģ": 1418,
      "ĠØŃÙĪØ§ÙĦÛĴ": 1419,
      "Ġpre": 1420,
      "ÙĨØ¯Ú¾": 1421,
      "ĠØ´Ø¹": 1422,
      "ory": 1423,
      "ric": 1424,
      "ĠØ¯Ø§Ø±": 1425,
      "ĠÙħØ¹Ø§Ùħ": 1426,
      "ÚĪØ±": 1427,
      "ĠØ¹Ø¯Ø§ÙĦ": 1428,
      "ĠÚ©Ø³": 1429,
      "ĠV": 1430,
      "ĠÛģÙĪØªÛĴ": 1431,
      "ØŃÛģ": 1432,
      "Ø¦ÛĮÚº": 1433,
      "Ù¾ÛĴ": 1434,
      "Ġhel": 1435,
      "ĠØ³Ú©ØªÛĴ": 1436,
      "ĠÚ¯ÙĪ": 1437,
      "ĠØ¨Ú¾Ø§Ø±Øª": 1438,
      "Ġsc": 1439,
      "ĠØ¨ÛĮÙĨ": 1440,
      "ose": 1441,
      "ments": 1442,
      "Ġits": 1443,
      "Ûķ": 1444,
      "ĠÙĤØ±Ø§Ø±": 1445,
      "ame": 1446,
      "low": 1447,
      "Ù¾Ø§Ú©Ø³ØªØ§ÙĨ": 1448,
      "now": 1449,
      "ĠÙ¾ÙĨØ¬Ø§Ø¨": 1450,
      "ĠÚ©Ø¦ÛĮ": 1451,
      "Ø§Ú¯": 1452,
      "ĠØ¹ÙħØ±Ø§ÙĨ": 1453,
      "Ø§ÙĤÛĮ": 1454,
      "ĠØ§ÙĨØªØ®": 1455,
      "ĠÙħØªØ¹ÙĦÙĤ": 1456,
      "ĠØ³Ø¹": 1457,
      "ount": 1458,
      "ÙĤÙĦ": 1459,
      "ĠÙĤØ¨": 1460,
      "Ġ9": 1461,
      "ĠØ´Ùħ": 1462,
      "ĠÛģØ§ØªÚ¾": 1463,
      "Ø§Ø¦Ø²": 1464,
      "ĠÙħØ§Ûģ": 1465,
      "ĠØªØ§Ø±ÛĮØ®": 1466,
      "Ú©Ù¹": 1467,
      "ĠØªØ´": 1468,
      "ĠØ¬ÛģØ§Úº": 1469,
      "Ġqu": 1470,
      "Ġtra": 1471,
      "ĠSt": 1472,
      "ious": 1473,
      "Ġhelp": 1474,
      "ĠÙ¾ÛĮØ¯Ø§": 1475,
      "ĠØ¢Ø¨Ø§Ø¯": 1476,
      "ays": 1477,
      "Ġstud": 1478,
      "ĠØ¬ÙħØ§Ø¹Øª": 1479,
      "ĠØ³Ù¾": 1480,
      "ĠØ±Ø¶": 1481,
      "ĠÚ©Ø´ÙħÛĮØ±": 1482,
      "ific": 1483,
      "ĠØ¨Ø§": 1484,
      "ĠÙħÛĮÚĪÛĮØ§": 1485,
      "ĠÙĪÙģ": 1486,
      "ÙĦØ§Ø³": 1487,
      "ĠØ¬Ø§Ø¦ÛĮÚº": 1488,
      "ÚĳÛĴ": 1489,
      "Ø§Ø¨ÙĦ": 1490,
      "ĠØ¶Ø±ÙĪØ±Øª": 1491,
      "ĠÙĤÙĪÙħÛĮ": 1492,
      "Ø±ÛĮÙħ": 1493,
      "ĠØ¬Ø§ØªÛĮ": 1494,
      "king": 1495,
      "ĠØªÙģ": 1496,
      "ÛĮÛĴ": 1497,
      "olog": 1498,
      "Ø²Ø§Ø¯": 1499,
      "Ġup": 1500,
      "ĠØ¹Ø±Ø¨": 1501,
      "ĠØ§Ø²": 1502,
      "Ø±ÙģØª": 1503,
      "ĠÙĪØ§ÙĦØ§": 1504,
      "ĠÙħØ¹Ø§Ø´": 1505,
      "Ú¯Ûģ": 1506,
      "ĠØªØ¹Ø§ÙĦÛĮ": 1507,
      "ÛĮÚ©Ø³": 1508,
      "ĠÙħÚ©ÙħÙĦ": 1509,
      "ĠØªØŃØ±ÛĮÚ©": 1510,
      "ĠØªØ±ÙĤÛĮ": 1511,
      "ÙĶ": 1512,
      "ĠÚ©Ø±Ø¯ÛĮØ§": 1513,
      "ĠÚ©ÛĮÙĪÙĨÚ©Ûģ": 1514,
      "Ġwho": 1515,
      "ree": 1516,
      "ĠÚ©Ø¨Ú¾ÛĮ": 1517,
      "ities": 1518,
      "Ġro": 1519,
      "ĠØ§ÛģÙĦ": 1520,
      "ØºØ§ÙĨ": 1521,
      "ĠØ¬ÛĮØ³ÛĴ": 1522,
      "ĠØ§Ø¶Ø§Ùģ": 1523,
      "Ø¸ÛĮÙħ": 1524,
      "Ø§Ú©Ú¾": 1525,
      "Ù¹ÙĪ": 1526,
      "ĠØ¹ÙĦ": 1527,
      "ĠØ§ÙħØ±ÛĮÚ©ÛĮ": 1528,
      "ĠÚĨÛĮÙĨ": 1529,
      "te": 1530,
      "ÛĮØ±Ø§ÙĨ": 1531,
      "ĠÛģÙħÛĮÚº": 1532,
      "ings": 1533,
      "ople": 1534,
      "ord": 1535,
      "ĠØ§Ø¸": 1536,
      "ĠØ®ÛĮØ§ÙĦ": 1537,
      "ĠØ¬ÙĪØ§Ø¨": 1538,
      "ØªÙĪÚº": 1539,
      "Ø¨Ú¾": 1540,
      "ÙĪØ±Ûģ": 1541,
      "Ġthese": 1542,
      "ĠÛģÙĦ": 1543,
      "ĠØ®ØªÙħ": 1544,
      "Ġag": 1545,
      "Ġcons": 1546,
      "Ġem": 1547,
      "Ø¨ÙĪ": 1548,
      "ll": 1549,
      "ĠØµÙĪØ¨": 1550,
      "ĠÚ©ÛĮÙĪÚº": 1551,
      "ĠÙħØ®": 1552,
      "Ġover": 1553,
      "ĠY": 1554,
      "ÙħÛĮØ±": 1555,
      "ĠÙħÙĪÙĤØ¹": 1556,
      "Ġwhen": 1557,
      "ĠÚ¯Ø±": 1558,
      "Ø§ÛĮ": 1559,
      "Ġsa": 1560,
      "ĠØ´Ø±": 1561,
      "ÙĦØ²": 1562,
      "ph": 1563,
      "Ġhow": 1564,
      "ĠÙ¹ÛĮÙħ": 1565,
      "lud": 1566,
      "ĠÙ¾Ø³ÙĨØ¯": 1567,
      "ĠÛĮÙĤ": 1568,
      "ĠØªØµ": 1569,
      "Ġam": 1570,
      "ĠÙħØ§ÙĦ": 1571,
      "Ġinto": 1572,
      "Ġlike": 1573,
      "Ġdif": 1574,
      "ĠÚ©Ø§ÙħÛĮ": 1575,
      "cess": 1576,
      "ĠØ¨ÚĳÛĴ": 1577,
      "ĠCh": 1578,
      "ĠØ§Ø¹Ø¸Ùħ": 1579,
      "Ġour": 1580,
      "Ø±ÙĪÚº": 1581,
      "Ġneed": 1582,
      "ĠØªØ¹ÙĦÛĮÙħ": 1583,
      "âĢĻâĢĻ": 1584,
      "ĠØ³Ø§Ø¦": 1585,
      "Ù¹Ø§": 1586,
      "Ø¯ÛĮÙĨ": 1587,
      "Ġ2018": 1588,
      "Ġtr": 1589,
      "Ġeff": 1590,
      "Ġtime": 1591,
      "Ø±ÛĮØ³": 1592,
      "ove": 1593,
      "ĠØ¨ØªØ§ÛĮØ§": 1594,
      "ÛĮÙĨÛģ": 1595,
      "Ġwere": 1596,
      "Ġsuch": 1597,
      "Ġacc": 1598,
      "ĠÚ¾": 1599,
      "ĠÚ©ÛĮÛĴ": 1600,
      "ĠØ¯Ø³Øª": 1601,
      "Ġ12": 1602,
      "Ġuse": 1603,
      "Ġgo": 1604,
      "ĠØ§ÙĨØªØ¸": 1605,
      "ĠÚ©Ø±Ø§ÚĨÛĮ": 1606,
      "Ø¢ÙĨ": 1607,
      "ĠØ¯Ø±ÙħÛĮ": 1608,
      "ÙĪØ²": 1609,
      "ĠØµÙģ": 1610,
      "Ġsome": 1611,
      "we": 1612,
      "ĠØ§ÙģØ³": 1613,
      "ÙĪÚĨ": 1614,
      "ĠØ§ÙĨØµ": 1615,
      "ĠØ¹Ø±": 1616,
      "Ġhealth": 1617,
      "ÙĪÚ©": 1618,
      "ïº": 1619,
      "ĠØ¯ÛĮÚº": 1620,
      "ØŃÚ©": 1621,
      "ates": 1622,
      "ĠÙħÙĨØµÙĪØ¨": 1623,
      "ally": 1624,
      "ĠÚ¯Ø±ÙģØª": 1625,
      "lic": 1626,
      "ĠØ¢ÙĨ": 1627,
      "Ġunder": 1628,
      "ĠÙĤÙĪÙħ": 1629,
      "ĠÙħØ¹ÙĦÙĪÙħ": 1630,
      "Ø§Ø±Ø§": 1631,
      "ons": 1632,
      "ĠØ±ÙĪÙ¾ÛĴ": 1633,
      "erv": 1634,
      "ĠÙħÙħ": 1635,
      "Ġprov": 1636,
      "ÙħØ§ÙĦÚ©": 1637,
      "lect": 1638,
      "ĠØ´Ú©": 1639,
      "ĠÙĪØ§Ù¾": 1640,
      "arn": 1641,
      "ĠØ§Ø¹ÙĦØ§ÙĨ": 1642,
      "ĠØ³ÙĪØ§ÙĦ": 1643,
      "ĠØ¬Ú¯Ûģ": 1644,
      "Ġthan": 1645,
      "ĠØ§ÙĨØªØ®Ø§Ø¨": 1646,
      "ĠÙģØ§Ø±": 1647,
      "ĠÚ©Ø±ÙĪ": 1648,
      "Ø¹Øª": 1649,
      "Ġpeople": 1650,
      "ms": 1651,
      "10": 1652,
      "ian": 1653,
      "ĠÙħØ¶": 1654,
      "stem": 1655,
      "ĠØ§ÙĨØ¯Ø±": 1656,
      "Ġbet": 1657,
      "ĠØ§Ø¸ÛģØ§Ø±": 1658,
      "...": 1659,
      "ĠÙ¾Ø§ÙĨÛĮ": 1660,
      "ating": 1661,
      "Ġbl": 1662,
      "ĠØ®ÙĪØ´": 1663,
      "Ð°": 1664,
      "ĠØ§ÙĦØŃ": 1665,
      "Ġra": 1666,
      "ĠÚĨØ§Ø±": 1667,
      "ĠÙĪØ§ÙĦÙĪÚº": 1668,
      "ĠØ¹ÙħØ±": 1669,
      "ĠÙĦÛĮÚ¯": 1670,
      "ĠÚ©Ø±Ú©ÛĴ": 1671,
      "ÙĦØ§ØŃ": 1672,
      "Ø¬ÙĪ": 1673,
      "à¤": 1674,
      "ĠÙĨØ§": 1675,
      "ĠÙ¾Ø§Ú©Ø³ØªØ§ÙĨÛĮ": 1676,
      "ĠÙĪØ²ÛĮØ±Ø§Ø¹Ø¸Ùħ": 1677,
      "ĠÙ¹Ú¾": 1678,
      "velop": 1679,
      "ØªÛģ": 1680,
      "row": 1681,
      "ĠØ§Ø¹ÙĦÛĮ": 1682,
      "igh": 1683,
      "ØªÙĦ": 1684,
      "ĠØ³ÛĮÙĨ": 1685,
      "Ġact": 1686,
      "Ġcol": 1687,
      "ob": 1688,
      "ĠâĢĿ": 1689,
      "Ø§Ø²ÛĮ": 1690,
      "rit": 1691,
      "les": 1692,
      "ĠØ§Ø³ÙĦØ§ÙħÛĮ": 1693,
      "ĠÙĤØ§Ø¦Ùħ": 1694,
      "Ġ2019": 1695,
      "ĠÙĪØ±": 1696,
      "ĠØŃØ³ÛĮÙĨ": 1697,
      "ĠÙħÙģ": 1698,
      "Ġthere": 1699,
      "ĠØ¢Ùģ": 1700,
      ").": 1701,
      "ĠØ§ÙħØ§Ùħ": 1702,
      "ĠØ¯Ø±ÙħÛĮØ§ÙĨ": 1703,
      "ĠØ§Ø¯Ø§": 1704,
      "tern": 1705,
      "Ġinclud": 1706,
      "ys": 1707,
      "Ø±ÛĮÙĦ": 1708,
      "ĠÙĪØ§ÙĤØ¹": 1709,
      "ĠÙħØ«": 1710,
      "Ġ/": 1711,
      "ĠÙħÙĨØª": 1712,
      "ĠÙħÛĮØ±ÛĮ": 1713,
      "ØªÙĪ": 1714,
      "Ø§ÙĦÙħÛĮ": 1715,
      "ov": 1716,
      "Ø³ÙĨ": 1717,
      "ĠØ¨ÙĨØ§ÙĨÛĴ": 1718,
      "Ġknow": 1719,
      "Ø§ÛĮÚ©": 1720,
      "ĠAn": 1721,
      "19": 1722,
      "ØªÛĮØ§Ø±": 1723,
      "Ġ18": 1724,
      "ĠØ¹Ø¯Ø§ÙĦØª": 1725,
      "ĠÙħÙħØ§ÙĦÚ©": 1726,
      "ĠØ³ÙĨØ¯Ú¾": 1727,
      "ĠÙĤØ³Ùħ": 1728,
      "ĠÙģØ±ÙħØ§ÛĮØ§": 1729,
      "ĠÚĨÛĮØ²": 1730,
      "ĠØ§ÙħØ±ÛĮÚ©Ûģ": 1731,
      "ĠÚ©ÙħÙ¾": 1732,
      "Ø§ØªÛĮÙĨ": 1733,
      "vers": 1734,
      "ØµÛĮ": 1735,
      "ĠÙģØ±ÙĪ": 1736,
      "ĠÙħØ¸": 1737,
      "ĠØ¬Ø§ØªÛĴ": 1738,
      "Ø¬Ùħ": 1739,
      "Ġyear": 1740,
      "ility": 1741,
      "ĠØ§ÛĮØ³ÛĮ": 1742,
      "ĠØªÙĤØ±ÛĮØ¨": 1743,
      "ĠØ¯Ø§Ø®": 1744,
      "ÙĦØ§ÙĪÛģ": 1745,
      "ĠØ§ÙĨØ³Ø§ÙĨ": 1746,
      "ĠØ³ÙħÛĮØª": 1747,
      "'s": 1748,
      "ĠÙħÙĨØ¸": 1749,
      "Ø§ÙĪÙĨ": 1750,
      "int": 1751,
      "ĠÙĪÛģØ§Úº": 1752,
      "ĠÙ¾Ø§Ú©": 1753,
      "ĠÚĨØ§ÛģÛĮÛĴ": 1754,
      "ĠØ®Ø§Øª": 1755,
      "Ø¹ÙĨÛĮ": 1756,
      "ause": 1757,
      "Ġbec": 1758,
      "ĠØ±Ø³ÙĪÙĦ": 1759,
      "ĠÚ©Ø´": 1760,
      "ĠÙĦØ§ÛģÙĪØ±": 1761,
      "ĠØ¯ÛĮØªÛĴ": 1762,
      "ĠØ¯Ú©Ú¾": 1763,
      "ĠÙĨØ¸Ø§Ùħ": 1764,
      "ÙħØ¨ÙĦÛĮ": 1765,
      "ĠÙĨØ³": 1766,
      "ÛĮØ³ÛĮ": 1767,
      "Ú©Ø³": 1768,
      "ĠÛĮÛģÛĮ": 1769,
      "Ġ15": 1770,
      "Ġif": 1771,
      "ĠÚ©Ø§ÙĨ": 1772,
      "ĠØ¨ÚĨÙĪÚº": 1773,
      "Ġind": 1774,
      "yp": 1775,
      "ĠØªÚ¾ÛĮÚº": 1776,
      "ĠÙħØ¯Ø¯": 1777,
      "Ø§Ø³ÙĦØ§Ùħ": 1778,
      "ĠØ§ÙģØºØ§ÙĨ": 1779,
      "Ú¯ÙĪ": 1780,
      "ÙģØ¸": 1781,
      "Ø§Ø¦Ø¹": 1782,
      "ÛĶÛĶÛĶ": 1783,
      "ĠÛģØ²Ø§Ø±": 1784,
      "ĠØªÛĮØ§Ø±": 1785,
      "Ø²Ùħ": 1786,
      "ĠÙĪØ³ÙĦÙħ": 1787,
      "ĠØ³ÛĮØ¯": 1788,
      "ular": 1789,
      "ĠÚĨÙĨØ¯": 1790,
      "rough": 1791,
      "ĠØ³Ø±Ú©": 1792,
      "Ġdes": 1793,
      "ĠØ§Ø±": 1794,
      "Ġrec": 1795,
      "ĠØ±Ù¾ÙĪØ±Ù¹": 1796,
      "ĠØ¹ÙĦØ§ÙĪÛģ": 1797,
      "Ø§ØªØ§": 1798,
      "ĠØ§ÙĦÙħ": 1799,
      "ĠÙĨÛĮÙĪ": 1800,
      "ps": 1801,
      "Ġfe": 1802,
      "ÙĪÙĨØ§": 1803,
      "ĠÚ©Ù¾": 1804,
      "Ġph": 1805,
      "Ġbeen": 1806,
      "ĠÛģÙĪØ¬": 1807,
      "ĠØ³Ûģ": 1808,
      "Ġrel": 1809,
      "ĠØ·Ø±ÛĮ": 1810,
      "ĠØ§Ø³ÙħØ¨ÙĦÛĮ": 1811,
      "ÙħÛĮØ¯": 1812,
      "ĠØ®Ø¯Ø§": 1813,
      "ĠÙħÙĪÙĦ": 1814,
      "Ġany": 1815,
      "ĠÛģÙĨØ¯ÙĪ": 1816,
      "ĠÛĮØ§Ø¯": 1817,
      "ĠØ¢Ø®": 1818,
      "ient": 1819,
      "ĠØ£": 1820,
      "Ġmost": 1821,
      "ĠØ§Ø·": 1822,
      "ĠÙĤÛĮÙħ": 1823,
      "ĠÚ©Ø±Ø¯Ø§Ø±": 1824,
      "here": 1825,
      "ĠØµÙĦÛĮ": 1826,
      "ĠØ§ÙĨØµØ§Ùģ": 1827,
      "ĠØ§Ø«": 1828,
      "ĠØ³Ùģ": 1829,
      "In": 1830,
      "ject": 1831,
      "ÚĳØ§": 1832,
      "Ġprodu": 1833,
      "ful": 1834,
      "Ġwork": 1835,
      "ĠÙĦØ§Ú©Ú¾": 1836,
      "ĠØ±ØŃ": 1837,
      "ĠØ§Ø±Ø¯ÙĪ": 1838,
      "Ġdi": 1839,
      "ĠØŃØµÛģ": 1840,
      "ØªØ§ÙĦ": 1841,
      "Ġpr": 1842,
      "Ø¨Ø§ÙĦ": 1843,
      "ĠØªØ¹Ø¯Ø§Ø¯": 1844,
      "Ø§Ø¨Øª": 1845,
      "aw": 1846,
      "ĠÙĬ": 1847,
      "ĠØ¶Ø±ÙĪØ±ÛĮ": 1848,
      "ĠØ®ØµÙĪ": 1849,
      "ĠÙĦÚ¯Ø§": 1850,
      "Ġ200": 1851,
      "ĠÙģÙĦÙħ": 1852,
      "ĠÚ©Ø±ØªÛĮ": 1853,
      "Ġke": 1854,
      "ĠØ¬ÙĨØ±ÙĦ": 1855,
      "Ġdevelop": 1856,
      "ĠÙĤØ¨ÙĦ": 1857,
      "ĠØ§Ø®ØªÛĮØ§Ø±": 1858,
      "ĠØ³ÙĦØ³": 1859,
      "ics": 1860,
      "xt": 1861,
      "ĠÙģØ¶": 1862,
      "ĠÛģÙħØ§Ø±ÛĮ": 1863,
      "Ø§ÙĦØ¨": 1864,
      "Ø§ÛģÛĴ": 1865,
      "ĠÙ¾ÙĪØ±ÛĮ": 1866,
      "ĠØ±ÛģÙĨÙħ": 1867,
      "ĠØ®ÙĪØ§ØªÛĮÙĨ": 1868,
      "ced": 1869,
      "Ġused": 1870,
      "ĠÚĪØ±": 1871,
      "ond": 1872,
      "âĢıâĢı": 1873,
      "Ġ11": 1874,
      "ÙĨØª": 1875,
      "ĠÙĤØªÙĦ": 1876,
      "ĠØ´ÛģØ±ÛĮ": 1877,
      "ÙģØ§Ø¸": 1878,
      "uring": 1879,
      "Ġhis": 1880,
      "Ġgen": 1881,
      "Ø¯ÛĴ": 1882,
      "ative": 1883,
      "ØªØŃ": 1884,
      "ata": 1885,
      "ĠØ²ÛĮØ±": 1886,
      "ise": 1887,
      "ĠÚ©ÙĪØ±Ù¹": 1888,
      "Ø§Ø¨Ø·": 1889,
      "ne": 1890,
      "Ø§Ø±Ùģ": 1891,
      "Ġ.": 1892,
      "ĠØ¹Ø¨Ø¯Ø§ÙĦ": 1893,
      "ÚĳÚ¾": 1894,
      "Ø¤": 1895,
      "ĠØ¯Ùģ": 1896,
      "ÙĪÛĮØ²": 1897,
      "Ø§Ø¶ØŃ": 1898,
      "ĠØ¨Ú¾Ø§Ø±ØªÛĮ": 1899,
      "ĠØ®Ø±": 1900,
      "ÙĦØ§ÙĤØ§Øª": 1901,
      "ĠØ¨Øª": 1902,
      "Ġ)": 1903,
      "ĠØ¬ÙħØ¹": 1904,
      "ĠÚ©Ø¦ÛĴ": 1905,
      "ĠØ§ÙĦÙĦ": 1906,
      "ÙĨØ¯ÛĮ": 1907,
      "ĠØ§ÙĨØªÛģ": 1908,
      "ĠØ°Ø±ÛĮØ¹ÛĴ": 1909,
      "ÛĮÚ©Ø´ÙĨ": 1910,
      "Ġadd": 1911,
      "ĠÙĤØ§ÙĨÙĪÙĨ": 1912,
      "Ø§Ø¤Úº": 1913,
      "Ġsystem": 1914,
      "ĠØ¨Ø§ÛģØ±": 1915,
      "ĠØ±Ú©Ú¾ÙĨÛĴ": 1916,
      "ĠØ§Ø¬ÙĦØ§Ø³": 1917,
      "ĠØ¹Ø§ÙĦÙħÛĮ": 1918,
      "Ġ14": 1919,
      "Ø³ÛĴ": 1920,
      "ĠØ¢Ø¦ÛĴ": 1921,
      "ational": 1922,
      "ĠØ§Ú¯": 1923,
      "ĠØŃÙĦ": 1924,
      "ÙĪØ§Ø²": 1925,
      "Ø§ÙĨØ¯": 1926,
      "ĠØ³ÙĪÚĨ": 1927,
      "Ø§Ø¬ÛĮ": 1928,
      "ple": 1929,
      "ØµØ¯": 1930,
      "Ġreg": 1931,
      "ĠÚĨÚ¾ÙĪÚĳ": 1932,
      "ures": 1933,
      "ook": 1934,
      "ĠÙĪØ²": 1935,
      "ark": 1936,
      "ÛĮÚ©ÙĦ": 1937,
      "ĠØ§ÙĨØ³Ø§ÙĨÛĮ": 1938,
      "Ġoff": 1939,
      "ĠØ¨ÚĳØ§": 1940,
      "ĠØ³Ø§Ø¨ÙĤ": 1941,
      "irst": 1942,
      "ĠØ®Ø§Øµ": 1943,
      "Ø¬ÛĴ": 1944,
      "ĠØ¹ÙĪØ±Øª": 1945,
      "ĠÙħØ±Ú©": 1946,
      "Ø§ÛģÛĮ": 1947,
      "Ġspec": 1948,
      "ĠØŃÙĤÛĮ": 1949,
      "Ø¬Ø¯": 1950,
      "Ġthrough": 1951,
      "Ġchild": 1952,
      "ĠØ¨ÙĦÙĪÚĨ": 1953,
      "ĠÚ©Ø§ÙĦ": 1954,
      "ĠÙħØ°Ûģ": 1955,
      "ĠØ¨Ø³": 1956,
      "ĠØ³ÙĨÚ¯": 1957,
      "ĠØ³ÛĮØ§Ø³Øª": 1958,
      "ĠÙħÙĦØ§ÙĤØ§Øª": 1959,
      "ĠØ§ØŃØª": 1960,
      "ÚĨÚ¾Ø§": 1961,
      "ĠØ¯ÙĪØ³Ø±ÛĮ": 1962,
      "Ø§Ø¦Ø´": 1963,
      "ĠÙĨÙħØ§Ø²": 1964,
      "uc": 1965,
      "ØµÛĮÙĦ": 1966,
      "Ø±ÛĮØ´ÙĨ": 1967,
      "ract": 1968,
      "Ġdiffe": 1969,
      "chn": 1970,
      "ĠØ¢Ø¦": 1971,
      "ĠÙĦØ§Ø¦ÙĨ": 1972,
      "ĠÛģÙĦØ§Ú©": 1973,
      "Ø´ÙĦ": 1974,
      "ĠÙħØ³ÙĦÙħØ§ÙĨÙĪÚº": 1975,
      "ĠÙĤÛĮ": 1976,
      "ĠÛģÙĪÙĨØ§": 1977,
      "ÚĨÚ¾ÛĴ": 1978,
      "ĠØ§ÙĦØ²": 1979,
      "ten": 1980,
      "Ġ2017": 1981,
      "eth": 1982,
      "Ġrep": 1983,
      "ĠÚ©Ú¾ÛĮÙĦ": 1984,
      "Ø±ÙĪÙģ": 1985,
      "ĠØ¯ÙĪØ³Øª": 1986,
      "Ø¶Ûģ": 1987,
      "ool": 1988,
      "ÙĢ": 1989,
      "ĠØ¨Ø®": 1990,
      "arch": 1991,
      "ĠØ¨ÛĮÙ¹Ú¾": 1992,
      "//": 1993,
      "ĠØ²Ø¨Ø§ÙĨ": 1994,
      "Ġsupp": 1995,
      "erg": 1996,
      "its": 1997,
      "als": 1998,
      "ÙĤÛĮÙĤ": 1999,
      "Ø¯ÛĮØ«": 2000,
      "hed": 2001,
      "Ù¾ÙĪØ±": 2002,
      "ath": 2003,
      "ĠØ§ÙĤØ¯": 2004,
      "ĠÙħØ³Ø¦": 2005,
      "Ø¯Ø§ÙĨ": 2006,
      "Ġac": 2007,
      "ĠÙĨÙģ": 2008,
      "ĠØ¨Ø§Ø¹": 2009,
      "oth": 2010,
      "Ġwhat": 2011,
      "²Û": 2012,
      "ĠØŃØ¯": 2013,
      "ÙĨØ¯Ûģ": 2014,
      "Ġgr": 2015,
      "oss": 2016,
      "ĠÚ¯ÙĦ": 2017,
      "ĠÙħØªØŃ": 2018,
      "ĠØªÙħÛģ": 2019,
      "ĠÚ©ÙĪØ±": 2020,
      "Ġ[": 2021,
      "Ú©Ø§ÙĨ": 2022,
      "ef": 2023,
      "ĠÚ©ÛģØªÛĴ": 2024,
      "·º": 2025,
      "ĠØ§ÚĨ": 2026,
      "ĠØ¨ÛģØªØ±": 2027,
      "Ġ13": 2028,
      "ĠØ§Ø¶Ø§ÙģÛģ": 2029,
      "ĠÙħØ±Ø¯": 2030,
      "tain": 2031,
      "Ġass": 2032,
      "ÙĪØ¬ÙĪØ¯": 2033,
      "Ġinv": 2034,
      "ĠØ±ÛĮØ§Ø³Øª": 2035,
      "ĠØ§ÙĨÚ¯": 2036,
      "ĠÙħØ±Øª": 2037,
      "âĨ": 2038,
      "12": 2039,
      "://": 2040,
      "ower": 2041,
      "Ġnew": 2042,
      "ĠÙĤØ¯Ø±": 2043,
      "ØµÙģ": 2044,
      "ĠÙ¾ÛĮØ±": 2045,
      "Ø§Ø³Ú©": 2046,
      "Ġwell": 2047,
      "ĠÚ¯Ø±ÙĪ": 2048,
      "Ø¹ÙĤ": 2049,
      "Ø§Ú¯Ø±": 2050,
      "Ġimport": 2051,
      "Ð¸": 2052,
      "Ø¯Ø±ÛĮ": 2053,
      "ĠØ°ÙħÛģ": 2054,
      "ĠØ¢ÛĮØ§": 2055,
      "ÙĨØ¯Ø±": 2056,
      "ĠÙħÙĤØ§Ø¨": 2057,
      "ĠÙħØ¹ÛĮ": 2058,
      "Ġexp": 2059,
      "ĠØ§ÙĨÚ¾": 2060,
      "ĠØ§ÛĮÙģ": 2061,
      "ĠØªØŃØª": 2062,
      "Ġmany": 2063,
      "ĠØ¹Ø²": 2064,
      "ĠÚ¯Ø±ÙģØªØ§Ø±": 2065,
      "000": 2066,
      "ĠÙħØ³Ø§Ø¦ÙĦ": 2067,
      "ĠUn": 2068,
      "ÚĪÛĮÙĪ": 2069,
      "ible": 2070,
      "ĠÙĨÙĪØ¬": 2071,
      "ĠÚĨÛĮÙģ": 2072,
      "hat": 2073,
      "Ø§ÙĨÛģÙĪÚº": 2074,
      "ĠÙħØ´Ú©ÙĦ": 2075,
      "ĠØµØŃØª": 2076,
      "old": 2077,
      "Ġinf": 2078,
      "Ø´ÙĨÙĦ": 2079,
      "ĠØ¨Ø§Ø¹Ø«": 2080,
      "ĠØ±Ú©": 2081,
      "ram": 2082,
      "ĠØ¢ÙĨÛĴ": 2083,
      "ĠØ¨ØºÛĮØ±": 2084,
      "Ġ#": 2085,
      "ĠÙħØ´Øª": 2086,
      "ĠÙĨØ¦ÛĴ": 2087,
      "ÙħØŃ": 2088,
      "ĠÚ©Ø±Ø¯ÛĮ": 2089,
      "ĠØ§ÙĦØ³": 2090,
      "ange": 2091,
      "ĠÙģØ±Ø§ÛģÙħ": 2092,
      "Ø§ÙģÛĮ": 2093,
      "ting": 2094,
      "ĠØ¬Ø§Ø±Ûģ": 2095,
      "ased": 2096,
      "rib": 2097,
      "Ú¯Ø±Ø§Ùħ": 2098,
      "ĠØ«Ø§Ø¨Øª": 2099,
      "ĠØ§ÙĨØ¬": 2100,
      "Ø§ÙħÛģ": 2101,
      "Ġdec": 2102,
      "ĠÙĨØ§Ú©": 2103,
      "ĠÙĨØ¦ÛĮ": 2104,
      "Ġmake": 2105,
      "ĠÛĮØ¹ÙĨÛĮ": 2106,
      "Ġonly": 2107,
      "Ġ16": 2108,
      "Ø§ÛĮÛģ": 2109,
      "ĠØ¹Ûģ": 2110,
      "Ø¹ÛĮ": 2111,
      "Ġshould": 2112,
      "own": 2113,
      "ĠØºÙĦØ·": 2114,
      "ĠØ²ÙħÛĮÙĨ": 2115,
      "ĠÙ¾Ø§ÙĦ": 2116,
      "ential": 2117,
      "Ø§ÙĤØª": 2118,
      "Ġtw": 2119,
      "ĠÛģÙĪÚ¯ÛĮ": 2120,
      "ĠÙĪØ§Ù¾Ø³": 2121,
      "ĠØ¨ÙĨÛĮØ§Ø¯": 2122,
      "ĠØ¨Ø±Ø³": 2123,
      "ĠØ¨Ø¹": 2124,
      "ĠØ³Ø·": 2125,
      "ĠØªÙĦ": 2126,
      "cy": 2127,
      "Ġwater": 2128,
      "ĠÛĮÙĪÙĨ": 2129,
      "ĠHe": 2130,
      "ĠØ¹ÙĨ": 2131,
      "ife": 2132,
      "ÙĪØ²ÛĮØ±": 2133,
      "ĠØ§Ø³Ú©": 2134,
      "ĠØ¨Ú¾Ø§Ø¦ÛĮ": 2135,
      "Ġexper": 2136,
      "ĠØªØŃÙĤÛĮÙĤ": 2137,
      "ĠØ¬ÙĦØ¯": 2138,
      "ĠÙ¾Ø§ÙĨÚĨ": 2139,
      "Ġtrans": 2140,
      "ĠØ±Ø§Øª": 2141,
      "ĠØ§ÛĮØ±Ø§ÙĨ": 2142,
      "Ġno": 2143,
      "Ø±Ú©Øª": 2144,
      "ĠØ¨ÙĦØ§": 2145,
      "iss": 2146,
      "ĠØ±Ø§Ûģ": 2147,
      "Ù¹ÛĴ": 2148,
      "Ø«Ø±": 2149,
      "11": 2150,
      "ĠØ³Ø¹ÙĪØ¯ÛĮ": 2151,
      "ĠØ±Ú©Ú¾Ø§": 2152,
      "Ġ'": 2153,
      "aking": 2154,
      "Úĺ": 2155,
      "ÙĤØ±": 2156,
      "mer": 2157,
      "ÙĨØ§Ûģ": 2158,
      "ĠØ¯ÛĮÚ©Ú¾Ø§": 2159,
      "ĠÛĮÙĤÛĮÙĨ": 2160,
      "Ġrem": 2161,
      "ØªÚ¾": 2162,
      "ari": 2163,
      "ï»": 2164,
      "ĠØ§ÙħÙĨ": 2165,
      "ĠÙ¾ÛģÙĦÛĮ": 2166,
      "Ú¯Ø§": 2167,
      "ÙħØ±": 2168,
      "ÛĶÛĶÛĶÛĶ": 2169,
      "ĠØ²Ø®": 2170,
      "Ø®ÙĪØ§Ø³Øª": 2171,
      "ĠØ§ÙħÛĮØ¯": 2172,
      "Ġhigh": 2173,
      "ĠÙħØº": 2174,
      "ĠØ§ÙĨØ¯Ø§Ø²": 2175,
      "Ø§Ø±ÚĪ": 2176,
      "ÙĪÙģ": 2177,
      "ĠØªÛĴ": 2178,
      "ĠÙħØ³ÙĦÙħØ§ÙĨ": 2179,
      "Ġlearn": 2180,
      "Ø¬Ø¨": 2181,
      "ĠØªØ§Ú©Ûģ": 2182,
      "ĠØ®Ø¯": 2183,
      "ĠØ±ÙĨÚ¯": 2184,
      "Ø²Ø§Ø¯ÛĮ": 2185,
      "ĠØ¨ÚĨÛĴ": 2186,
      "Ġ17": 2187,
      "ĠÚ©Ø±Ø±Ûģ": 2188,
      "Ø°Ø§": 2189,
      "ĠÚ©ÙħÛĮÙ¹ÛĮ": 2190,
      "ĠØ®Ø§Ø±": 2191,
      "ĠAs": 2192,
      "ÙĪØ±Ù¹ÛĮ": 2193,
      "ĠÙħØ·Ø§ÙĦ": 2194,
      "Ġsur": 2195,
      "ÙĪØ¨ÛĮ": 2196,
      "ĠØ¹ÙĦØ§ÙĤÛĴ": 2197,
      "ÛĮØ³Ù¹": 2198,
      "Ú©Ø´": 2199,
      "erm": 2200,
      "ĠØ§ÙĤØª": 2201,
      "Ġpo": 2202,
      "Ġwould": 2203,
      "Ġsm": 2204,
      "Ġget": 2205,
      "gan": 2206,
      "ÛĮØ¯Ûģ": 2207,
      "ĠØªØ§ÛģÙħ": 2208,
      "ience": 2209,
      "ĠÙĨØªÛĮ": 2210,
      "ĠNews": 2211,
      "Ġatt": 2212,
      "ĠØ³Ø·ØŃ": 2213,
      "ĠÙĨÚ©ÙĦ": 2214,
      "Ġart": 2215,
      "Ø§Ø¦ÙĨÙ¹": 2216,
      "ĠÙĦÛģ": 2217,
      "ĠØ§Ø¨Ú¾ÛĮ": 2218,
      "ug": 2219,
      "Ġ...": 2220,
      "ĠÚ©Ø§Ø±Ø±ÙĪ": 2221,
      "fter": 2222,
      "Ġfl": 2223,
      "Ø§Ù¹": 2224,
      "Ġsign": 2225,
      "Ġ2016": 2226,
      "Ú¯Ø§Ø±": 2227,
      "ble": 2228,
      "ĠÙĨÙħØ¨Ø±": 2229,
      "ft": 2230,
      "ĠÂ": 2231,
      "ĠÙĤØ±ÛĮØ¨": 2232,
      "ĠÙĤØ±Ø¢ÙĨ": 2233,
      "ÙĪØ´": 2234,
      "Ġpers": 2235,
      "),": 2236,
      "ĠÙħÛĮÙĨ": 2237,
      "Ø§ÙĨÛĮÛģ": 2238,
      "ĠÙħÙĪÙĦØ§ÙĨØ§": 2239,
      "Ø³Ø§ÙĨ": 2240,
      "ĠØ·ÙĦØ¨": 2241,
      "Ġmed": 2242,
      "ĠØŁ": 2243,
      "ĠØ¯Ø¨": 2244,
      "ĠØ¬Ø±Ùħ": 2245,
      "ĠÙħÛģÙħ": 2246,
      "Ġhad": 2247,
      "Ġfirst": 2248,
      "ĠØ§ÙĨØªØ®Ø§Ø¨Ø§Øª": 2249,
      "ÙĨØ²": 2250,
      "ĠØ²Ùħ": 2251,
      "Ġeffect": 2252,
      "Ġtechn": 2253,
      "ural": 2254,
      "ĠÙħØ§": 2255,
      "ĠÚ©ÛģÛĮÚº": 2256,
      "Ġ25": 2257,
      "hes": 2258,
      "ĠØŃØ§ÙĦØ§Øª": 2259,
      "\\\"": 2260,
      "Ġtyp": 2261,
      "ĠÙ¾Ø§Ø¨": 2262,
      "ĠØ¨ÙĨØ§ÛĮØ§": 2263,
      "ĠÙ¾Ø±ÛĮ": 2264,
      "ever": 2265,
      "ĠØ±ÙĤ": 2266,
      "az": 2267,
      "ĠØ¯Ú¾Ùħ": 2268,
      "ĠÙħØ¨": 2269,
      "ĠÙĤØ§Ø¨ÙĦ": 2270,
      "ĠØ±ÙĪÚ©": 2271,
      "Ø±Ø§Ø¦ÛĮ": 2272,
      "Ø§Ø¶ÛĮ": 2273,
      "Ø±ÛĮØ±": 2274,
      "ĠØ¨Ø§Ø²": 2275,
      "Ġco": 2276,
      "ween": 2277,
      "ĠØ³Ø±Ø¨Ø±": 2278,
      "ĠÙħØªØ§Ø«": 2279,
      "ĠØ¡": 2280,
      "ĠØ³Ú©ØªÛĮ": 2281,
      "ĠÙħØ§ÙĨ": 2282,
      "ĠØ§ÙĪÙĦ": 2283,
      "ĠÛĮÙĪÙĨÛĮ": 2284,
      "Ġob": 2285,
      "ĠÙĤÛĮØ§Ùħ": 2286,
      "ØŃØ§ÙĦ": 2287,
      "ĠÚ©ÙĪÙĨ": 2288,
      "ÙĪØµ": 2289,
      "Ġprocess": 2290,
      "ĠÚ©ÙħÙ¾ÙĨÛĮ": 2291,
      "ety": 2292,
      "ĠØ¯Ø±Ø®ÙĪØ§Ø³Øª": 2293,
      "ont": 2294,
      "ĠÙħØŃØ¨Øª": 2295,
      "ick": 2296,
      "ĠØ§Ø®Øª": 2297,
      "ĠØ¨Ø§ÙĪØ¬ÙĪØ¯": 2298,
      "Ø±ÙħÛĮÙĨ": 2299,
      "ade": 2300,
      "Ġdifferent": 2301,
      "ĠÙģÛĮØµØ¯": 2302,
      "ÙħØ³": 2303,
      "ink": 2304,
      "Ø¨ÛĴ": 2305,
      "ØµØ±": 2306,
      "Û±Û": 2307,
      "Ø±ÛĮÛģ": 2308,
      "ants": 2309,
      "ize": 2310,
      "ĠAl": 2311,
      "Ġinst": 2312,
      "rdu": 2313,
      "ĠØ¨Ø¹Ø¶": 2314,
      "Ø¯Ú¾": 2315,
      "oy": 2316,
      "ÛĮØ³Ø±": 2317,
      "ÙģØ±ÙĨØ³": 2318,
      "ÛĮØ³ÛĴ": 2319,
      "Ġinter": 2320,
      "Ġbu": 2321,
      "ĠÛģØ¯Ø§": 2322,
      "ÙĦÙĪÚº": 2323,
      "ily": 2324,
      "ÙĪØ±Ø³Ù¹ÛĮ": 2325,
      "ices": 2326,
      "ives": 2327,
      "ĠÚĨØ§ÛģØªÛĴ": 2328,
      "ĠÐ": 2329,
      "ÛĮÚ©ÛĮ": 2330,
      "ĠØ§ÛĮÙĦ": 2331,
      "ĠÚ¯Ø±Ø¯ÛĮ": 2332,
      "ĠØ®ÙĪØ§Ûģ": 2333,
      "Ù¹ÙĨ": 2334,
      "ØºØ§Ø²": 2335,
      "Ġwhere": 2336,
      "ĠÙĪØ§Ø¶ØŃ": 2337,
      "Ú¯Ø²": 2338,
      "Ġbetween": 2339,
      "ww": 2340,
      "ÙĪÛģØ¯Ø±ÛĮ": 2341,
      "ĠØ¬ÙħÛģ": 2342,
      "ØµØ§ÙĨ": 2343,
      "ĠØ¨ÙĪÙĦ": 2344,
      "ĠØ¦": 2345,
      "Ġimportant": 2346,
      "ĠØ®ÙĪØ¨": 2347,
      "ĠØ§Ø±Ø¨": 2348,
      "rop": 2349,
      "istan": 2350,
      "Ġdata": 2351,
      "ĠÙĨÛĮÙĪØ²": 2352,
      "ĠEn": 2353,
      "ology": 2354,
      "ĠØªØ¹ÙħÛĮØ±": 2355,
      "ĠØ¬ÛĴ": 2356,
      "ĠÙĨØ¹": 2357,
      "arm": 2358,
      "ĠØªÛĮØ²": 2359,
      "Ġfun": 2360,
      "Ġsk": 2361,
      "ution": 2362,
      "Ø¨ØŃ": 2363,
      "stand": 2364,
      "ÙĦØ§Ø¹": 2365,
      "ĠØ§Ø¯Ø§Ø±ÙĪÚº": 2366,
      "get": 2367,
      "Ġmod": 2368,
      "ĠÙħØŃÙģ": 2369,
      "Ġmain": 2370,
      "ÚĨÛĴ": 2371,
      "ĠØ¯Ø§Ø±ÛĮ": 2372,
      "Ú©ÛĮÙĦ": 2373,
      "ĠØŃØ¯ÛĮØ«": 2374,
      "fore": 2375,
      "Ġsub": 2376,
      "ĠÙĪØ§Ø¦Ø±": 2377,
      "ĠÙĪØ§Ø±": 2378,
      "ĠØ´Ø§Ø¯ÛĮ": 2379,
      "iron": 2380,
      "ĠØ´Ø¯ÛĮØ¯": 2381,
      "ĠØ§ÙĦÛĮÚ©Ø´ÙĨ": 2382,
      "Ø±ÛĮØ¯": 2383,
      "ÙħØ§": 2384,
      "ĠÙħÙĦÚ©ÛĮ": 2385,
      "ĠØ³Ø§Øª": 2386,
      "ning": 2387,
      "ÛĮÙĨÚĪ": 2388,
      "Ø£": 2389,
      "ĠÚ¯Ø²Ø´ØªÛģ": 2390,
      "ĠÚ©Ø§Ø±Ø±ÙĪØ§Ø¦ÛĮ": 2391,
      "ÚĨØ±": 2392,
      "ĠØŃÙĤÙĪÙĤ": 2393,
      "ÙĪÙĦØª": 2394,
      "ĠØ¹ÙĦØ§ÙĤÙĪÚº": 2395,
      "vent": 2396,
      "Ġtwo": 2397,
      "Ø§Ø¬Ûģ": 2398,
      "ÙĦØ§Øª": 2399,
      "ÙħÛĮØ´Ûģ": 2400,
      "Ġrequ": 2401,
      "ÛĮØŃ": 2402,
      "ĠØ¬Ø§Ø¦Ø²": 2403,
      "ĠÚ©ÛĮØ³ÛĴ": 2404,
      "ĠØ²Ø®ÙħÛĮ": 2405,
      "ĠØ´Ú©Ø§Ø±": 2406,
      "ĠØ¨Ø§Ø¨": 2407,
      "ĠÙĨÚ©Ø§ÙĦ": 2408,
      "Ġ30": 2409,
      "ines": 2410,
      "ĠÙĪÚĨ": 2411,
      "ĠÙ¾Ø±ÙĪÚ¯Ø±Ø§Ùħ": 2412,
      "Ġ=": 2413,
      "ha": 2414,
      "ĠÙ¾ÛĮØº": 2415,
      "Ġworld": 2416,
      "ĠØ³Ø§": 2417,
      "Ø±ÛĮØ²": 2418,
      "ÙģÛģ": 2419,
      "ĠØµØ¯": 2420,
      "ĠÙĨÙĤØµØ§ÙĨ": 2421,
      "Ù¾ÙĦØ²": 2422,
      "Ġinform": 2423,
      "ĠØ§Ø¯Ø§Ø±ÛĴ": 2424,
      "Ġ,": 2425,
      "Ø²ÛĮØ´ÙĨ": 2426,
      "ĠÙħØ®Ø§ÙĦ": 2427,
      "ĠÙĩ": 2428,
      "ÛģÛĮ": 2429,
      "Ġpres": 2430,
      "Ġyears": 2431,
      "ins": 2432,
      "uch": 2433,
      "Ġrese": 2434,
      "ĠØ±Ø§Ø³Øª": 2435,
      "ĠÚĪÚ¾": 2436,
      "ĠÛĮÙĪÙĨÛĮÙĪØ±Ø³Ù¹ÛĮ": 2437,
      "Ġdet": 2438,
      "Ġincre": 2439,
      "ĠÙģÙĪØ¬ÛĮ": 2440,
      "Ġcar": 2441,
      "Ø§Ø¯Ø±": 2442,
      "18": 2443,
      "ĠØ¬Ø³Ù¹Ø³": 2444,
      "wn": 2445,
      "ĠRe": 2446,
      "Ġexam": 2447,
      "ues": 2448,
      "Ġway": 2449,
      "ĠÙħØ³Ø¦ÙĦÛģ": 2450,
      "ĠÚ©Ø§ÙħÛĮØ§Ø¨": 2451,
      "ĠØ®Ø·Ø§Ø¨": 2452,
      "ĠØ´ÛĮØ®": 2453,
      "ĠØ®ØµÙĪØµÛĮ": 2454,
      "ĠØªÙĨØ¸ÛĮÙħ": 2455,
      "ĠØ³Ø±Ú©Ø§Ø±ÛĮ": 2456,
      "ness": 2457,
      "Ø´Ø§Ûģ": 2458,
      "ĠØ³Ú©ÛĴ": 2459,
      "ĠÛģÙħÛĮØ´Ûģ": 2460,
      "ÙĪØ±ÙĨ": 2461,
      "Ġpol": 2462,
      "ĠÛģÙĨØ¯ÙĪØ³ØªØ§ÙĨ": 2463,
      "tt": 2464,
      "ĠUrdu": 2465,
      "ĠØ¯ÛĮØªØ§": 2466,
      "Ø³ØªÛĮ": 2467,
      "ÙģØªÛģ": 2468,
      "ĠÙħØ§Ø±ÚĨ": 2469,
      "ĠØ¨Ø±Ø·": 2470,
      "ÙĪØ¸": 2471,
      "elf": 2472,
      "eng": 2473,
      "ĠÙ¾ÙĪØ§Ø¦ÙĨÙ¹": 2474,
      "ÚĳÚ©": 2475,
      "ĠÙħÛĮØ±Ø§": 2476,
      "ÙħÛĮØ±ÛĮ": 2477,
      "ĠÙģÙĪÙĨ": 2478,
      "15": 2479,
      "Ġresp": 2480,
      "ĠÚĨØ§ÛģØ¦ÛĴ": 2481,
      "ature": 2482,
      "ĠØ³Ø²": 2483,
      "ĠØ°Ú©Ø±": 2484,
      "ĠØ§ÙĨØªÛģØ§Ø¦ÛĮ": 2485,
      "ĠØµØ¯ÛĮ": 2486,
      "ĠÚ©Ø§ÙģÛĮ": 2487,
      "ĠØŃÙħÙĦÛģ": 2488,
      "Ġcould": 2489,
      "ĠØ§ÙĨØªØ¸Ø§Ùħ": 2490,
      "Ġ2020": 2491,
      "ĠØ´ÙĪ": 2492,
      "Ø¯ÙĪ": 2493,
      "ollow": 2494,
      "ØĽ": 2495,
      "aj": 2496,
      "oci": 2497,
      "ĠÛĮÙĪ": 2498,
      "ĠÙħØ³Ø¬Ø¯": 2499,
      "ĠÛĮÙĪØ±": 2500,
      "Ú©ÛĮÙ¹": 2501,
      "ĠÙĦÛĮÙĨÛĴ": 2502,
      "ĠCom": 2503,
      "ĠØŃØ³ÙĨ": 2504,
      "ds": 2505,
      "ĠØ¨Ø¬Ø§Ø¦ÛĴ": 2506,
      "ĠÙĦÛĮÚº": 2507,
      "Ġcommun": 2508,
      "Ø¨Ø§Ø²": 2509,
      "Ø±Ø¨ÛĮ": 2510,
      "ÙĤÛĮØ¯": 2511,
      "ption": 2512,
      "cer": 2513,
      "ĠØ¯Ø´Ùħ": 2514,
      "ĠØ±Ú©Ú¾ØªÛĴ": 2515,
      "Ġlead": 2516,
      "Ġhum": 2517,
      "Ġeven": 2518,
      "ĠØ§ÙĨÙ¹Ø±": 2519,
      "ĠØ°Ûģ": 2520,
      "ĠÛ±Û": 2521,
      "ĠØªØ³": 2522,
      "ĠØ¹Ø§ÙĦÙħ": 2523,
      "ÛĮØ§Ø¯Øª": 2524,
      "ident": 2525,
      "ĠÙħØªØŃØ¯Ûģ": 2526,
      "Ġbr": 2527,
      "ĠØ³Ø®Øª": 2528,
      "ĠØ§ÙĦØ¹": 2529,
      "ÙĦØ¹": 2530,
      "ÛĮÚ©Ø±": 2531,
      "ÙĪÛĮÚº": 2532,
      "Ø§Ø¯Ûģ": 2533,
      "ied": 2534,
      "ĠÙħÙĬÚº": 2535,
      "Ġsim": 2536,
      "ÙĪØ±ÚĪ": 2537,
      "Ø§Ø²Øª": 2538,
      "ĠÙħÙĤØµØ¯": 2539,
      "ĠÙĦØ§": 2540,
      "ĠØ³ÙģØ±": 2541,
      "ĠÚ©Ø±Ø³Ú©": 2542,
      "Ġï¿½ï¿½ï¿½ï¿½": 2543,
      "ĠØ·Ø§ÙĤØª": 2544,
      "Ġlong": 2545,
      "Ú©Øª": 2546,
      "Ø®Ø±": 2547,
      "ĠØ§ÙģØºØ§ÙĨØ³ØªØ§ÙĨ": 2548,
      "ĠØ¸Ø§ÛģØ±": 2549,
      "Ø§Ø¹ÙĦÛĮ": 2550,
      "Ġed": 2551,
      "ÙĤÛĴ": 2552,
      "ts": 2553,
      "Ø§Ø¯Ø±ÛĮ": 2554,
      "ĠÚĪØ§ÙĦØ±": 2555,
      "ĠÙĪÙĤ": 2556,
      "ĠØ§ÙĨÚĪ": 2557,
      "30": 2558,
      "viron": 2559,
      "Ø±ÛĮØª": 2560,
      "Ġpat": 2561,
      "ĠÚĨÚ©ÛĴ": 2562,
      "Ġjust": 2563,
      "Ø§ÙĨØ³": 2564,
      "ically": 2565,
      "ĠØªÛģ": 2566,
      "Ġdisc": 2567,
      "ĠÙĨØ¨ÛĮ": 2568,
      "ÙħØ¹": 2569,
      "ĠÚ©Ø±Ú©Ù¹": 2570,
      "ØºÛĮØ±Ûģ": 2571,
      "Ġform": 2572,
      "ĠØŃØ±": 2573,
      "ody": 2574,
      "ĠÙħÛĮÚĨ": 2575,
      "Ø§Ú©Ø±": 2576,
      "Ø¢Ù¾": 2577,
      "Ø¦Ø±ÙħÛĮÙĨ": 2578,
      "ĠÚ©Ø±ÙĪÚĳ": 2579,
      "ivid": 2580,
      "ĠÙĤÛĮÙħØª": 2581,
      "Ù¹Ú©": 2582,
      "Ġcre": 2583,
      "ĠØ§ÙĦØ³ÙĦØ§Ùħ": 2584,
      "ĠØ·Ø¨": 2585,
      "ĠØ§Ø¬Ø§Ø²Øª": 2586,
      "Ġsee": 2587,
      "chool": 2588,
      "ited": 2589,
      "ĠØ²Ø§Ø¦Ø¯": 2590,
      "Ø§Ø±Ú©": 2591,
      "ĠÚ©ÛģÛģ": 2592,
      "ĠÚ¯ÙģØª": 2593,
      "Ġins": 2594,
      "ĠØŃÛĮ": 2595,
      "ĠØ¬Ø³Ùħ": 2596,
      "ĠØ¯Ø§": 2597,
      "ĠØŃÙĤÛĮÙĤØª": 2598,
      "ĠÙ¾Ø§Ø±ÙĦÛĮÙħ": 2599,
      "ĠÙħÙħÚ©ÙĨ": 2600,
      "Ġgener": 2601,
      "ality": 2602,
      "ĠØ±Ø§Ø¨Ø·": 2603,
      "Ġevery": 2604,
      "Ġprog": 2605,
      "ÛĶâĢĺâĢĺ": 2606,
      "14": 2607,
      "Ġfood": 2608,
      "ĠÙħÙĦØ§Ø²": 2609,
      "ĠØ¹ÛĮØ¯": 2610,
      "ases": 2611,
      "ĠÙħÙĪØª": 2612,
      "ĠØ§ØŃØªØ¬": 2613,
      "eb": 2614,
      "ĠThey": 2615,
      "akistan": 2616,
      "Ø§ÙģØª": 2617,
      "ized": 2618,
      "Ú¯ÛĴ": 2619,
      "ĠØ±Ø¶ÛĮ": 2620,
      "ĠÚ©ÙĪÙĨØ³": 2621,
      "Ġsec": 2622,
      "Ú¾Ø§": 2623,
      "ØŃØ¶": 2624,
      "ĠØ§ØµÙĦ": 2625,
      "Ġav": 2626,
      "ĠØ¯Ø±Ø¬": 2627,
      "ĠÙħÙĤØ§Ùħ": 2628,
      "ĠÙĤÛĮØ§Ø¯Øª": 2629,
      "ĠØ§Ø¨ÙĨ": 2630,
      "ÙĨÙĪÚº": 2631,
      "ruct": 2632,
      "Th": 2633,
      "ĠÙħØ±ÛĮ": 2634,
      "ĠØ¨ÛģØªØ±ÛĮÙĨ": 2635,
      "ĠØ§ÙĤØ¯Ø§ÙħØ§Øª": 2636,
      "ÙĦØª": 2637,
      "ÛĮÙĨÛĴ": 2638,
      "ĠÙħØµÙĨ": 2639,
      "ale": 2640,
      "Ġher": 2641,
      "ÙĪÛĴ": 2642,
      "ĠØªØ±Ø¬": 2643,
      "ages": 2644,
      "ands": 2645,
      "Ġ24": 2646,
      "ien": 2647,
      "ĠØ³Ø±Ùħ": 2648,
      "ism": 2649,
      "13": 2650,
      "Ġgrow": 2651,
      "ĠÙĪØºÛĮØ±Ûģ": 2652,
      "ĠØ¹ÙĦØ§Ùħ": 2653,
      "Ġnum": 2654,
      "ĠÙĦÚ¯ÛĴ": 2655,
      "ĠØ¯ÛĮÙĨØ§": 2656,
      "Ġche": 2657,
      "Ø¯ÛĮÙĦ": 2658,
      "Ġfact": 2659,
      "ict": 2660,
      "ÙĨÚĪÛĮ": 2661,
      "Ø§ÙĦÛģ": 2662,
      "Ġloc": 2663,
      "50": 2664,
      "ĠØŃÙħÙĦÛĴ": 2665,
      "Ø±ÙĪØ³": 2666,
      "Ø¯ÙħÛĮ": 2667,
      "ÚĨÛģ": 2668,
      "ually": 2669,
      "Ġ2015": 2670,
      "Ø§ÙħØ±ÛĮ": 2671,
      "ĠÛģÙĪÚ¯ÛĮØ§": 2672,
      "Ø²Ø¯": 2673,
      "ĠØ¨ÙĦÙĪÚĨØ³ØªØ§ÙĨ": 2674,
      "urn": 2675,
      "Ø§ÙĤÙĪØ§Ùħ": 2676,
      "ĠØ¬Ø³ÛĴ": 2677,
      "iqu": 2678,
      "Ġstr": 2679,
      "ĠFor": 2680,
      "ĠØ³Ø±Ø¨Ø±Ø§Ûģ": 2681,
      "Ø§ÛĮØ¯": 2682,
      "ĠÚ©Ú¾ÙĦØ§": 2683,
      "ĠØ¬ÙĪÙĨ": 2684,
      "led": 2685,
      "Ġlife": 2686,
      "ĠØ¨Ø§Ø¯": 2687,
      "dition": 2688,
      "Ø¬Ø³": 2689,
      "Ø±Ø³": 2690,
      "Ġext": 2691,
      "Ġperson": 2692,
      "ĠØ§Ø³Ù¹ÛĮ": 2693,
      "ros": 2694,
      "ØµÙĪÛĮØ±": 2695,
      "ĠØ³ÙĦØ§Ùħ": 2696,
      "ists": 2697,
      "16": 2698,
      "ĠØ´Ø¯Ûģ": 2699,
      "Ġbecause": 2700,
      "other": 2701,
      "Ġredu": 2702,
      "ĠØŃØ¬": 2703,
      "ĠÚ¯ÙģØªÚ¯ÙĪ": 2704,
      "Ġdep": 2705,
      "ection": 2706,
      "ĠÙĤØ¨ÙĪÙĦ": 2707,
      "ĠØ¯Ùħ": 2708,
      "ĠØ´Ø±Ú©Øª": 2709,
      "Ġresult": 2710,
      "ĠÙħÙĨÛģ": 2711,
      "ĠØ®Ø§Ø±Ø¬Ûģ": 2712,
      "ĠØ¨ÛĮØ±": 2713,
      "Ø«ÛĮØª": 2714,
      "Ø³ÙĪØ³": 2715,
      "ck": 2716,
      "ĠØ±Ø¨": 2717,
      "Ú©ÛĮØ§": 2718,
      "line": 2719,
      "ĠÙĪØ§Ø¦Ø±Ø³": 2720,
      "ĠØ³Ø§Ø²": 2721,
      "Ġsol": 2722,
      "ÙĪÛĮÙĦ": 2723,
      "Ġmon": 2724,
      "ĠÙģØ§Ø¦": 2725,
      "ĠØ¯ÙĪØ¨": 2726,
      "ĠÚĨÙĪÛģØ¯Ø±ÛĮ": 2727,
      "ĠØ§ÙĤØ¨Ø§ÙĦ": 2728,
      "ĠØ§Ø³Ø±Ø§Ø¦ÛĮ": 2729,
      "ĠØ¬Ø§Ø³Ú©": 2730,
      "Ø¶ÛĮ": 2731,
      "ÙĦÚ©": 2732,
      "ĠØªÙĦØ§Ø´": 2733,
      "ash": 2734,
      "--": 2735,
      "Ø§ÙĦÙĦÛģ": 2736,
      "ĠÚĨÚ¾ÙĪÙ¹": 2737,
      "Ø§Ø¯Øª": 2738,
      "Ù¹ÙĦ": 2739,
      "Ø¯ÙħØ§Øª": 2740,
      "ĠÛģÙĪØ³Ú©": 2741,
      "Ø³ÛĮÙħ": 2742,
      "ĠØ¨Ú¾ÛĮØ¬": 2743,
      "ÙħÙ¾": 2744,
      "ĠÙ¾ÛĮÙ¾ÙĦØ²": 2745,
      "ĠØ¨ÛĮÙħ": 2746,
      "ĠØ¯Ø§ÙĨ": 2747,
      "ĠÚ©Ø±ÙĦ": 2748,
      "ĠÙĨØµ": 2749,
      "ergy": 2750,
      "ĠÚĨÚ©Ø§": 2751,
      "ĠØ¢Ú¯ÛĴ": 2752,
      "Ú¯Ø§Ûģ": 2753,
      "Ø¹ÙĦÛĮ": 2754,
      "ĠØ¢Ø²Ø§Ø¯": 2755,
      "Ù¹Ø±ÙĪÙĦ": 2756,
      "any": 2757,
      "Ù¹Ø±ÙĪ": 2758,
      "ĠØ¨Ø¯ÙĦ": 2759,
      "ĠØªØ¨Ø¯ÛĮÙĦ": 2760,
      "Ġprovid": 2761,
      "ĠÛģÙĪÚ¯Ø¦ÛĴ": 2762,
      "ĠÙĪØ·": 2763,
      "ĠØ³Ù¾Ø±ÛĮÙħ": 2764,
      "Ġtreat": 2765,
      "ÙĨØ§Ú©": 2766,
      "ĠPro": 2767,
      "Ø§Ø¦Ø¨": 2768,
      "vironment": 2769,
      "Ġ22": 2770,
      "cial": 2771,
      "Ġthose": 2772,
      "ĠÙħØ¹Ø§Ûģ": 2773,
      "Ġset": 2774,
      "Ġvery": 2775,
      "ĠÚ©ÙħÛĮØ´ÙĨ": 2776,
      "17": 2777,
      "ĠÙħÙĦØ§": 2778,
      "ĠÙ¾ÙĪØ±ÛĴ": 2779,
      "ĠØ§ØªØŃ": 2780,
      "ĠÙĦÚ©Ú¾Ø§": 2781,
      "Ġcount": 2782,
      "ĠØ¨ÙĨÛĮØ§Ø¯ÛĮ": 2783,
      "Ġprot": 2784,
      "Ø¯ÛĮÙĦÛĮ": 2785,
      "ĠØ¢Ø¨": 2786,
      "ĠÙĥÛĴ": 2787,
      "Ø´Ø±": 2788,
      "ĠÙħÙĦÛĮ": 2789,
      "Ġafter": 2790,
      "ĠØ¬ÙĨÛģ": 2791,
      "ĠÛģØ¯Ø§ÛĮØª": 2792,
      "Ø¯Ø¯": 2793,
      "Ġlevel": 2794,
      "Ġthen": 2795,
      "Ġent": 2796,
      "Ġsupport": 2797,
      "Ġmin": 2798,
      "Ġfound": 2799,
      "ĠØ®Ø§ÙĨØ¯Ø§ÙĨ": 2800,
      "Ġoften": 2801,
      "ĠÙħØŃÚ©": 2802,
      "ÙĨÚ©": 2803,
      "ĠÚ©Ø±Ù¾": 2804,
      "ee": 2805,
      "Ġinformation": 2806,
      "Ġris": 2807,
      "Ġunderstand": 2808,
      "Ġlar": 2809,
      "Ø¯Øª": 2810,
      "imes": 2811,
      "ĠØ±ÛģÛĮÚº": 2812,
      "ĠÚ©Ø§ÙĨÙģØ±ÙĨØ³": 2813,
      ".âĢĿ": 2814,
      "Ø§ØŃØª": 2815,
      "hip": 2816,
      "Ġpartic": 2817,
      "Ġaut": 2818,
      "Ġduring": 2819,
      "ĠHow": 2820,
      "Ø³ØªÛģ": 2821,
      "Ø§ÙĪÙĦ": 2822,
      "ĠØ¬Ø°": 2823,
      "ÙħÙĪØ¯": 2824,
      "ere": 2825,
      "Ġear": 2826,
      "ĠÙĤØ·": 2827,
      "Ġusing": 2828,
      "ĠAr": 2829,
      "ĠØ¯Ø³": 2830,
      "ĠÙĤØ±Ø¨": 2831,
      "ĠÙĪÛģÛĮ": 2832,
      "Ġpub": 2833,
      "ĠØªÙĪØ¬Ûģ": 2834,
      "ĠØ¯ÙĪØ¨Ø§Ø±Ûģ": 2835,
      "âĢĮ": 2836,
      "ĠÛĮÚ©": 2837,
      "ĠÙĨÙĪØ¬ÙĪØ§ÙĨ": 2838,
      "ĠÙģÙĦØ³": 2839,
      "ĠØ§ÙĦÙģØ§Ø¸": 2840,
      "Ø³ÙħØ¨Ø±": 2841,
      "0000": 2842,
      "ĠØ±ÙĤÙħ": 2843,
      "ĠØ¹ÙĨÛģ": 2844,
      "Ø³Ø±": 2845,
      "ĠØ¯ÙĪØ±Ûģ": 2846,
      "ĠØ¯Ø±ÛĮ": 2847,
      "Ú¯ÙĦ": 2848,
      "Ġexpl": 2849,
      "Ø®Ø¨": 2850,
      "ĠÙģÛĮØµÙĦÛĴ": 2851,
      "ward": 2852,
      "ork": 2853,
      "ĠØ¶Ø±ÙĪØ±": 2854,
      "Ġpa": 2855,
      "ĠØ¨ÙĪ": 2856,
      "ĠÙħØŃÙģÙĪØ¸": 2857,
      "ĠØ¨Ú©": 2858,
      "ĠØ±ÛģÙĨÛĴ": 2859,
      "Ġcent": 2860,
      "ĠØŃØ§ÙĦØª": 2861,
      "ĠØ±Ø§Ø¦ÛĴ": 2862,
      "Ġbeing": 2863,
      "Ġgood": 2864,
      "Ġread": 2865,
      "ĠÛģØ³Ù¾": 2866,
      "ĠØ§ÙĦØ²Ø§Ùħ": 2867,
      "Ú©Úĳ": 2868,
      "ĠØ¨Ø¬ÙĦÛĮ": 2869,
      "ĠØ±Ø´": 2870,
      "ĠØ¬Ø§ÙĨØ§": 2871,
      "ĠØ³ÙĦØ³ÙĦÛģ": 2872,
      "Ø¢ÙħØ¯": 2873,
      "ĠØ®Ø§ØªÙĪÙĨ": 2874,
      "ĠØªØ¨Ø¯ÛĮÙĦÛĮ": 2875,
      "22": 2876,
      "ĠØ¬Ø§Ùħ": 2877,
      "ull": 2878,
      "Ġeach": 2879,
      "Ø±Ø¯Ø§Ø±ÛĮ": 2880,
      "ĠØ¹ÙĪØ§ÙħÛĮ": 2881,
      "ĠÙģÙĪØ±": 2882,
      "ÙĬÙĨ": 2883,
      "ĠÚ©ÙĪÙĨØ³ÙĦ": 2884,
      "ĠÙħÛĮÙĦ": 2885,
      "ĠIf": 2886,
      "ĠØ¹ÙĦØ§Ø¬": 2887,
      "Ġwhile": 2888,
      "ĠØªÙģØµÛĮÙĦ": 2889,
      "Ġgl": 2890,
      "ĠÚ©Ø±Ø¯Ûģ": 2891,
      "ividual": 2892,
      "Ø±Ø§ÙĨØ³": 2893,
      "ĠØ´Ø§Ø¹": 2894,
      "ĠÚ©Ø§ÙħÛĮØ§Ø¨ÛĮ": 2895,
      "Ġdesign": 2896,
      "Ġown": 2897,
      "Ø¨ÙĪØª": 2898,
      "ĠØ³Øª": 2899,
      "Ġchildren": 2900,
      "ÙĦØ³ÙĦ": 2901,
      "ØŃÚ©ÙĪÙħØª": 2902,
      "ĠØ¯Ø§Ø®ÙĦ": 2903,
      "ĠÙ¹ÙĪ": 2904,
      "ĠÙĪÙģØ§ÙĤÛĮ": 2905,
      "ock": 2906,
      "ÙĦÛĮÙĦ": 2907,
      "ital": 2908,
      "Ġval": 2909,
      "ĠØ¨Ø±Ø§Ø¦ÛĴ": 2910,
      "ÙĨÙĪ": 2911,
      "Ø§Ø¤ÙĨ": 2912,
      "Ġcomple": 2913,
      "ĠØ´ÛģÛĮØ¯": 2914,
      "Ġright": 2915,
      "ĠÛģØ§Ø¦ÛĮ": 2916,
      "Ġfam": 2917,
      "âĢĶ": 2918,
      "Ø§ÛģÙħÛĮ": 2919,
      "ved": 2920,
      "ĠØ¹Ø·": 2921,
      "ĠØªØ¹ÙĦÙĤØ§Øª": 2922,
      "vi": 2923,
      "ĠØ±ÙĪØ´": 2924,
      "ĠÚĨÛĮØ¦Ø±ÙħÛĮÙĨ": 2925,
      "ĠÙħÙĪØ¬ÙĪØ¯Ûģ": 2926,
      "Ġï·º": 2927,
      "Ġfind": 2928,
      "ĠÙħØ§Úº": 2929,
      "ĠÙ¾ÙĪØ±Ø§": 2930,
      "Ð½": 2931,
      "ĠØµØŃÛĮØŃ": 2932,
      "ax": 2933,
      "ĠÙħØ±ØªØ¨Ûģ": 2934,
      "ĠÙĨÙĪÙ¹": 2935,
      "han": 2936,
      "ĠÙħØ¸Ø§Ûģ": 2937,
      "ĠÙħÙĤØ¯": 2938,
      "ĠÙģØ±ÙĪØ®Øª": 2939,
      "ĠÚĨÚ©ÛĮ": 2940,
      "ĠØªÙĤØ³ÛĮÙħ": 2941,
      "Ġstudents": 2942,
      "ĠØ®Ø±ÛĮØ¯": 2943,
      "ĠØ¨Ø§ÙĤÛĮ": 2944,
      "ĠØªØµÙĪÛĮØ±": 2945,
      "Ġtake": 2946,
      "Ø®ÙĦØ§Ùģ": 2947,
      "ĠØ¢ÙĪØ§Ø²": 2948,
      "ĠØ±ÛģÙĨÙħØ§": 2949,
      "ĠØ¨Ø²": 2950,
      "ĠØ¢ÙĨÚ©Ú¾": 2951,
      "ivers": 2952,
      "ĠØ¹Ø¸ÛĮÙħ": 2953,
      "ØŃØ¶Ø±Øª": 2954,
      "ĠØ§Ø³Ù¾": 2955,
      "ĠØ¢Ø®Ø±ÛĮ": 2956,
      "day": 2957,
      "ĠØµÙĪØ±ØªØŃØ§ÙĦ": 2958,
      "ĠØµÙĪØ¨Ø§Ø¦ÛĮ": 2959,
      "ØµÛģ": 2960,
      "ĠÙħØŃØ³ÙĪØ³": 2961,
      "Ø§Ø´Øª": 2962,
      "ĠØ±ÛĮÚ©": 2963,
      "ĠØ¢ØºØ§Ø²": 2964,
      "ĠØ§ÙĦØ±ØŃ": 2965,
      "Ġproble": 2966,
      "rain": 2967,
      "ĠØªØŃÙģØ¸": 2968,
      "ĠØ§Ø³Ù¹": 2969,
      "ĠØ§ÛĮÙħØ§ÙĨ": 2970,
      "Ġback": 2971,
      "ĠØ³Ù¹ÛĮ": 2972,
      "Ġ23": 2973,
      "Ø³ÙĪ": 2974,
      "ĠInd": 2975,
      "ĠØ±ÙĪØ§ÛĮØª": 2976,
      "Ġref": 2977,
      "ĠÙ¹Ø±Ùħ": 2978,
      "ocial": 2979,
      "Ġcur": 2980,
      "ĠÙħØ°ÛģØ¨ÛĮ": 2981,
      "ĠÙħØ¨Ø§Ø±": 2982,
      "Ø§Ø¨Ø±": 2983,
      "ÙĦØ§ÛģÙĪØ±": 2984,
      "Ġvis": 2985,
      "ï¿½ï¿½ï¿½": 2986,
      "ĠÚĨÙĨ": 2987,
      "Ø¶ÙĪØ¹": 2988,
      "Ġcall": 2989,
      "ĠSh": 2990,
      "Ø±Ø§Ø¦Ø¹": 2991,
      "Ġserv": 2992,
      "ĠÙ¾ÛĮÚĨÚ¾ÛĴ": 2993,
      "eg": 2994,
      "Ġfollow": 2995,
      "Ġallow": 2996,
      "ÙĪÙĦØ§Ø¦ÛĮ": 2997,
      "Ġcare": 2998,
      "ĠÙħÛĮØ§Úº": 2999,
      "ĠØ®ÙĪÙģ": 3000,
      "ĠÛģØ§Úº": 3001,
      "ĠØ±ÙĪØŃ": 3002,
      "Ġbody": 3003,
      "con": 3004,
      "ĠÙĦÚĳÚ©ÛĮ": 3005,
      "ĠØªÛĮØ³": 3006,
      "Ġgreat": 3007,
      "Ġsaid": 3008,
      "ĠÙħØ«Ø§ÙĦ": 3009,
      "ĠÚ¯Ø¦ÛĮÚº": 3010,
      "Ġindividual": 3011,
      "ØªØ§ÙĨ": 3012,
      "Ġmy": 3013,
      "Ġdist": 3014,
      "ĠØ·Ø§ÙĦ": 3015,
      "ĠÙĦØ¨": 3016,
      "ĠÚ¯Ú¾ÙĨÙ¹": 3017,
      "ÙĪØ¯Ú¾": 3018,
      "ÚĳÛĮÙĪÚº": 3019,
      "ÛģÙĪØ±": 3020,
      "ĠÙħØ¹Ø§ÙħÙĦÛĴ": 3021,
      "ĠÙħØ·Ø§ÙĦØ¨Ûģ": 3022,
      "Ġimpro": 3023,
      "Ù¹Ø±Ø²": 3024,
      "ĠØ´Ø§ÛĮØ¯": 3025,
      "ĠØ§Ø®Ø¨Ø§Ø±": 3026,
      "ÙĪÙħØ¨Ø±": 3027,
      "Ø¨ÛĮØ±": 3028,
      "Ø´Ø±ÛĮÙģ": 3029,
      "ÑĢ": 3030,
      "Ġpot": 3031,
      "ÙħØ§Ø±": 3032,
      "Ġadv": 3033,
      "ĠÙħÙĨØµÙĪØ¨Ûģ": 3034,
      "ĠÚ©Ø±ÛĮÙħ": 3035,
      "ĠØ¯ÙĨÙĪÚº": 3036,
      "Ø¬Ø±": 3037,
      "ĠØ®Ø§Ùħ": 3038,
      "read": 3039,
      "ĠÙħØ¹Ø§ÙħÙĦÛģ": 3040,
      "Ùį": 3041,
      "ves": 3042,
      "ĠØ¢Ø²Ø§Ø¯ÛĮ": 3043,
      "pr": 3044,
      "Ġmuch": 3045,
      "ĠÙĪØ§ÙĤØ¹Ûģ": 3046,
      "Ø§ØµØ±": 3047,
      "ĠØ§Ø·ÙĦØ§Ø¹": 3048,
      "ĠThese": 3049,
      "Ġtest": 3050,
      "ĠØŃÚ©ÙħØ±Ø§ÙĨ": 3051,
      "ather": 3052,
      "ĠØ§ÚĨÚ¾ÛĮ": 3053,
      "Ġpm": 3054,
      "Ø´Ø§ÙĪØ±": 3055,
      "ĠÛģØ³Ù¾ØªØ§ÙĦ": 3056,
      "Ġdoes": 3057,
      "ĠØ®ÙĪÙĨ": 3058,
      "co": 3059,
      "ĠØªÙĤØ±ÛĮØ¨Ø§": 3060,
      "Ø§ÙĤÙĪØ§ÙħÛĮ": 3061,
      "Ġpower": 3062,
      "iness": 3063,
      "ĠÚ¯Ø²Ø±": 3064,
      "ĠÙħØŃÙħÙĪØ¯": 3065,
      "Ġ21": 3066,
      "Ø§Ø¦ÛĮÚ©": 3067,
      "ØªÙħØ§Ùħ": 3068,
      "ĠØ³Ù¹": 3069,
      "els": 3070,
      "ĠÙ¹Ø±ÙħÙ¾": 3071,
      "ĠØ¬ÙħÛģÙĪØ±": 3072,
      "ĠÚĨÙĦØ§": 3073,
      "Ġboth": 3074,
      "ĠØ´ÛģØ¨Ø§Ø²": 3075,
      "ĠÙĪÛĮØ¨": 3076,
      "ĠØŃØ§Ùħ": 3077,
      "ĠÙĪÛĮÚĪÛĮÙĪ": 3078,
      "ĠØŃÚ©Ø§Ùħ": 3079,
      "Ġcle": 3080,
      "ĠØ¨Ú¾Ù¹ÙĪ": 3081,
      "ĠØ³Ø²Ø§": 3082,
      "Ø§Ø¯Ø«": 3083,
      "ĠØ¨ÛĮÙĨÚ©": 3084,
      "ĠØ¬ÛĮÙĦ": 3085,
      "ĠIs": 3086,
      "Ø®ØªÙĪÙĨ": 3087,
      "ok": 3088,
      "ĠØ®Ø¨Ø±ÛĮÚº": 3089,
      "ÙĤØ§Øª": 3090,
      "Ġcor": 3091,
      "ĠÛ²Û": 3092,
      "Ġorgan": 3093,
      "ĠØŃÛĮØ«ÛĮØª": 3094,
      "ĠØ§ÙĦØ§ÙĤÙĪØ§ÙħÛĮ": 3095,
      "ĠÙģØ±ÛĮ": 3096,
      "ĠYou": 3097,
      "Ø§ÙĦØª": 3098,
      "ĠØ³Ø±Ø¯": 3099,
      "ĠØ¬Ø¯ÛĮØ¯": 3100,
      "ĠÙħØ¦ÛĮ": 3101,
      "ex": 3102,
      "ets": 3103,
      "ĠØ§ÙĦÚ¯": 3104,
      "Ø¨ÙĪØ·": 3105,
      "ĠÚ©Ø§Ø±ÙĪØ¨": 3106,
      "cept": 3107,
      "Ġactiv": 3108,
      "Ġben": 3109,
      "Ø¹Ùħ": 3110,
      "Û³": 3111,
      "Ú©Ø±Ø§ÚĨÛĮ": 3112,
      "Ġpract": 3113,
      "ĠØ§Ø¨ÙĪ": 3114,
      "ute": 3115,
      "rol": 3116,
      "Û°": 3117,
      "Ð¾": 3118,
      "ĠØµÙĦØ§ØŃ": 3119,
      "ĠØ¨ÙĪØ±ÚĪ": 3120,
      "Ġenvironment": 3121,
      "ĠÙĨÙħØ§Ø¦": 3122,
      "ĠÙ¾ÙĦ": 3123,
      "ĠÙħØ±ØŃ": 3124,
      "ĠØ´ÙħØ§Ø±": 3125,
      "ĠØ§Ø¯Ø§Ú©": 3126,
      "cing": 3127,
      "ĠØªØ¹Ø§ÙĪÙĨ": 3128,
      "ĠÙĪØ·ÙĨ": 3129,
      "meric": 3130,
      "Ġplay": 3131,
      "ĠØ¹ÙħÙĦÛĮ": 3132,
      "Ø§ÙĨÚ©": 3133,
      "ving": 3134,
      "Ú©Ø±Ø¯": 3135,
      "ĠØ¯ÙģØ§Ø¹": 3136,
      "ĠÙħØ§ÙĦÛĮ": 3137,
      "Ġvi": 3138,
      "ĠÙ¹ÛĮÚ©Ø³": 3139,
      "Ġbefore": 3140,
      "ĠâĢĺâĢĺ": 3141,
      "....": 3142,
      "ĠÙĪØ²Ø§Ø±Øª": 3143,
      "ĠØ¬Ø±": 3144,
      "ĠØ§ÛĮÚĪ": 3145,
      "vern": 3146,
      "ĠÛģÙĪÚ¯Ø¦ÛĮ": 3147,
      "ĠØ³ÛĮÙĦ": 3148,
      "ĠÚ¯Ø±ÙĪÙ¾": 3149,
      "Ġdown": 3150,
      "ional": 3151,
      "gg": 3152,
      "ĠØŃÙħØ§ÛĮØª": 3153,
      "imate": 3154,
      "Ġshe": 3155,
      "Ù¹Ûģ": 3156,
      "Ġelect": 3157,
      "ÙĪØ¬ÛĮ": 3158,
      "oms": 3159,
      "ÙħÙĪÙĦ": 3160,
      "ĠØ³Ø±ÙħØ§ÛĮÛģ": 3161,
      "uss": 3162,
      "Ġpop": 3163,
      "ĠÙĪØ§ÙĤØ¹Ø§Øª": 3164,
      "ĠÛĮÙĪÚº": 3165,
      "Ġincluding": 3166,
      "ØªÙĪØ¨Ø±": 3167,
      "ĠØ°Ø±ÛĮØ¹Ûģ": 3168,
      "ĠÙħÙĤØ§Ø¨ÙĦÛĴ": 3169,
      "25": 3170,
      "ĠØ¯ÛĮÚ©Ú¾ÙĨÛĴ": 3171,
      "ĠÛģÙħØ§Ø±Ø§": 3172,
      "Ø®ÛĮ": 3173,
      "Ø±Ø§Ûģ": 3174,
      "ected": 3175,
      "ider": 3176,
      "ĠØ²ÙĪØ±": 3177,
      "Ġ!": 3178,
      "Ġmus": 3179,
      "ÙĬØ§": 3180,
      "ĠâĢ¦": 3181,
      "Ø§ÙĨÙĪÛĮ": 3182,
      "ĠÙĪÙĪÙ¹": 3183,
      "ted": 3184,
      "Ø§ÙĨØª": 3185,
      "ĠÙħÙĪØ¯ÛĮ": 3186,
      "akes": 3187,
      "ĠØ·Ø±ÛĮÙĤÛģ": 3188,
      "23": 3189,
      "ĠÙĤØ§ÙĨÙĪÙĨÛĮ": 3190,
      "Ġmade": 3191,
      "ĠÙħØ±Ú©Ø²ÛĮ": 3192,
      "Ġcommon": 3193,
      "ĠPM": 3194,
      "ĠÙħÙĦÛĴ": 3195,
      "Ġstart": 3196,
      "Ġgu": 3197,
      "Ġdise": 3198,
      "ental": 3199,
      "ĠÙĤØ§Ø¦Ø¯": 3200,
      "ai": 3201,
      "Ø¬ÙĨØ³ÛĮ": 3202,
      "ĠÙħØ§ØŃ": 3203,
      "ĠÙħÛĮØ¯": 3204,
      "Ù¹ÙĨÚ¯": 3205,
      "ĠØ±ÛģØªÛĴ": 3206,
      "ĠØ¥": 3207,
      "Ġfin": 3208,
      "24": 3209,
      "ĠWe": 3210,
      "ĠØ±ÙĪØ´ÙĨÛĮ": 3211,
      "tle": 3212,
      "ty": 3213,
      "Ġdr": 3214,
      "ĠAnd": 3215,
      "ĠÙģØ§Ø¦Ø¯Ûģ": 3216,
      "ĠÚ©Ø§Ø±ÛĮ": 3217,
      "Ġend": 3218,
      "ĠØªØ§": 3219,
      "icle": 3220,
      "ÙĪØ¬Ûģ": 3221,
      "ability": 3222,
      "ĠÙ¾ÛĮØºØ§Ùħ": 3223,
      "ĠÚĨØ§ÛģØªØ§": 3224,
      "Ġaff": 3225,
      "Ġstudy": 3226,
      "ÙħØ²": 3227,
      "Ġhist": 3228,
      "Ġresearch": 3229,
      "ĠÙ¾Ø§Ø¨ÙĨØ¯ÛĮ": 3230,
      "Ġhtt": 3231,
      "ĠÙ¾ÚĳÛĴ": 3232,
      "ĠÙħØ¶Ø¨ÙĪØ·": 3233,
      "Ġ&": 3234,
      "Ġsmall": 3235,
      "ĠØŃÙĦÙĤ": 3236,
      "ÚĪÙĦ": 3237,
      "Ġdef": 3238,
      "ĠØ¯Ø±Ø³Øª": 3239,
      "itions": 3240,
      "ÙĪÙ¹ÛĮ": 3241,
      "ĠØ±Ø¬": 3242,
      "ĠÙĪØ¶": 3243,
      "ĠÙħØ¹Ø§Ø´Ø±ÛĴ": 3244,
      "ĠÙģØ§Ø¦Ø±": 3245,
      "ÙĪØ«": 3246,
      "ĠÙģÙĪØ±Ø³": 3247,
      "Ġenergy": 3248,
      "ĠØ³ÙĪØ´ÙĦ": 3249,
      "ĠÙ¹ÛĮØ³Ù¹": 3250,
      "ĠÙħÙĤØ§ÙħÛĮ": 3251,
      "Ø³ÛĮØ¹": 3252,
      "iving": 3253,
      "Ø§ÙĨÚĪ": 3254,
      "iel": 3255,
      "Ø«Ø§Ø±": 3256,
      "06": 3257,
      "Ø§Ø±Ù¹ÛĮ": 3258,
      "ÙĤØ¨ÙĦ": 3259,
      "ĠØªØ§Ø²Ûģ": 3260,
      "ĠØ§ÙħØ±ÛĮÚ©Ø§": 3261,
      "itive": 3262,
      "ĠØ§ÙħÛĮØ±": 3263,
      "ya": 3264,
      "Ù¹ÙĨÛĴ": 3265,
      "ĠÙħÙĪØ¶ÙĪØ¹": 3266,
      "Ġday": 3267,
      "Ġsame": 3268,
      "Ġaround": 3269,
      "ĠØ§ÙĨÚ¾ÙĪÚº": 3270,
      "str": 3271,
      "cl": 3272,
      "ĠØ§ØŃØªØ¬Ø§Ø¬": 3273,
      "ĠØ¬ÙĨÙĪØ±ÛĮ": 3274,
      "ĠÙĤØ¯": 3275,
      "ĠÙĤÙĪØª": 3276,
      "ĠÙħØ¹ÙĦÙĪÙħØ§Øª": 3277,
      "ĠØ§ÙĦÙĨ": 3278,
      "Ġposs": 3279,
      "ĠØ§ÙĦØ¯ÛĮÙĨ": 3280,
      "Ú¾ÛĴ": 3281,
      "Ø³Ø§Ø³": 3282,
      "Ġprof": 3283,
      "ĠØ±ÙĪØ²Ûģ": 3284,
      "ÛĮØ±Øª": 3285,
      "ars": 3286,
      "ĠØ§ÛĮÚĨ": 3287,
      "aterial": 3288,
      "ĠÚ©Ø§Ø±Ú©ÙĨ": 3289,
      "Ġschool": 3290,
      "ĠÙ¾ÛģÙĦØ§": 3291,
      "ĠÙħÙĨØ§": 3292,
      "Ø¨Ø§Øª": 3293,
      "ĠØºÙĦØ§Ùħ": 3294,
      "Ġiss": 3295,
      "ĠÙħØ±ÛĮØ¶": 3296,
      "ished": 3297,
      "ĠÙĪØ±Ú©": 3298,
      "2018": 3299,
      "ĠØ®ÛĮØ±": 3300,
      "ĠÙ¾Ú¾ÛĮÙĦ": 3301,
      "ĠØ¯Ø¹Ø§": 3302,
      "ÙħÛĴ": 3303,
      "Ġprovide": 3304,
      "Ġens": 3305,
      "âĢ¬": 3306,
      "ix": 3307,
      "Ġgra": 3308,
      "ĠØ³Ø§ÙħÙĨØ§": 3309,
      "ĠØ²Ø±Ø¯Ø§Ø±ÛĮ": 3310,
      "ĠØ§ØªÙĨØ§": 3311,
      "ĠØ±ÛĮÚ©Ø§Ø±ÚĪ": 3312,
      "Ú©Ø±ÛĮ": 3313,
      "ĠØ¶ÙĦØ¹": 3314,
      "ÙĦÛĮÙģ": 3315,
      "ÙħÙĤ": 3316,
      "ĠØŃØ§Ø¯Ø«": 3317,
      "Ú¯Øª": 3318,
      "esp": 3319,
      "ĠÙĨÛĮØ§": 3320,
      "Ġshow": 3321,
      "Ø§Ø°": 3322,
      "ĠØ®Ø¯ÙħØª": 3323,
      "ĠØ¬Øª": 3324,
      "ĠÙħØ®Ø§ÙĦÙģ": 3325,
      "ĠØ§Ù¾Ø±ÛĮÙĦ": 3326,
      "ĠÚĨÛĮÙĨÛĮ": 3327,
      "ĠÙĤÛĮØ¯": 3328,
      "Ġagain": 3329,
      "ĠØ¢ÙħØ¯": 3330,
      "ÙĪØ±ÙĪÚº": 3331,
      "Ġaw": 3332,
      "Ġ50": 3333,
      "ĠØ³ÙĦØ³ÙĦÛĴ": 3334,
      "Ġ2014": 3335,
      "ier": 3336,
      "ĠØ®ÙĪØ§ÛģØ´": 3337,
      "ger": 3338,
      "ĠØ§ÚĨÚ¾Ø§": 3339,
      "ateg": 3340,
      "ĠØ§ÙĪÙ¾Ø±": 3341,
      "ĠØ§Ø«Ø±": 3342,
      "ĠØ·Ø§ÙĦØ¨Ø§ÙĨ": 3343,
      "ØµÙĦ": 3344,
      "ĠØ§ÛģÙħÛĮØª": 3345,
      "ĠØ§ÙħØ±": 3346,
      "ĠâĢĶ": 3347,
      "Ø§Úĳ": 3348,
      "ĠÙħØ¨Ø§Ø±Ú©": 3349,
      "ĠØ¢ØªØ§": 3350,
      "ĠÙ¾Ø±ÛĮØ´": 3351,
      "af": 3352,
      "ĠØµØ¨ØŃ": 3353,
      "ĠØ³ÙħØ§Ø¹Øª": 3354,
      "ral": 3355,
      "Ø¶Ø§ÙĨ": 3356,
      "ran": 3357,
      "ĠØ³Ø±Ú¯Ø±": 3358,
      "ĠØªØ®": 3359,
      "ÙģØ§Ø±": 3360,
      "ĠØ¯Ø´ÙħÙĨ": 3361,
      "ĠØ·Ø§ÙĦØ¨": 3362,
      "ĠÙħØ³ÙĦØ³ÙĦ": 3363,
      "Ġproduct": 3364,
      "ÙĦÛĮÙ¹": 3365,
      "ĠØ³ØªÙħ": 3366,
      "ĠÚ©Ú¾Ø§ÙĨÛĴ": 3367,
      "Ø§ÙĨÚĨÛģ": 3368,
      "ĠØµØ§Ùģ": 3369,
      "ĠÙĨÛĮØ¨": 3370,
      "ĠØ¨ÛĮÙĪÛĮ": 3371,
      "Ø§Ø¦Ø¬": 3372,
      "Ġless": 3373,
      "ave": 3374,
      "ĠÙħØªØ§Ø«Ø±": 3375,
      "ĠÙĨØ§Ú©Ø§Ùħ": 3376,
      "Ø¯ÙĪÚº": 3377,
      "Ġmem": 3378,
      "ĠØ§Ø®ØªÙĦØ§Ùģ": 3379,
      "Ø¦ÙĨ": 3380,
      "ĠÙĦÙģØ¸": 3381,
      "ĠAmeric": 3382,
      "Ġ26": 3383,
      "ĠØ³ÚĨ": 3384,
      "ĠÙ¾Ø§ÙĦÛĮØ³ÛĮ": 3385,
      "omen": 3386,
      "Ø®ØµÙĪØµ": 3387,
      "ĠØ¯Ø³ÙħØ¨Ø±": 3388,
      "ĠØ¯Ø±ÙĪ": 3389,
      "ÛģØ±ÛĴ": 3390,
      "ĠØ¨Ø§ÙĦÚ©ÙĦ": 3391,
      "ÛģØ±ÛĮ": 3392,
      "ĠØ§Ø¨Øª": 3393,
      "ĠØ¬Ø§Úº": 3394,
      "ĠØ¬ÛĮØª": 3395,
      "Ġeduc": 3396,
      "ĠØ¨Ø§ØªÛĮÚº": 3397,
      "ĠÙ¾ÚĳÚ¾ÛĮÚº": 3398,
      "ĠØªØ¬Ø±Ø¨": 3399,
      "de": 3400,
      "io": 3401,
      "ĠÙģÛĮØ³": 3402,
      "ĠQ": 3403,
      "ĠÙģÙĪØ±ÛĮ": 3404,
      "ĠØ§ÙĨØªØ¸Ø§ÙħÛĮÛģ": 3405,
      "ÚĪÙĨÚ¯": 3406,
      "ĠÙħØ§ÙĨÚ¯": 3407,
      "ĠØ¨ÙĦÙĨØ¯": 3408,
      "Ġbenef": 3409,
      "ĠÙħØ¹Ø§Ø´ÛĮ": 3410,
      "ĠâĢı": 3411,
      "ĠØ§ÙĨØ¬Ø§Ùħ": 3412,
      "Ġeas": 3413,
      "ĠØ¨ØŃÙĤ": 3414,
      "ĠÙħÙĤØ±": 3415,
      "ĠØ§ÙĦÙĤ": 3416,
      "ĠØ¬ÙĨÙĪØ¨ÛĮ": 3417,
      "ĠÙħØ°ÛģØ¨": 3418,
      "ĠÙĤØ¯Ùħ": 3419,
      "reen": 3420,
      "Ġmust": 3421,
      "ĠØ³ÛĮÙĨÛĮ": 3422,
      "ÙĪÙĦÙĪÚº": 3423,
      "htt": 3424,
      "ĠØ±Ø§Ø¬": 3425,
      "Ġsym": 3426,
      "ĠØ³Ø§ÙĦÛģ": 3427,
      "Ġeng": 3428,
      "ĠØ®Ø§ÙĦ": 3429,
      "ĠÚ©Ø±ÙĦÛĮØ§": 3430,
      "ĠSp": 3431,
      "ĠÚ©ÙĪØ±ÙĪÙĨØ§": 3432,
      "ĠØ´Ø§ÙĨ": 3433,
      "ÙģØ§ÙĤ": 3434,
      "ĠÙħÙĨØ¯": 3435,
      "ĠØµÙģØŃÛģ": 3436,
      "Ġbeh": 3437,
      "ĠÚ©Ø´ÙħÛĮØ±ÛĮ": 3438,
      "ĠDe": 3439,
      "ĠZ": 3440,
      "ĠÚ©ÛģØ§Úº": 3441,
      "ĠÙħÙĨØ¹ÙĤ": 3442,
      "Ġchar": 3443,
      "ĠØ§ØªÙĨÛĮ": 3444,
      "Ø¹Ø§Ùħ": 3445,
      "Ð»": 3446,
      "ĠØ´Ú©ÙĦ": 3447,
      "ĠØ®ÛĮØ¨Ø±": 3448,
      "ĠÙħØ·ÙĦØ¨": 3449,
      "ĠÚ¯ÙĨØ§Ûģ": 3450,
      "ĠÙħÙĨØªØ®Ø¨": 3451,
      "ÙĦÛĮÚ©ÙĨ": 3452,
      "ĠØ³Ú©ÛĮ": 3453,
      "irect": 3454,
      "ĠØªØ±Ú©ÛĮ": 3455,
      "Ù¾ÙĪ": 3456,
      "Ġ27": 3457,
      "lish": 3458,
      "ĠÙħÙĨØµÙĪØ¨ÛĴ": 3459,
      "ĠÙģÙĦ": 3460,
      "ÙħÙĨÙ¹": 3461,
      "ĠPakistan": 3462,
      "me": 3463,
      "Ġplan": 3464,
      "ĠØºØ±ÛĮØ¨": 3465,
      "ĠAd": 3466,
      "Ġhuman": 3467,
      "ources": 3468,
      "ouse": 3469,
      "Ġsignific": 3470,
      "ØªÛĮÚº": 3471,
      "Ġ199": 3472,
      "ĠÛģØ§ØªÚ¾ÙĪÚº": 3473,
      "ĠØ³ÚĳÚ©": 3474,
      "ĠØ³Ø§Ø±ÛĴ": 3475,
      "ÛģÛĴ": 3476,
      "Ġ100": 3477,
      "ĠØ§ÙĨÙ¹Ø±ÙĨÛĮ": 3478,
      "Ø§Ø³Ø¨": 3479,
      "ĠØ´Ú©Ø³Øª": 3480,
      "Ġbest": 3481,
      "ĠÛĶÛĶÛĶ": 3482,
      "ify": 3483,
      "This": 3484,
      "Ø¨ÙĪÙĦ": 3485,
      "air": 3486,
      "ĠÙĪØ²ÛĮØ±Ø§Ø¹ÙĦÛĮ": 3487,
      "ĠÙħØ¬Ø¨": 3488,
      "ĠÚ©Ø±Ù¾Ø´ÙĨ": 3489,
      "ĠØ§Ø¹ØªØ±": 3490,
      "ÙħÛĮÙħ": 3491,
      "ĠØ³ÙĪØ±": 3492,
      "ĠÙħÛĮØ²": 3493,
      "ĠØ§ÙĨÙĤÙĦ": 3494,
      "ĠØ§ØŃØ³Ø§Ø³": 3495,
      "Ġser": 3496,
      "ĠÚ©ÛĮØ®ÙĦØ§Ùģ": 3497,
      "Ġbo": 3498,
      "ĠØ³ÛĮÚ©Ø±": 3499,
      "ĠØ³Ø¨Ø¨": 3500,
      "ĠÚĪØ§Ø¦": 3501,
      "ĠØ·ÛĮ": 3502,
      "ĠØ§ÙĤÙĪØ§Ùħ": 3503,
      "ulation": 3504,
      "Ġbel": 3505,
      "ÙĪØ³ÛĮ": 3506,
      "ÙħÛĮÙĦ": 3507,
      "ĠØŃØ§Ø¶": 3508,
      "ĠÙĤØ±ÛĮ": 3509,
      "Ġmaterial": 3510,
      "ought": 3511,
      "ĠØ¯Ø§Ø®ÙĦÛģ": 3512,
      "ĠØ§ÙĨÚ©Ø§Ø±": 3513,
      "ĠØ¯ÛĮØ±": 3514,
      "Ġcontin": 3515,
      ",âĢĿ": 3516,
      "ĠÙ¾ØªÛģ": 3517,
      "Ġess": 3518,
      "Ġgrou": 3519,
      "ĠØ³Ø§Ø¦ÙĨØ³": 3520,
      "ĠÙģÚ©Ø±": 3521,
      "ÚĺÙĨ": 3522,
      "ĠØµÙĨ": 3523,
      "ÙĦØŃ": 3524,
      "ĠØ§ÙĨÚ¾ÛĮÚº": 3525,
      "ĠÙħÛĮØ¯Ø§ÙĨ": 3526,
      "ĠØ¬ÛĮØ³Ø§": 3527,
      "ince": 3528,
      "ĠØ§ÙĦÙĦÙĩ": 3529,
      "ÙĨÚ¯ÛĮ": 3530,
      "ĠÙĨØªÛĮØ¬ÛĴ": 3531,
      "ĠÙħØ¬Ú¾": 3532,
      "Ġ28": 3533,
      "cent": 3534,
      "ĠÙħÙĨØ¸Ø±": 3535,
      "ium": 3536,
      "lam": 3537,
      "40": 3538,
      "ross": 3539,
      "ĠÙ¾ÛĮÚ©": 3540,
      "Ġbuild": 3541,
      "ĠØ®ÙĪØ±": 3542,
      "ĠØ§ÛĮÙĨÚĪ": 3543,
      "ĠØ¨ÙĨØ¯ÛĮ": 3544,
      "ĠØ³Ø§Ø±ÛĮ": 3545,
      "ĠÙĨÚ¯Ø±": 3546,
      "ĠØ²ÙĨØ¯Ûģ": 3547,
      "Ø¹Ø¯Ø¯": 3548,
      "ĠØ§Ú©Ø«Ø±": 3549,
      "ĠØ³ÙĨÚ¯Ú¾": 3550,
      "ters": 3551,
      "ĠØ±Ø§Ø¨Ø·Ûģ": 3552,
      "Û´": 3553,
      "ÙĮ": 3554,
      "ÙĨÛĮØ§": 3555,
      "Ġstate": 3556,
      "ĠÙĨØ¬": 3557,
      "ÙħØ¨Ø±": 3558,
      "ĠÚ©ÛģØ§Ú©Ûģ": 3559,
      "ĠÚº": 3560,
      "ĠØ¢Ø¯ÙħÛĮ": 3561,
      "ÛĮØ±Ûģ": 3562,
      "ĠÙħØ´ÛģÙĪØ±": 3563,
      "Ġpur": 3564,
      "hi": 3565,
      "ĠØ¹Ø§Ø¦Ø¯": 3566,
      "ĠÙĦØ§Ø¦": 3567,
      "ĠØªØ¹ÛĮÙĨ": 3568,
      "ven": 3569,
      "ills": 3570,
      "Ø²ÙĦ": 3571,
      "Ú¯Ø±ÛĮ": 3572,
      "Ø§Ú©Ø±Ø§Øª": 3573,
      "vious": 3574,
      "ÛĮÙĨÚ©": 3575,
      "Ú¯ÛĮØ§": 3576,
      "Ġexample": 3577,
      "ÙĪØ²ÛĮØ´ÙĨ": 3578,
      "ĠØ§ÙħÙĪØ±": 3579,
      "âĨĳ": 3580,
      "Ġdevelopment": 3581,
      "acter": 3582,
      "ĠØ¬Ø¯": 3583,
      "ĠØµÙĦØ§ØŃÛĮØª": 3584,
      "ĠÙħØ§Ø±Ú©ÛĮÙ¹": 3585,
      "ization": 3586,
      "ĠÙĨØª": 3587,
      "ext": 3588,
      "ĠØªØŃØ±ÛĮØ±": 3589,
      "ĠÛĮÙĤÛĮÙĨÛĮ": 3590,
      "hy": 3591,
      "ĠÙħØŃÚ©ÙħÛģ": 3592,
      "ĠÙħØ¹Ø§ÙħÙĦØ§Øª": 3593,
      "ĠØ±ÙĪÚĪ": 3594,
      "Ġop": 3595,
      "ĠÙģÙĪ": 3596,
      "ĠÙĦÛĮÙĨÚĪ": 3597,
      "Ġve": 3598,
      "Ġimpact": 3599,
      "ÙģØªÛĴ": 3600,
      "ĠØªÙĨÙĤÛĮØ¯": 3601,
      "Ġbus": 3602,
      "ĠØºÙĪØ±": 3603,
      "ĠØ¨Ø§Ù¾": 3604,
      "ÙģÙĤ": 3605,
      "Ġ$": 3606,
      "ØŃÛĮ": 3607,
      "land": 3608,
      "Ġappro": 3609,
      "Ġsocial": 3610,
      "Ġpost": 3611,
      "ĠØ§ØªØŃØ§Ø¯": 3612,
      "Ġvar": 3613,
      "ĠÙħÙĤØ§Ø¨ÙĦÛģ": 3614,
      "ĠØ¯ÛĮÛĴ": 3615,
      "ĠØ³ÙħØ§Ø¬ÛĮ": 3616,
      "ĠÙħØ¬Ùħ": 3617,
      "ining": 3618,
      "ĠÚ©ÙĪØ¦": 3619,
      "Ġproper": 3620,
      "ĠÚ¯Ø§ÚĳÛĮ": 3621,
      "Ġsom": 3622,
      "ĠØ§Ú¯Ø³Øª": 3623,
      "ĠØ¯Ú¾Ø±": 3624,
      "Ġinclude": 3625,
      "Ø·ÛĮ": 3626,
      "Ú©Ø±Ø¯Ú¯ÛĮ": 3627,
      "ĠØ³Ø§Ø¦Ù¹": 3628,
      "Ġcell": 3629,
      "Ġnow": 3630,
      "ĠØ³ÙĦØ·": 3631,
      "ĠØ·Ø±ÛĮÙĤÛĴ": 3632,
      "ĠÚ©Ú¾ÛĮ": 3633,
      "ĠÙĪØ§ÙĦØ¯": 3634,
      "ĠÚ©Ø±Ø±ÛģÛĴ": 3635,
      "aily": 3636,
      "ĠÚ©Ø§ÙĨÚ¯": 3637,
      "ĠÚ©ÙĨÙ¹Ø±ÙĪÙĦ": 3638,
      "Ø§ÛĴ": 3639,
      "ĠÚĨÙĦÛĴ": 3640,
      "ĠØªØ±Ø¨": 3641,
      "ĠØ§Ø³Ø±Ø§Ø¦ÛĮÙĦ": 3642,
      "ĠÙĨØ´Ø§ÙĨÛģ": 3643,
      "ĠØ·ÛĴ": 3644,
      "ĠØ´ÛĮØ±": 3645,
      "ĠØ³ÛĮÚ©Ø±Ù¹Ø±ÛĮ": 3646,
      "ĠØ¯ÛģÙĦÛĮ": 3647,
      "Ø¯ÙĪØ³": 3648,
      "Ġconf": 3649,
      "Ø§ÙģØ¸": 3650,
      "Ø³Ù¹Ø±": 3651,
      "ĠØ±ÙģØª": 3652,
      "ØµÛĴ": 3653,
      "ĠØ¯ÙĦÚĨ": 3654,
      "angu": 3655,
      "ĠØ³ÙĦ": 3656,
      "Ġpos": 3657,
      "ined": 3658,
      "Ġocc": 3659,
      "ĠØ§ÙĤØªØ¯Ø§Ø±": 3660,
      "21": 3661,
      "ats": 3662,
      "ĠØ±Ú©ÙĨ": 3663,
      "ĠOn": 3664,
      "ĠBy": 3665,
      "ĠÙĦÛĮØªÛĴ": 3666,
      "Ġlearning": 3667,
      "ĠØ¹ÙĤ": 3668,
      "ĠØ±Ø¯": 3669,
      "ĠÙĨÙĪÙħØ¨Ø±": 3670,
      "ĠÛģÙĪØ±Ûģ": 3671,
      "ĠØ¨Ø±ÛĮ": 3672,
      "ĠØ¢ØªÛĴ": 3673,
      "Ø´Ú©": 3674,
      "Ġwant": 3675,
      "Ġmight": 3676,
      "ĠØ®Ø²": 3677,
      "ÙĨÚ¯ÙĦ": 3678,
      "ĠØŃÙģØ§Ø¸": 3679,
      "Ġequ": 3680,
      "Ø¯ÙĦ": 3681,
      "ĠØªØ¹Ø±ÛĮÙģ": 3682,
      "ĠØ§Ø¹Øª": 3683,
      "ĠÙħÛĮÙ¹Ø±": 3684,
      "ert": 3685,
      "ĠÙ¹Ú¾ÛĮÚ©": 3686,
      "Ġbre": 3687,
      "ĠÙħØµÙĨÙĪØ¹": 3688,
      "Ġcult": 3689,
      "ÙħÙĪÙĨ": 3690,
      "ĠØĮÙĴ": 3691,
      "ĠÙģØ±ÙĪØ±ÛĮ": 3692,
      "Ġproject": 3693,
      "ÙĦÛĮÛģ": 3694,
      "ĠÙĨÙĪØ±": 3695,
      "ĠÚ©Ø§Ø±Ú©Ø±Ø¯Ú¯ÛĮ": 3696,
      "ĠÚ©Ú¾ÙĪÙĦ": 3697,
      "ner": 3698,
      "ĠØ±Ùħ": 3699,
      "ĠÚ¯Ø²Ø§Ø±": 3700,
      "ĠØ§ÙĦØŃÙĤ": 3701,
      "oid": 3702,
      "ÙĪÛĮØ¯": 3703,
      "03": 3704,
      "Ø±Ø§Ø¬": 3705,
      "ĠØªØ´Ø¯Ø¯": 3706,
      "ĠØ§Ø±Ø´": 3707,
      "ĠÙħØ´Ø±": 3708,
      "ĠÙģØ±ÙĤ": 3709,
      "ĠØ¨ÛĮÙħØ§Ø±ÛĮ": 3710,
      "Ġmeth": 3711,
      "ĠØ³Ú©Ú¾": 3712,
      "ÙĦÛĮÙħÛĮ": 3713,
      "ĠÙ¾Ø±ÛĮØ³": 3714,
      "ĠÙħØ³ØªÙĤØ¨ÙĦ": 3715,
      "hers": 3716,
      "ĠØªØµÙĪØ±": 3717,
      "Ġlit": 3718,
      "ĠØ¬Ø§Ø¦Ø²Ûģ": 3719,
      "ĠÚ¯Ø°": 3720,
      "Ġkeep": 3721,
      "Ġtem": 3722,
      "Ġlight": 3723,
      "Ġident": 3724,
      "ĠØ¬ÙĪÙĦØ§Ø¦ÛĮ": 3725,
      "ĠØ´ÛģØ±ÛĮÙĪÚº": 3726,
      "uk": 3727,
      "ĠØ¯ÙĪØ³Ø±Ø§": 3728,
      "Ġprom": 3729,
      "Ġchang": 3730,
      "ĠÛģÙģØªÛĴ": 3731,
      "ared": 3732,
      "Ø¦ÛĮÛĴ": 3733,
      "ĠØ¨Ø§Ø±Ø´": 3734,
      "ĠØ³Ø§ÙĨ": 3735,
      "ĠØªÙĪÚĳ": 3736,
      "ĠØ¨Ø±Ø¯": 3737,
      "Ġphys": 3738,
      "ron": 3739,
      "Ø§ÙĦÙĪØ¬ÛĮ": 3740,
      "ĠØ¢ÛĮØª": 3741,
      "ĠØ¨ÙĨÙĨÛĴ": 3742,
      "ĠØ°Ø±Ø§Ø¦Ø¹": 3743,
      "Ġmet": 3744,
      "ĠÙħØ¹ÛĮØ§Ø±": 3745,
      "ĠÙģÙĦØ³Ø·": 3746,
      "ÙİÙĳ": 3747,
      "Ġrisk": 3748,
      "ÛĮØ³Ú©": 3749,
      "Ġest": 3750,
      "rap": 3751,
      "Ġwithout": 3752,
      "ĠØ³ÙĦÙħ": 3753,
      "Ġnumber": 3754,
      "the": 3755,
      "ĠØ§ÙģØ³ÙĪØ³": 3756,
      "Ġknown": 3757,
      "Ø³ÛĮÙĨ": 3758,
      "Ġpain": 3759,
      "ÙĤÛĮÙĨ": 3760,
      "Ûµ": 3761,
      "ĠØ±Ú©Ú¾ÛĴ": 3762,
      "ĠÚ©ÙħØ²": 3763,
      "ĠHowever": 3764,
      "Ġclass": 3765,
      "ination": 3766,
      "ĠØ§ÙħÚ©Ø§ÙĨ": 3767,
      "ĠÙħØ°Ø§Ú©Ø±Ø§Øª": 3768,
      "Ġair": 3769,
      "Ġpotential": 3770,
      "Ġconst": 3771,
      "Øĵ": 3772,
      "ering": 3773,
      "ĠØ±Ú©Ú¾ÛĮ": 3774,
      "27": 3775,
      "ĠØŃØ¶ÙĪØ±": 3776,
      "ĠØ·ÙĦ": 3777,
      "ĠØ¯ÛģØ´ØªÚ¯Ø±": 3778,
      "Ø±Ú©Ûģ": 3779,
      "une": 3780,
      "ÙĨØ¯ÙĨ": 3781,
      "ï®": 3782,
      "ĠØªØ¹ÙĦÛĮÙħÛĮ": 3783,
      "ior": 3784,
      "ĠØ¯Ø¹ÙĪÛĮ": 3785,
      "ĠØ¢Ù¾Ø±ÛĮØ´ÙĨ": 3786,
      "ĠØ¨ÙĤ": 3787,
      "Ġcaus": 3788,
      "ĠØ´ÙĨ": 3789,
      "ĠÚ©Ø±ÙĨ": 3790,
      "Ġide": 3791,
      "ĠÙ¾Ø§": 3792,
      "26": 3793,
      "ĠÛģØ²": 3794,
      "Ø§ÙħÙĨ": 3795,
      "ource": 3796,
      "What": 3797,
      "ĠÛģÙĪÚĨ": 3798,
      "ĠÙĨØ§Ø²": 3799,
      "ĠØ·ÙĪÛĮÙĦ": 3800,
      "Ġgovern": 3801,
      "ĠÙħÙĪØ¨": 3802,
      "ĠØ³Ø±ØŃ": 3803,
      "Ġhand": 3804,
      "ĠØŃÛĮØ¯": 3805,
      "ĠÙģØ§Ø¦Ø±ÙĨÚ¯": 3806,
      "bs": 3807,
      "ĠØ¬Ú¾ÙĪÙ¹": 3808,
      "Ø§Ø¯Ø§Øª": 3809,
      "ĠØ¨ÛĮÙ¹ÛĴ": 3810,
      "ĠÚ©Ø§ÙĦØ¬": 3811,
      "ĠÙĨØ³ÙĦ": 3812,
      "ĠØ¯Ú¾ÙĪ": 3813,
      "ĠØ®ÙĪØ¨Øµ": 3814,
      "ĠØ¹Ø²ÛĮØ²": 3815,
      "ĠØ³Ú©ÛĮÚº": 3816,
      "Ġmat": 3817,
      "ĠÙħØŃØª": 3818,
      "ĠÙ¹ÛĮÚ©ÙĨ": 3819,
      "ĠØ¨ÛĮÙ¹ÛĮ": 3820,
      "Ġdon": 3821,
      "An": 3822,
      "ĠØ´Ø±ÛĮÚ©": 3823,
      "ĠØ¹Ø¨Ø¯": 3824,
      "ĠÙħØªØ¹Ø¯Ø¯": 3825,
      "ĠØ§Ú©ØªÙĪØ¨Ø±": 3826,
      "Ø®ÙĪØ§Ûģ": 3827,
      "Ġwithin": 3828,
      "ĠÙģÙĨ": 3829,
      "Ø°Ûģ": 3830,
      "Ø¹ÙĦ": 3831,
      "Ġpoint": 3832,
      "It": 3833,
      "ĠØ§ÛĮØ±": 3834,
      "Ġperform": 3835,
      "ĠÚ©Ø±ÙĨÛĮ": 3836,
      "28": 3837,
      "Ġbetter": 3838,
      "ÙĢÙĢ": 3839,
      "ĠSc": 3840,
      "Ġindu": 3841,
      "Ġanal": 3842,
      "Ġ2013": 3843,
      "ÛģØ±Ø³Øª": 3844,
      "Ġcour": 3845,
      "ĠØªØ¨Øµ": 3846,
      "Ġaccess": 3847,
      "ØµØŃ": 3848,
      "ÛĤ": 3849,
      "ĠØ§Ø´Ø§Ø¹Øª": 3850,
      "ÙĦÛĮÙĪ": 3851,
      "Ø´ÛĮØ§": 3852,
      "ĠÚ©ÛģØ§ÙĨÛĮ": 3853,
      "ĠÙ¾Øª": 3854,
      "ĠÙĨØ´Ø§ÙĨ": 3855,
      "ĠØ¢Ø®Ø±": 3856,
      "ĠÙĤØ§Ø¨": 3857,
      "ĠÙħØŃØ¯": 3858,
      "ead": 3859,
      "ĠØ¹ÙĦÙħØ§Ø¡": 3860,
      "ĠÙĦÛĮÚĪØ±": 3861,
      "Ø¨ÙĪØ¶Ûģ": 3862,
      "ï·º": 3863,
      "ense": 3864,
      "Ġvari": 3865,
      "ĠÛģØ§Ø±": 3866,
      "ĠØ±Ú©Ú¾ØªØ§": 3867,
      "agn": 3868,
      "ĠØ´Ø±ØŃ": 3869,
      "oad": 3870,
      "ĠØ¨Ùħ": 3871,
      "ĠÙģØ±ÙĪØº": 3872,
      "ĠÙ¾ÚĳØ§": 3873,
      "ĠSe": 3874,
      "be": 3875,
      "Ġpar": 3876,
      "ĠØ§Ø®Ø¨": 3877,
      "ĠØ§ÛĮØ¬": 3878,
      "ĠÚĪÙ¾": 3879,
      "ĠÙĨÛĮØ´ÙĨÙĦ": 3880,
      "Ġchange": 3881,
      "Ġimm": 3882,
      "ĠÙħØ§ÙĦÚ©": 3883,
      "ĠÚ¾ÛĴ": 3884,
      "??": 3885,
      "ĠØ®Ø¯ÙħØ§Øª": 3886,
      "ĠBut": 3887,
      "Ø¯Ø§Ø±ÛĮ": 3888,
      "ĠThere": 3889,
      "05": 3890,
      "ĠÙĦÚ¯ÛĮ": 3891,
      "Ġsignificant": 3892,
      "Ġinvol": 3893,
      "ĠØ¹Ø¨Ø§Ø¯": 3894,
      "ĠÙĦÚ©": 3895,
      "ĠÙĦÚ¯ØªØ§": 3896,
      "ĠØ³ØªÙħØ¨Ø±": 3897,
      "ĠÙĨÙħØ§Ø¦ÙĨØ¯": 3898,
      "Ġprevent": 3899,
      "orts": 3900,
      "ired": 3901,
      "Ġdem": 3902,
      "Ġwrit": 3903,
      "iod": 3904,
      "less": 3905,
      "ĠÙħØ¹ÙĨÛĮ": 3906,
      "Ġcreat": 3907,
      "ĠÚ¯ÙĪØ±ÙĨ": 3908,
      "iven": 3909,
      "ĠØ±Ø§Ø³": 3910,
      "ĠÚĨÚ¾ÙĪÙ¹ÛĴ": 3911,
      "ĠÙĨÛĮÚĨÛĴ": 3912,
      "ĠØ¯Ø¹ÙĪØª": 3913,
      "ĠÙħÙĨØªÙĤÙĦ": 3914,
      "ĠØ®ÙĪØ§Ø¨": 3915,
      "Ø¨Ø§Ø¨": 3916,
      "ĠÙ¾ÙĪÚĨÚ¾Ø§": 3917,
      "conom": 3918,
      "ĠØ´Ø§Ø¦Ø¹": 3919,
      "Ġplace": 3920,
      "ĠØ¬Ø§Ø³Ú©ØªØ§": 3921,
      "ÙĪØ§ÙĨÙĪÚº": 3922,
      "ĠØ¯ÛĮØ¦ÛĴ": 3923,
      "Ø²Ûģ": 3924,
      "ĠEx": 3925,
      "ĠØªØ±Ø¨ÛĮØª": 3926,
      "ĠØ¨ÙĨØ§Ø¦ÛĴ": 3927,
      "ĠÚ©ÙħØ´ÙĨ": 3928,
      "raph": 3929,
      "ĠØ³Ø±ÙĪØ³": 3930,
      "ĠÙħÙĨØ¸ÙĪØ±": 3931,
      "âĢĵ": 3932,
      "ĠEng": 3933,
      "Ø·Ø±": 3934,
      "ĠÙħØ¹ÛĮØ´Øª": 3935,
      "Ġ29": 3936,
      "Ġz": 3937,
      "ration": 3938,
      "Ġnat": 3939,
      "Ø§ÛģØ¯": 3940,
      "ĠÙĨÙĪÙ¹Ø³": 3941,
      "ĠÙĥØ±": 3942,
      "ĠÙģØ±ÙħØ§ØªÛĴ": 3943,
      "ĠØ§ÙĨØªÙĤ": 3944,
      "ĠØ¯Ø³ØªÛĮ": 3945,
      "ĠØŃÙħÙĦ": 3946,
      "ĠØ¨Ø§ÙĤ": 3947,
      "Ġfeel": 3948,
      "Ġhome": 3949,
      "ains": 3950,
      "ĠØ·Ø¨ÛĮ": 3951,
      "ĠØ¨ÙĨÛĴ": 3952,
      "Û±": 3953,
      "ially": 3954,
      "ury": 3955,
      "ØµØ§Ø¯ÛĮ": 3956,
      "ĠÙħÙĪØ¨Ø§Ø¦ÙĦ": 3957,
      "ĠÛĮÙĪÙĨÛĮÙĨ": 3958,
      "ĠØ±Ø¶Ø§": 3959,
      "ĠØ²Ø±": 3960,
      "ĠÙħØ§ØŃÙĪÙĦ": 3961,
      "Ġpublic": 3962,
      "Ġcap": 3963,
      "ĠÙħØ¬Ø¨ÙĪØ±": 3964,
      "Ø§Ø¨Ûģ": 3965,
      "ĠØ±ÙĨØ²": 3966,
      "iversity": 3967,
      "ĠÙ¾Ø§Ø±ÙĦÛĮÙħÙĨÙ¹": 3968,
      "ĠÙĨÙħØ§": 3969,
      "ÚĪØ§Ú©Ù¹Ø±": 3970,
      "ĠØ§Ù¾ÙĪØ²ÛĮØ´ÙĨ": 3971,
      "pect": 3972,
      "ĠÙ¾ÙĨ": 3973,
      "ĠÚ©ÛģÙĨÛĴ": 3974,
      "ĠØ§ÙĦÙģ": 3975,
      "ÚĪØ§": 3976,
      "ĠÙħØ³ÛĮ": 3977,
      "ÙĪÙħØªÛĮ": 3978,
      "ĠÙĪØ¬ÙĪØ¯": 3979,
      "29": 3980,
      "ĠÚ©Ú¾ÚĳÛĴ": 3981,
      "ĠØªØŃÙĤÛĮÙĤØ§Øª": 3982,
      "ĠØ¨Ú¾Ø±Ù¾ÙĪØ±": 3983,
      "Ġlarge": 3984,
      "Ġmark": 3985,
      "01": 3986,
      "ĠÙ¾Ø±ÙĪÛĮØ²": 3987,
      "ĠØ¯Ú¾ÙħØ§Ú©": 3988,
      "Ġvarious": 3989,
      "Û¡": 3990,
      "ĠÙħÙĦÙĨÛĴ": 3991,
      "Ġstill": 3992,
      "ye": 3993,
      "Ġmethod": 3994,
      "Ġbecome": 3995,
      "ĠØ±ÛģØªØ§": 3996,
      "ĠÙ¾Ø±ÙĪÙģ": 3997,
      "ĠAll": 3998,
      "ĠÙĦØ§Ø²": 3999,
      "ote": 4000,
      "man": 4001,
      "ØªÙģ": 4002,
      "ĠØ§ÙģØª": 4003,
      "ason": 4004,
      "Ġquest": 4005,
      "ĠØ¨ØŃØ«": 4006,
      "ĠØ¨Ø±Ø§": 4007,
      "09": 4008,
      "Ù¾ÙĨ": 4009,
      "ĠØ¸ÙĦÙħ": 4010,
      "ĠØ¹ÙĦØ§ÙħÛģ": 4011,
      "ĠØ®ÙĪØ´ÛĮ": 4012,
      "ØªÙħØ§Ø¯": 4013,
      "ĠØµØ§Ø±Ùģ": 4014,
      "Ġopp": 4015,
      "cle": 4016,
      "ĠÙħØ´ØªÙħÙĦ": 4017,
      "ĠØ¯Ø±Ø¬Ûģ": 4018,
      "ĠØ±ÛĮÙĦ": 4019,
      "ories": 4020,
      "Ġhim": 4021,
      "ĠØ¯ÛĮØªÛĮ": 4022,
      "ĠØ¢ØªÛĮ": 4023,
      "07": 4024,
      "ĠØ¨Ø§Øº": 4025,
      "ĠÚ©ÙĦÙĪ": 4026,
      "ocus": 4027,
      "ĠÙģØ¶ÙĦ": 4028,
      "ĠØ§Ø¦": 4029,
      "oh": 4030,
      "ina": 4031,
      "Ø§ÙħØ§": 4032,
      "ertain": 4033,
      "ĠØ¨Ø±Ø§Ûģ": 4034,
      "Ġreal": 4035,
      "ĠÙģÙĬ": 4036,
      "ĠØ³Ø±ÛĮ": 4037,
      "apt": 4038,
      "ids": 4039,
      "ĠÚ¯Ø§Ûģ": 4040,
      "ĠÙ¾Ø´Ø§ÙĪØ±": 4041,
      "Ġcost": 4042,
      "ember": 4043,
      "Ġsit": 4044,
      "08": 4045,
      "Ġcontrol": 4046,
      "ĠØ±ÙħØ¶Ø§ÙĨ": 4047,
      "Ø³Ù¹Ø±ÛĮÙĦ": 4048,
      "ĠÙĨØ¸Ø±ÛĮ": 4049,
      "ĠØ¨Ø±Ø·Ø§ÙĨÛĮÛģ": 4050,
      "ĠØ¹Ø´": 4051,
      "ĠØ¬Ø¬": 4052,
      "04": 4053,
      "Û²Û": 4054,
      "ĠØ¨Ø´": 4055,
      "Ø³Ø§ÙĦ": 4056,
      "Ġfew": 4057,
      "ÙĪÙħÙĨ": 4058,
      "Ġmaking": 4059,
      "ĠÙħØ¹Ø±ÙĪÙģ": 4060,
      "ĠÙĨØ§ÙĤ": 4061,
      "inal": 4062,
      "ĠÙħÙĦØ²": 4063,
      "mber": 4064,
      "ÙĪØ·": 4065,
      "ĠÙĪØ§": 4066,
      "Ġcause": 4067,
      "ĠØ³Ø¹ÛĮØ¯": 4068,
      "ĠÚ©Ú¾ÙĦ": 4069,
      "Ø§Ø¦Ù¹": 4070,
      "ccess": 4071,
      "ĠØ¹Ø¨Ø§Ø³": 4072,
      "ØµÙĪÙĦ": 4073,
      "Ġoper": 4074,
      "ĠØ¬Ø§Ø±ÛģØ§": 4075,
      "Ġdel": 4076,
      "ĠØ¨ÙĨÚ¯": 4077,
      "Ġthree": 4078,
      "ĠØ§ÙĦØ±": 4079,
      "ank": 4080,
      "·²": 4081,
      "ĠØ¨Ø·": 4082,
      "ĠÚ¯ÛĮØ³": 4083,
      "ĠÙ¹Ø§Ø¦Ùħ": 4084,
      "Ø®ÙĪØ§": 4085,
      "à¥": 4086,
      "ĠØ¬ÙħØ§Ø¹ØªÙĪÚº": 4087,
      "Ġeffective": 4088,
      "ĠØ§ÙħØª": 4089,
      "ÙģØªØ±": 4090,
      "ots": 4091,
      "ĠÙħØ±Ú©Ø²": 4092,
      "ÙĨØ§Ùħ": 4093,
      "ĠÚ©Ø±Ø§Ùħ": 4094,
      "Ġconn": 4095,
      "ĠØªØ±Ú©": 4096,
      "ĠÙħØºØ±Ø¨ÛĮ": 4097,
      "hile": 4098,
      "Ġdev": 4099,
      "ling": 4100,
      "ĠØªÛĮØ±": 4101,
      "orn": 4102,
      "Ø§Ø¦ÛĮÚ¯ÛĮ": 4103,
      "ÙĦÛĮÛĴ": 4104,
      "ĠØ¬Ø§ÙĪÛĮØ¯": 4105,
      "ØªÚ¾ÛĮ": 4106,
      "ording": 4107,
      "ĠØ§Ø¯Ø¨": 4108,
      "As": 4109,
      "Ġ×": 4110,
      "ĠØ§ØµÙĦØ§ØŃ": 4111,
      "Ù¾Ø§": 4112,
      "ØŃÙĤ": 4113,
      "Ġmeas": 4114,
      "ĠÚĨÚĳÚ¾": 4115,
      "ĠÛģÙĪØ¬Ø§Ø¦ÛĴ": 4116,
      "ĠÙ¾ÛģÙĨÚĨØ§": 4117,
      "rence": 4118,
      "ÚĨØ§": 4119,
      "Ġret": 4120,
      "Ø³Ø§Ø¨": 4121,
      "ĠÙĥÙī": 4122,
      "Ø¹Ø¨": 4123,
      "ĠÛĮÙĪÙħ": 4124,
      "ĠØ¬Ø§ÙĨØªÛĴ": 4125,
      "ÙĳÙ°": 4126,
      "ĠØ®Ø§ÙĨÛģ": 4127,
      "ĠØµÙĪØ¨ÛĴ": 4128,
      "Ø³Ø§ÙĨÛĮ": 4129,
      "ĠÙĨØªÛĮØ¬Ûģ": 4130,
      "ision": 4131,
      "ĠÙģÙ¹": 4132,
      "Ġaddition": 4133,
      "Ġhy": 4134,
      "Ġleg": 4135,
      "ĠØªØ¨Ø§Ûģ": 4136,
      "ÙħÙĦÚ©": 4137,
      "ĠØ´Ùģ": 4138,
      "Ġdisease": 4139,
      "ĠØ§Ù¹Ú¾Ø§": 4140,
      "ĠÙĨÙĪÚº": 4141,
      "ĠÙĤØµ": 4142,
      "Ġavail": 4143,
      "Ġchall": 4144,
      "ĠØ³Ø¬": 4145,
      "outh": 4146,
      "Ġtop": 4147,
      "ĠÙħÙĨØ¹ÙĤØ¯": 4148,
      "ĠÚĨÙħ": 4149,
      "Ġblood": 4150,
      "ĠØ¹ÙĦØ§ÙĤÛģ": 4151,
      "ĠÙħÛĮÚĪ": 4152,
      "ĠÙ¾ÛĮÙħ": 4153,
      "ĠØ¯ÛĮÚ©Ú¾ØªÛĴ": 4154,
      "ĠØ®ØµÙĪØµ": 4155,
      "ĠÙ¹Ø±": 4156,
      "ĠØ¬ÙħÛģÙĪØ±ÛĮØª": 4157,
      "port": 4158,
      "ways": 4159,
      "ĠÙĨØªØ§Ø¦Ø¬": 4160,
      "Ġlangu": 4161,
      "ĠÙħØŃØ¶": 4162,
      "ĠØ¨Ø§Ø²ÛĮ": 4163,
      "ogn": 4164,
      "ĠÛģÙ¹": 4165,
      "ĠÙ¾Ú¾ÛĮ": 4166,
      "ĠÙĤØ±Ø¶": 4167,
      "ĠÙħØ±Ø§Ø¯": 4168,
      "Ġtreatment": 4169,
      "ication": 4170,
      "Ġcond": 4171,
      "ĠÙħÙĪØ±": 4172,
      "ĠØ§Ú©Ø±Ùħ": 4173,
      "ĠÙĪØ¹Ø¯": 4174,
      "Ġpass": 4175,
      "ØªÙħØ§Ø¹": 4176,
      "ĠØ§ÛĮÚ©Ø³": 4177,
      "Ø±Ú¯": 4178,
      "200": 4179,
      "ĠØ¹Ø²Øª": 4180,
      "ĠØ´Ø¯Øª": 4181,
      "agement": 4182,
      "ÛĮØ§Ø¡": 4183,
      "na": 4184,
      "ÙģÛĮÙĤ": 4185,
      "iver": 4186,
      "ries": 4187,
      "ĠÙ¾ÚĨÚ¾": 4188,
      "ĠTo": 4189,
      "ĠØ¨ÛĮØ³": 4190,
      "www": 4191,
      "ĠØ§ÙĤØªØµØ§Ø¯ÛĮ": 4192,
      "2016": 4193,
      "lu": 4194,
      "Ø¯Ø§Ø¦ÛĮ": 4195,
      "ĠØ¨Ø±ÙĪ": 4196,
      "ĠÙĨØ§Ø±": 4197,
      "lished": 4198,
      "ÙħØ´": 4199,
      "ĠØªØ³ÙĦÛĮÙħ": 4200,
      "rodu": 4201,
      "Ġbusiness": 4202,
      "ĠÙĨØ§ÙĦ": 4203,
      "Ġstand": 4204,
      "ÙĪÙĦÛĮØª": 4205,
      "!!": 4206,
      "ĠØ§Ø¹ØªÙħØ§Ø¯": 4207,
      "ĠØ³Ú©ÙĪÙĦ": 4208,
      "erest": 4209,
      "ĠØ´Ø±Ùħ": 4210,
      "ients": 4211,
      "ĠØ¹Ø«": 4212,
      "ĠÙ¾ÙĪØ³Ù¹": 4213,
      "ĠØ°Ø§ØªÛĮ": 4214,
      "ĠØªÙģØµÛĮÙĦØ§Øª": 4215,
      "ĠØ§ÙĨÙĤÙĦØ§Ø¨": 4216,
      "Ġexperience": 4217,
      "Ġsever": 4218,
      "Ġcreate": 4219,
      "ÑĤ": 4220,
      "ĠØ³ÙĨØ§": 4221,
      "ĠØªØ§Ø¬": 4222,
      "ĠØ¯Ø±Ø¯": 4223,
      "ĠØ±Ø§Ø³ØªÛģ": 4224,
      "ĠÙĪÙĨ": 4225,
      "ĠÙ¾ÙĨØ§Ûģ": 4226,
      "Ø®ØªÙĪÙĨØ®ÙĪØ§": 4227,
      "ency": 4228,
      "ĠØ¬ÙĨØ§Ø¨": 4229,
      "Ñģ": 4230,
      "Ġplant": 4231,
      "Ġcalled": 4232,
      "ĠÙ¾ÛĮÙĨ": 4233,
      "ĠÚĨØ§ÛģÛĴ": 4234,
      "Ġant": 4235,
      "ĠÙ¾ÛĮØ³": 4236,
      "Ø§Ø¹Ø¯Ûģ": 4237,
      "Ġdid": 4238,
      "ĠØ¨Ø§Ø¯Ø´Ø§Ûģ": 4239,
      "ĠÚ©ÙħØ´ÙĨØ±": 4240,
      "ĠÙħÙĪØ³Ùħ": 4241,
      "Ġtool": 4242,
      "ĠØ±ØŃÙħ": 4243,
      "ĠÙħØ§ÛģØ±ÛĮÙĨ": 4244,
      "ĠÙĨØ§Ùģ": 4245,
      "ĠÚ¯Ø±Ùħ": 4246,
      "ention": 4247,
      "ĠÙħØ´ØªØ±Ú©Ûģ": 4248,
      "Ġter": 4249,
      "Ġarticle": 4250,
      "Ġmove": 4251,
      "ĠØŃÚ©ÙħØª": 4252,
      "Ġspecific": 4253,
      "ĠÙģØ±Ø§ÛģÙħÛĮ": 4254,
      "Ġrest": 4255,
      "ØªØ§ÛģÛĴ": 4256,
      "ĠØ´Ø®ØµÛĮØª": 4257,
      "ĠØ³Ø§ØªÚ¾ÛĮ": 4258,
      "Ġtechnology": 4259,
      "ĠØ§ØŃÚ©": 4260,
      "ĠÙģÙĤ": 4261,
      "Ø±Ø§Ø±": 4262,
      "ĠÙħÙĪØ§Ø¯": 4263,
      "ĠÚ¯Ú¾Ø±ÙĪÚº": 4264,
      "ÙĳÙĲ": 4265,
      "Ġopt": 4266,
      "ĠÙĪØ§ÙĦØ¯ÛĮÙĨ": 4267,
      "ĠÙĪØŃ": 4268,
      "ĠØ§Ø®Ø¨Ø§Ø±Øª": 4269,
      "ield": 4270,
      "ĠØªØ±Ø¬ÙħØ§ÙĨ": 4271,
      "How": 4272,
      "Û¹": 4273,
      "eed": 4274,
      "bers": 4275,
      "Ø±Ø¶": 4276,
      "Ġprogram": 4277,
      "ÙħØŃÙħØ¯": 4278,
      "Ù¾ÙĨÚĪÛĮ": 4279,
      "ĠØ¨ØŃØ±Ø§ÙĨ": 4280,
      "Ù¹Ú¾ÛĮ": 4281,
      "Ú¾ÙĪÚº": 4282,
      "ĠØ§ÙģØ±ÛĮ": 4283,
      "Ġinterest": 4284,
      "ĠØªØ´Ú©ÛĮÙĦ": 4285,
      "ĠØ¹ÛģØ¯": 4286,
      "hor": 4287,
      "ards": 4288,
      "ĠØ§ÙģØ³Ø±Ø§ÙĨ": 4289,
      "Û²": 4290,
      "ĠØ§ÙĪÙĨ": 4291,
      "ĠØ§Ø®Ø¨Ø§Ø±ØªØ§Ø²Ûģ": 4292,
      "to": 4293,
      "Ġà¤": 4294,
      "ĠÙģØªØŃ": 4295,
      "Ø¹ÙĪØ¯": 4296,
      "ĠØ´Ø§ÛģØ¯": 4297,
      "ÚĨØ§Ø±": 4298,
      "ĠØ¹Ø·Ø§": 4299,
      "orld": 4300,
      "ÙĦÚĪ": 4301,
      "Ġimprove": 4302,
      "ĠØ®Ø·ÛĴ": 4303,
      "ĠÙħØ±ÛĮÙħ": 4304,
      "ĠØ§ÛĮØ¬ÙĨØ³ÛĮ": 4305,
      "ĠØ§Ø³Ùħ": 4306,
      "Û·": 4307,
      "ï·²": 4308,
      "Ù¾Ú¾Ø±": 4309,
      "Ġessential": 4310,
      "Ġsystems": 4311,
      "ĠØ¨Ø®Ø´": 4312,
      "ĠÂ»": 4313,
      "ĠØ¯Ø§Ø±Ø§ÙĦ": 4314,
      "ÛĮÚ©Ù¹": 4315,
      "ently": 4316,
      "ĠÙħÙĤØ±Ø±": 4317,
      "ĠØ¢Ø¨Ø§Ø¯ÛĮ": 4318,
      "ĠØ«Ø¨ÙĪØª": 4319,
      "ĠÙħØµÙĨÙĪØ¹Ø§Øª": 4320,
      "osed": 4321,
      "uture": 4322,
      "ified": 4323,
      "Ġdirect": 4324,
      "ĠÚ¯Ø±ÙĪÛģ": 4325,
      "ĠØªÚ¾ÙĪÚĳ": 4326,
      "ĠÚĪÛĮØ³Ú©": 4327,
      "ĠØ¢ØµÙģ": 4328,
      "Ġsl": 4329,
      "Ġlow": 4330,
      "ĠÙħÙĤØ¯ÙħÛģ": 4331,
      "Û¶": 4332,
      "ĠØ±ÙĪØ³": 4333,
      "Ø¹ÙħØ±Ø§ÙĨ": 4334,
      "Ø²ÙĨ": 4335,
      "Ø±ÛĮØ²ÛĮ": 4336,
      "osted": 4337,
      "Ġlook": 4338,
      "ĠØ¨ÛĮØª": 4339,
      "ĠÙĦÙĪÚĪ": 4340,
      "ĠØ¨ÛĮÚ¯": 4341,
      "ĠÙ¹Ø±ÛĮÙĨ": 4342,
      "Ġinvest": 4343,
      "ĠÙĦØ§ÙĨÛĴ": 4344,
      "ĠÙ¾ÙĪÚĨÚ¾": 4345,
      "ĠÙĤØ¨Ø±": 4346,
      "Ø¹Ø§ÙĦ": 4347,
      "ĠØ¢Ûģ": 4348,
      "ĠÙħÙĨÛĮ": 4349,
      "Ø³Ù¹Ø±ÛĮ": 4350,
      "33": 4351,
      "Ø¯ÛĮÙĤ": 4352,
      "ĠØªÛĮÙĦ": 4353,
      "Ø§Ø¦ÛĮÙĪÚº": 4354,
      "ĠÙħØ¹Ø§ÛģØ¯ÛĴ": 4355,
      "ĠÙĤØ±Ø¨Ø§ÙĨÛĮ": 4356,
      "ĠÙħØŃÙĨØª": 4357,
      "ĠPl": 4358,
      "ðŁ": 4359,
      "Ø§Ø®Øª": 4360,
      "ĠØ¯ÛĮÙĨÛĮ": 4361,
      "Ġdiff": 4362,
      "ĠØ¢ÙĦ": 4363,
      "Ġanother": 4364,
      "Ø¨Ø§": 4365,
      "Ġfac": 4366,
      "ĠØŃÙĤÛĮÙĤÛĮ": 4367,
      "ĠØ§Ø¬ØªÙħØ§Ø¹": 4368,
      "ĠØ³ÙĨÛĮ": 4369,
      "02": 4370,
      "ïºħ": 4371,
      "ĠØ¯ÙģØªØ±": 4372,
      "ĠÚĨÛĮØª": 4373,
      "ĠÙĥÛģ": 4374,
      "ÛĮÙĨØ¯": 4375,
      "Ġbas": 4376,
      "ploy": 4377,
      "ĠØ¬ÙĨÛģÙĪÚº": 4378,
      "ĠØ³ÙħØ¬Ú¾ØªÛĴ": 4379,
      "Ġold": 4380,
      "ĠØ±ÙĪÙħ": 4381,
      "Ġtru": 4382,
      "Ġmean": 4383,
      "ÙħØ³ÙĦÙħ": 4384,
      "ĠÙħØ´ÛĮÙĨ": 4385,
      "Ġtoo": 4386,
      "ique": 4387,
      "ortun": 4388,
      "atic": 4389,
      "ĠÙħØ§Ø¶ÛĮ": 4390,
      "Ġfocus": 4391,
      "ĠÚ¯ÙĪÙĦ": 4392,
      "Ġele": 4393,
      "ĠÙ¹ÛĮÚ©ÙĨØ§ÙĦÙĪØ¬ÛĮ": 4394,
      "ĠØ³Ø§ÙħØ§ÙĨ": 4395,
      "Ú©Ø´Ø§Ùģ": 4396,
      "Ø§Ø¦ÛĮØ¯": 4397,
      "Ġïº": 4398,
      "Ø¢Ø¬": 4399,
      "Ø³Ø¨": 4400,
      "ĠØªÛĮØ²ÛĮ": 4401,
      "ĠØªØ§Ø±ÛĮØ®ÛĮ": 4402,
      "ĠØ§Ø³Ú©ÙĪÙĦ": 4403,
      "ĠØ¨Øº": 4404,
      "ĠÙģÛģØ±Ø³Øª": 4405,
      "Ġarea": 4406,
      "ĠØ§ÛģØªÙħØ§Ùħ": 4407,
      "ĠØ§ÙģÙĪ": 4408,
      "Ġconsider": 4409,
      "ĠÚ©Ø§ÙĦÙħ": 4410,
      "Ġeconom": 4411,
      "Ġmeans": 4412,
      "ĠÙ¾ÙĪÙĦ": 4413,
      "amp": 4414,
      "ĠØ¯Ú©Ú¾Ø§Ø¦ÛĮ": 4415,
      "Ġsay": 4416,
      "Ġagainst": 4417,
      "ĠØ±Ú©Ú¾ÛĮÚº": 4418,
      "ĠÙħØ¶ÙħÙĪÙĨ": 4419,
      "Ġneeds": 4420,
      "ĠÚ¯Ø±Ø¯ÙĪÚº": 4421,
      "Ø±ÙĪÙħ": 4422,
      "ĠÚ©Ø§ÙĨÚ¯Ø±ÛĮØ³": 4423,
      "Ġpresent": 4424,
      "Û¸": 4425,
      "Ġel": 4426,
      "ĠÙģØ±Ø§ÙĨØ³": 4427,
      "ĠCon": 4428,
      "ÙħÛĮÙĪÚº": 4429,
      "ological": 4430,
      "ĠÙħØ°ÙħØª": 4431,
      "ĠÙģØ±Ø¯": 4432,
      "ĠØ±Ú©Ú¾ÙĨØ§": 4433,
      "Ø§ÙħÛĮÙĨ": 4434,
      "ĠØ±Ø§Ø³ØªÛĴ": 4435,
      "ÚĨÛĮÙĨ": 4436,
      "ĠØ¬Ø§Ø±ÛģÛĮ": 4437,
      "ĠØ³ÙĦØ§ÙħØªÛĮ": 4438,
      "ĠØ§ÚĨÚ¾ÛĴ": 4439,
      "ĠWhen": 4440,
      "ĠÙĦÙĨ": 4441,
      "ĠØ¹Ø¯Ùħ": 4442,
      "ĠÙĪØ±ÙĦ": 4443,
      "inc": 4444,
      "Ġfamily": 4445,
      "ĠPh": 4446,
      "Ø®Ø·": 4447,
      "Ø§ÙĪÛĮ": 4448,
      "ĠÚ©Ú¾Ø§ÙĨØ§": 4449,
      "ends": 4450,
      "ĠÚĪØ§Ø¦Ø±ÛĮÚ©": 4451,
      "ĠÙĪØ±ÙĦÚĪ": 4452,
      "ĠØŃÛĮØ§Øª": 4453,
      "ĠÙĲ": 4454,
      "ĀĀ": 4455,
      "Ù¾ÛĮØ±": 4456,
      "ĠÙħØ¸Ø§ÛģØ±Ûģ": 4457,
      "Ġbelie": 4458,
      "ÙĪØ§ÙĨÛĮÙĨ": 4459,
      "ĠÚ©Ø±ÙĦÛĮ": 4460,
      "ĠÙħÙĦÙĪØ«": 4461,
      "min": 4462,
      "Ø¦ÛĮÙĨ": 4463,
      "ĠØ¨Ø¬Ù¹": 4464,
      "Ġ40": 4465,
      "ĠÚ©Ø§Ø±ÙĪØ¨Ø§Ø±": 4466,
      "ĠØ¨ÛĮÚĨ": 4467,
      "ĠØ®Ø±ÚĨ": 4468,
      "ĠØ³Ø§Ø²Ø´": 4469,
      "Ø¹ÙĤØ§Ø¯": 4470,
      "ĠØµØŃØ§ÙģÛĮ": 4471,
      "ĠØ´Ø¨": 4472,
      "ĠØ±ÙĪØ´ÙĨ": 4473,
      "Ġapplic": 4474,
      "ĠÙģÙĨÚĪ": 4475,
      "ĠÙĦÚ¯Ø§ÙĨÛĴ": 4476,
      "Ġwomen": 4477,
      "ĠÙĦÛĮÙĨØ§": 4478,
      "Ġprofess": 4479,
      "ĠØ¢Ø³Ø§ÙĨ": 4480,
      "Ġtype": 4481,
      "ĠÙĨÙĪØ¬ÙĪØ§ÙĨÙĪÚº": 4482,
      "ĠÙħÙĨØ¸ÙĪØ±ÛĮ": 4483,
      "Ûİ": 4484,
      "ĠÙ¾ÙĦØ§ÙĨ": 4485,
      "ĠÚ¯Ø±ÛĮ": 4486,
      "ptoms": 4487,
      "ĠÛģÙĨ": 4488,
      "Ġhapp": 4489,
      "Ġlim": 4490,
      "ĠÚ©Ø§Ø¨": 4491,
      "Ø³Ù¹Ùħ": 4492,
      "ÙĬØ±": 4493,
      "urther": 4494,
      "ĠØŃÛĮØ¯Ø±": 4495,
      "ĠÙħÙĦØ²Ùħ": 4496,
      "ĠÙħØ¬ÙħÙĪØ¹": 4497,
      "Ġintern": 4498,
      "Ġhig": 4499,
      "ĠÙĨÙĤÙĦ": 4500,
      "ĠØ¨Ø¬ÛĴ": 4501,
      "ĠÙ¾Ø§Ø¨ÙĨØ¯": 4502,
      "Ġanim": 4503,
      "ĠØ´Ú©Ø§": 4504,
      "ĠØ¨ÛĮÙ¹Ú¾ÛĴ": 4505,
      "ĠØŃÚ©ÙĪÙħØªÛĮ": 4506,
      "ĠØ§ØªÙģØ§ÙĤ": 4507,
      "Ġpossible": 4508,
      "Ġrequire": 4509,
      "ĠÚ©Ø±ÙĪÚº": 4510,
      "ĠÙħÙĤØ¨ÙĪØ¶Ûģ": 4511,
      "Ġkey": 4512,
      "Ġlaw": 4513,
      "ĠØ®Ø±Ø§Ø¨": 4514,
      "Ġavailable": 4515,
      "ĠØªÙħÛģØ§Ø±ÛĴ": 4516,
      "Ġki": 4517,
      "ples": 4518,
      "ator": 4519,
      "ones": 4520,
      "ÛĮØ§Ûģ": 4521,
      "47": 4522,
      "Ø¨Ø±Ø¯": 4523,
      "Ġrole": 4524,
      "ĠÙĪÙĪ": 4525,
      "ĠØŃÙģØ§Ø¸Øª": 4526,
      "If": 4527,
      "ØĴ": 4528,
      "Ġparticular": 4529,
      "Ġseveral": 4530,
      "Ú©Ùħ": 4531,
      "ledge": 4532,
      "ĠÙĤÙĪØ§ÙĨÛĮÙĨ": 4533,
      "ĠØ§Ú¯ÙĦÛĴ": 4534,
      "ĠØ§ÙĨÚ©Ø´Ø§Ùģ": 4535,
      "Ø§Ø¬Ø¯": 4536,
      "ÙħÙĪÙĦÛĮ": 4537,
      "Ø¯Ùģ": 4538,
      "ĠÙĨØ«Ø§Ø±": 4539,
      "org": 4540,
      "ĠÙ¾ÚĳÚ¾ÙĨÛĴ": 4541,
      "Ġmult": 4542,
      "oint": 4543,
      "eral": 4544,
      "Ø¦ÛĮØ±": 4545,
      "ĠÙĪØ¬": 4546,
      "ĠØ¨Ø·ÙĪØ±": 4547,
      "Ġdue": 4548,
      "Ġnatural": 4549,
      "Ġareas": 4550,
      "ng": 4551,
      "ĠÙħÙĦÚ©ÙĪÚº": 4552,
      "Ġothers": 4553,
      "Ġhistory": 4554,
      "Ġhere": 4555,
      "ĠÙħØªÙĨ": 4556,
      "etw": 4557,
      "2017": 4558,
      "ĠÚĨÙĨØ§ÙĨÚĨÛģ": 4559,
      "ĠØ§ØªØ±": 4560,
      "ÙĪØ²ÛĮØ±Ø§Ø¹Ø¸Ùħ": 4561,
      "ode": 4562,
      "Ġap": 4563,
      "ern": 4564,
      "Ù¾Ûģ": 4565,
      "Ø°ÛĮØ±": 4566,
      "ĠÚ©ÛĮÙĪ": 4567,
      "ĠØ§Ø·ÙĦØ§Ø¹Ø§Øª": 4568,
      "ĠÚ¯Ú¾ÙĨÙ¹ÛĴ": 4569,
      "view": 4570,
      "ograph": 4571,
      "par": 4572,
      "ĠØªØµØ¯ÛĮÙĤ": 4573,
      "ÙĤØ±Ø§Ø±": 4574,
      "ĠÚĨØ±": 4575,
      "Ġ2011": 4576,
      "ĠØ§ÙĨØ¹ÙĤØ§Ø¯": 4577,
      "ĠØ®Ø·Ø±Ûģ": 4578,
      "45": 4579,
      "ĠÙħÙħØ¨Ø±": 4580,
      "ajor": 4581,
      "ilities": 4582,
      "Ġorder": 4583,
      "ĠÙĦÚ¯Ø§ÛĮØ§": 4584,
      "Ñĥ": 4585,
      "por": 4586,
      "Ġconsum": 4587,
      "ĠÙĪØ¢": 4588,
      "Ġ2012": 4589,
      "Ġopen": 4590,
      "Ġdig": 4591,
      "ke": 4592,
      "Ġconditions": 4593,
      "Ø¨Ú¾Ø§Ø±Øª": 4594,
      "ĠÚ©Ø±Ø³Ú©ØªÛĴ": 4595,
      "Ġable": 4596,
      "Ø§Ø·Ø±": 4597,
      "ĠØ³ÙĦÛĮÙħ": 4598,
      "ĠÛ²Û°": 4599,
      "ST": 4600,
      "ĠÙģØ§Ø±Ùħ": 4601,
      "Ø´ÛĮØ¯": 4602,
      "urity": 4603,
      "Ġcal": 4604,
      "ĠÛĮÙĪØ³": 4605,
      "Ġbehav": 4606,
      "ĠÙģÙĪØ±Ø³Ø²": 4607,
      "Ø§Ùĩ": 4608,
      "ĠÛģØ²Ø§Ø±ÙĪÚº": 4609,
      "ĠØ¬ÛĮØ³ÛĮ": 4610,
      "ĠØ®ÙĪØ¨ØµÙĪØ±Øª": 4611,
      "ĠØ§Ø¯Ø§Ø±Ûģ": 4612,
      "ĠØ§ÙĨØ¯Ø§Ø²Ûģ": 4613,
      "ĠØ´Ø¹Ø¨Ûģ": 4614,
      "Ġbeg": 4615,
      "Ø±ÛĮÙģÚ©": 4616,
      "ana": 4617,
      "ĠØ§Ø±Ú©": 4618,
      "ÛĮØ¯Ú¯ÛĮ": 4619,
      "ĠØ§ÙĨÚ¯ÙĦ": 4620,
      "ĠØ¨Ø±Ø§Ø¨Ø±": 4621,
      "ĠØ³ÙĨØª": 4622,
      "ĠNew": 4623,
      "ÙĪØ¬ÛģØ¯": 4624,
      "Ġstruct": 4625,
      "ĠÚ¯ÙĪØ±ÙĨØ±": 4626,
      "ĠØ«ÙĤ": 4627,
      "ĠØªÙħÛģÛĮÚº": 4628,
      "ged": 4629,
      "ĠØªØ±Ø¬ÙħÛģ": 4630,
      "Ġcir": 4631,
      "ĠØ¬ÙħØ¹Ûģ": 4632,
      "Ġach": 4633,
      "ĠÙ¾ÛģÙĦÙĪ": 4634,
      "ÙĪÙĨÚĪ": 4635,
      "Ġfree": 4636,
      "ĠBl": 4637,
      "ĠÙ¾ÛģÙĨÚĨÛĴ": 4638,
      "ĠÙħÚ©Ø§ÙĨ": 4639,
      "und": 4640,
      "ĠÙħØ´Ú©ÙĦØ§Øª": 4641,
      "Ġmar": 4642,
      "ĠÙ¾Ø§ÛĮØ§": 4643,
      "ĠAb": 4644,
      "Ø³Ø¹": 4645,
      "ĠÙĨØ§ÙħÛĮ": 4646,
      "Ġcurrent": 4647,
      "Ø³Ø§Ø¦": 4648,
      "Ġlevels": 4649,
      "Ð´": 4650,
      "ĠØ´ÙĪÛģØ±": 4651,
      "ĠØ³ÙĪÙĦ": 4652,
      "35": 4653,
      "ĠTe": 4654,
      "ÙĪÙ¾": 4655,
      "ĠÙĨÛģØ§ÛĮØª": 4656,
      "ĠÙĦÙĪÙ¹": 4657,
      "acy": 4658,
      "Ġthings": 4659,
      "ĠØ§Ø«Ø±Ø§Øª": 4660,
      "39": 4661,
      "ĠÛģØªÚ¾ÛĮ": 4662,
      "ĠØ²ÙħØ§ÙĨÛĴ": 4663,
      "Ø¹Ø§Øª": 4664,
      "Ġcertain": 4665,
      "Ø§Ù¾ÙĨÛĴ": 4666,
      "ĠØ±Ø®": 4667,
      "Ġearly": 4668,
      "Ġpress": 4669,
      "Ġfuture": 4670,
      "ĠØŃØµÙĪÙĦ": 4671,
      "ĠØ°Ø§Øª": 4672,
      "ĠØ§Ø±Ú©Ø§ÙĨ": 4673,
      "ĠØ±ÛĮÙĦÛĮ": 4674,
      "48": 4675,
      "Ġensure": 4676,
      "Ú©Ø§Ø±ÙĪÚº": 4677,
      "Ġenc": 4678,
      "ĠÙĪÙĦ": 4679,
      "ĠÚĪÛĮØ²": 4680,
      "Ġfunction": 4681,
      "ĠØ§ÛģÙĦÚ©Ø§Ø±": 4682,
      "ÙĲÙĳ": 4683,
      "Ø¥": 4684,
      "ĠØ´ÙħØ§ÙĦÛĮ": 4685,
      "ĠØ¯ÛĮØ¯": 4686,
      "Ġmill": 4687,
      "Ġbased": 4688,
      "ĠÙħØµØ±ÙĪÙģ": 4689,
      "Ø¨Ú¾ÛĮ": 4690,
      "Ø³ÙħØ§ÙĨ": 4691,
      "ĠØ³ÙĨØ¬": 4692,
      "ĠÙħØ³Ø§Ùģ": 4693,
      "Ø§Ú©ÛĮ": 4694,
      "ames": 4695,
      "aut": 4696,
      "ĠÙģÛĮØµÙĦ": 4697,
      "ĠÛģÙĪÚ©Ø±": 4698,
      "ĠØ®ÙĪØ§Ø¬Ûģ": 4699,
      "ĠØ¹Ø¨Ø§Ø¯Øª": 4700,
      "ÙĦØ§Ø¦ÛĮ": 4701,
      "ĠÙħÙĪÙĤÙģ": 4702,
      "erc": 4703,
      "ox": 4704,
      "Ú©Ø³ÛĮ": 4705,
      "Ø§ÙĪÛĮØ²": 4706,
      "Ġmil": 4707,
      "ĠÙĪØ§Ù¾Ø³ÛĮ": 4708,
      "ĠÙħÙĨØ§Ø³Ø¨": 4709,
      "Ø¨ÙĪÚº": 4710,
      "Ø±Ø²Ø§": 4711,
      "36": 4712,
      "ĠØ¬Ø¯ÙĪØ¬ÛģØ¯": 4713,
      "round": 4714,
      "ÙĳÙı": 4715,
      "Ġfore": 4716,
      "ÙĨÛģÛĮÚº": 4717,
      "Ġindividuals": 4718,
      "ĠÚ©ÙĦÛĮ": 4719,
      "ĠÚ©ÙĦØ§Ùħ": 4720,
      "ĠMay": 4721,
      "ĠØªÙĪØ§ÙĨ": 4722,
      "Ġcome": 4723,
      "ending": 4724,
      "ĠØŃØ§ÙħÙĦ": 4725,
      "ĠØ¹Ø¬": 4726,
      "Ġ197": 4727,
      "Ġcontrib": 4728,
      "ÛģÙĪ": 4729,
      "ĠØ§ÙĨÚĪÛĮØ§": 4730,
      "ÙĨÚ¯ÛĴ": 4731,
      "ĠÙħÙĤØ§ÙħØ§Øª": 4732,
      "Ġperiod": 4733,
      "ĠØªÛĮØ§Ø±ÛĮ": 4734,
      "ĠØ°ÛģÙĨ": 4735,
      "Ġsuccess": 4736,
      "ĠRes": 4737,
      "ĠØ¹Ø¨Ø¯Ø§ÙĦÙĦÛģ": 4738,
      "Ðµ": 4739,
      "ĠÚ¯ÙĦÚ¯Øª": 4740,
      "ĠGo": 4741,
      "ĠØ¨ÙĦØª": 4742,
      "Ġsays": 4743,
      "arc": 4744,
      "37": 4745,
      "ĠÙħØ®ØµÙĪØµ": 4746,
      "ĠÙħÙĪØ³ÛĮ": 4747,
      "Ø·Ûģ": 4748,
      "ĠØ§ÙĨØªÙĤØ§ÙĦ": 4749,
      "ĠØ§ÙħØ¯Ø§Ø¯": 4750,
      "ĠÙĪØ³Ø§Ø¦ÙĦ": 4751,
      "icult": 4752,
      "ĠÚ©Ø±Ø§ÙĨÛĴ": 4753,
      "Ġbi": 4754,
      "ĠØ¨Ø±Ø¯Ø§Ø´Øª": 4755,
      "Ø°ÛĮ": 4756,
      "Ø§Ø¦Ø³": 4757,
      "ĠÙħØ´Ø±Ùģ": 4758,
      "ression": 4759,
      "Ø§Ø¤Ø³": 4760,
      "ÙĤØ±Ø¢ÙĨ": 4761,
      "Ø¨ØªÛģ": 4762,
      "Ġsw": 4763,
      "gen": 4764,
      "ĠÛĮÙĪØ±Ù¾": 4765,
      "ĠØ³ÙĦÙħØ§ÙĨ": 4766,
      "ĠÚ©ÙħØ²ÙĪØ±": 4767,
      "âĢĺâĢĺÛĶ": 4768,
      "ĠØªØ±Ø¬ÛĮ": 4769,
      "ĠØ´ÛģØ±ÙĪÚº": 4770,
      "ĠÚĨÛĮÙĦ": 4771,
      "ĠØ§ÙĪÛģ": 4772,
      "ĠCl": 4773,
      "ĠIm": 4774,
      "Ġreport": 4775,
      "Ġur": 4776,
      "ĠØ§Ú©Ø«": 4777,
      "Ġfre": 4778,
      "Ø²Ø§Ø²": 4779,
      "oot": 4780,
      "ĠÙ¾ÛĮØ³ÛĴ": 4781,
      "Ġmen": 4782,
      "ances": 4783,
      "Ġoccur": 4784,
      "abor": 4785,
      "ĠÙ¾ÛĮØ¯Ø§ÙĪ": 4786,
      "Ø§ÛĮÙħ": 4787,
      "ÚĳÙĪÚº": 4788,
      "Ø§ÙĦØŃ": 4789,
      "sy": 4790,
      "ised": 4791,
      "ĠØ§ÛĮØ±Ø§ÙĨÛĮ": 4792,
      "Ø§ÙħØ±ÛĮÚ©ÛĮ": 4793,
      "ĠÙĦØŃ": 4794,
      "ĠÛĮØ§ÙģØªÛģ": 4795,
      "Ġwhe": 4796,
      "oring": 4797,
      "ĠÙĦÛģØ°Ø§": 4798,
      "Ġamount": 4799,
      "Ġ198": 4800,
      "Ù¾Ø³": 4801,
      "ĠØ§ØŃØªØ³Ø§Ø¨": 4802,
      "ĠØ¨ÙĦØªØ³ØªØ§ÙĨ": 4803,
      "ĠØ±ÙĪØ§Úº": 4804,
      "ĠÙĦÙħ": 4805,
      "ĠÙĤÙĦ": 4806,
      "ĠÚĪÛĮÙħ": 4807,
      "38": 4808,
      "ĠÙĨØ¬ÛĮ": 4809,
      "ĠØ°ÛĮÙĦ": 4810,
      "ĠÙ¾Ú©": 4811,
      "Ø±Ø§Ùģ": 4812,
      "ĠÙĪØ§Ø¨": 4813,
      "br": 4814,
      "ĠØ±ÛģØªÛĮ": 4815,
      "ĠØ§ÙĦØ²Ø§ÙħØ§Øª": 4816,
      "ĠÙ¾Ø§ÙĨ": 4817,
      "Ġgovernment": 4818,
      "ĠÃ": 4819,
      "ĠÙĪÙĦÛĮ": 4820,
      "ĠØŃÙĪØµ": 4821,
      "ĠÙħØ³ØªØ±Ø¯": 4822,
      "ĠÙ¾Ø§Ø¦ÛĴ": 4823,
      "ĠØ®ÛĮØ§ÙĦØ§Øª": 4824,
      "ĠÙħÙĦØ§Ø²ÙħÛĮÙĨ": 4825,
      "Ø§ÙħØª": 4826,
      "ĠSo": 4827,
      "ission": 4828,
      "Ø§Ø¸Ø±": 4829,
      "ĠØ®Ø§ØªÙħÛģ": 4830,
      "ĠØ§ï·²": 4831,
      "aa": 4832,
      "ÙĪÙĦÛĮØ§Øª": 4833,
      "ape": 4834,
      ")ÛĶ": 4835,
      "ĠØ³ÛģÙĪÙĦØª": 4836,
      "ĠØ®ÙĦÛĮ": 4837,
      "ĠÙħØŃØ±ÙĪÙħ": 4838,
      "Ø´ÙĪØ±": 4839,
      "Ġreduce": 4840,
      "ĠØ§ÙħÛĮØ¯ÙĪØ§Ø±": 4841,
      "ĠØ´Ø±ÛĮ": 4842,
      "ĠÚ©ÙĪØ¦Ù¹Ûģ": 4843,
      "ÛģØ±Ûģ": 4844,
      "ĠØ¯Ø§Ø¦Ø±": 4845,
      "ÙħÙĦÚ©Øª": 4846,
      "Ġko": 4847,
      "Ġlast": 4848,
      "Ø§ÙĪÛĮØ±": 4849,
      "Ġtimes": 4850,
      "ĠØ¢Ø¦ÙĨØ¯Ûģ": 4851,
      "Ġmonth": 4852,
      "ĠÛĮÙĪØ³Ùģ": 4853,
      "ĠÙħØ³ÛĮØŃ": 4854,
      "Ù¾ÙĦ": 4855,
      "ĠØŃÙħÙĦÙĪÚº": 4856,
      "ended": 4857,
      "ĠØŃØµÛĴ": 4858,
      "ived": 4859,
      "ĠØ¹Ø±ØµÛĴ": 4860,
      "ĠWhat": 4861,
      "Ġ>": 4862,
      "ĠØ§Ø±Ø´Ø§Ø¯": 4863,
      "ĠØ±ÛĮÙĨ": 4864,
      "ĠØ§ÛĮØ¦Ø±": 4865,
      "Ġquality": 4866,
      "Ġstep": 4867,
      "Ġhard": 4868,
      "ÙĨØ§ÙħÛģ": 4869,
      "ĠØ§ÙĬ": 4870,
      "ĠØ¯ÙģØ¹Ûģ": 4871,
      "ÛĮÚ©Ù¹Ø±": 4872,
      "ØŃØ§Øª": 4873,
      "ered": 4874,
      "ĠØ¨Ø±Ø·Ø§ÙĨÙĪÛĮ": 4875,
      "Ú¯ÙĨ": 4876,
      "Ġlanguage": 4877,
      "ĠØ±ØŃÙħØª": 4878,
      "ĠÙ¾Ú©Úĳ": 4879,
      "Ø§ØŃØ¯": 4880,
      "ĠÛĶÛĶ": 4881,
      "ÙĦÙĪÚ©": 4882,
      "Ġsymptoms": 4883,
      "ĠØ¬ÙĦØ³": 4884,
      "Ġskills": 4885,
      "ĠØ§ÙĨØªØ¸Ø§Ø±": 4886,
      "ush": 4887,
      "ĠØ·Ø±Ø²": 4888,
      "ĠØ³ÛĮÚ©Ú¾": 4889,
      "Ġrun": 4890,
      "ĠØ³ÙħØ¬Ú¾Ø§": 4891,
      "ĠØ³Ø±Ø¯Ø§Ø±": 4892,
      "ĠÙħÙĦØª": 4893,
      "ĠÙĨÛĮÚ©": 4894,
      "ĠØµÙĪØ¨Ûģ": 4895,
      "ĠØªØ¨Ø§Ø¯": 4896,
      "Ġmajor": 4897,
      "ÛģÙĪÙħ": 4898,
      "ĠÚ©Ú¾ÙĪ": 4899,
      "asing": 4900,
      "ĠÙĥØ§": 4901,
      "ĠÛģÙĪØ³Ú©ØªØ§": 4902,
      "Ġproblems": 4903,
      "Ġfil": 4904,
      "Ġnon": 4905,
      "ĠØ³Ú©ÛĮÙĪØ±Ù¹ÛĮ": 4906,
      "ĠØ®Ø§Ø·Ø±": 4907,
      "Home": 4908,
      "Ġprotect": 4909,
      "ĠUS": 4910,
      ")ØĮ": 4911,
      "comm": 4912,
      "ĠØ¬ÛģØ§Ø²": 4913,
      "Ø³ÙĦ": 4914,
      "atch": 4915,
      "over": 4916,
      "ĠØ³ÛĮÙ¹": 4917,
      "ĠÚ©Ú¾ÚĳØ§": 4918,
      "ÙĪÙĤØª": 4919,
      "ilar": 4920,
      "ĠWith": 4921,
      "Ġeducation": 4922,
      "ĠUniversity": 4923,
      "Ġheart": 4924,
      "ĠØ¯ÙĪØ³Ø±ÙĪÚº": 4925,
      "ĠÙħÙĨÙ¹": 4926,
      "__": 4927,
      "ĠÙħØ¯Øª": 4928,
      "ĠÙĥÙĪ": 4929,
      "ĠÙĨØ²Ø¯": 4930,
      "ĠØ¨Ø±Ø§Ø¯Ø±ÛĮ": 4931,
      "ek": 4932,
      "ĠØ§ÙħØªØŃ": 4933,
      "ĠâĨ": 4934,
      "ĠØ±ÙĪÚ©ÙĨÛĴ": 4935,
      "Ø§Ø³ØªÛĮ": 4936,
      "Ġflow": 4937,
      "Ġunderstanding": 4938,
      "ĠØ·Ø§ÛģØ±": 4939,
      "ĠÙĦÙĨØ¯ÙĨ": 4940,
      "Ġnut": 4941,
      "ĠØ§Ø¨ØªØ¯Ø§Ø¦ÛĮ": 4942,
      "ØªØ±Ø¬": 4943,
      "ĠÚĪÛĮÙĪ": 4944,
      "Ġdam": 4945,
      "ĠÛģØ¬": 4946,
      "ÙĦØ§ÙĤÛĮ": 4947,
      "Ġlot": 4948,
      "ĠØ¯ÙĪÙĦØª": 4949,
      "ÙĨÚ¯Ø²": 4950,
      "ĠØ§ÙĦØ¨": 4951,
      "ĠÙĨÙĪØ§Ø²Ø´Ø±ÛĮÙģ": 4952,
      "Ġissues": 4953,
      "ØĲ": 4954,
      "ĠØªÙĪÙĤ": 4955,
      "Ġproblem": 4956,
      "ÙĪØ¬Ú¾": 4957,
      "Ġcase": 4958,
      "Ġteam": 4959,
      "Ġcomput": 4960,
      "aging": 4961,
      "Ġeffic": 4962,
      "ER": 4963,
      "ton": 4964,
      "Ġnecess": 4965,
      "ĠAM": 4966,
      "Ġonline": 4967,
      "ĠØ±Ø´ÛĮØ¯": 4968,
      "ĠÙĦØ§Ø´": 4969,
      "ĠØ¢Ø¦ÛĮÚº": 4970,
      "Ù¾Ø§Ø±Ù¹ÛĮ": 4971,
      "ĠÙħØ¹ÙħÙĪÙĦÛĮ": 4972,
      "Ġlet": 4973,
      "of": 4974,
      "Ø§Ø¯Ùħ": 4975,
      "2019": 4976,
      "Ġtoday": 4977,
      "Ġincrease": 4978,
      "ĠØŃØ§ÙĦÛĮÛģ": 4979,
      "ĠÚ©ÛĮÙħÙ¾": 4980,
      "ĠØ§Ù¾ÛĮÙĦ": 4981,
      "ÙĪÙĨØ¯": 4982,
      "Ġtypes": 4983,
      "âĢ®": 4984,
      "ĠØ¬Ø§Ø³": 4985,
      "ĠÚĨØ§ÙĦ": 4986,
      "ĠØ³ÛĮØ±ÛĮØ²": 4987,
      "46": 4988,
      "obal": 4989,
      "ĠÙ¾Ø±ÙĪÙģÛĮØ³Ø±": 4990,
      "ĠÙħÙģØª": 4991,
      "Ġage": 4992,
      "ĠØ§Ø³ÙĦ": 4993,
      "ffic": 4994,
      "ĠØ¯ÙħØ§Øº": 4995,
      "Ø§Ø±Ù¹": 4996,
      "Ø§Ø¦ÛĮÙĪ": 4997,
      "St": 4998,
      "We": 4999,
      "ole": 5000,
      "Ø§Ø¹Ø´": 5001,
      "Ġrespons": 5002,
      "ĠÙ¹ÙĪÙ¹": 5003,
      "ĠÙ¾Ø±ÛĮØ´Ø§ÙĨ": 5004,
      "Ġrece": 5005,
      "ĠØµØ§Ø±ÙģÛĮÙĨ": 5006,
      "ĠØ³ÛĮÚ©ÛĮ": 5007,
      "Ġâ": 5008,
      "Ġlocal": 5009,
      "Ġassoci": 5010,
      "ĠÙħØŃØ¯ÙĪØ¯": 5011,
      "ĠØ¹ÙĪØ±ØªÙĪÚº": 5012,
      "ĠÙĪØ¶Ø§ØŃØª": 5013,
      "ĠÚ©ÛģØªØ§": 5014,
      "ĠÙĦÙĨÚ©": 5015,
      "Ġunt": 5016,
      "ĠÙĪÚ©ÛĮÙĦ": 5017,
      "ÙĪØ§Úº": 5018,
      "crib": 5019,
      "Ø§Ø²ÛĴ": 5020,
      "ÛĮÙĦÛĴ": 5021,
      "Ġcommunity": 5022,
      "Ġland": 5023,
      "idence": 5024,
      "ØªÙĨ": 5025,
      "ĠÚ©Ø§Ø±ÚĪ": 5026,
      "ĠØŃØ§ÙģØ¸": 5027,
      "ĠØªØ¬ÙĪÛĮØ²": 5028,
      "ĠØ¢Ùħ": 5029,
      "ĠØ¹ÙħØ§Ø±Øª": 5030,
      "ĠÚ©Ø«": 5031,
      "ding": 5032,
      "face": 5033,
      "ĠØ¶ÙħØ§ÙĨ": 5034,
      "ĠØ¨Ø±ÙĤØ±Ø§Ø±": 5035,
      "Ġtemper": 5036,
      "Ġcy": 5037,
      "ung": 5038,
      "ĠØ§ÙĨÚ¯Ø±ÛĮØ²ÛĮ": 5039,
      "Ġgroup": 5040,
      "Ġamong": 5041,
      "ĠØ§Ø±Ø¯": 5042,
      "Ġfollowing": 5043,
      "ĠBe": 5044,
      "Ø®Ø±ÛĮ": 5045,
      "ret": 5046,
      "Ø¶ÙĦ": 5047,
      "ware": 5048,
      "Ġphysical": 5049,
      "oney": 5050,
      "alk": 5051,
      "Ø·ÙĦ": 5052,
      "ĠÙħÙĨØµÙĪØ¨ÙĪÚº": 5053,
      "ĠØªØ®ÙĦÛĮ": 5054,
      "ĠØ¯Ø³ØªÛĮØ§Ø¨": 5055,
      "ĠØ§ÙĤØ¯Ø§Ùħ": 5056,
      "Ġlist": 5057,
      "aster": 5058,
      "ĠÛģÙĬÚº": 5059,
      "atory": 5060,
      "mit": 5061,
      "Ġmaintain": 5062,
      "ĠÚĪÙ¾Ù¹ÛĮ": 5063,
      "utions": 5064,
      "49": 5065,
      "ĠÛĮÙĪØ±Ù¾ÛĮ": 5066,
      "ÙģÛĮÛģ": 5067,
      "ours": 5068,
      "ators": 5069,
      "ĠØªØµØ§ÙĪÛĮØ±": 5070,
      "ething": 5071,
      "Ġspecial": 5072,
      "ÙĪØ§Ø¦ÛĮ": 5073,
      "osp": 5074,
      "Ġbro": 5075,
      "ĠÙ¾ÚĳØªØ§": 5076,
      "ecially": 5077,
      "ĠØ³ÙĨØ¨Ú¾": 5078,
      "sel": 5079,
      "Ġcomb": 5080,
      "leep": 5081,
      "Ġrele": 5082,
      "ĠØªÙĪÚº": 5083,
      "ĠØªØ¬Ø§Ø±Øª": 5084,
      "Ø®Ø§Ø±": 5085,
      "raw": 5086,
      "ĠVi": 5087,
      "Ġcru": 5088,
      "Ġcrit": 5089,
      "Ġcr": 5090,
      "Ġdifficult": 5091,
      "Ø±Ø§Ø¡": 5092,
      "ĠØ§Ø¯Ø§Ø¦ÛĮÚ¯ÛĮ": 5093,
      "ĠÙħØ§ÚĪÙĦ": 5094,
      "Ø¹ÙħÙĦ": 5095,
      "ĠÙħØªØ¹ÙĦÙĤÛģ": 5096,
      "fact": 5097,
      "Ġname": 5098,
      "Ø§Ø¦ÙĪ": 5099,
      "yn": 5100,
      "ĠØ¯ÙĪØ±ÛĴ": 5101,
      "ĠØ¨Ø±Ø¢ÙħØ¯": 5102,
      "ĠØ¨ÚĨÛģ": 5103,
      "ĠÙ¾Ø§Ø¦ÛĮ": 5104,
      "Ġmind": 5105,
      "Â»": 5106,
      "ĠÙħØ¹Ø§ÙĪÙĨ": 5107,
      "Ġdog": 5108,
      "https": 5109,
      "ĠÙģØ§Ø¦ÙĨ": 5110,
      "Ø¯Ø§ÙĨÙĪÚº": 5111,
      "ĠÛģÙĪÙĨÛĮ": 5112,
      "ĠØ³Ø³Ù¹Ùħ": 5113,
      "''": 5114,
      "izing": 5115,
      "ĠCan": 5116,
      "ĠÚĨÛĮÙĦÙĨØ¬": 5117,
      "ĠØ´Ø§Ø¹Ø±": 5118,
      "Ġgrowth": 5119,
      "ĠÙħØ¬ÙħÙĪØ¹ÛĮ": 5120,
      "Ġthink": 5121,
      "ÙħØ§ÙĨÛĮ": 5122,
      "ĠØ¹Ø±ØµÛģ": 5123,
      "ĠÙĪÚ©Ù¹": 5124,
      "Ġka": 5125,
      "ĠÙħÛģØ§Ø¬": 5126,
      "ĠÙ¹Ø±ÛĮÙģÚ©": 5127,
      "ĠØ²ÛĮ": 5128,
      "ĠÛģÙĨÚ¯": 5129,
      "ÛĮÙĨØ§": 5130,
      "Ġï»": 5131,
      "ĠØ³ÛĮÚ©ÛĮÙĪØ±Ù¹ÛĮ": 5132,
      "ĠØ¨ÙĨØ§ÙĨØ§": 5133,
      "ĠØ¨ÛģØªØ±ÛĮ": 5134,
      "Ø§ÙĨÚ©Ûģ": 5135,
      "ĠÙĪØ³ÛĮØ¹": 5136,
      "ĠÙģØ§Ø±ÙĪÙĤ": 5137,
      "ĠØ³Ø§ÙĦØ§ÙĨÛģ": 5138,
      "ĠØ¹Ø±Ø§ÙĤ": 5139,
      "olution": 5140,
      "ĠØ¹ÙĦÙħÛĮ": 5141,
      "Ġsens": 5142,
      "ĠØ®Ø·Ø±": 5143,
      "Ġchanges": 5144,
      "ĠØ³Ø§ÙĦÙĪÚº": 5145,
      "Ġchalleng": 5146,
      "Ġacross": 5147,
      "ĠØ±ÙĪÙ¾": 5148,
      "ÙĪÙĨÚ¯": 5149,
      "Ġknowledge": 5150,
      "Ġways": 5151,
      "ĠÙĨÛĮÙ¹": 5152,
      "Ġobject": 5153,
      "Ġsecond": 5154,
      "aring": 5155,
      "Ø³Ù¹Ø±ÛĮÙĦÛĮØ§": 5156,
      "ĠØ§ÙģÙĪØ§Ø¬": 5157,
      "ÙĪÙ¹ÙĪ": 5158,
      "ĠÚĨÙĪÙĨÚ©Ûģ": 5159,
      "ĠØ¯ÛĮÚ©Ú¾ÛĮÚº": 5160,
      "ĠÚĨÛĮÙħ": 5161,
      "ÙħØ²ÛĮØ¯": 5162,
      "Ġbat": 5163,
      "ĠØ§ÙĨØ³Ø§ÙĨÛĮØª": 5164,
      "60": 5165,
      "ĠÙħØ¨Øª": 5166,
      "Pre": 5167,
      "ĠØ²ÙħØ§ÙĨÛģ": 5168,
      "Ø³Ù¾ÛĮ": 5169,
      "ians": 5170,
      "edia": 5171,
      "Ġcountry": 5172,
      "ĠÚ©ÙħØ§ÙĦ": 5173,
      "ĠÙĤØ¨Ø¶Ûģ": 5174,
      "Ġdeterm": 5175,
      "ĠØ§Ù¹": 5176,
      "ĠØ¹Ø¯": 5177,
      "ope": 5178,
      "ĠØ®Ø§ØªÙħÛĴ": 5179,
      "ĠØ·ÙĦØ¨Ûģ": 5180,
      "ĠÚĪØ§Ø¦Ø±ÛĮÚ©Ù¹Ø±": 5181,
      "ĠØ¨Ú¾ÙĪÙĦ": 5182,
      "ibility": 5183,
      "Ġplants": 5184,
      "ĠÙħÙĦØ²ÙħØ§ÙĨ": 5185,
      "Ġwhy": 5186,
      "ÙĨÚĪØ§": 5187,
      "ately": 5188,
      "ÙĬÙħ": 5189,
      "rist": 5190,
      "ĠØ´Ø§Ø¹Ø±ÛĮ": 5191,
      "ï¯": 5192,
      "ÙĪÛĮÙ¹": 5193,
      "ĠCol": 5194,
      "31": 5195,
      "ĠØ¹Ø±Ø¶": 5196,
      "ĠÛģØ§Ø¤Ø³": 5197,
      "ĠØ§Ø³Ù¾ØªØ§ÙĦ": 5198,
      "ĠØ±Ø§ÙĪÙĦ": 5199,
      "Ûĵ": 5200,
      "Ġaddress": 5201,
      "sh": 5202,
      "ØŃÚ©Ø§Ùħ": 5203,
      "Ġhealthy": 5204,
      "ĠØ§Ø®ØªØª": 5205,
      "Ġscient": 5206,
      "Ġbenefits": 5207,
      "Ø²ÛĮÛģ": 5208,
      "ĠØªØ±ÙħÛĮÙħ": 5209,
      "Ġvir": 5210,
      "Ġalways": 5211,
      "ØªØ¨": 5212,
      "ÙģÛĴ": 5213,
      "ĠÙģØ±ÙħØ§": 5214,
      "ĠÙħØ«Ø¨Øª": 5215,
      "ĠÙĨØ²Ø¯ÛĮÚ©": 5216,
      "ĠØ§ÙĪÙĤØ§Øª": 5217,
      "ĠÙħØ®Ø§ÙĦÙģØª": 5218,
      "ĠØ§ÙĨÙ¹Ø±ÙĨÛĮØ´ÙĨÙĦ": 5219,
      "ĠÚĨÛĮÚ©": 5220,
      "especially": 5221,
      "ĠØ¨ÙĨØ§Ø¦ÛĮ": 5222,
      "ĠÙħÙĨØ³": 5223,
      "ĠØ¢ÙĨÚ©Ú¾ÙĪÚº": 5224,
      "ÙĪØ¯Ûģ": 5225,
      "ĠØªÙĪØ§ÙĨØ§Ø¦ÛĮ": 5226,
      "ÛĮÙĨØ³": 5227,
      "oor": 5228,
      "ĠÙħØ²Ø§ØŃ": 5229,
      "atures": 5230,
      "Ġbir": 5231,
      "urop": 5232,
      "Ø§Ø¦ÙĤ": 5233,
      "ĠÙĨÚ¯Ø§Ø±": 5234,
      "ĠÚĨÚ¾ÙĪÙ¹ÛĮ": 5235,
      "Ø®Ûģ": 5236,
      "ĠAf": 5237,
      "Ø¯ÙĪØ³Ø±ÛĮ": 5238,
      "ĠØ§ØªÙĨÛĴ": 5239,
      "Ġ31": 5240,
      "ĠUnited": 5241,
      "ĠØ³ÛĮÙĨØ¦Ø±": 5242,
      "ĠÙħÙħÙĦÚ©Øª": 5243,
      "Ø§Ø¦ÙĪÚº": 5244,
      "ĠÛģÛĮÙĦ": 5245,
      "lement": 5246,
      "ÙĦÛĮØª": 5247,
      "ĠÙģÙĦØ³Ø·ÛĮÙĨ": 5248,
      "ĠØ¨Ø²Ø±Ú¯": 5249,
      "Ġsince": 5250,
      "ÙģØ±ÛĮ": 5251,
      "ĠÚ©ÛĮÙħ": 5252,
      "Ú©ÙĪØ±Ûģ": 5253,
      "ĠÙħØŃØ¨": 5254,
      "ĠJan": 5255,
      "ĠØºÙħ": 5256,
      "ÛĶâĢĺ": 5257,
      "ĠØ¬ÙĨØ³ÛĮ": 5258,
      "ĠÙħÙģØªÛĮ": 5259,
      "ĠØ§ØµÙĪÙĦ": 5260,
      "ĠÚ©ÙĦØ§Ø³": 5261,
      "put": 5262,
      "Ġhead": 5263,
      "Ø¬Ø¦ÛĴ": 5264,
      "99": 5265,
      "Ġhttps": 5266,
      "Ø§Ø±Ø§Øª": 5267,
      "Ø±ÛĮØ§": 5268,
      "ĠÙĦØŃØ§Ø¸": 5269,
      "ĠÙģØ¶Ø§Ø¦ÛĮ": 5270,
      "Ġput": 5271,
      "ĠØ¢Ø±ÙħÛĮ": 5272,
      "Ġactivities": 5273,
      "ĠØ§ÙĨØªØ®Ø§Ø¨ÛĮ": 5274,
      "ĠØ¶ÙħØ§ÙĨØª": 5275,
      "ĠØ¬Ø§Ø±": 5276,
      "orth": 5277,
      "There": 5278,
      "ĠØ±ÙĪØ§": 5279,
      "ĠÙħØŃØªØ±Ùħ": 5280,
      "Ø§Ø¯ÙĤ": 5281,
      "ĠØ³Ø±ØŃØ¯": 5282,
      "Ġ2010": 5283,
      "ara": 5284,
      "ĠØ¬ÙĨØª": 5285,
      "ires": 5286,
      "ĠØ¹Ø³Ú©": 5287,
      "ĠÚ©ÛĮÚº": 5288,
      "ĠØ§Ø±Ø§Ø¯": 5289,
      "ĠÙĨØ§ÙģØ°": 5290,
      "Ġorig": 5291,
      "Ġgive": 5292,
      "Ġshort": 5293,
      "Ġhai": 5294,
      "ĠÙħÙĪÙ¹Ø±": 5295,
      "ĠØ²Ø¨Ø±Ø¯": 5296,
      "ĠÙ¾ÛĮØ¯Ø§ÙĪØ§Ø±": 5297,
      "ĠØ¨Ø®Ø§Ø±ÛĮ": 5298,
      "Ø°ÛĮØ¨": 5299,
      "ĠØ§Ø¶Ø§ÙģÛĴ": 5300,
      "Ø³Ø§Ùħ": 5301,
      "ĠÙ¾Ø±Ø³Øª": 5302,
      "Ġi": 5303,
      "ĠØ§ÙĦØ±ØŃÙħÙĨ": 5304,
      "Ġnear": 5305,
      "Ġnews": 5306,
      "ĠÙ¾ÚĨ": 5307,
      "Ø°Ø±": 5308,
      "ĠÙ¹Ø±ÛĮ": 5309,
      "ĠÚ©Ú¾ÙĦØ§ÚĳÛĮ": 5310,
      "ĠAmerican": 5311,
      "ĠÚ©ÙĦØ¨": 5312,
      "app": 5313,
      "Ġspecies": 5314,
      "ĠÙģÙĪØ±Ùħ": 5315,
      ".,": 5316,
      "Ġsure": 5317,
      "55": 5318,
      "Ø§ÛģÙĦ": 5319,
      "ĠÚ¯Ø±ÙģØªØ§Ø±ÛĮ": 5320,
      "Ġsomething": 5321,
      "ĠØ§ÙĦØ·": 5322,
      "ØŃÚ©Ùħ": 5323,
      "Ø§ÙħØ±ÛĮÚ©Ûģ": 5324,
      "ĠØ¯Ø§Ø¯": 5325,
      "ĠØ´ÙĪØ±": 5326,
      "Ø³Ø¹ÙĪØ¯ÛĮ": 5327,
      "ĠØ¹Ø±Ùģ": 5328,
      "Ġrange": 5329,
      "ĠÙĪØ¢ÙĦÛģ": 5330,
      "ØªØ±Ø§Ùħ": 5331,
      "ØªÛĮØ¨": 5332,
      "ĠØ§ÛĮÙ¹": 5333,
      "Ġlikely": 5334,
      "ĠÚ©Ø±ÛĮ": 5335,
      "ĠØ§Ø®ÙĦØ§ÙĤÛĮ": 5336,
      "Ġworking": 5337,
      "ym": 5338,
      "ÛĮÙĨÙĪÚº": 5339,
      "Ġhigher": 5340,
      "AR": 5341,
      "ĠÙĪØ§ØŃØ¯": 5342,
      "ĠÚ¯Ø°Ø´ØªÛģ": 5343,
      "ĠØ§ÙħØªØŃØ§ÙĨ": 5344,
      "Ġstress": 5345,
      "ĠÚ©Ø§Ø¨ÛĮÙĨÛģ": 5346,
      "ĠÚĨÚ¾Ù¾": 5347,
      "ÙĨÚĪÛĴ": 5348,
      "Ġstrateg": 5349,
      "ĠØªØ´ÙĪÛĮ": 5350,
      "ips": 5351,
      "ĠÙģØ±Ø¶": 5352,
      "ĠØ±ÙĪØ§ÙĨÛģ": 5353,
      "ĠØ³ÙĪØ¯": 5354,
      "ables": 5355,
      "aces": 5356,
      "Ġaffect": 5357,
      "ĠØ¬Ø²": 5358,
      "Ġdays": 5359,
      "Ġexperien": 5360,
      "ĠÙħØ¨ÙĨÛĮ": 5361,
      "ĠØ´Ø§ÙĨØ¯Ø§Ø±": 5362,
      "ĠØŃØ±Ø§Ùħ": 5363,
      "ĠØ¨Ú¾Ø§Ø±ÛĮ": 5364,
      "ĠØ§ÙĨØ³Ø§ÙĨÙĪÚº": 5365,
      "ĠØ¯Ú¾ÙħØ§Ú©ÛĴ": 5366,
      "Ġsoci": 5367,
      "Ù¹Ø±ÙĪÛĮÙĪ": 5368,
      "ĠØ´ÛģØ§Ø¯Øª": 5369,
      "ĠØªÙĨØ§Ø²": 5370,
      "Ġsal": 5371,
      "Ġspace": 5372,
      "Ø±ÛĮÙ¹Ø±ÛĮ": 5373,
      "Ø¯ÙĨÛĮØ§": 5374,
      "Ø¹Ø§": 5375,
      "ĠØŃÛĮØ±Øª": 5376,
      "ĠÚ©Ú¾ÙĦØ§ÚĳÛĮÙĪÚº": 5377,
      "Ø§Ø³Ù¹": 5378,
      "ĠÙħÙĨØ¯Ø±": 5379,
      "ĠØ´ÛģØ²Ø§Ø¯": 5380,
      "ĠÙħØ±Ø²Ø§": 5381,
      "ĠØ¨Ù¹": 5382,
      "oura": 5383,
      "Ø±Ø¯ÛĮ": 5384,
      "Ġresources": 5385,
      "ĠÙģØ§Ø¦ÙĨÙĦ": 5386,
      "Ġcells": 5387,
      "ored": 5388,
      "ĠÙħØ¤": 5389,
      "Ġespecially": 5390,
      "ĠØ§ÙĦØ¨ØªÛģ": 5391,
      "Ġstrong": 5392,
      "Ø§Ø¤ÙĨÙ¹": 5393,
      "ĠÙħØ±ÛĮØ¶ÙĪÚº": 5394,
      "ĠÙ¹ÛĮÚ©": 5395,
      "Ġtre": 5396,
      "Ø§Ø³Ùħ": 5397,
      "Ġsaf": 5398,
      "ĠØ§ÙĪÙĦØ§Ø¯": 5399,
      "Ø±ÙħÛĮ": 5400,
      "ĠØ§Ú¯Ø±ÚĨÛģ": 5401,
      "ĠØµØŃØ§Ø¨Ûģ": 5402,
      "Ġachie": 5403,
      "ĠÙ¾ÛģÚĨ": 5404,
      "ĠÙĪÛģÛĮÚº": 5405,
      "not": 5406,
      "ĠØµØŃØ§Ùģ": 5407,
      "ober": 5408,
      "iting": 5409,
      "ĠØµØ¯Ø§Ø±Øª": 5410,
      "Ú¯Ø§ÙĨ": 5411,
      "Ø§Ø¦ÛĮØ§Úº": 5412,
      "ĠØ¬ÙĨÛģÛĮÚº": 5413,
      "ĠØ±ÙģØªØ§Ø±": 5414,
      "ĠÙ¾Ø¨ÙĦ": 5415,
      "ĠØ¹Ø§ÙħØ±": 5416,
      "ĠØ§ØªØ§Ø±": 5417,
      "ĠOr": 5418,
      "ĠØ¨Ø§ØªÙĪÚº": 5419,
      "Ġnetw": 5420,
      "ights": 5421,
      "ĠØ¨Ø§ÙĦØ§": 5422,
      "etic": 5423,
      "ĠX": 5424,
      "ĠØ³Ú©Ø§": 5425,
      "\\\":": 5426,
      "ĠØ´Ù¾": 5427,
      "ĠÛģÛĮØ±": 5428,
      "ĠWorld": 5429,
      "ĠÙħØ®ØªØµØ±": 5430,
      "ĠØ´Ø¹Ø¨ÛĴ": 5431,
      "ĠØ¯Ø§Ø¦": 5432,
      "Ø§ÙĦØ§": 5433,
      "ĠØ§ÙĦØµ": 5434,
      "Ø§Ø±Ø´": 5435,
      "ĠÚĨØ§ÙĨØ¯": 5436,
      "li": 5437,
      "Ġmedical": 5438,
      "ĠÙĨÙħØ§ÛĮØ§Úº": 5439,
      "Ø§ØªÚ¾Ø§": 5440,
      "for": 5441,
      "ÙģØ³": 5442,
      "ĠÙħÙĤØ¨ÙĪÙĦ": 5443,
      "Ø§Ø´ÛĮ": 5444,
      "Ġturn": 5445,
      "ĠØ§ÚĨØ§ÙĨÚ©": 5446,
      "Ġalong": 5447,
      "Ġrepres": 5448,
      "ĠÙĦØ§Ø¦ÛĴ": 5449,
      "ĠØ¨ÛģÙĨ": 5450,
      "ivity": 5451,
      "Ø§ØªØ°Ûģ": 5452,
      "ĠØ¯ÛĮØ´": 5453,
      "ÙĪØ¨Ûģ": 5454,
      "ĠÙħØ¬ÛĮØ¯": 5455,
      "ĠØ±Ú©Ú¾ØªÛĮ": 5456,
      "2015": 5457,
      "ĠØ§Ø¹ØªØ±Ø§Ø¶": 5458,
      "ooks": 5459,
      "Ġhttp": 5460,
      "ØªØ§ØŃ": 5461,
      "ĠØ±Ø§ÙĪÙĦÙ¾ÙĨÚĪÛĮ": 5462,
      "stry": 5463,
      "Ġsafe": 5464,
      "Ġopportun": 5465,
      "Ġtext": 5466,
      "AA": 5467,
      "Ġhelps": 5468,
      "Ø¯Ø³": 5469,
      "ĠØ¢Ø±Ûģ": 5470,
      "Ġrelations": 5471,
      "Ø¤Úº": 5472,
      "ĠØ®Ø²Ø§ÙĨÛģ": 5473,
      "ĠØªØ§Ø±": 5474,
      "ĠÚ¯ÙĦÛĮ": 5475,
      "ĠÚĨØ§ÛģØªÛĮ": 5476,
      "Ø§ÙĨÚĪØ±": 5477,
      "ĠÙħØ¬ÙĦØ³": 5478,
      "ĠÙħØ¯ÛĮÙĨÛģ": 5479,
      "ĠÙĪØ±ÙĨÛģ": 5480,
      "ĠÛģÙħØ±Ø§Ûģ": 5481,
      "ĠÚ¯ÙĪØ±": 5482,
      "'t": 5483,
      "Ġfactors": 5484,
      "ĠÙħÙĦØ§Ø²ÙħØª": 5485,
      "ĠØ°ÛģÙĨÛĮ": 5486,
      "ĠÙĤÙĦÙħ": 5487,
      "Ø§ÛĮØ³": 5488,
      "ĠÚ©Ù¾ØªØ§ÙĨ": 5489,
      "Ġet": 5490,
      "Ø¨Ú¾Ø§Ø±ØªÛĮ": 5491,
      "Ġproducts": 5492,
      "ĠÙħØ·Ø§ÙĦØ¹Ûģ": 5493,
      "ĠØ§Ú©Ø«Ø±ÛĮØª": 5494,
      "ĠÚ©ÙħÛĮÙĪÙĨ": 5495,
      "Ġbrain": 5496,
      "ooking": 5497,
      "Ġ+": 5498,
      "Ġconcer": 5499,
      "ĠØ§ÙĨÚ¯ÛĮ": 5500,
      "ÛĨ": 5501,
      "ĠÙħÙĪØ¬ÙĪØ¯Ú¯ÛĮ": 5502,
      "Ġeffects": 5503,
      "ĠÙħÛģÛĮÙĨÛĴ": 5504,
      "âĢ¬âĢ®": 5505,
      "ĠÙĤØ§Ø¨ÙĪ": 5506,
      "ĠØ§Ø®ØªØ±": 5507,
      "Ġpay": 5508,
      "Ġcontent": 5509,
      "ĠØªØ¬Ø±Ø¨Ûģ": 5510,
      "ĠØŃÚ©ÙħØ±Ø§ÙĨÙĪÚº": 5511,
      "ĠØ¢Ø¦ÛĮÙĨ": 5512,
      "ĠØŃÛĮØ±Ø§ÙĨ": 5513,
      "ems": 5514,
      "When": 5515,
      "Ġusually": 5516,
      "ĠÚĨÛģØ±ÛĴ": 5517,
      "Ġresults": 5518,
      "ĠÙħÙĦØªÛĮ": 5519,
      "ĠÙħØ¨ØªÙĦØ§": 5520,
      "ĠâĢĮ": 5521,
      "ĠØ¨Ú¾Ø§Ú¯": 5522,
      "ĠØªÚ©ÙĦÛĮÙģ": 5523,
      "Ø³ÛĮØ±": 5524,
      "ĠØ§Ø¹Ø²Ø§Ø²": 5525,
      "ØŃØ¯": 5526,
      "ray": 5527,
      "Ġdiscuss": 5528,
      "ĠØ³ÙĦØ·Ø§ÙĨ": 5529,
      "Ġmot": 5530,
      "ma": 5531,
      "Ġclean": 5532,
      "ĠØ®Ø§ÙĦÛĮ": 5533,
      "Ù¾ÙĨØ¬Ø§Ø¨": 5534,
      "ĠÚĪØ§Ø¤ÙĨ": 5535,
      "ĠØªÙĤØ±ÛĮØ±": 5536,
      "Ġclear": 5537,
      "ÙĨØ¯ÛĴ": 5538,
      "ĠØ¨ÛĮÙĦ": 5539,
      "ĠØ³ÙģÛĮØ±": 5540,
      "pos": 5541,
      "ĠØ³ÙĪØ§": 5542,
      "oon": 5543,
      "Ġ60": 5544,
      "Ġaccount": 5545,
      "ery": 5546,
      "Ġworks": 5547,
      "urope": 5548,
      "by": 5549,
      "Ġemploy": 5550,
      "ĠØ³ÛĮÚ©ÙĪØ±Ù¹ÛĮ": 5551,
      "ĠØ±Ø´ØªÛģ": 5552,
      "ĠÚ©ÛĮØ³Ø§ØªÚ¾": 5553,
      "ĠÙĪÙģØ¯": 5554,
      "ĠØ±ÛĮØ§Ø¶": 5555,
      "ĠØ§ÙĨØªÛģØ§": 5556,
      "go": 5557,
      "Ø³ÛĮØ¯": 5558,
      "ĠØ¯ÛĮÚ©": 5559,
      "ĠÙĬÛģ": 5560,
      "ĠØ²Ø¨": 5561,
      "ruction": 5562,
      "ÛĶ[": 5563,
      "ĠÙĦØ§ÙĦ": 5564,
      "ĠØ§Ø´Ø§Ø±Ûģ": 5565,
      "ĠÙħÙĦØªØ§": 5566,
      "Ġtoget": 5567,
      "34": 5568,
      "Ġtogether": 5569,
      "ĠØ±ÙĪØŃØ§ÙĨÛĮ": 5570,
      "ĠØªÚ©ÙħÛĮÙĦ": 5571,
      "Ġvol": 5572,
      "ĠÙħØ±Ø¶ÛĮ": 5573,
      "ĠØ³ÛģÙĪÙĦÛĮØ§Øª": 5574,
      "ĠÙĪÙģØ§Øª": 5575,
      "ĠØ®Ø·Ø±ÙĨØ§Ú©": 5576,
      "ĠÙĦØ¨Ø§Ø³": 5577,
      "NA": 5578,
      "Ø¸Ø±": 5579,
      "Ø§Ú©ÛĮÙĨ": 5580,
      "Ø±Ø§Ùħ": 5581,
      "ĠØŃÙĪØµÙĦÛģ": 5582,
      "Ġmarket": 5583,
      "ured": 5584,
      "Ġself": 5585,
      "Ġavoid": 5586,
      "Ú©ÙĪØ±": 5587,
      "Ġtry": 5588,
      "Ø´ØªØ±": 5589,
      "Ù¾Ø±ÛĮØ´ÙĨ": 5590,
      "ØŃØ§ÙĨ": 5591,
      "ns": 5592,
      "ĠØ³Ø§Ø²ÛĮ": 5593,
      "bon": 5594,
      "ĠÙĤÛĮÙħØªÙĪÚº": 5595,
      "57": 5596,
      "ides": 5597,
      "ĠÙ¾ÚĳÛĮ": 5598,
      "ĠØ§Ø¹ØªØ¨Ø§Ø±": 5599,
      "ĠÙĦØ§Ú¯": 5600,
      "ĠØ¬ÙħÛģÙĪØ±ÛĮ": 5601,
      "ĠÙĨÙģØ±Øª": 5602,
      "ĠØ³Ù¾Ø±": 5603,
      "Ø§ÙħØ§Ùħ": 5604,
      "ĠØ§ÙĨÙ¹Ø±ÙĪÛĮÙĪ": 5605,
      "ysis": 5606,
      "Ġmaterials": 5607,
      "ada": 5608,
      "ĠÙħÛĮÚĪÛĮÚ©ÙĦ": 5609,
      "ĠØŃØ§Ø¶Ø±": 5610,
      "ØµÙĪÙħ": 5611,
      "ĠØ·ÙĦØ§ÙĤ": 5612,
      "ĠØ¨Ø¯Ú¾": 5613,
      "ÙĪØ§Ø¶ØŃ": 5614,
      "ĠØ¹Ø¨Ø§Ø³ÛĮ": 5615,
      "ising": 5616,
      "ĠÙĦØ§Ú©Ú¾ÙĪÚº": 5617,
      "ĠEnglish": 5618,
      "Ġfar": 5619,
      "Ġmanagement": 5620,
      "ĠÚĨÙĪØª": 5621,
      "ĠØ¯ÙĦÚĨØ³Ù¾ÛĮ": 5622,
      "ĠÙħØ¬Ø±Ùħ": 5623,
      "ĠÙħÙĤØ¯Ùħ": 5624,
      "ĠÙ¹Ø§Ø¦ÙħØ²": 5625,
      "Ġloss": 5626,
      "ĠÙħØ²Ø¯": 5627,
      "ĠâĨĴ": 5628,
      "Ġsing": 5629,
      "ĠØ±ÛĮÙĦÙĪÛĴ": 5630,
      "ĠÙħØºØ±Ø¨": 5631,
      "Ù¾ÙĪÙĦÛĮØ³": 5632,
      "Ú©Ø´ÙħÛĮØ±": 5633,
      "ĠØ§Ø´Øª": 5634,
      "Ġthought": 5635,
      "ĠØ¯ÛĮÙĪ": 5636,
      "istic": 5637,
      "ĠØ§Ø®Ø±Ø§Ø¬": 5638,
      "ĠØµØ¯ÛĮÙĤÛĮ": 5639,
      "ĠÛģÙĪØ³": 5640,
      "Ø¹ÛĮØª": 5641,
      "Ð°Ð": 5642,
      "ĠØ§ÙĦØª": 5643,
      "Ġmakes": 5644,
      "ĠØ§ØŃØªØ±Ø§Ùħ": 5645,
      "Ġtradition": 5646,
      "Ġlittle": 5647,
      "ĠØ¨ÙĪØ¬Ú¾": 5648,
      "Ġcho": 5649,
      "ĠÙ¾Ø´Øª": 5650,
      "ØŁØŁ": 5651,
      "ÙħØ¬Ú¾ÛĴ": 5652,
      "ĠØ¢Ù¹Ú¾": 5653,
      "ĠÙĨØ§ÙħÛģ": 5654,
      "Ġcancer": 5655,
      "ĠÙħØµØ±": 5656,
      "Ġpersonal": 5657,
      "Ø¬Ø§ÙĨ": 5658,
      "ĠAt": 5659,
      "ïºİ": 5660,
      "Ch": 5661,
      "Ġpast": 5662,
      "ĠGe": 5663,
      "Ġdiet": 5664,
      "ĠØ±ÛģÙĨØ§": 5665,
      "Ġinflu": 5666,
      "Ġapproach": 5667,
      "ann": 5668,
      "ĠØ¨Ø§Ø²Ø§Ø±": 5669,
      "ĠØ¬Ø±ÙħÙĨÛĮ": 5670,
      "Ġcirc": 5671,
      "Ø§Ø¦Ø´ÛĮ": 5672,
      "ĠØ§ÙģØ³Ø±": 5673,
      "ĠÙĪØ±Ø²ÛĮ": 5674,
      "Ġcomplex": 5675,
      "ĠØ§Ø®ØªØªØ§Ùħ": 5676,
      "ĠØ¯Ø¨Ø¦ÛĮ": 5677,
      "ĠØ§ÛĮØ´ÙĨ": 5678,
      "ĠØ§Ø³Ú©ÛĴ": 5679,
      "self": 5680,
      "ĠØ¹Ø«ÙħØ§ÙĨ": 5681,
      "ĠÚ©Ø§Ø±ÙĪÚº": 5682,
      "Ġcourse": 5683,
      "ĠØ±ÛĮØ§Ø³ØªÛĮ": 5684,
      "ÙĪØ§Ø±ÚĪ": 5685,
      "Ġcontain": 5686,
      "44": 5687,
      "ably": 5688,
      "ĠØ³Ø±Ú©Ø§Ø±": 5689,
      "ĠØ§Ø¹Ø¯Ø§Ø¯": 5690,
      "56": 5691,
      "Ġer": 5692,
      "Ù¹Ú¾Ø§": 5693,
      "Ġparent": 5694,
      "Ġpolit": 5695,
      "Ġcharacter": 5696,
      "ĠØ³Ø§ÙĨØŃÛģ": 5697,
      "Ú¾ÛĮÚº": 5698,
      "ÛģØ±Ø§": 5699,
      "inking": 5700,
      "ĠÚ©ÙħØ±ÛĴ": 5701,
      "ĠØ¯Ø±Ø®Øª": 5702,
      "Ġability": 5703,
      "Ø²Ø¨": 5704,
      "ĠÙ¾ÛĮØ´Ûģ": 5705,
      "ĠØ¨Ø§Ø±Ûģ": 5706,
      "Ø±ÛĮØŃ": 5707,
      "aves": 5708,
      "Next": 5709,
      "ĠÛĮÙĤÛĮÙĨØ§": 5710,
      "ĠØºÙĦØ·ÛĮ": 5711,
      "ĠÙħØ³Ø¦ÙĦÛĴ": 5712,
      "ĠÙĤØ¯ÛĮÙħ": 5713,
      "ĠØ²ÛĮØ§Ø¯ØªÛĮ": 5714,
      "58": 5715,
      "ĠLe": 5716,
      "Ġservices": 5717,
      "side": 5718,
      "Ġsust": 5719,
      "----": 5720,
      "Ø§Ø¯ÛĮØ§": 5721,
      "ĠØ§ÛĮÚĪÛĮ": 5722,
      "ane": 5723,
      "ĠÙĪØ§Ø¬": 5724,
      "Ġsoft": 5725,
      "ĠØ¯ÙĦÛĮÙĦ": 5726,
      "ØªÙģØµÛĮÙĦ": 5727,
      "ancial": 5728,
      "aken": 5729,
      "Ġpolic": 5730,
      "ĠÚ©Ø§Øº": 5731,
      "Ġproduction": 5732,
      "ĠØªÙĨØ®ÙĪØ§Ûģ": 5733,
      "though": 5734,
      "ĠØªØ§Ø¨": 5735,
      "Ú©Ø§ÙĪÙ¹": 5736,
      "ÙĪØ¯Ú¾Ø±ÛĮ": 5737,
      "ĠØ§Øº": 5738,
      "Ġsoil": 5739,
      "ĠÙĪØ§ÙĤØ¹ÛĴ": 5740,
      "ĠØ¨ÛĮÚ©": 5741,
      "Ġtoward": 5742,
      "ĠÙħÙĪØ³": 5743,
      "Ġskin": 5744,
      "ĠØªØ¬Ø§Ø±ØªÛĮ": 5745,
      "ĠØ´Ú©Ø±": 5746,
      "ae": 5747,
      "ĠØ¯Ø§Ø±Ø§ÙĦØŃÚ©ÙĪÙħØª": 5748,
      "Ø¨ÙĦØ§": 5749,
      "Ú©ÛĮØ´ÙĨ": 5750,
      "ĠPr": 5751,
      "ĠÙĨØ¨": 5752,
      "ĠÙħÙĦÛĮÙĨ": 5753,
      "ĠÙĨÙĪÚ©Ø±ÛĮ": 5754,
      "Ġfour": 5755,
      "ĠØªØ±ÙĤÛĮØ§ØªÛĮ": 5756,
      "idd": 5757,
      "ĠØ´Ø®ØµÛĮØ§Øª": 5758,
      "Ġcrucial": 5759,
      "ĠØ§Úĳ": 5760,
      "duct": 5761,
      "Ġfurther": 5762,
      "ĠÙħØ¨ÛĮÙĨÛģ": 5763,
      "ĠØºØ§ÙĦØ¨": 5764,
      "Ġ06": 5765,
      "ĠØŃÙĪØ§ÙĦÛģ": 5766,
      "ĠÙħØµØ·": 5767,
      "ĠSome": 5768,
      "ĠØ¨Ø§Ø±ÛĮ": 5769,
      "Ø°Ú©Ø±": 5770,
      "Ġobs": 5771,
      "ĠØ±ÛĮÙ¹": 5772,
      "ÙĪÙĪ": 5773,
      "Ú¯Ú¾": 5774,
      "ĠÚ©Ø´ÙħÛĮØ±ÛĮÙĪÚº": 5775,
      "ĠÙ¹Ø§Ø¤ÙĨ": 5776,
      "Ġline": 5777,
      "ID": 5778,
      "Ø§Ø¦ÙĨØ§Øª": 5779,
      "ĠØ¹ÙĤÛĮØ¯": 5780,
      "ÙĨØ§ÙĨ": 5781,
      "ĠØ¯Ø§Ø¹Ø´": 5782,
      "Ø¹ÙĦÙĪÙħ": 5783,
      "ĠØ³ÙĪÙĨ": 5784,
      "upp": 5785,
      "ĠØ±Ø§Ø¬Ûģ": 5786,
      "ta": 5787,
      "Ù¾Ø§Ú©": 5788,
      "Ġsimilar": 5789,
      "ĠØªØ¹ÛĮÙĨØ§Øª": 5790,
      "Ġrecomm": 5791,
      "iple": 5792,
      "ØªØ¹": 5793,
      "ĠØ¹ÙĨÙĪØ§ÙĨ": 5794,
      "ĠÙ¾ÚĨÚ¾ÙĦÛĴ": 5795,
      "ĠØ§ØªÚ¾": 5796,
      "ĠØ¯Ø±ÙĪØ§Ø²ÛĴ": 5797,
      "ÙĨÙĪØ§Ø²": 5798,
      "ĠÚĨÙĦÛĮ": 5799,
      "ĠÙĨØ§Ø¦Ø¨": 5800,
      "ĠÙģØ·": 5801,
      "ĠÙħØ¶Ø§ÙħÛĮÙĨ": 5802,
      "ĠØ¨Ø§ÙĤØ§Ø¹Ø¯Ûģ": 5803,
      "ĠÙĤØ±Ø§": 5804,
      "ĠÚĨÙĦÙĨÛĴ": 5805,
      "Ú©Ø§Ø±ÛĮ": 5806,
      "ĠÛģÙĪØ¦ÛĮÚº": 5807,
      "Ġ70": 5808,
      "ĠÂ«": 5809,
      "ĠÙĨØ´Ø³Øª": 5810,
      "selves": 5811,
      "ĠGod": 5812,
      "ÙħÙĨÛĮ": 5813,
      "Ú©Ø´ÙĨ": 5814,
      "Ġaway": 5815,
      "ĠØ§ÙģØªØªØ§ØŃ": 5816,
      "icro": 5817,
      "ĠØ´Ú©Ø±ÛĮÛģ": 5818,
      "ream": 5819,
      "Ġsun": 5820,
      "Ġsustain": 5821,
      "ĠØ®ÙģÛĮÛģ": 5822,
      "Ġteac": 5823,
      "Ġpatients": 5824,
      "Ġestab": 5825,
      "ĠÛĮØ§Ø±": 5826,
      "ĠÙģØ³": 5827,
      "Posted": 5828,
      "ĠØ¯ÙĪØ³ØªÙĪÚº": 5829,
      "Ø´ÙĪ": 5830,
      "ĠØ´Ø±Ú©": 5831,
      "ĠÚ¾ÙĪ": 5832,
      "ĠCent": 5833,
      "Ø±ÛĮØ±ÛĮ": 5834,
      "ĠEurope": 5835,
      "ĠStates": 5836,
      "Ġlive": 5837,
      "Im": 5838,
      "Ġbal": 5839,
      "Ġcomplete": 5840,
      "Ġill": 5841,
      "Ġmov": 5842,
      "tic": 5843,
      "ĠÙ¾Ø°ÛĮØ±": 5844,
      "Ø§ÙĦÛĴ": 5845,
      "Ġclimate": 5846,
      "ØĶ": 5847,
      "ĠØ³ÙĪØ§ÙĦØ§Øª": 5848,
      "ĠØ§Ø°": 5849,
      "Ġcases": 5850,
      "Ġchem": 5851,
      "ĠØ¬Ø¹ÙĦÛĮ": 5852,
      "ggest": 5853,
      "×Ļ": 5854,
      "Ġsuggest": 5855,
      "ĠÚ©ØªÙĨÛĴ": 5856,
      "ĠÙħØ¹Ø§ÛģØ¯Ûģ": 5857,
      "ÛĮÙĪÙ¹Ø±": 5858,
      "Ø§ÙĤØ¹": 5859,
      "ĠCO": 5860,
      "ĠÙħØ³ØªÙĤÙĦ": 5861,
      "ĠØµØ§Ø¯ÙĤ": 5862,
      "thing": 5863,
      "ØªØ´": 5864,
      "ĠOct": 5865,
      "ĠØ§Ø³Ø§ØªØ°Ûģ": 5866,
      "Ġut": 5867,
      "ĠØ³ÙħÙĨØ¯Ø±": 5868,
      "ĠÚĨÛĮØ²ÛĮÚº": 5869,
      "ĠÙĨØ¬Ø§Øª": 5870,
      "Ø§ØªØ±": 5871,
      "ĠMan": 5872,
      "Ð°ÑĢ": 5873,
      "ĠHealth": 5874,
      "Ġcountries": 5875,
      "ĠØ¹ÙĨØ§ØµØ±": 5876,
      "Ġlower": 5877,
      "ĠÙĨÛģÙĬÚº": 5878,
      "ĠIndia": 5879,
      "ĠØ±ÛĮÙħ": 5880,
      "Ġexist": 5881,
      "ĠÙģØª": 5882,
      "Ġwr": 5883,
      "Ø°Ø§Ø¨": 5884,
      "ĠØ¹ÛģØ¯ÛĴ": 5885,
      "Ġnext": 5886,
      "ĠNational": 5887,
      "rug": 5888,
      "ĠØŃØ§ÙĦØ§ÙĨÚ©Ûģ": 5889,
      "ÙħÚ¯Ø±": 5890,
      "ump": 5891,
      "hem": 5892,
      "Ø¦ÙĨØ¯Ûģ": 5893,
      "ÙĬÙĩ": 5894,
      "Ġauthor": 5895,
      "ĠÙĪÛĮØ²": 5896,
      "ĠMus": 5897,
      "ĠØ§ÙĦØ´": 5898,
      "ĠØ§Ø¯Ø§Ú©Ø§Ø±Ûģ": 5899,
      "ĠØ³ÙģÛĮØ¯": 5900,
      "ĠInst": 5901,
      "59": 5902,
      "ĠØ§ÛģÙĦÚ©Ø§Ø±ÙĪÚº": 5903,
      "Ġrecogn": 5904,
      "ĠØ§ÛĮÙĪØ§ÙĨ": 5905,
      "ĠAm": 5906,
      "Ġtar": 5907,
      "Ġsleep": 5908,
      "Ø§Ø¯ÛĮØ«": 5909,
      "Ø§Ø¦ÛĮÚĪ": 5910,
      "ĠØ¯ÙĪØ¯Ú¾": 5911,
      "ĠÚ©ÛĮÙģ": 5912,
      "Ġappear": 5913,
      "ĠØ¯ÛĮÙĪØ§Ø±": 5914,
      "Ġfull": 5915,
      "ĠØ§ÛĮÛģ": 5916,
      "ØŃØµ": 5917,
      "ĠØ´ÙĨØ§Ø®Øª": 5918,
      "ĠÙħØ´ÙĪØ±Ûģ": 5919,
      "ustom": 5920,
      "Ġbegin": 5921,
      "ĠÙħÚĨ": 5922,
      "Ġenough": 5923,
      "ĠÚĪÙĪÙĨ": 5924,
      "ĠØ§Ø³Ø¯": 5925,
      "ĠØŃØ¶Ø±Ø§Øª": 5926,
      "Ġprovides": 5927,
      "ĠØªÙĪØ³ÛĮØ¹": 5928,
      "ney": 5929,
      "ĠØ§ÛĮÙĪØ§Ø±ÚĪ": 5930,
      "For": 5931,
      "Ġbook": 5932,
      "ĠÙħØ«ÙĦØ§": 5933,
      "ĠÙĪÛĮÙĦ": 5934,
      "ĠØ¨ÙĨØ§Ø¦ÛĮÚº": 5935,
      "Ø¨ÙĨ": 5936,
      "ĠÙģØ§Ø¦ÙĦ": 5937,
      "ĠØ§Ú©Ø¨Ø±": 5938,
      "ification": 5939,
      "Ø§ÙĨØ¯Ú¾ÛĮ": 5940,
      "ĠAug": 5941,
      "ĠÙĨØ¸Ùħ": 5942,
      "Ġsitu": 5943,
      "ÚĨÙĨ": 5944,
      "ĠØ±Ø§Ø´": 5945,
      "ĠÙ¾Ø§Ø±Ú©": 5946,
      "ĠØ§Ù¾ÙĨ": 5947,
      "ĠØªÙģØªÛĮ": 5948,
      "Ġexerc": 5949,
      "ĠDaily": 5950,
      "yle": 5951,
      "ÛģÙħØ§Ø±ÛĴ": 5952,
      "ĠÚĨÛĮØ²ÙĪÚº": 5953,
      "ĠØªØ¬Ø²ÛĮÛģ": 5954,
      "itle": 5955,
      "Ġbig": 5956,
      "ĠØªÙĤØ§Ø¶": 5957,
      "ĠØ¨Ø§ÛģÙħÛĮ": 5958,
      "Ġprim": 5959,
      "ĠØªÛģØ°ÛĮØ¨": 5960,
      "ĠØ§Ø´Ø±Ùģ": 5961,
      "ĠØ¹Ø§Ø´": 5962,
      "ĠComm": 5963,
      "ĠØ¨ÙĦØ§ÙĪÙĦ": 5964,
      "ĠÙħØ±Ø¯ÙĪÚº": 5965,
      "ĠÙħØ´Ø±ÙĤÛĮ": 5966,
      "ĠØ§ØªÛĴ": 5967,
      "ĠÙ¾ÙĪØ±Ù¹": 5968,
      "ĠApr": 5969,
      "ĠÙ¾ÙĨØ¬": 5970,
      "Ġtherap": 5971,
      "ĠØ¨ÚĨØ§ÙĨÛĴ": 5972,
      "ĠØªØ§Ø«": 5973,
      "ĠÛ²Û°Û±Û": 5974,
      "Ø¬Ø§": 5975,
      "ĠØ¨ÛĮØ±ÙĪÙĨ": 5976,
      "aps": 5977,
      "ĠØ¬Ø§Ù¾": 5978,
      "utes": 5979,
      "Ġcomes": 5980,
      "ĠØ³ÙĨØ¯": 5981,
      "Ø¢Ø¦ÛĮ": 5982,
      "AN": 5983,
      "ĠØ§Ø¨Ø±Ø§Ûģ": 5984,
      "verse": 5985,
      "Ġrad": 5986,
      "ÙĤÙĪÙħÛĮ": 5987,
      "41": 5988,
      "ĠÚ©Ø±Ø±ÛģÛĮ": 5989,
      "Ġvalue": 5990,
      "Ø¬ÙĨÚ¯": 5991,
      "ĠØ³ÛĮØ§Ûģ": 5992,
      "ĠÚ©ÙħÙ¾ÙĨÛĮÙĪÚº": 5993,
      "Ġfri": 5994,
      "ĠØ³Ø¹Ø¯": 5995,
      "edi": 5996,
      "ĠØ®Ø§ÙħÙĪØ´": 5997,
      "Previous": 5998,
      "ĠØ³Ø§Ø¦ÛĮÚ©ÙĦ": 5999,
      "ĠÙ¾ÛĮÙ¹": 6000,
      "ØĮØĮ": 6001,
      "ĠÙĪØ¹Ø¯Ûģ": 6002,
      "To": 6003,
      "Ø§ØµØ¯": 6004,
      "ĠÙģÙĪØ±Ø§": 6005,
      "ĠØ¬Ø±Ø§Ø¦Ùħ": 6006,
      "Ð³": 6007,
      "ÙŃ": 6008,
      "ĠÚ©Ø±Ùħ": 6009,
      "Ġgiven": 6010,
      "Ø¨Ø§Ø¯ÛĮ": 6011,
      "ĠÙ¹ÛĮÙĦÛĮ": 6012,
      "Ġnecessary": 6013,
      "ications": 6014,
      "Ø±Ø§ÙĨÛĮ": 6015,
      "Ø§ÙģØºØ§ÙĨ": 6016,
      "Ġuntil": 6017,
      "Ġregular": 6018,
      "ĠÙ¾ØªÚ¾Ø±": 6019,
      "ĠØ§ÛĮÙ¾": 6020,
      "ÙĬÙĦ": 6021,
      "32": 6022,
      "Ø¨Ø±Ø·": 6023,
      "ĠØ¹ÙĦÙĪÙħ": 6024,
      "ĠMar": 6025,
      "ĠÙģÛĮÙĦ": 6026,
      "ĠØ§Ø±Ø§Ú©ÛĮÙĨ": 6027,
      "Ġneg": 6028,
      "Ġhaving": 6029,
      "Ġpred": 6030,
      "ĠÙĦØ¹": 6031,
      "Ġheat": 6032,
      "ĠÚ¯ÛĮÙĦ": 6033,
      "ĠÚĪØ±Ø§Ø¦ÛĮ": 6034,
      "Ġoffer": 6035,
      "Ġwhether": 6036,
      "ches": 6037,
      "ÙĪØ§Ø¨": 6038,
      "ĠØ¨ÛĮÙ¹Ø§": 6039,
      "ĠØ°Ø±Ø§": 6040,
      "ĠØµÙģØ§Ø¦ÛĮ": 6041,
      "âĢıâĢıâĢıâĢı": 6042,
      "ĠØ³Ø§Ø±Ø§": 6043,
      "Ġtraining": 6044,
      "ĠØ¯ÛģØ´ØªÚ¯Ø±Ø¯ÛĮ": 6045,
      "ĠØ§Ø³ØªØŃÚ©Ø§Ùħ": 6046,
      "ĠÙģÛĮÚ©": 6047,
      "ĠÚ©Ø§ÙħÙĪÚº": 6048,
      "ham": 6049,
      "ĠÚ¯Ø§Ø¤Úº": 6050,
      "Ġresearc": 6051,
      "ĠÙħØ§ÛģØ±": 6052,
      "Ġmental": 6053,
      "ÙĬØ¯": 6054,
      "ÙħØ¨Ø¦ÛĮ": 6055,
      "Ġlay": 6056,
      "ideo": 6057,
      "ĠÙħØ¯Ø§Ø±": 6058,
      "ĠØ¯ÙĪÚĳ": 6059,
      "ĠÙ¾ÛģÙĨÚĨÙĨÛĴ": 6060,
      "ither": 6061,
      "ØªÙģØµÛĮÙĦØ§Øª": 6062,
      "uly": 6063,
      "ÛģØ²Ø§Ø±": 6064,
      "Ø³Ûģ": 6065,
      "ĠØ¹Ø±Ø¨ÛĮ": 6066,
      "ring": 6067,
      "ÛĮÙħÙĨ": 6068,
      "Ġwind": 6069,
      "ĠÛģÙģØªÛģ": 6070,
      "ĠØ´Ø±ÛĮØ¹Øª": 6071,
      "ÛĮØ¹ÙĨÛĮ": 6072,
      "Ġemot": 6073,
      "ĠØ³ÙħØ§Ø¬": 6074,
      "ĠÙĨÚ¯Ø§Ûģ": 6075,
      "ĠÛģÛĮÚĪ": 6076,
      "Ġwords": 6077,
      "Ø¬Ø±Ø²": 6078,
      "ĠÚ©ØªØ¨": 6079,
      "ĠØ´ÛĮØ¹Ûģ": 6080,
      "ĠØ³Ø±Ú¯Ø±ÙħÛĮÙĪÚº": 6081,
      "Ġago": 6082,
      "Ġ05": 6083,
      "Ø§ÛĮØªÛĮ": 6084,
      "Ġcondition": 6085,
      "Ġindustry": 6086,
      "ĠÙħÛģÙĨÚ¯": 6087,
      "ĠØŃØ±Ú©Øª": 6088,
      "ĠØµÙĨØ¹Øª": 6089,
      "ĠØªØ±ØªÛĮØ¨": 6090,
      "ĠÙĦÚ¯Ø§Ø¦ÛĴ": 6091,
      "70": 6092,
      "reng": 6093,
      "ØªÙħÛĮ": 6094,
      "Ø¸ÙħÛĮ": 6095,
      "ĠØ¹Ø¬ÛĮØ¨": 6096,
      "ĠÚ©Ø§Ø¦ÙĨØ§Øª": 6097,
      "uary": 6098,
      "ules": 6099,
      "ĠØ¨ÚĨÛĮ": 6100,
      "Ġoil": 6101,
      "ĠØªÙĨØ¸ÛĮÙħÙĪÚº": 6102,
      "ĠÚĪÛĮØ²Ø§Ø¦ÙĨ": 6103,
      "Ù¾Ø§Ú©Ø³ØªØ§ÙĨÛĮ": 6104,
      "ĠØªØ¨ØµØ±ÛĴ": 6105,
      "ĠØ¯Ø±ÛĮØ§ÙģØª": 6106,
      "ĠØ§Ø³Ú©ÛĮ": 6107,
      "ĠÙħÚ©Ûģ": 6108,
      "Ø§ÛĮÙĨ": 6109,
      "Ø³Ø§Ø¨ÙĤ": 6110,
      "Ø§Ø¦ÛĮÚ©ÙĪØ±Ù¹": 6111,
      "Ø´ÛĮØ§Øª": 6112,
      "Ø§ÙĪØª": 6113,
      "ĠØ§Ø®ØªÛĮØ§Ø±Ø§Øª": 6114,
      "au": 6115,
      "Ġwide": 6116,
      "80": 6117,
      "ĠØŃØ³Ø§Ø¨": 6118,
      "Ú©ÙĪØ¦ÛĮ": 6119,
      "ĠØ¬Ø§ÙĨØªØ§": 6120,
      "ÙĨØ¯ÙĪÚº": 6121,
      "Ġquick": 6122,
      "ĠØµØŃØ§ÙģÛĮÙĪÚº": 6123,
      "ĠÚ©ÙĪÛģ": 6124,
      "ÙħÙĪ": 6125,
      "Ø®Ø¨Ø±": 6126,
      "Ġdetail": 6127,
      "Ù¾ÛĮØ´": 6128,
      "Ø§Ø±Ø¨": 6129,
      "ĠOne": 6130,
      "Ġside": 6131,
      "ÙĦØ±": 6132,
      "ĠÚ©ØªÙĨÛĮ": 6133,
      "ening": 6134,
      "ĠØ¢Ú¯Ø§Ûģ": 6135,
      "alu": 6136,
      "ĠÙ¾Ø³ÙĨØ¯ÛĮ": 6137,
      "Ġpressure": 6138,
      "ites": 6139,
      "ument": 6140,
      "ĠØ§ÙĦÛĮ": 6141,
      "fer": 6142,
      "ĠÙĪØ§Ø¨Ø³ØªÛģ": 6143,
      "ĠØ¸ÙģØ±": 6144,
      "Ġwar": 6145,
      "Ġ80": 6146,
      "ze": 6147,
      "ĠØ±Ø³Ø§Ø¦ÛĮ": 6148,
      "ĠØ³ÛĮÙĨÙ¹Ø±": 6149,
      "You": 6150,
      "ĠÙħØ§ÛĮÙĪ": 6151,
      "Ġpractice": 6152,
      "Ġmoney": 6153,
      "Ġterm": 6154,
      "ĠÙĦÙĬ": 6155,
      "ĠÙħØ§Ø¨": 6156,
      "ĠØ¬Ø°Ø¨Ø§Øª": 6157,
      "Ġpopular": 6158,
      "usion": 6159,
      "ĠØ§Ú©Ø§Ø¤ÙĨÙ¹": 6160,
      "ĠØ³Ø®": 6161,
      "Ġrelationship": 6162,
      "Ġpercent": 6163,
      "ÛģÙħÛĮÚº": 6164,
      "aching": 6165,
      "ĠMore": 6166,
      "sp": 6167,
      "ĠÙħØªØ¹Ø§Ø±Ùģ": 6168,
      "Ġ{": 6169,
      "ØŃÛĮØ¯": 6170,
      "Ù´": 6171,
      "Ġsafety": 6172,
      "Ġcolle": 6173,
      "sc": 6174,
      "Ġca": 6175,
      "sw": 6176,
      "ĠÙĨØ§ÙħØ²Ø¯": 6177,
      "ĠÙĤØ±ÛĮØ´ÛĮ": 6178,
      "ĠÚ¯ÙĨ": 6179,
      "ĠØ¹ÛĮØ³": 6180,
      "ĠØ±ÙĪØ²Ø§ÙĨÛģ": 6181,
      "Ø²ÙħÛĮÙĨ": 6182,
      "ĠÙħØªØ§Ø«Ø±Ûģ": 6183,
      "ĠØ¨ÚĳÚ¾Ø§ÙĨÛĴ": 6184,
      "Ġ35": 6185,
      "Ġunique": 6186,
      "ĠØ¯Ø¨Ø§Ø¤": 6187,
      "Ġmach": 6188,
      "ÙĬØª": 6189,
      "Ġfield": 6190,
      "ÙĤØ§ÙĨ": 6191,
      "ĠØ¬Ø¹": 6192,
      "ĠÙ¾Ø§ÙĨÛĴ": 6193,
      "Ġcoll": 6194,
      "oose": 6195,
      "ĠØ±ÛģØ§Ø¦Ø´": 6196,
      "ĠÙĤÛĮØ§ÙħØª": 6197,
      "ĠÙħØ§Ø³": 6198,
      "ĠÙħØ°Ú©ÙĪØ±Ûģ": 6199,
      "ĠØ¬Ø§ÙĨÛĮ": 6200,
      "ĠØ®Ø§ÙĦØ¯": 6201,
      "ĠØ¢Ø¤": 6202,
      "Ġfeed": 6203,
      "Ġgoing": 6204,
      "Ġview": 6205,
      "ĠÚ©ØªØ§Ø¨ÙĪÚº": 6206,
      "Ġsource": 6207,
      "ĠÙĪØ§ÙĦØ¯Ûģ": 6208,
      "Ø´ÛĴ": 6209,
      "ĠÙĪØ§ÙĤØ¹ÛĮ": 6210,
      "Ġ''": 6211,
      "Ġgreen": 6212,
      "Ù¾ÙĪØ±ÛĮ": 6213,
      "Ġsound": 6214,
      "ÛĶ(": 6215,
      "ufact": 6216,
      "ĠØ§ÙħÛĮ": 6217,
      "ĠÙħØ¹ØµÙĪÙħ": 6218,
      "Ø§ÙģÙ¹": 6219,
      "ĠØ¨Ú¯": 6220,
      "Ø¬Ø§Ùħ": 6221,
      "ĠÚ©ÙĪØ±ÛĮØ§": 6222,
      "ĠÚĨÙĪ": 6223,
      "ĠØ¬ÙħÙĪÚº": 6224,
      "Ø§Ø±ÙĤ": 6225,
      "Ú©ÚĨÚ¾": 6226,
      "Ú©Ø±ÙĪ": 6227,
      "ĠÙħØ³Ø¹ÙĪØ¯": 6228,
      "Ġinteract": 6229,
      "ĠØ³ÙħØ¬Ú¾ÙĨÛĴ": 6230,
      "ĠÙħÙģØ§Ø¯Ø§Øª": 6231,
      "ĠÙĪØ§Ø¯ÛĮ": 6232,
      "ÙħÛĮØ§Úº": 6233,
      "ĠØ§Ø¨Ø±Ø§ÛģÛĮÙħ": 6234,
      "ĠØ³ÙģØ§Ø±Øª": 6235,
      "ĠÚĨÙĪØ±ÛĮ": 6236,
      "ĠØ§Ø³ØªÙĤ": 6237,
      "Ġyoung": 6238,
      "ĠØ¹ÙĤÙĦ": 6239,
      "ÙĪØ¹Ûģ": 6240,
      "amin": 6241,
      "Ġkind": 6242,
      "rect": 6243,
      "ĠØ®ÙĦ": 6244,
      "ĠÙĨØ§ÙĤØ§Ø¨ÙĦ": 6245,
      "ĠÙĦÚ©Ú¾ØªÛĴ": 6246,
      "ges": 6247,
      "ĠÙģÙĤÛģ": 6248,
      "ĠÙĦØ§ÛĮØ§": 6249,
      "Al": 6250,
      "ĠØ³ÛĮÙĨÛĮÙ¹": 6251,
      "ipp": 6252,
      "Ġhouse": 6253,
      "Ġglobal": 6254,
      "ĠÚĨÙĦØ§ÙĨÛĴ": 6255,
      "ĠÙħÙĤØ¯ÙħØ§Øª": 6256,
      "ogle": 6257,
      "ĠØ§ÙģØ±ÛĮÙĤÛģ": 6258,
      "ĠØ¨Ø§Ø¬": 6259,
      "Ġactivity": 6260,
      "Ø¨ÛģØª": 6261,
      "ises": 6262,
      "aq": 6263,
      "Ġassociated": 6264,
      "AT": 6265,
      "Ġmodel": 6266,
      "Ø±ÙĪÛĮ": 6267,
      "ĠØ§ÙĨÚ©ÛĴ": 6268,
      "Ø³ÙĦØ§Ùħ": 6269,
      "ĠÙħØ¹ÙħÙĪÙĦ": 6270,
      "ĠÙ¾ÛĮÙħØ§ÙĨÛĴ": 6271,
      "ler": 6272,
      "ĠØ´ÙĪÙĤ": 6273,
      "ĠØ±ÙĪÙĨ": 6274,
      "ele": 6275,
      "ĠÙħÙĨØ²ÙĦ": 6276,
      "ĠØ²ÛĮÙĨ": 6277,
      "ĠÚ©Ú¾Ø§": 6278,
      "Ø´ÛĮØ®": 6279,
      "Ø§Ù¾ÙĨÛĮ": 6280,
      "ØŃØ¯Ûģ": 6281,
      "Ġengine": 6282,
      "ĠØ¬Ø§ÙħØ¹Ûģ": 6283,
      "ĠÚ©Ù¹": 6284,
      "ĠÙģØ®Ø±": 6285,
      "Ġnorm": 6286,
      "ĠÚ©ÙĪØ´Ø´ÙĪÚº": 6287,
      "Ø±Ø§Ø²": 6288,
      "Ø§Ø´ÙĨÚ¯": 6289,
      "ĠØ°ÛĮ": 6290,
      "Ġla": 6291,
      "Ø¢Ø¨Ø§Ø¯": 6292,
      "Ġmeet": 6293,
      "Ġrecord": 6294,
      "Ġidentify": 6295,
      "ĠØªÙĨÚ¯": 6296,
      "Ġinit": 6297,
      "ĠÚ©Ù¾ÚĳÛĴ": 6298,
      "ĠØ¬ÙĨØ³": 6299,
      "ĠØ³ÛĮÙħ": 6300,
      "ĠØ¨ØŃØ§ÙĦÛĮ": 6301,
      "ĠØŃÙĤØ§Ø¦ÙĤ": 6302,
      "Ġparticip": 6303,
      "Ø®ÙĦ": 6304,
      "ÚĳÛĮØ§Úº": 6305,
      "ĠØ±Ú©Ø§ÙĪÙ¹": 6306,
      "Ø¹ÙĪØ§Ùħ": 6307,
      "Ġfinancial": 6308,
      "ÙħÛĮÙ¹Ø±": 6309,
      "Ø§ÙĨÛĮØ§Úº": 6310,
      "ĠÙĨØ¯": 6311,
      "Ġcut": 6312,
      "ÙĤÙĪÚº": 6313,
      "ĠChrist": 6314,
      "Ø§ØŃÙĦ": 6315,
      "ĠÙ¹Ú©Ù¹": 6316,
      "âĨĲ": 6317,
      "ĠØ¨ÙĨÚ¯ÙĦÛģ": 6318,
      "ĠÙĢ": 6319,
      "ĠÙ¾ÛĮÙ¾ÙĦØ²Ù¾Ø§Ø±Ù¹ÛĮ": 6320,
      "42": 6321,
      "ilt": 6322,
      "ĠAI": 6323,
      "emic": 6324,
      "ĠAfric": 6325,
      "ĠØ³ÙĪØ§Ø±": 6326,
      "ĠÙħØ¹Ø§Ø´Ø±Ûģ": 6327,
      "Ġsize": 6328,
      "ĠÙĪÛĮØ³ÛĴ": 6329,
      "ĠØ¯ÛĮÚ©Ú¾ÛĮ": 6330,
      "Ġlif": 6331,
      "ĠØ§Ø³ØªØ§Ø¯": 6332,
      "ĠÙ¾ÙĦÛĮÙ¹": 6333,
      "ĠØ¬ÛģØ§Ø¯": 6334,
      "Ġhab": 6335,
      "Ġsum": 6336,
      "Ġdeath": 6337,
      "ĠØ§ÙĨÚ¯ÛĮØ²": 6338,
      "ĠÙħØ³ÙĦØŃ": 6339,
      "acc": 6340,
      "ĠØ§Ø¹ØªØ±Ø§Ùģ": 6341,
      "ĠØ¬ÙĨÚ¯ÛĮ": 6342,
      "Ġstory": 6343,
      "ĠDr": 6344,
      "ĠFeb": 6345,
      "ĠØ°Ø®": 6346,
      "By": 6347,
      "sych": 6348,
      "Ø§ÙģØ±Ø§Ø¯": 6349,
      "ĠØ¨Ø±Ø³ÙĪÚº": 6350,
      "ĠØ¨Ø³Øª": 6351,
      "ĠÚ¯ÙĨØ¬": 6352,
      "Ġcollect": 6353,
      "ĠØ±Ø§Ùħ": 6354,
      "ready": 6355,
      "Ġbuilding": 6356,
      "http": 6357,
      "la": 6358,
      "most": 6359,
      "ĠØ¯ÛĮÚ©Ú¾ÙĨØ§": 6360,
      "ask": 6361,
      "ĠÚ©Ø§Ø±Ú©ÙĨÙĪÚº": 6362,
      "Ġground": 6363,
      "ried": 6364,
      "Ðº": 6365,
      "×ķ": 6366,
      "ĠÚ©Ø§ØºØ°": 6367,
      "ÙħÛĮØ±ÛĴ": 6368,
      "ĠÙħØ¯Ø±": 6369,
      "ĠÙħÙĨÙģÛĮ": 6370,
      "ĠIntern": 6371,
      "ĠØ§ÛĮÚ©Ø´ÙĨ": 6372,
      "ĠØ¯Ø§Ø±ÙĪÚº": 6373,
      "ĠMe": 6374,
      "ĠÚĪØ§ÙĦØ§": 6375,
      "Ø±Ø¨Øª": 6376,
      "ÙħÛĮØ²": 6377,
      "ĠØ¬Ø§ÙħØ¹": 6378,
      "ĠÛģØ¯Ùģ": 6379,
      "Sh": 6380,
      "ĠØ§ÙģØ²": 6381,
      "ĠØŃØ§Ø¯Ø«ÛĴ": 6382,
      "Ú¾ÛĮØ±": 6383,
      "Ġleast": 6384,
      "comes": 6385,
      "Ġsecurity": 6386,
      "ĠØ¬Ø³ÙħØ§ÙĨÛĮ": 6387,
      "ims": 6388,
      "Ġlater": 6389,
      "Ġnature": 6390,
      "ĠØ¨Ú¾ÛĮØ¬Ø§": 6391,
      "ĠÚĪÙĪÛĮ": 6392,
      "ĠÚ©Ø§Ø±ÙĪØ¨Ø§Ø±ÛĮ": 6393,
      "ĠGen": 6394,
      "ĠÚ©Ø§Ù¹": 6395,
      "ÙģØ¹": 6396,
      "ĠØ¹Ø²Ùħ": 6397,
      "ĠØ³ÛĮÙĨÛĮÙ¹Ø±": 6398,
      "rams": 6399,
      "roll": 6400,
      "ĠØ§Ø®ÙĦØ§ÙĤ": 6401,
      "ĠØ´ÙħÙĪÙĦÛĮØª": 6402,
      "rans": 6403,
      "ĠÙħÙĤØ¯Ø§Ø±": 6404,
      "ĠØ§Ø³ÙĦØŃÛģ": 6405,
      "Ġallows": 6406,
      "ĠÙħÙĪØ§ÙĤØ¹": 6407,
      "ahi": 6408,
      "ĠØ§Ø³Ø±Ø§Ø¦ÛĮÙĦÛĮ": 6409,
      "ĠØ§ÛĮÚ©Ø³Ù¾": 6410,
      "Ø§Ú©ÙĪ": 6411,
      "Ġmillion": 6412,
      "ĠØ®Ø§ÙĨÛĴ": 6413,
      "ĠWhile": 6414,
      "ÛĮÙĨÚ¯ÛĴ": 6415,
      "Ø¯Ø§Ø¡": 6416,
      "ĠÙ¾Ø§Ú©Ø³ØªØ§ÙĨÛĮÙĪÚº": 6417,
      "Ġcompany": 6418,
      "ĠØ§Ø´ÛĮØ§Ø¡": 6419,
      "ĠÙĨÚ¯Ø±Ø§ÙĨÛĮ": 6420,
      "Ġphot": 6421,
      ".\"": 6422,
      "Ġsubject": 6423,
      "Ø·Ø§ÙĨ": 6424,
      "ĠØ®ÛĮØ²": 6425,
      "Ġenvironmental": 6426,
      "Ġ2009": 6427,
      "ĠØ³ÚĳÚ©ÙĪÚº": 6428,
      "Ù¹ÙĪÚº": 6429,
      "Ġdoct": 6430,
      "Ġweight": 6431,
      "ĠÚ©ÙĬ": 6432,
      "pro": 6433,
      "Ù¾Ø±ÙĪ": 6434,
      "ĠÙ¾ÙĦØ§": 6435,
      "Ġinteg": 6436,
      "ĠÙ¾Ø¨ÙĦÚ©": 6437,
      "ĠÙħØ±ØªØ¨": 6438,
      "ĠØ±Ø§ÙĨØ§": 6439,
      "ÙĪÙĨØ³": 6440,
      "Ġdone": 6441,
      "Ġreason": 6442,
      "Ġoverall": 6443,
      "ĠÚĪÛĴ": 6444,
      "acks": 6445,
      "verage": 6446,
      "ĠÛģÙĪÙ¹ÙĦ": 6447,
      "ĠÚĨÙĪØ¯Ú¾Ø±ÛĮ": 6448,
      "ĠØ¦ÛĴ": 6449,
      "ags": 6450,
      "ĠÚ©Ø±Ø±ÛģØ§": 6451,
      "based": 6452,
      "ĠØ´Ú©Ø§ÛĮØª": 6453,
      "Øĳ": 6454,
      "inks": 6455,
      "Ø³Ø·": 6456,
      "ĠÙĨØ¨ÙĪØª": 6457,
      "ĠØ³ÙĪÙĨÛĴ": 6458,
      "Ġleft": 6459,
      "ptember": 6460,
      "Ġfrequ": 6461,
      "Ġabove": 6462,
      "ĠØ§ØªÚ¾Ø§Ø±Ù¹ÛĮ": 6463,
      "ĠÚĨÙĪÚ©": 6464,
      "Ġrepl": 6465,
      "ĠØªØ´ÙĪÛĮØ´": 6466,
      "ĠÙħØ±Ø¶": 6467,
      "ĠÙħØ±Ø¨": 6468,
      "ĠÙħØ®ÙĦÙĪ": 6469,
      "ĠÚ¯ÙĪØ´Øª": 6470,
      "load": 6471,
      "ÙħÙĪÙĦØ§ÙĨØ§": 6472,
      "Ø§Ú©Ø³": 6473,
      "ĠØ±ÙĪØ²Ú¯Ø§Ø±": 6474,
      "Ù¹ÛĮØ§Úº": 6475,
      "ĠØ§ÙĨÛģÛĮ": 6476,
      "ÙħØªØ§Ø²": 6477,
      "Ġnever": 6478,
      "ird": 6479,
      "Ġpositive": 6480,
      "ĠÙĨÚ©Ø§ØŃ": 6481,
      "ĠEm": 6482,
      "ĠÙĦÚĳØ§Ø¦ÛĮ": 6483,
      "ĠÙ¾Ø±ÙĪØ§Ø²": 6484,
      "Ġreally": 6485,
      "Ġbar": 6486,
      "ĠCont": 6487,
      "ĠØ§ÙĨØ¹Ø§Ùħ": 6488,
      "ĠÙĨØ¹ÙħØª": 6489,
      "Ø¬Ø²": 6490,
      "ĠÙħÛģÙħØ§ÙĨ": 6491,
      "ĠÙ¾ÛĮÙĨÛĴ": 6492,
      "rel": 6493,
      "ĠØ¬Ø§Ø±ÛģÛĴ": 6494,
      "âĢ¢": 6495,
      "ĠÙ¾ÙĪØ²ÛĮØ´ÙĨ": 6496,
      "ĠÙģØ§Ø·": 6497,
      "ĠØ§ØŃØ§Ø¯ÛĮØ«": 6498,
      "ĠØ¨Ø§Ø·": 6499,
      "ĠØ¹Ø°Ø§Ø¨": 6500,
      "ĠØ§ÙĨÙ¹Ø±ÙĨÛĮÙ¹": 6501,
      "Ġrepresent": 6502,
      "ÙģÙ¹": 6503,
      "ming": 6504,
      "ĠØŃØ¯ÙĪØ¯": 6505,
      "ĠØªØ¨Ø§Ø¯ÙĦÛģ": 6506,
      "ÙĪØ±ÙĪ": 6507,
      "ĠÚĨØ§ÛģÛĮ": 6508,
      "ĠÚ©Ø±Ø³": 6509,
      "Ġpaper": 6510,
      "ĠÙħØ±ØŃÙĪÙħ": 6511,
      "Ú©Ø§ÙĦÙħ": 6512,
      "ĠØ§ØŃØ³ÙĨ": 6513,
      "icial": 6514,
      "ĠØ³Ø±Ùģ": 6515,
      "Ġsimple": 6516,
      "ØªØ±Ø¬ÙħÛģ": 6517,
      "Ġjob": 6518,
      "iency": 6519,
      "ĠØªØ±Ø¬ÛĮØŃ": 6520,
      "ĠÙħÙĦØªØ§ÙĨ": 6521,
      "ibr": 6522,
      "ĠØ±Ø§Ø²": 6523,
      "AS": 6524,
      "ĠØ§ÙĪÙĪØ±": 6525,
      "Ġscience": 6526,
      "ÚĨÛĮÙģ": 6527,
      "Ġlog": 6528,
      "Ġgeneral": 6529,
      "ĠÙ¾ÛģÚĨØ§ÙĨ": 6530,
      "ĠÙħÙĤØ§ØµØ¯": 6531,
      "ĠØ¯Ú©Ø§ÙĨ": 6532,
      "Ġfall": 6533,
      "Ø¬ÙħØ¹": 6534,
      "ĠØ¦ÛĮ": 6535,
      "ÚĪÛĴ": 6536,
      "ĠØ¨ÚĳÚ¾Ø§": 6537,
      "ĠÙĨØ§ØµØ±": 6538,
      "ĠRep": 6539,
      "ĠÙħÙģØ§Ø¯": 6540,
      "ÙĪÙĨÛģ": 6541,
      "Ġpopulation": 6542,
      "Ġstreng": 6543,
      "Ú©ÙĨÛģ": 6544,
      "Ġred": 6545,
      "ĠØ´Ø¹Ø±": 6546,
      "ĠØ¯Ø±Ø§ØµÙĦ": 6547,
      "ĠÙ¾Ø®ØªÙĪÙĨØ®ÙĪØ§": 6548,
      "ĠÙ¾ÛģØ§Úĳ": 6549,
      "Ø´Ø§Ø±": 6550,
      "ĠÙģÛĮÚ©Ù¹Ø±ÛĮ": 6551,
      "ĠØ¯ÙĦÚĨØ³Ù¾": 6552,
      "ĠÚ¯Ø§ÚĳÛĮÙĪÚº": 6553,
      "Ġconnect": 6554,
      "osis": 6555,
      "Ġharm": 6556,
      "ÙĪØ´ÛĮ": 6557,
      "ÙĨØ¯Ú¯ÛĮ": 6558,
      "ĠÙħØ´ÛĮØ±": 6559,
      "chan": 6560,
      "ĠÙħØ´Ø±ÙĤ": 6561,
      "Ġstudies": 6562,
      "ĠØ§Ø¦ÛĮØ±": 6563,
      "Ø§Ø¤ÙĨÚĪ": 6564,
      "ystem": 6565,
      "Ġcat": 6566,
      "Ġtools": 6567,
      "ĠÙ¾Ø§ÙĦÛĮØ³": 6568,
      "ison": 6569,
      "elling": 6570,
      "Ġwin": 6571,
      "ĠÙĪØ³Ø·ÛĮ": 6572,
      "ulations": 6573,
      "ĠØ§ÙĨÚ©ÛĮ": 6574,
      "Ø§Ø¦Ùģ": 6575,
      "Ú©Ù¹Ø±": 6576,
      "ĠÙĤØ§Øª": 6577,
      ",\"": 6578,
      "Ø¹ÙĦÙħ": 6579,
      "ĠÙ¹Ú©Ø±": 6580,
      "Ġflu": 6581,
      "ĠØªØ¯": 6582,
      "Ġconcept": 6583,
      "ĠÛĮØ§Ø³": 6584,
      "lex": 6585,
      "ĠÙ¹Ú©": 6586,
      "ĠØ®Ø´Ú©": 6587,
      "let": 6588,
      "ĠØ§Ø¹ÙħØ§ÙĦ": 6589,
      "Ø¬Ø§Ø²": 6590,
      "ĠÙģØ±ÙħØ§ÙĨ": 6591,
      "Ø§ÙĦÙģ": 6592,
      "Ġalready": 6593,
      "ĠÙĦÚ©Ú¾ÙĨÛĴ": 6594,
      "ÛĮÛģØ§Úº": 6595,
      "Ġjour": 6596,
      "care": 6597,
      "Ġassess": 6598,
      "Ġ196": 6599,
      "ĠThat": 6600,
      "ĠØ¨Ø§ÙĨ": 6601,
      "ala": 6602,
      "ĠÙĦÛĮØªØ§": 6603,
      "ĠØªÚ¾Ø§Ùħ": 6604,
      "Ø§Ø´ÙĨÚ¯Ù¹ÙĨ": 6605,
      "ĠÙ¾Ø§ÙĪØ±": 6606,
      "reme": 6607,
      "Ġ07": 6608,
      "Ġbehavior": 6609,
      "light": 6610,
      "Ø§ÛģÙĪÚº": 6611,
      "ĠØ§ÙĦÛĮÚ©Ù¹Ø±": 6612,
      "Ġhold": 6613,
      "ĠÚ©ÙĪÚĨ": 6614,
      "ĠØ´Ø±Ø·": 6615,
      "Ø¶ÛĴ": 6616,
      "ĠÙĦÙĨÚ©Ø§": 6617,
      "ĠÚ¯ÙĪÛĮØ§": 6618,
      "Ġclose": 6619,
      "Ġcustom": 6620,
      "ĠÙģÙĦØ§ØŃ": 6621,
      "ensive": 6622,
      "Ġincreased": 6623,
      "ĠÙħØ±ØŃÙĦÛĴ": 6624,
      "ĠØ±ÙĪØ§ÛĮØ§Øª": 6625,
      "ĠÛģÙĪÙĨÚ¯ÛĴ": 6626,
      "Ġcompan": 6627,
      "Ġcompon": 6628,
      "ĠJune": 6629,
      "Ġquestions": 6630,
      "aling": 6631,
      "Ġhot": 6632,
      "Ġbreak": 6633,
      "Com": 6634,
      "Ø¬Ø±Ø§Øª": 6635,
      "ani": 6636,
      "ĠÙĨØ§Ú¯": 6637,
      "ĠÛģØ§Ø¦ÛĮÚ©ÙĪØ±Ù¹": 6638,
      "ĠØ§ÛĮØ³ÙĪØ³ÛĮ": 6639,
      "ĠØ§Ø¯Ø§Ú©Ø§Ø±": 6640,
      "ĠÚĨÛĮÙĨÙĦ": 6641,
      "anced": 6642,
      "Ġpath": 6643,
      "ÙĪÙĨÙ¹": 6644,
      "idered": 6645,
      "ĠØ§Ø¯Ø¨ÛĮ": 6646,
      "ĠÙħØµÙĨÙģ": 6647,
      "ĠÙĪØ²ÙĨ": 6648,
      "Ø¯Ø§Øª": 6649,
      "aff": 6650,
      "ĠØ´Ø±Ø§Ø¨": 6651,
      "ĠShe": 6652,
      "Ġfru": 6653,
      "Ġlove": 6654,
      "ĠØ¨Ø§ÙĨØ¯": 6655,
      "Ġabs": 6656,
      "bo": 6657,
      "Øį": 6658,
      "ÙĨØ³Ø±": 6659,
      "ĠØ¨Ø§Ø´": 6660,
      "ĠØ¨ØŃØ§ÙĦ": 6661,
      "ĠØªØ¨Ø§ÛģÛĮ": 6662,
      "Ø¨ÙĪØ¯": 6663,
      "Ġstat": 6664,
      "eds": 6665,
      "ĠØ³ÙĪØ±Ø¬": 6666,
      "ĠØ§ÙĦÛģ": 6667,
      "Ġrequired": 6668,
      "ĠØ§Ú©ÛĮ": 6669,
      "ØŃØª": 6670,
      "IN": 6671,
      "Ø§Ø±Ø¯ÙĪ": 6672,
      "ĠØ³Ø¨Ø²": 6673,
      "Ġperformance": 6674,
      "ĠØªÙĪÙĤØ¹": 6675,
      "ĠÙħØ·Ø§ÙĦØ¨": 6676,
      "ĠViews": 6677,
      "ĠØ§Ù¹Ú¾Ø§ÛĮØ§": 6678,
      "ĠÙĦÚ©Ú¾ÛĮ": 6679,
      "ĠØ¯Ø¦ÛĮÛĴ": 6680,
      "ĠØ±ØŃÙħÛģ": 6681,
      "ĠÛ³": 6682,
      "ÚĨÙĦ": 6683,
      "Ġkh": 6684,
      "Ù¹ÚĪ": 6685,
      "ĠØ§ÙħØªÛĮ": 6686,
      "ĠØ¬ÙĨÙħ": 6687,
      "ĠÙħØ¹Ø°": 6688,
      "ØºØ±": 6689,
      "itor": 6690,
      "ĠØªÙħÛģØ§Ø±ÛĮ": 6691,
      "Ġask": 6692,
      "Ġeasy": 6693,
      "ĠØŃÙĦÙĤÛģ": 6694,
      "nov": 6695,
      "ĠØ¨Ø±Ùģ": 6696,
      "ĠÙ¹Ø±Ø§ÙĨØ³": 6697,
      "Ġintrodu": 6698,
      "lying": 6699,
      "Ġcentury": 6700,
      "Ġho": 6701,
      "43": 6702,
      "ĠÙħØµØ·ÙģÛĮ": 6703,
      "ĠÙħØ¹Ø§Ùģ": 6704,
      "Ġpattern": 6705,
      "Ġpriv": 6706,
      "ĠÚ©Ø±Ø³Ú©ØªØ§": 6707,
      "ĠÙĤÙħØ±": 6708,
      "ĠØ§ØªÙĪØ§Ø±": 6709,
      "Ġsurface": 6710,
      "ĠØ¬ÙĪØ§ÙĨ": 6711,
      "ĠÚ©Ø±Ø§": 6712,
      "cember": 6713,
      "order": 6714,
      "ĠÚĨÚ©": 6715,
      "ĠØ§ÛĮØ´ÛĮØ§": 6716,
      "ĠØ±Ú©ÙĨÛĮ": 6717,
      "Ġcity": 6718,
      "ĠÙĦØ§Ú©": 6719,
      "ovember": 6720,
      "urs": 6721,
      "ĠEar": 6722,
      "ule": 6723,
      "Ġsingle": 6724,
      "ĠÛĮÙħÙĨ": 6725,
      "Ġindic": 6726,
      "Ú©ÚĳÙĪÚº": 6727,
      "ĠÚ©Ø§Ø±ÙĪØ§Ø¦ÛĮ": 6728,
      "ĠÚĨÙĦØªØ§": 6729,
      "ĠAss": 6730,
      "ĠØªÙĪÛģ": 6731,
      "ĠÙĨØ¸Ø±ÛĮÛģ": 6732,
      "ĠØ¯ÙĪØ³ØªÛĮ": 6733,
      "ï´": 6734,
      "Ġmusic": 6735,
      "ĠÙĨØ±ÛĮ": 6736,
      "ĠØ³Ù¾ÙĪØ±Ù¹": 6737,
      "ĠØ³Ø±ÙĪ": 6738,
      "ØµØ¨": 6739,
      "ĠÙħØ§Ø±ÛĴ": 6740,
      "cri": 6741,
      "ĠØ§ÙĨØªØ¸Ø§ÙħØ§Øª": 6742,
      "ĠØ¨ÛģØ§Ø±": 6743,
      "ĠÚ©Ùģ": 6744,
      "ĠØ¯ÙĦÛĮ": 6745,
      "ging": 6746,
      "ĠÛģÙĪØ¬Ø§ØªØ§": 6747,
      "ĠØ±ÛģÙĨÙħØ§Ø¤Úº": 6748,
      "ĠÙ¾Ø±ÛĮØ´Ø§ÙĨÛĮ": 6749,
      "Ġdom": 6750,
      "Ġneeded": 6751,
      "):": 6752,
      "ĠÙĪØµÙĪÙĦ": 6753,
      "ĠØ±ÙĪÛĮÛģ": 6754,
      "Ġincreasing": 6755,
      "ĠMarch": 6756,
      "ĠÙħØ´ÙĨ": 6757,
      "Ġseen": 6758,
      "ÙħÙĪÚº": 6759,
      "ĠØªÙĨÛģ": 6760,
      "Ġanalysis": 6761,
      "ĠDo": 6762,
      "ĠÙĦÛģØ±": 6763,
      "Ġexce": 6764,
      "ĠØ³ÙĨÚ¯ÛĮÙĨ": 6765,
      "Ġfat": 6766,
      "ĠÙĦÙħØ¨": 6767,
      "ĠØ¬Ø±ÙħÙĨ": 6768,
      "ĠÚ¯Ø§ÙĨØ¯Ú¾ÛĮ": 6769,
      "rict": 6770,
      "ĠØ®ÙĪØ±Ø§Ú©": 6771,
      "ÙĪØ§ÙĦÛĴ": 6772,
      "ÙħØ§Ûģ": 6773,
      "Ġconsidered": 6774,
      "ĠÙħÙĤØ¯Ø³": 6775,
      "Ġsubst": 6776,
      "ĠØ³ÙĦÙĪÚ©": 6777,
      "ĠØ¨ÛĮØ±ÙĪÙĨÛĮ": 6778,
      "way": 6779,
      "Ġinj": 6780,
      "astic": 6781,
      "ference": 6782,
      "Ġsam": 6783,
      "Ġquestion": 6784,
      "ĠMed": 6785,
      "ĠÙģÙĪÙ¹ÙĪ": 6786,
      "Ø§Ø¨Ø·Ûģ": 6787,
      "ĠØªØ®ÙĦÛĮÙĤ": 6788,
      "51": 6789,
      "Ġmass": 6790,
      "ĠØ±ÙĪØ³ÛĮ": 6791,
      "Ġrelated": 6792,
      "ĠÙħÙĨØ´ÛĮØ§Øª": 6793,
      "ĠØ³ÙģØ§Ø±Ø´": 6794,
      "Ġwebs": 6795,
      "Ġelectric": 6796,
      "ĠÙĦØ§Ø²ÙħÛĮ": 6797,
      "ront": 6798,
      "ĠÛģÙĪØ³Ú©ØªÛĮ": 6799,
      "Ġ*": 6800,
      "Ú©ÙĪÚº": 6801,
      "isc": 6802,
      "Ġ03": 6803,
      "ĠYour": 6804,
      "\".": 6805,
      "ĠØ¯Ø³ØªØ§ÙĪÛĮØ²": 6806,
      "iques": 6807,
      "ĠØ§ÙĨÙĪØ±": 6808,
      "Ġchallenges": 6809,
      "ĠÙĤÛĮÙħØªÛĮ": 6810,
      "ĠÙĦÛĮÚ©Ø±": 6811,
      "erve": 6812,
      "Ġsite": 6813,
      "ÙĨØ§Ø¡": 6814,
      "ĠØ·ÙĦØ¨Ø§Ø¡": 6815,
      "ĠÛĴ": 6816,
      "oman": 6817,
      "ĠÙħØ¯Ø§Ø®": 6818,
      "ĠØ³Ø±Ø®": 6819,
      "ĠØ¢Ø³ÙħØ§ÙĨ": 6820,
      "ĠÙħØ³Ø§ÙģØ±": 6821,
      "ĠÚ©ØªÙĨØ§": 6822,
      "Ġaccording": 6823,
      "ĠÙħØ§Ø¨ÛĮÙĨ": 6824,
      "Ġevent": 6825,
      "Ġliving": 6826,
      "Ġdamage": 6827,
      "ĠØ§Ø¬ØªÙħØ§Ø¹ÛĮ": 6828,
      "ØªØ±Ø§ÙĦ": 6829,
      "Ġdescrib": 6830,
      "Ø¨Ø§Ø¯ÙĦ": 6831,
      "Ġdigital": 6832,
      "ĠÙħÙħÚ©ÙĨÛģ": 6833,
      "hing": 6834,
      "Ø§Ø¦Ø´Ûģ": 6835,
      "ĠÙ¾ÛĮØºÙħØ¨Ø±": 6836,
      "Ġhowever": 6837,
      "ĠØ¬ÙĦØ¯ÛĮ": 6838,
      "ĠÙ¾ÚĳÚ¾Ø§": 6839,
      "ĠØ¨ÙĪÙĦØ§": 6840,
      "Ġmeaning": 6841,
      "Ġsense": 6842,
      "Ø®Ø§ÙĨ": 6843,
      "ÙĨØ§Úº": 6844,
      "ÛĶâĢľ": 6845,
      "ÛĶâĢĿ": 6846,
      "Ø§Ø¦Ø·": 6847,
      "ĠÙħÙ¹ÛĮ": 6848,
      "Ġmethods": 6849,
      "Ġsyn": 6850,
      "Ġtaking": 6851,
      "etimes": 6852,
      "ĠØ§ÙĨØ¬ÛĮÙĨ": 6853,
      "ĠØ§Ù¹Ú¾Ø§ÙĨÛĴ": 6854,
      "Ġfish": 6855,
      "alf": 6856,
      "Ġremain": 6857,
      "fort": 6858,
      "ĠÚĨÙĪØ±": 6859,
      "Ġgas": 6860,
      "ĠÙģØ±ÙĤÛģ": 6861,
      "ES": 6862,
      "Ġdrug": 6863,
      "ĠÚ©Ø´ÛĮ": 6864,
      "Ġparts": 6865,
      "Ġï¿½ï¿½ï¿½ï¿½ï¿½": 6866,
      "ĠØªÛĮÙĨÙĪÚº": 6867,
      "Ġdeg": 6868,
      "ott": 6869,
      "('": 6870,
      "ĠØ§Ø±Øª": 6871,
      "Ġimplement": 6872,
      "ĠÙ¾ÛĮØ¯Ø§Ø¦Ø´": 6873,
      "ruary": 6874,
      "Ġcheck": 6875,
      "ĠØ§ÙĦØ±ØŃÙħØ§ÙĨ": 6876,
      "ĠØµÙĪ": 6877,
      "Ġthemselves": 6878,
      "Ø¬ÛĮÛĴ": 6879,
      "Ø§Ø¦Ù¾": 6880,
      "ĠØ¬ÙĪÚĳ": 6881,
      "Ġmedia": 6882,
      "ĠÙħØ¯Ø§Ø®ÙĦØª": 6883,
      "ÙģÛĮØµØ¯": 6884,
      "Ġvariety": 6885,
      "ĠØ§ÙĨÙģØ±": 6886,
      "Ø®ÙĪØ¯": 6887,
      "ĠØ®Ø·Ø±ÛĴ": 6888,
      "ĠÙ¾ØªØ§": 6889,
      "Ġdiagn": 6890,
      "Ġwriting": 6891,
      "ĠØ¶Ø±ÙĪØ±ÛĮØ§Øª": 6892,
      "Ġgroups": 6893,
      "oud": 6894,
      "ĠÙ¾Ø§Ø±ÙĦÛĮÙħØ§ÙĨÛĮ": 6895,
      "ĠÚĪÙĪÙĨÙĦÚĪ": 6896,
      "ronic": 6897,
      "ĠÙ¾Ú¾ÙĦ": 6898,
      "ĠÙĤØ±Ø§Ø±Ø¯Ø§Ø¯": 6899,
      "ĠNo": 6900,
      "ĠØ¯Ú¾ÙħØ§Ú©Ûģ": 6901,
      "ĠØ§ØªØŃØ§Ø¯ÛĮ": 6902,
      "ĠÙĨÙģØ³": 6903,
      "ĠÙħÙĨØ³ÙĦÚ©": 6904,
      "ival": 6905,
      "ĠApril": 6906,
      "Ġencoura": 6907,
      "ÙħØ§Ø±ÚĨ": 6908,
      "ĠØ§ÙĦØ§": 6909,
      "ĠØ³ÛĮØ±": 6910,
      "Ġeconomic": 6911,
      "Ġcontinu": 6912,
      "illed": 6913,
      "ĠØ¸Ø§ÙĦÙħ": 6914,
      "ĠÙ¾Ø³ÙĨØ¯ÙĪÚº": 6915,
      "ĠØ³Ø§ÙĨØ³": 6916,
      "ĠÙ¹ÛĮÙĨ": 6917,
      "ĠÚĪÙĪÛĮÚĺÙĨ": 6918,
      "tal": 6919,
      "Ú¯Ø²Ø´ØªÛģ": 6920,
      "vere": 6921,
      "ĠØªÛĮØ³Ø±ÛĮ": 6922,
      "ĠØ§Ø®Ø±Ø§Ø¬Ø§Øª": 6923,
      "ÙĪØ§ÙĦÛģ": 6924,
      "ĠØ§ÙĨØ³Ø¯Ø§Ø¯": 6925,
      "On": 6926,
      "Ġdesigned": 6927,
      "aged": 6928,
      "ĠØµØ¨Ø±": 6929,
      "ĠÚĪÛĮÙ¹Ø§": 6930,
      "Ù¹ÛĮÙģ": 6931,
      "ama": 6932,
      "ĠÙĨÛĮØ²": 6933,
      "erous": 6934,
      "ĠÛģØ§Ø´": 6935,
      "53": 6936,
      "ĠÛĮÚ©Ø³": 6937,
      "ĠÙ¾Ø±Ø§ÙĨÛĴ": 6938,
      "Ø±Ú©Ø§Ø±": 6939,
      "Ġï®": 6940,
      "ĠØªØ¨ØµØ±Ûģ": 6941,
      "Ġonce": 6942,
      "54": 6943,
      "Ġanimals": 6944,
      "ĠÙħÙĨØ³ÙĪ": 6945,
      "Ġdeep": 6946,
      "ĠÚĨÙ¾": 6947,
      "ĠAg": 6948,
      "Ġresearchers": 6949,
      "ÚĳÚ¾ÛĴ": 6950,
      "ĠÙģØ±ÙħØ§Ø¦ÛĴ": 6951,
      "ĠÚ©Ú¾ÚĳÛĮ": 6952,
      "Ġvers": 6953,
      "ĠØ§Ø¯Ú¾Ø±": 6954,
      "ĠÙĨØ³Ø¨Øª": 6955,
      "epend": 6956,
      "ĠØ³ÛĮÚ©Ø±ÛĮÙ¹Ø±ÛĮ": 6957,
      "ĠÙģØ±ÙħØ§Ø¦ÛĮ": 6958,
      "Ġtemperature": 6959,
      "ĠØ±ÙģÛĮÙĤ": 6960,
      "Ø²ÛĮØ²": 6961,
      "ĠØ¯ÙĪÚº": 6962,
      "ĠØ¨ÙĦØ§Ú©": 6963,
      "88": 6964,
      "Ð¼": 6965,
      "Ġshare": 6966,
      "ĠØªÙĪÛģÛĮÙĨ": 6967,
      "Ú¾Ùħ": 6968,
      "rences": 6969,
      "ĠØ¹Ø¯Ø§ÙĦØªÙĪÚº": 6970,
      "ĠÚ©ØªØ§Ø¨ÛĮÚº": 6971,
      "Ø§Ø¦ÙĦÛĮ": 6972,
      "ĠÙĪØ¬ÙĪÛģ": 6973,
      "ĠÚĪØ§ÙĦÙĨÛĴ": 6974,
      "ĠØ§ØŃØªØ¬Ø§Ø¬ÛĮ": 6975,
      "Ø¹Ú©Ø³": 6976,
      "ĠÚĨØ§Ø¦ÛĴ": 6977,
      "ĠÙĦØ¹ÙĨØª": 6978,
      "ÙĤØ§": 6979,
      "Ø´Ø§": 6980,
      "ĠÙħÛĮÚ©": 6981,
      "Ġmanufact": 6982,
      "ĠØ¯Ø±Ø¢ÙħØ¯": 6983,
      "ĠÙĤÙĪÙĦ": 6984,
      "Ġspe": 6985,
      "52": 6986,
      "ĠØ¬ÙĪØ´": 6987,
      "ĠØ³ÙĨÛģ": 6988,
      "Ġtraditional": 6989,
      "ĠØ§Ø±Ø§Ø¯Ûģ": 6990,
      "Ġface": 6991,
      "Ġbelow": 6992,
      "ĠPre": 6993,
      "Ø§Ø³ÛĴ": 6994,
      "Ø±ÙĪØ²": 6995,
      "ÙĪÙĦØ±": 6996,
      "ĠØ¨ÚĳÚ¾ØªÛĮ": 6997,
      "Ġhours": 6998,
      "Ø´Ø§Ùħ": 6999,
      "ores": 7000,
      "Ġfail": 7001,
      "ĠØ§ØŃÚ©Ø§ÙħØ§Øª": 7002,
      "Ġcreated": 7003,
      "ĠÙ¾ÛĮØ³Ûģ": 7004,
      "ÛĮÚ©ÚĨØ±": 7005,
      "Ġpublished": 7006,
      "use": 7007,
      "Ġpri": 7008,
      "ĠØ·ÙĪÙģ": 7009,
      "ĠJuly": 7010,
      "ĠØ±ÛģØ§Ø¦Ø´ÛĮ": 7011,
      "ĠØ§ÙĪØ³": 7012,
      "ĠØ²Ø¨Ø±Ø¯Ø³Øª": 7013,
      "ĠØ³Ø±Ø¨Ø±Ø§ÛģÛĮ": 7014,
      "Ġmodern": 7015,
      "like": 7016,
      "ØªØ§Ø±ÛĮØ®": 7017,
      "ÙĦØ§Úº": 7018,
      "Ġprec": 7019,
      "Ġcarbon": 7020,
      "Ġwhite": 7021,
      "Ġdoc": 7022,
      "ØŃØ§ÙĤ": 7023,
      "ĠÙħØ³Ú©Ø±": 7024,
      "ĠØ¢ÙĨÚ©Ú¾ÛĮÚº": 7025,
      "Ú¯ÛĮØ±": 7026,
      "ĠØ°ÙĪØ§ÙĦ": 7027,
      "ĠÚ©ÙĪÙ¹": 7028,
      "Ġlives": 7029,
      "ĠÙģÛģ": 7030,
      "ĠØ¨ÚĨØ§": 7031,
      "ĠOctober": 7032,
      "ĠØ¨ÛĮÙħØ§Ø±": 7033,
      "med": 7034,
      "2014": 7035,
      "ĠIslam": 7036,
      "ĠØªØ´Ø±ÛĮÙģ": 7037,
      "ĠÙ¾ÛĮØ´Ú©Ø´": 7038,
      "Ġport": 7039,
      "Ġge": 7040,
      "ĠÙĨØ§Ø²ÙĦ": 7041,
      "earch": 7042,
      "Ú¯Ø§Ø±ÛĮ": 7043,
      "ĠâĢ¢": 7044,
      "ÙĨØ¯Ø±Ûģ": 7045,
      "rad": 7046,
      "ĠØ§Ø¶Ø§ÙģÛĮ": 7047,
      "ĠØ¢Ø±Ø§Ùħ": 7048,
      "ino": 7049,
      "ĠStud": 7050,
      "Ġdaily": 7051,
      "ĠØºØ±Ø¶": 7052,
      "Ġdeveloped": 7053,
      "ences": 7054,
      "ØªÛĮØ§Ø·": 7055,
      "Ġrather": 7056,
      "oles": 7057,
      "Ġ04": 7058,
      "ĠÙħØ¹Ø·ÙĦ": 7059,
      "Ø¯ÛģØ´Øª": 7060,
      "ĠÛģØªÚ¾ÛĮØ§Ø±": 7061,
      "sequ": 7062,
      "Ø§Ø¨ÙĨ": 7063,
      "ĠØªÙģØªÛĮØ´": 7064,
      "ÙĤØ³Ùħ": 7065,
      "ĠØ±Ø§": 7066,
      "ï¿½ï¿½ï¿½ï¿½ï¿½ï¿½ï¿½ï¿½": 7067,
      "ĠØ±ÛĮÙĨØ¬Ø±Ø²": 7068,
      "ĠÙ¾ÚĳÚ¾ÛĮ": 7069,
      "Ġrate": 7070,
      "ĠÚ©ÙĦÚ©": 7071,
      "ĠØ§ØŃÚ©Ø§Ùħ": 7072,
      "ĠØ§Ø¨ÛĮ": 7073,
      "ĠØ§Ø³Ù¹ÛĮØ´ÙĨ": 7074,
      "ĠØ¨ÛĮØ¯": 7075,
      "iation": 7076,
      "ĠØ¯Ø±Ø³": 7077,
      "Ġhom": 7078,
      "Ġincludes": 7079,
      "ĠÙĪØ§ÙĤÙģ": 7080,
      "ØµØ¯Ø±": 7081,
      "ĠØ³ÙĪØ³Ø§Ø¦": 7082,
      "Ġmonths": 7083,
      "arr": 7084,
      "ĠØ±ÙĪØ§ÛĮØªÛĮ": 7085,
      "Ġmembers": 7086,
      "nal": 7087,
      "ÙĦÛĮØº": 7088,
      "ĠÙĨÙģØ³ÛĮ": 7089,
      "ĠØ§ØŃØ³Ø§ÙĨ": 7090,
      "ĠØ§ÙĦÙĤØ±Ø¢ÙĨ": 7091,
      "Ġcolor": 7092,
      "ĠÚ©Ø±ÙĪÙĨØ§": 7093,
      "aving": 7094,
      "ĠAugust": 7095,
      "ĠÚ¯ÛĮÙħ": 7096,
      "ĠØ´Ø¹ÙĪØ±": 7097,
      "Ġstudent": 7098,
      "ĠØ§ÛĮÙ¹ÙħÛĮ": 7099,
      "ĠÙĪØ§Ø¬Ø¨": 7100,
      "ĠØ®ÛĮØ¨Ø±Ù¾": 7101,
      "ĠÛĮÛģÙĪØ¯": 7102,
      "Ġcannot": 7103,
      "Ġproduce": 7104,
      "ĠØ³ÙĪØ³Ø§Ø¦Ù¹ÛĮ": 7105,
      "Ãł": 7106,
      "ĠØ´Ø±Ø§Ø¦Ø·": 7107,
      "ÙĩØ§": 7108,
      "ĠÙĦÙħØŃ": 7109,
      "ĠØ¨Øµ": 7110,
      "ĠÙħØ¹Ø§ÙģÛĮ": 7111,
      "ĠØ§ÙĨÚ©ÙĪ": 7112,
      "Ø´Ú©Ø±": 7113,
      "ÙĨÚ¯Ø±": 7114,
      "ĠÚ©Ø§Ø´": 7115,
      "ĠØŃØªÙħÛĮ": 7116,
      "ĠÙĨØ§Ù¾": 7117,
      "Ġemb": 7118,
      "ĠÙ¾Ø±ÙĪØ±": 7119,
      "Ġthroughout": 7120,
      "raft": 7121,
      "ĠØ¹Ø³Ú©Ø±ÛĮ": 7122,
      "Ø§ÙĤØ¨": 7123,
      "rab": 7124,
      "Ġï¿½": 7125,
      "oll": 7126,
      "ĠØ³Ø±ÙĪØ±": 7127,
      "ĠÙģØ±Ø§Ø±": 7128,
      "lease": 7129,
      "Ġfamil": 7130,
      "Ø±ÙĪØ¬": 7131,
      "ĠØ´Ø¹Ø¨ÙĪÚº": 7132,
      ");": 7133,
      "ĠØ¢Ø³Ø§ÙĨÛĮ": 7134,
      "ĠBrit": 7135,
      "ĠØ§Ø®Ø°": 7136,
      "ĠÙħÙħØªØ§Ø²": 7137,
      "ĠØ³ÙĨØ¨Ú¾Ø§ÙĦ": 7138,
      "ĠØ¨Ø§ÙĨÛĮ": 7139,
      "ĠØ¨ÙĦØ§Ú¯": 7140,
      "ÚĳÚ¾ÛĮ": 7141,
      "Ġfoods": 7142,
      "ÚĪÙĪ": 7143,
      "ÙģØ±Ø¯": 7144,
      "ĠÙĨÙħØ§Ø¦Ø´": 7145,
      "ĠGu": 7146,
      "ropri": 7147,
      "ĠÚ©ÙħÙ¾ÛĮÙĪÙ¹Ø±": 7148,
      "Ġ08": 7149,
      "ĠÚĪÚ¯Ø±ÛĮ": 7150,
      "joy": 7151,
      "ĠÚ©ÛĮØ³Ø²": 7152,
      "ĠØ¨ÙĤÙĪÙĦ": 7153,
      "Ú©ÛĮÙĪÚº": 7154,
      "ĠØŃØ§Ø¯Ø«Ûģ": 7155,
      "Ġ09": 7156,
      "Ø§ÙĨØ³ÛĮ": 7157,
      "ÙĪÚ©Ø±ÛĮ": 7158,
      "ĠÚ¯ÙĪÙĦÛĮ": 7159,
      "Ġprote": 7160,
      "ĠØ§ÙĦØ§Ø³ÙĦØ§Ùħ": 7161,
      "ĠØ®ØµÙĪØµÛĮØ§Øª": 7162,
      "ĠØ¹ÛģØ¯ÛĮØ¯": 7163,
      "eter": 7164,
      "ĠÙ¾ÛĮØ§Ø±": 7165,
      "Ġgain": 7166,
      "ĠÚ©ÙĪÚĪ": 7167,
      "âĢ¦âĢ¦": 7168,
      "Ġhistor": 7169,
      "asc": 7170,
      "Ġ90": 7171,
      "Ġaction": 7172,
      "isions": 7173,
      "ĠÚ©ÛĮÙģÛĮØª": 7174,
      "Ġcontact": 7175,
      "tery": 7176,
      "Ø³ÙĪØ§ÙĦ": 7177,
      "ĠØ³Ú©ÙĪÙĨ": 7178,
      "gest": 7179,
      "ĠÙħÙĨÚ¯ÙĦ": 7180,
      "ĠØ¹Ø´ÙĤ": 7181,
      "Ġchemical": 7182,
      "kh": 7183,
      "ĠØ±Ø§Ø¨Ø·ÛĴ": 7184,
      "ĠØªØ¹Ø§ÙĦ": 7185,
      "ĠÙĦØ§Ù¾": 7186,
      "ĠÚ©Ø§ÙģØ±": 7187,
      "ĠØ§Ø«Ø§Ø«": 7188,
      "Ġnetwork": 7189,
      "Ġtarget": 7190,
      "86": 7191,
      "ĠØ±Ø¬ØŃØ§ÙĨ": 7192,
      "ĠJanuary": 7193,
      "rast": 7194,
      "Ġapplications": 7195,
      "ĠØ³ÙĨÙĨÛĴ": 7196,
      "ulate": 7197,
      "Ġemerg": 7198,
      "Ø¨Ø¹": 7199,
      "Ġwhole": 7200,
      "ĠÚ©Ø±Ø§ÛĮØ§": 7201,
      "istance": 7202,
      "ĠØ¬ÙħØ¹Ø±Ø§Øª": 7203,
      "ĠÙĤØ±ÛĮØ¨ÛĮ": 7204,
      "ĠÙĨÛĮØª": 7205,
      "Ġwon": 7206,
      "ÙĦØ§Ú©Ú¾": 7207,
      "Ø¸Ûģ": 7208,
      "ĠØ¨ÛĮØ§ÙĨØ§Øª": 7209,
      "ĠØŃØ±Ùħ": 7210,
      "Ġreact": 7211,
      "Ġminim": 7212,
      "uck": 7213,
      "Ġann": 7214,
      "Ġ500": 7215,
      "ĠØ§ÙĪØ¨": 7216,
      "overed": 7217,
      "Ġconduct": 7218,
      "Ġentire": 7219,
      "¡Ù": 7220,
      "Ġword": 7221,
      "Ġreturn": 7222,
      "×ķ×": 7223,
      "ĠÙĤØ¯Ø±ØªÛĮ": 7224,
      "Ø¹ØªÛĮ": 7225,
      "Ġ2008": 7226,
      "ĠÛģØ¯Ø§ÛĮØ§Øª": 7227,
      "BC": 7228,
      "Ġcauses": 7229,
      "ĠØ¬Ø§ÙĨÙĪØ±": 7230,
      "ĠØ¹Ø¯Ø§ÙĦØªÛĮ": 7231,
      "ĠØ³Ø³Øª": 7232,
      "ØªÛĮØ³": 7233,
      "Ġproviding": 7234,
      "ĠØ¬ÙĪÛģØ±ÛĮ": 7235,
      "Ġnational": 7236,
      "ĠÙ¾Ø±Ø¯Ûģ": 7237,
      "ĠØ³ÛĮØ§ØŃ": 7238,
      "ĠØ¨ÙĪÙĦÛĮ": 7239,
      "ĠÛ±Û¹": 7240,
      "ley": 7241,
      "ĠØ¬ØªÙĨØ§": 7242,
      "Ġattention": 7243,
      "ĠÚ©Ø±Ø¯ÛĮÚº": 7244,
      ",\\\"": 7245,
      "ĠØ³Ø§Ø¯Ûģ": 7246,
      "ĠØ³ÙħØ¬Ú¾ØªØ§": 7247,
      "ĠØ«ÙĤØ§ÙģØª": 7248,
      "Ġbring": 7249,
      "ĠØŃØ²Ø¨": 7250,
      "Ø±ÛĮÙĦÙĪ": 7251,
      "ĠÙħØ¯Ø§Ø±Ø³": 7252,
      "itation": 7253,
      "ÚĪÛĮÙħ": 7254,
      "Ġsuper": 7255,
      "ØŃØ§ÙĦÛĮ": 7256,
      "ĠSeptember": 7257,
      "ese": 7258,
      "ĠÙħØŃÙĦ": 7259,
      "gar": 7260,
      "\\\":\\\"": 7261,
      "Ġsociety": 7262,
      "ĠØŃÙĦÙĤÙĪÚº": 7263,
      "\\\",\\\"": 7264,
      "Ġpractices": 7265,
      "ĀĀĀĀ": 7266,
      "ĠÙĨØ§Ø¸": 7267,
      "ĠÙģÛĮÚĪ": 7268,
      "ĠÙħØ·ÙĦ": 7269,
      "Ø³Ø§": 7270,
      "Ġsources": 7271,
      "ĠØ¯ÛĮÚ©Ú¾ÛĴ": 7272,
      "Ù¾Ø´Ø§ÙĪØ±": 7273,
      "Ġcompl": 7274,
      "ÚĪÛĮÙĨ": 7275,
      "ĠØ®Ø§ÙħÙĪØ´ÛĮ": 7276,
      "ĠÚĪÛĮÙĨ": 7277,
      "Ġarch": 7278,
      "Ù¹Ø±ÙĨÚ¯": 7279,
      "bb": 7280,
      "Ġdest": 7281,
      "Ġlink": 7282,
      "Ø¬ÙĦ": 7283,
      "ĠØ³ÛĮØ§ÙĦ": 7284,
      "Ø¸Ø§ÛģØ±": 7285,
      "ÙĨØ¦ÛĮ": 7286,
      "ĠÚĨÚ¾Ù¹ÛĮ": 7287,
      "play": 7288,
      "ĠØ³ÛĮÙģ": 7289,
      "ĠÙħÛģØ±": 7290,
      "pa": 7291,
      "ĠÙģØ¹Ø§ÙĦ": 7292,
      "ÛĶÛĶÛĶÛĶÛĶÛĶÛĶÛĶ": 7293,
      "Ø¯ÛĮÛģ": 7294,
      "ĠÚ©Ø±ÙĪØ§": 7295,
      "ĠÙħÛģØ±Ø¨": 7296,
      "fully": 7297,
      "ØªÙĤ": 7298,
      "Ġadult": 7299,
      "Ġeither": 7300,
      "bol": 7301,
      "ĠØ¬Ø§Ø¦ÛĮ": 7302,
      "ĠÚ©Ø±ÙĪØ§ÙĨÛĴ": 7303,
      "ĠØ¯Ø§ÙĨØ´": 7304,
      "ĠØ§Ø³ÙĦØ§ÙħÛĮÛģ": 7305,
      "ĠÙĪÙĪÚĪ": 7306,
      "hold": 7307,
      "Ù¹ÛĮÚ©ÙĦ": 7308,
      "Ø³ÙĨØ¯Ú¾": 7309,
      "ĠÙ¾ÛģÙĨÚĨØ§ÙĨÛĴ": 7310,
      "pose": 7311,
      "ĠØ¢Ø³Ù¹Ø±ÛĮÙĦÛĮØ§": 7312,
      "Ġdevices": 7313,
      "ĠÙĦÚ©Ú¾ÛĴ": 7314,
      "ÙĨÚ©Ú¾": 7315,
      "Ġanaly": 7316,
      "90": 7317,
      "ĠÙħÛģØ§Ø¬Ø±ÛĮÙĨ": 7318,
      "ĠÙģØ§Øµ": 7319,
      "ners": 7320,
      "ĠØ¨ÛĮØ´ØªØ±": 7321,
      "Ġservice": 7322,
      "Ġaccur": 7323,
      "my": 7324,
      "ĠÙĪÚ©": 7325,
      "Ġcommunication": 7326,
      "aches": 7327,
      "ĠØ³ÙĦØ·ÙĨØª": 7328,
      "Ġweek": 7329,
      "ĠÚĨÚ¾Ø§Ù¾": 7330,
      "onse": 7331,
      "Ġguid": 7332,
      "Ġblack": 7333,
      "ĠØ¬ÙĨØ§ØŃ": 7334,
      "ĠØ§ÙĤÙĦÛĮ": 7335,
      "ĠØ®Ø±ÛĮ": 7336,
      "ĠØ§ÙĨÚ¯ÙĦÛĮÙĨÚĪ": 7337,
      "ĠÙĦØº": 7338,
      "ÙĦØ§ÛĮØ§": 7339,
      "ĠØ¢Ø²Ùħ": 7340,
      "ĠØ¨Ø±Øª": 7341,
      "ows": 7342,
      "ĠÛģÚĳ": 7343,
      "ÙĨÛĮÙģ": 7344,
      "ĠÙħØ³ØªØŃÚ©Ùħ": 7345,
      "mad": 7346,
      "Ġbacter": 7347,
      "ĠØ§ØŃØªÛĮØ§Ø·": 7348,
      "ĠØ·Ø¨ÙĤÛģ": 7349,
      "Un": 7350,
      "Ġsoftware": 7351,
      "reg": 7352,
      "Ġtaken": 7353,
      "Ġste": 7354,
      "ĠÛģÙĨØ¯ÙĪØ³ØªØ§ÙĨÛĮ": 7355,
      "Ġ36": 7356,
      "ĠØ¯Ø³ØªØ®Ø·": 7357,
      "One": 7358,
      "ĠÛģÙĪØ±ÛģÛĮ": 7359,
      "Ġaspect": 7360,
      "ĠØºÙģ": 7361,
      "Ġactually": 7362,
      "ÙģÙĤØ§Ø±": 7363,
      "Ø³Ù¹Ø±Ú©Ù¹": 7364,
      "Ġcritical": 7365,
      "ĠØªÛĮØ³Ø±ÛĴ": 7366,
      "ublic": 7367,
      "ĠØŃÚ©ÙĪÙħØªÙĪÚº": 7368,
      "ON": 7369,
      "Ġver": 7370,
      "ĠØ¢ÙĨØ§": 7371,
      "Ã©": 7372,
      "Ø§Ø¹Ø¯": 7373,
      "Ġcomputer": 7374,
      "ĠØ®ÙĦØ§ÙģØª": 7375,
      "ØµÛĮÙĦÛĮ": 7376,
      "ĠØ§Ù¹Ú¾Ø§Ø¦ÛĴ": 7377,
      "Ġfarm": 7378,
      "ĠÙ¾Ú¾ÙĪÙĦ": 7379,
      "ĠØ¹ÙĦØ§ÙĤØ§Ø¦ÛĮ": 7380,
      "ĠØªÛĮØ±ÛĴ": 7381,
      "ĠØ¬Úĳ": 7382,
      "ĠÙĦÚĳÚ©ÛĮÙĪÚº": 7383,
      "Ġye": 7384,
      "ØªØ§ÛģÙħ": 7385,
      "ØµÙĪØ¨": 7386,
      "Ø¨Ø±ÛĮ": 7387,
      "Ġsent": 7388,
      "Ġregard": 7389,
      "ĠÛģØ§ÙĦ": 7390,
      "ĠÙ¾ÙĪÙĦÛĮÙĪ": 7391,
      "Ġpatient": 7392,
      "Ø¯Ø§Ø¯ÛĮ": 7393,
      "ĠÙħØŃÙģÙĦ": 7394,
      "Ġspread": 7395,
      "ĠÙģÛĮÙħ": 7396,
      "ĠØªØ¹ÙĦÛĮÙħØ§Øª": 7397,
      "Ø§ÛĮØ±Ø§ÙĨ": 7398,
      "Ġtypically": 7399,
      "Ġtechniques": 7400,
      "Ġansw": 7401,
      "ĠÙħÙĪØ«Ø±": 7402,
      "ĠÙĨÛĮÙĨØ¯": 7403,
      "Ġreading": 7404,
      "ĠØºÙĨÛĮ": 7405,
      "Ø§Ù¹Ø§": 7406,
      "val": 7407,
      "Ø§Ø¦Ø¶": 7408,
      "ĠØ¹Ø¸Ùħ": 7409,
      "icles": 7410,
      "Ġparents": 7411,
      "Ġpolitical": 7412,
      "ØªÚ©": 7413,
      "Ġbecame": 7414,
      "ĠÚ¯Ø±ÙħÛĮ": 7415,
      "ĠÙħØ§Øª": 7416,
      "ĠØ§Ø¹ÙĪØ§ÙĨ": 7417,
      "Ø¬ÛģØªÛĮ": 7418,
      "Ġrelig": 7419,
      "ĠÚĨÛģØ±Ûģ": 7420,
      "Ø¨ÛĮØ§": 7421,
      "ĠØ¯ÙĦØ§Ø¦ÙĦ": 7422,
      "ply": 7423,
      "Ġpoll": 7424,
      "atest": 7425,
      "ĠGerm": 7426,
      "ĠAct": 7427,
      "ĠØ¨Ø¯ÙĨ": 7428,
      "istics": 7429,
      "ĠØ§ÙĨÚĪØ³Ù¹Ø±ÛĮ": 7430,
      "ĠØ¹Ø¯ÙĦÛĮÛģ": 7431,
      "Ġidea": 7432,
      "ÙħØ±Ú©": 7433,
      "Ø¨ÛĮÙĨ": 7434,
      "ĠØ¨Ø§Ø¨Ø§": 7435,
      "Ġfire": 7436,
      "Ġstructure": 7437,
      "cies": 7438,
      "Ú©Ø§Ùħ": 7439,
      "ĠÙģÙĦÙħÙĪÚº": 7440,
      "Ġrights": 7441,
      "ĠÚ©ÙĪØ´Ø´ÛĮÚº": 7442,
      "Ġmultiple": 7443,
      "hib": 7444,
      "ĠÛģÙĦØ§Ú©Øª": 7445,
      "ĠØ§Ø³ÙħØ§Ø¹": 7446,
      "Ġsex": 7447,
      "ĠÚĪØ§Ø±": 7448,
      "ĠØ±ÛĮÙģØ±ÙĨØ³": 7449,
      "ief": 7450,
      "room": 7451,
      "ĠÚ©ÛĮÙĦ": 7452,
      "ĠPe": 7453,
      "ĠDecember": 7454,
      "ĠØ¶ÙĦ": 7455,
      "Ġparticularly": 7456,
      "ÛģÛĮÚº": 7457,
      "aced": 7458,
      "ĠÚ©ÙħØ§Ø±": 7459,
      "ĠÙĨÙĪØ¹ÛĮØª": 7460,
      "ĠÙ¹ÙĪØ¦": 7461,
      "Ġlab": 7462,
      "ively": 7463,
      "ĠØ¬Ø§Ø±ØŃ": 7464,
      "ĠØ¯Ø±Ø¬ÙĨ": 7465,
      "ĠÙĨØ§Ú©Ø§ÙħÛĮ": 7466,
      "ĠÚĨÛģ": 7467,
      "bl": 7468,
      "ned": 7469,
      "ÙĬÛģ": 7470,
      "Ġever": 7471,
      "ĠÚ©ÙħØ±": 7472,
      "Ġren": 7473,
      "ĠØ³ÙĨØ§Ø¦ÛĮ": 7474,
      "iction": 7475,
      "ĠØ¢Ø³": 7476,
      "ĠØ¹Ø§Ø¦Ø´Ûģ": 7477,
      "ÙĨØ¯ÙĪ": 7478,
      "ĠØ§Ø³ØªÙĤØ¨Ø§ÙĦ": 7479,
      "opy": 7480,
      "ÙĪÙģØ§ÙĤÛĮ": 7481,
      "ervation": 7482,
      "ĠØ§ÙħØ§ÙĨ": 7483,
      "Ġculture": 7484,
      "ÚĨÙĪÛģØ¯Ø±ÛĮ": 7485,
      "ĠÙ¾ÙĨØ¯Ø±Ûģ": 7486,
      "ĠÙĨØµÛĮØ¨": 7487,
      "ÛĮÙĨÚ¯": 7488,
      "ĠØ®Ø³": 7489,
      "ĠØ®Ø§Ú©": 7490,
      "IS": 7491,
      "ĠÚ©ÙħØ§ÙĨÚĪØ±": 7492,
      "ĠÚ©ÙĦÙĪÙħÛĮÙ¹Ø±": 7493,
      "ĠØ§ÛĮÚ¯Ø²": 7494,
      "Ġevidence": 7495,
      "ĠØ³Ø±Ø²ÙħÛĮÙĨ": 7496,
      "Ġmeasure": 7497,
      "Ġleading": 7498,
      "ĠÛģÙħØ¯": 7499,
      "ĠÙħÙĤÛĮÙħ": 7500,
      "hol": 7501,
      "ĠÙħØªÙĨØ§Ø²": 7502,
      "ĠØŃØ±Ø§Ø³Øª": 7503,
      "Ġachieve": 7504,
      "Ġlooking": 7505,
      "Ġ@": 7506,
      "Ú©ÛĮØ§Úº": 7507,
      "Ø¬ÙĪØ§Ø¨": 7508,
      "Ġstop": 7509,
      "ĠSouth": 7510,
      "Ġcreating": 7511,
      "ĠØµÙĦ": 7512,
      "ĠØ§Ø¶ÙĦØ§Ø¹": 7513,
      "ĠÚĪØ¨": 7514,
      "×Ļ×": 7515,
      "ĠNovember": 7516,
      "issions": 7517,
      "ĠÑ": 7518,
      "ĠÚ©Ø«ÛĮØ±": 7519,
      "ĠØ¢ÛģØ³ØªÛģ": 7520,
      "ÙħØ¨Ø§Ø±Ú©": 7521,
      "Ø°Ú©Ø±Ûģ": 7522,
      "Ð°Ð½": 7523,
      "ĠUs": 7524,
      "ĠÙĪØ§Ø³": 7525,
      "imin": 7526,
      "Ġcalc": 7527,
      "mar": 7528,
      "Ġstay": 7529,
      "ĠØªÚ¾ÙĪÚĳÛĮ": 7530,
      "lick": 7531,
      "ĠÙģÙĦØ³Ø·ÛĮÙĨÛĮ": 7532,
      "ĠØ¢Ú¯ÛĮØ§": 7533,
      "Ġrev": 7534,
      "ĠØ§ÙħØ§Ø±Ø§Øª": 7535,
      "osing": 7536,
      "ĠRead": 7537,
      "Ø±ØªÛĮ": 7538,
      "Ø³Ù¾Ø±ÛĮÙħ": 7539,
      "Ġfive": 7540,
      "ĠØ·Ø§Ø±ÙĤ": 7541,
      "ĠÙĨØ¹Ø±ÛĴ": 7542,
      "Ġsat": 7543,
      "ĠÙĦÙĪÚ©": 7544,
      "eration": 7545,
      "book": 7546,
      "Ġgard": 7547,
      "ÚĪÙĨ": 7548,
      "ĠÙģØ§Ø·ÙħÛģ": 7549,
      "Ø§Ø¬Ø§Ø¦Ø²": 7550,
      "Ġtax": 7551,
      "ĠÛģÛĮÙĦØªÚ¾": 7552,
      "Ġcorrect": 7553,
      "Ù¹Ú¾ÛĴ": 7554,
      "ÙĪÛĮØ§Øª": 7555,
      "ĠØ¨Ú¾Ú¯": 7556,
      "Ġmechan": 7557,
      "Ġlonger": 7558,
      "mon": 7559,
      "ĠØ¹ÙĤÛĮØ¯Øª": 7560,
      "77": 7561,
      "Ø§Ú©Øª": 7562,
      "ÙħØ®Øª": 7563,
      "ĠØ¬ØªÙĨÛĮ": 7564,
      "ĠØ§Ø³Ù¹ÛĮÙ¹": 7565,
      "à¸": 7566,
      "ĠØŃØ§Ø¬ÛĮ": 7567,
      "Ø¹Ø¯Ùħ": 7568,
      "ĠØ±Ø¯Ø¹ÙħÙĦ": 7569,
      "ÙģÛĮØ¸": 7570,
      "ĠÚĪØ±Ø§Ùħ": 7571,
      "Ġcompanies": 7572,
      "Ġwaste": 7573,
      "Ġcompet": 7574,
      "ĠDep": 7575,
      "ØºØ§": 7576,
      "ĠØ²ÙĦØ²": 7577,
      "ĠÚ©Ø´ÛĮØ¯Ú¯ÛĮ": 7578,
      "ĠApp": 7579,
      "ĠÙ¾ÛĮÚĨ": 7580,
      "Ø§ÙĪØ²": 7581,
      "Ġstates": 7582,
      "ĠÛģÙĪØ±ÛģØ§": 7583,
      "ĠÙĪØ¬ÙĪÛģØ§Øª": 7584,
      "Ġthreat": 7585,
      "66": 7586,
      "ĠØªÙģØ³ÛĮØ±": 7587,
      "AM": 7588,
      "ÙħØµ": 7589,
      "ÙĪØªÚ¾": 7590,
      "ĠØ±ÛģØ§Ø¦ÛĮ": 7591,
      "Ø¨Ø¯Ú¾": 7592,
      "ĠØŃØµÙĪÚº": 7593,
      "wa": 7594,
      "ĠÙĪÛĮÚº": 7595,
      "ĠÙĦØ¦ÛĮ": 7596,
      "ĠÚ¯ÚĳÚ¾": 7597,
      "ĠÙ¾Ø±Ø§ÙĨÛĮ": 7598,
      "ĠØ´ÛģØ±Øª": 7599,
      "ĠØ¯ÙĦÙĪÚº": 7600,
      "ĠÙĨØ±ÛĮÙĨØ¯Ø±": 7601,
      "Ø¢Ø®Ø±": 7602,
      "ĠØ§ÙĨÙĪ": 7603,
      "ĠØ¬Ø§ÙĨÚĨ": 7604,
      "Ġenjoy": 7605,
      "ĠÙħÛĮØ²Ø§Ø¦ÙĦ": 7606,
      "Ø·Ùģ": 7607,
      "ĠØ±ÛĮØ³": 7608,
      "Ġmatter": 7609,
      "lation": 7610,
      "ĠØ¹Ø§Ø±Ùģ": 7611,
      "Ġprofessional": 7612,
      "Ġthough": 7613,
      "onom": 7614,
      "Ġeat": 7615,
      "Ġgame": 7616,
      "ĠØ§ÙģØ¶ÙĦ": 7617,
      "ĠØ¨ÛĮÚ¯Ùħ": 7618,
      "ĠÙģÛĮØ¶": 7619,
      "ĠØ¨ÙĨÛĮØ§Ø¯ÙĪÚº": 7620,
      "ĠØ¨Ú¾Ø§Ø¦ÛĮÙĪÚº": 7621,
      "ĠÚĪÙĪØ¨": 7622,
      "ĠØ´Ø§ÛģÛĮ": 7623,
      "hens": 7624,
      "ĠWh": 7625,
      "ĠØ³ÙħÛĮ": 7626,
      "ÙĪÙĨÚ©": 7627,
      "fect": 7628,
      "ccording": 7629,
      "ĠÙģØ¶Ø§": 7630,
      "ĠÙħÙĤØ§Ø¨ÙĦ": 7631,
      "ØµÙĪÙģ": 7632,
      "Ġtowards": 7633,
      "ties": 7634,
      "ĠPol": 7635,
      "Ġprograms": 7636,
      "yes": 7637,
      "ĠÛĮÛģÙĪØ¯ÛĮ": 7638,
      "ĠÙĨØ§ÙĪÙĦ": 7639,
      "ĠØ·ÛĮØ§Ø±ÛĴ": 7640,
      "==": 7641,
      "hab": 7642,
      "ĠØ®Ø§Ø±Ø¬": 7643,
      "ĠÛģØ§": 7644,
      "ĠØ§Ú©Ú¾": 7645,
      "Ø²Ø®": 7646,
      "ias": 7647,
      "Ġbab": 7648,
      "izations": 7649,
      "Ø§ØŃÙħØ¯": 7650,
      "ĠÙĦÚĳÚ©ÛĴ": 7651,
      "ĠÙĨØ§Ø±Ø§Ø¶": 7652,
      "Ø¦ÙĦ": 7653,
      "ĠÙħØ¸ÙĦÙĪÙħ": 7654,
      "ĠÙĨÚ©Ø§ÙĦÙĨÛĴ": 7655,
      "ĠÙĤØµÙĪØ±": 7656,
      "ĠØ¬Ø¨Ø±": 7657,
      "ĠÙĪÛĴ": 7658,
      "ÙĪØ§Ø±ÙĪÚº": 7659,
      "Ġremov": 7660,
      "ĠØ§Ø¹Ø¬Ø§Ø²": 7661,
      "Ġgetting": 7662,
      "ĠÙħØŃØ¨ÙĪØ¨": 7663,
      "Ġpsych": 7664,
      "ĠCar": 7665,
      "atives": 7666,
      "Ġï¿½ï¿½ï¿½": 7667,
      "Ø´ÛĮÙĨ": 7668,
      "Ġbur": 7669,
      "Ø§ÙħÙĨÙ¹": 7670,
      "ĠGoogle": 7671,
      "ĠÚĨÚ¾ÙĪÙ¹Ø§": 7672,
      "ĠPar": 7673,
      "Ø¬ÙĨÙĪØ±ÛĮ": 7674,
      "ĠØ¯ÙģØ§Ø¹ÛĮ": 7675,
      "Ġposition": 7676,
      "ĠÙ¾Ø±Ø³ØªÛĮ": 7677,
      "ivil": 7678,
      "Ø¶Ø±": 7679,
      "ĠØ§ØµÙĦØ§ØŃØ§Øª": 7680,
      "pd": 7681,
      "Â¤": 7682,
      "ĠØºØ±Ø¨Øª": 7683,
      "ĠÙħÙĪÙħÙĨ": 7684,
      "ister": 7685,
      "ĠCal": 7686,
      "Ġconsist": 7687,
      "ologies": 7688,
      "ĠMin": 7689,
      "Ġrout": 7690,
      "Ġbad": 7691,
      "ĠÚ¯ÙĪÙĨ": 7692,
      "ĠÛģÙĪØ¬Ø§ØªÛĮ": 7693,
      "ĠØ³ÙĪÚĨØ§": 7694,
      "Ø§ÙĨÚ¾ÙĪÚº": 7695,
      "ĠÛģÙĪØ§Ø¦ÛĮ": 7696,
      "Ġterms": 7697,
      "Ġjo": 7698,
      "Ø¯Ú¾Ø±": 7699,
      "Ù¹ÛĮÙĦÛĮ": 7700,
      "ĠØ·Ø§ÙĤØªÙĪØ±": 7701,
      "ØªØ±ÛĮÙĨ": 7702,
      "ĠÙĪÛĮÚ©ÛĮ": 7703,
      "ĠÚ¯Ø±Ø§Ùħ": 7704,
      "ĠÙ¾Ú¾ÛĮÙĨÚ©": 7705,
      "ĠÙħÙģÛĮØ¯": 7706,
      "ales": 7707,
      "uel": 7708,
      "ey": 7709,
      "........": 7710,
      "ĠÙģØ±Ø§Ø¦Ø¶": 7711,
      "Â°": 7712,
      "Ġprinc": 7713,
      "ĠÙ¾Ø±ÚĨ": 7714,
      "Ø¨Ø·": 7715,
      "ĠØ¨ÙĨØ§ØªÛĴ": 7716,
      "ĠØ±ÛģÙĨÙħØ§Ø¦ÛĮ": 7717,
      "Ġissue": 7718,
      "Ø¹Ø§ÙĦÙħÛĮ": 7719,
      "ÙĪÙĤØ¹": 7720,
      "ĠØ§ÙĨÚ¯Ø±ÛĮØ²": 7721,
      "Ġexplore": 7722,
      "Ġsuff": 7723,
      "duc": 7724,
      "ĠØ·Ø¨ÙĤÛĴ": 7725,
      "ĠØ¬Ø°Ø¨Ûģ": 7726,
      "itud": 7727,
      "ĠFebruary": 7728,
      "92": 7729,
      "Ġaur": 7730,
      "Ø¹Ø¨Ø¯Ø§ÙĦ": 7731,
      "cient": 7732,
      "wit": 7733,
      "ĠÚ©ÙĦÙħ": 7734,
      "Ø§ÙĦØ±": 7735,
      "ĠØ¨ÙĦØ¯ÛĮ": 7736,
      "Ø¯ÛģÛĮ": 7737,
      "Ġusers": 7738,
      "ĠØ±Ø¬ÙĪØ¹": 7739,
      "ĠÙ¾Ù¹ÛĮ": 7740,
      "Ġdeveloping": 7741,
      "ĠØ³ÛĮÙĨÚ©ÚĳÙĪÚº": 7742,
      "Ġsolar": 7743,
      "Ġupon": 7744,
      "ED": 7745,
      "ĠÛģÙĪØ¬Ø§Ø¦ÛĮÚº": 7746,
      "apan": 7747,
      "Ġvisit": 7748,
      "Ġindustr": 7749,
      "ĠØ³Ø§ØªÚ¾ÛĮÙĪÚº": 7750,
      "ÛĶ\"": 7751,
      "Ø³ÙĦÙħ": 7752,
      "Ġcaused": 7753,
      "Ø§ÙĩØ¯": 7754,
      "Ġir": 7755,
      "ĠØ´ÙģØ§Ùģ": 7756,
      "xi": 7757,
      "ĠØ¨Ø±Ø¹Ú©Ø³": 7758,
      "Ø¯Ø§Ø±ØªÛĮ": 7759,
      "ĠØ²Ø¯Ûģ": 7760,
      "Ø¹ÛĮØ¯": 7761,
      "78": 7762,
      "ĠÙĤØ§ÙĦ": 7763,
      "ÙĨÛĮÙĪØ²": 7764,
      "Ad": 7765,
      "Ġgrowing": 7766,
      "amb": 7767,
      "ĠØ¬Ø§ÙĨÙĪØ±ÙĪÚº": 7768,
      "ĠÙħÙĪÙĦÙĪÛĮ": 7769,
      "Ġcontinue": 7770,
      "orks": 7771,
      "ĠÙĤØ§Ø¶ÛĮ": 7772,
      "Ġuses": 7773,
      "ĠØ¬Ø§Ø³Ú©ØªÛĮ": 7774,
      "Ġrecent": 7775,
      "Ø§Ø®ÛĮØ±": 7776,
      "Ġtravel": 7777,
      "ÙħÙĨÚ¯ÙĦ": 7778,
      "ĠHere": 7779,
      "ĠÚ©Ø±Ø¯ÛĴ": 7780,
      "ÙĨÚĪØ±": 7781,
      "Ġhyd": 7782,
      "Ġteeth": 7783,
      "ĠÙĨÚ©ÙĦÛĴ": 7784,
      "Ġoptim": 7785,
      "ĠCo": 7786,
      "ctions": 7787,
      "Ø¹Ø¯Ø§ÙĦØª": 7788,
      "Ø§Ø¯ÛĮØ§ÙĨÛĮ": 7789,
      "ĠÙħÙĨØ³ÙĪØ®": 7790,
      "Ġec": 7791,
      "ĠØ´ÙħØ§Ø±ÛĮ": 7792,
      "ĠÙĨØ¸Ø±ÛĮØ§Øª": 7793,
      "ĠÚ©Ø±ÚĨ": 7794,
      "ume": 7795,
      "ĠØ·ÙĪØ±Ù¾Ø±": 7796,
      "ĠØ¶ÙħÙĨ": 7797,
      "ĠØ²Ø¯": 7798,
      "ĠÙħÙĨØ§Ø¸Ø±": 7799,
      "ĠQu": 7800,
      "ĠÚ©Ø±Ø§Ø¦ÛĴ": 7801,
      "ĠÙĪÛĮÙĨ": 7802,
      "ĠÚ©Ú¾ÛĮÙĦÙĨÛĴ": 7803,
      "ĠÙĪÚĪ": 7804,
      "ĠØ¨Ú¾ÙĦØ§": 7805,
      "hood": 7806,
      "ĠÙĨÙħÙ¹ÙĨÛĴ": 7807,
      "Ġfeatures": 7808,
      "gu": 7809,
      "Ø¬Ø±Ùħ": 7810,
      "Ø§Ø¬Ø§Ø¦ÛĴ": 7811,
      "ÙĨØ³ÙĪ": 7812,
      "à¤¾": 7813,
      "Ø§Ø¯ÙĪ": 7814,
      "ĠØµÙĪØ¨ÙĪÚº": 7815,
      "ka": 7816,
      "ti": 7817,
      "ĠØ³ÛĮÙĦØ§Ø¨": 7818,
      "AL": 7819,
      "term": 7820,
      "Ġcommunities": 7821,
      "ĠÚ©Ø±Ø§Ø¦ÛĮ": 7822,
      "Ø¯ÛĮØ´": 7823,
      "Ġeasily": 7824,
      "Ø¯Ø¨": 7825,
      "ene": 7826,
      "Ġheav": 7827,
      "Ġsepar": 7828,
      "ĠÙĤØ·Ø±": 7829,
      "ĠÚĪÛĮÙĦ": 7830,
      "Ġrequires": 7831,
      "ÙĪØ§Øª": 7832,
      "Ø¨ÙĦÙĪÚĨ": 7833,
      "ened": 7834,
      "ĠÙĤØ¯Ø±Øª": 7835,
      "ĠÚ©ÛĮØ¬Ø¦ÛĴ": 7836,
      "ĠØªÙģØµÛĮÙĦÛĮ": 7837,
      "ØªØŃØ±ÛĮÚ©": 7838,
      "abet": 7839,
      "ĠGr": 7840,
      "Ġthing": 7841,
      "Ġregion": 7842,
      "Ġprob": 7843,
      "Ġ}": 7844,
      "ĠØ´ÛĮØ¦Ø±": 7845,
      "Ú¯Ø¦ÛĮ": 7846,
      "ĠØ§ÙħØ±Ø§Ø¶": 7847,
      "pid": 7848,
      "Ġmicro": 7849,
      "Ġhu": 7850,
      "ĠÙ¾Ø§Ø¤Úº": 7851,
      "Ø§ÙĨÚ¯ÛĮØ±": 7852,
      "ĠØ¢Ú©Ø±": 7853,
      "ĠCons": 7854,
      "Ġselect": 7855,
      "ÙĪØ§ÙĦÛĮ": 7856,
      "ÙĪÙħØ§": 7857,
      "ricult": 7858,
      "ĠÙħÙĪØ±Ø®Ûģ": 7859,
      "ÙĪÙĨÛĴ": 7860,
      "Ġsomeone": 7861,
      "Ġsect": 7862,
      "ĠØ¬Ø§ÙĨÙĨÛĴ": 7863,
      "ĠØ¨ÚĨÙĨÛĴ": 7864,
      "ĠØªØŃØµÛĮÙĦ": 7865,
      "Ġexercise": 7866,
      "Ġetc": 7867,
      "ĠØ¯Ú¾ÛĮ": 7868,
      "Ġful": 7869,
      "ĠØ§ÙĤØ¯Ø§Ø±": 7870,
      "ĠÛģÙħØª": 7871,
      "ĠÙģÙĪØ¬ÛĮÙĪÚº": 7872,
      "ĠØ¨ÛĮÙ¹Ú¾Ø§": 7873,
      "ĠØ³ÛĮØ¯ÙĨØ§": 7874,
      "Ù¾ÛĮÚĪÛĮØ§": 7875,
      "ĠArch": 7876,
      "ĠÚ©Ú¾ÙĦÛĴ": 7877,
      "rs": 7878,
      "ades": 7879,
      "Ġ02": 7880,
      "Ú©Ú¾ÛĮÙĦ": 7881,
      "ĠÙĦÚ¯Ø§Ø¦ÛĮ": 7882,
      "Ġvacc": 7883,
      "vant": 7884,
      "ĠÙĨØ§Ø¯": 7885,
      "ÙĪØ±ÙĨØ§ÙħÙĨÙ¹": 7886,
      "ĠØ§ÙĦÚ©": 7887,
      "Ø¬ÙħØ¹Ø±Ø§Øª": 7888,
      "ĠØ§ÙĦØ·Ø§Ùģ": 7889,
      "ĠOf": 7890,
      "ipment": 7891,
      "Ø§ÙĪØ±Øª": 7892,
      "ĠÚ©ÛģØªÛĮ": 7893,
      "ĠÚĪØ§ÙĦÛĮ": 7894,
      "Ġresponse": 7895,
      "ĠØ±ÛĮØ²": 7896,
      "Ø²Ø§Ø¯Ûģ": 7897,
      "Ø±ÙĪÙ¾ÛĴ": 7898,
      "ĠØ¨Ø§ÙĦÛĮ": 7899,
      "ĠØ¯Ø±Ø¨": 7900,
      "hel": 7901,
      "Ġaud": 7902,
      "urch": 7903,
      "Ġï¿½ï¿½": 7904,
      "ĠØ¬ÙħÛģÙĪØ±ÛĮÛģ": 7905,
      "Ġquickly": 7906,
      "ĠÚ©Ú¾ÙĦÛĮ": 7907,
      "ĠØ¨Ø¯ÙĪÙĦØª": 7908,
      "umb": 7909,
      "Ġdraw": 7910,
      "Ø²Ø±": 7911,
      "ĠØªÙĤØ±": 7912,
      "ĠÙĦØ§Ø¦ÛĮ": 7913,
      "Ø¬ÙĪÙĨ": 7914,
      "ils": 7915,
      "ĠØ§Ø³ÙħØ§Ø¹ÛĮÙĦ": 7916,
      "Ġdiseases": 7917,
      "ĠÙĨØ°Ø±": 7918,
      "ĠÚ©ÙħÛĮÙĪÙĨÙ¹ÛĮ": 7919,
      "Is": 7920,
      "ĠØ¹ÛĮØ³ÛĮ": 7921,
      "ĠÚĪØ±Ø§Ø¦ÛĮÙĪØ±": 7922,
      "ÚĳÙ¾": 7923,
      "ĠÙĥÙĬ": 7924,
      "ĠÚ©ÛģÛĮ": 7925,
      "ĠÙħÙĨÚ¯": 7926,
      "Ġcultural": 7927,
      "Ø¨Ø¯": 7928,
      "Ġitself": 7929,
      "ĠÙ¾Ù¹": 7930,
      "Ġproced": 7931,
      "ĠØ§ÙĨØ¬ÛĮÙĨØ¦Ø±": 7932,
      "artment": 7933,
      "ÙĨÙ¹Ø³": 7934,
      "ĠÙĨÙĪØ§Ø¨": 7935,
      "ĠØ¹ÛĮÙĨ": 7936,
      "Ġyet": 7937,
      "ĠÙģÛĮÙħÙĦÛĮ": 7938,
      "ĠÙĪØ§Ø¦Ø³": 7939,
      "ĠØ®Ø±Ø§Ø¬": 7940,
      "ground": 7941,
      "ĠØ³Ø§Ø¦ÙĨ": 7942,
      "Ġarr": 7943,
      "ĠÙ¾ÚĨØ§Ø³": 7944,
      "Ġeye": 7945,
      "avor": 7946,
      "ĠÙĨÙĤØ·Ûģ": 7947,
      "ĠØ¢Ù¾Ø³": 7948,
      "ĠØ¨ÙĦÛĴ": 7949,
      "ĠÛģØ§Ø¦": 7950,
      "ĠÚ¯ÙĪØ¦ÛĮ": 7951,
      "Ġimportance": 7952,
      "ĠÙħØ±Ø§Ú©": 7953,
      "ĠÚĨÙħÚ©": 7954,
      "ĠØ§Ø®ØªÙĦØ§ÙģØ§Øª": 7955,
      "ĠÚĪØ§Ù¹": 7956,
      "ĠWar": 7957,
      "ĠØªØŃØ³ÛĮÙĨ": 7958,
      "Ġ01": 7959,
      "Ġprop": 7960,
      "ĠÙĤØ§Ø¯Ø±ÛĮ": 7961,
      "Ġveget": 7962,
      "ĠÙħÛģÙĨÚ¯Ø§Ø¦ÛĮ": 7963,
      "Ġpan": 7964,
      "Ġdoing": 7965,
      "har": 7966,
      "Ùĸ": 7967,
      "ĠÛĮÙĪÙĨÙ¹": 7968,
      "Ø²Ø¦ÛĮ": 7969,
      "Ø¬ÙħØ¹Ûģ": 7970,
      "Ġvideo": 7971,
      "aries": 7972,
      "ĠÙĨÛĮÙĪØ²ÛĮ": 7973,
      "Ġevents": 7974,
      "ĠÙĨÚ©ÙĦÙĨÛĴ": 7975,
      "Ø¨Ø³": 7976,
      "Ġcommit": 7977,
      "ĠØ¢Ø¤Ù¹": 7978,
      "ÚĪÙ¹": 7979,
      "ĠÙģØ§Ø±Ø³ÛĮ": 7980,
      "ĠÙĪÙĤØ§Ø±": 7981,
      "ĠÚ©ÛĮÙĦÛĮÛĴ": 7982,
      "title": 7983,
      "ĠØ±ÙĪÙĦ": 7984,
      "Ġwal": 7985,
      "EN": 7986,
      "Ġefficient": 7987,
      "ĠØ§ÛĮÚ©Ø³Ù¾Ø±ÛĮØ³": 7988,
      "Ø±ØŃØ§ÙĦ": 7989,
      "Ġappropri": 7990,
      "Ø§ÙĦÛĮÛģ": 7991,
      "ÙħÛĮØ´ÙĨ": 7992,
      "ĠÙħÛģÛĮØ§": 7993,
      "ĠChina": 7994,
      "ĠØ¬Ø§Ø¤": 7995,
      "ĠÙĤØ¨Ø§Ø¦ÙĦÛĮ": 7996,
      "Ð±": 7997,
      "inary": 7998,
      "ĠØ§ÙĨØ¯Ø±ÙĪÙĨÛĮ": 7999,
      "ĠÙħØ¨Ø§Ø±Ú©Ø¨Ø§Ø¯": 8000,
      "Ø±ÛĮÙĪÚº": 8001,
      "Ġinnov": 8002,
      "ĠØ¹Ø§Ø¨": 8003,
      "ĠØŃØªÛĮ": 8004,
      "orpor": 8005,
      "ĠØ¨Ø²ÙĨØ³": 8006,
      "ĠÙĦØ§Ø²Ùħ": 8007,
      "ĠØ§Ø³ØŃØ§ÙĤ": 8008,
      "Ġlack": 8009,
      "Ġadapt": 8010,
      "ĠØ§ÛģÙĦÛĮÛģ": 8011,
      "ĠØ¯Ø±ÙĪØ§Ø²Ûģ": 8012,
      "ĠØ¬Ú¾Ú¯": 8013,
      "Ġprogress": 8014,
      "AC": 8015,
      "Ġlo": 8016,
      "ĠÛĮÚ©Ø¬ÛģØªÛĮ": 8017,
      "yl": 8018,
      "Ġmor": 8019,
      "ĠÚ¯ÙĨØ¯": 8020,
      "Ú©Ú¾Ø§": 8021,
      "ÙĪØ²ÛĮØ±Ø§Ø¹ÙĦÛĮ": 8022,
      "ÛĮÚ©Ø§": 8023,
      "ĠØ¹ÙħØ¯": 8024,
      "Ġ45": 8025,
      "Ġinternational": 8026,
      "Ġspeed": 8027,
      "ĠÙ¾Ú©Ø§Ø±": 8028,
      "Ġprocesses": 8029,
      "ĠÙĦÚ¯ÙĨÛĴ": 8030,
      "ÙĦÙĪÚ¯": 8031,
      "Ø¹ÙĨ": 8032,
      "OR": 8033,
      "ĠÚ©ÛĮÙĨÛĮ": 8034,
      "ĠØ§Ø¯ÙĪÛĮØ§Øª": 8035,
      "Ġmovement": 8036,
      "Ġinvolved": 8037,
      "Ġtrue": 8038,
      "ĠÚ¯ÛĮØ±": 8039,
      "Ġslow": 8040,
      "minist": 8041,
      "ĠÚĨØ§ÛģÛĮÚº": 8042,
      "ĠSec": 8043,
      "Ġautom": 8044,
      "ĠÚĨÙĦØªÛĴ": 8045,
      "ĠØ³ÙĪØ¦": 8046,
      "ÙĦÛĮÙĪÚº": 8047,
      "ĠÚ©ÛĴÙĦØ¦ÛĴ": 8048,
      "ĠØµØ§ÙĦØŃ": 8049,
      "Ġbeaut": 8050,
      "ĠÙħØ¹Ø§ÙĪ": 8051,
      "ĠÙĨØµØ¨": 8052,
      "Ġcapt": 8053,
      "Ġwa": 8054,
      "Ġhealthcare": 8055,
      "Ø§ÛģÙ¹": 8056,
      "rid": 8057,
      "ØªÛĮÙĪÚº": 8058,
      "Ø§ÙĩØ¯Ø©": 8059,
      "ĠFl": 8060,
      "ĠÙħØ±ÙĨÛĴ": 8061,
      "ĠÙģÙĨÚĪØ²": 8062,
      "uted": 8063,
      "ĠØ¯Ø±Ù¾ÛĮØ´": 8064,
      "Ġblock": 8065,
      "\"ÛĶ": 8066,
      "ĠÙ¾Ú¾ÙĨØ³": 8067,
      "know": 8068,
      "Ø´ÙĪÚº": 8069,
      "Ġmess": 8070,
      "ĠØ¶Ø§Ø¦Ø¹": 8071,
      "ĠÙħØ§ÙĨÛĮ": 8072,
      "ĠÛģØ±Ú¯Ø²": 8073,
      "Ú¯Ø±Ûģ": 8074,
      "ÙħØ¦ÛĮ": 8075,
      "Ø§Ø¦ÛĮØ¯Ø§Ø¯": 8076,
      "ĠÚ¾ÛĮÚº": 8077,
      "Ġshows": 8078,
      "ĠÙħÙĦØ§ØŃ": 8079,
      "irl": 8080,
      "ĠÙ¹ÙĪØ±ÙĨØ§ÙħÙĨÙ¹": 8081,
      "ĠØªÛĮØ±ÛĮ": 8082,
      "ĠØ³ÛĮÚ©Ù¹Ø±": 8083,
      "97": 8084,
      "Ġna": 8085,
      "iber": 8086,
      "ÙĨÚĪÛĮØ´ÙĨ": 8087,
      "ĠØ¹Ø§Ø±": 8088,
      "ellig": 8089,
      "Ġfa": 8090,
      "za": 8091,
      "Ġoffers": 8092,
      "Ġdecision": 8093,
      "ĠØºØ²ÙĦ": 8094,
      "ÙĬØ©": 8095,
      "ift": 8096,
      "ĠØ¨ØºØ§ÙĪØª": 8097,
      "ĠØ²ÛĮØ¯": 8098,
      "ĠØ³Ø¨Ú¾ÛĮ": 8099,
      "Ġvit": 8100,
      "ĠReg": 8101,
      "Ġprovided": 8102,
      "IC": 8103,
      "atform": 8104,
      "ĠÙ¹Ú¾ÛģØ±": 8105,
      "ÙģØ±ÙĪØ±ÛĮ": 8106,
      "ĠØ¯Ø±ÛĮØ§": 8107,
      "right": 8108,
      "Ġdeb": 8109,
      "oph": 8110,
      "ĠÙħÙĦØªÙĪÛĮ": 8111,
      "ched": 8112,
      "ĠØ´Ø±Ø¹ÛĮ": 8113,
      "ĠJoh": 8114,
      "itable": 8115,
      "Ġalmost": 8116,
      "Ġaltern": 8117,
      "ĠÙħÙĨØ¹": 8118,
      "Ø¨Ø±Ø·Ø§ÙĨÛĮÛģ": 8119,
      "ÙĪØ´ÙĨ": 8120,
      "ĠØ¢ÙģØ³": 8121,
      "Ø§ØŃÙĤ": 8122,
      "ĠÙģØ§Øª": 8123,
      "ĠØ®ÙĦÛĮÙģÛģ": 8124,
      "Ġadvant": 8125,
      "ĠØ³Ø¨ÙĤ": 8126,
      "ĠÚĨØªØ±Ø§ÙĦ": 8127,
      "ĠAfter": 8128,
      "ĠØ¨Ùĩ": 8129,
      "ĠÚĨØ§ÛģÛĮØ¦ÛĴ": 8130,
      "ĠState": 8131,
      "ĠÚ¯Ú¾ÙĨÙ¹ÙĪÚº": 8132,
      "ĠÚ¯ÛĮÙĦØ§ÙĨÛĮ": 8133,
      "Ø§Ù¾Ø±ÛĮÙĦ": 8134,
      "Ø³ÙĨØ¯": 8135,
      "Ġnegative": 8136,
      "ĠØ¶ÙĦØ¹ÛĮ": 8137,
      "Ġprior": 8138,
      "Ġevalu": 8139,
      "Ġoptions": 8140,
      "ĠÙĤØ§ØªÙĦ": 8141,
      "Ġx": 8142,
      "ĠØŃØ±Ø§Ø±Øª": 8143,
      "Ġdoesn": 8144,
      "Ġcame": 8145,
      "ror": 8146,
      "Ġcard": 8147,
      "rag": 8148,
      "Ú¯Ø¦ÛĴ": 8149,
      "ĠAmerica": 8150,
      "ÙĦÙĩ": 8151,
      "ĠØ³ÙĪØ±Ûģ": 8152,
      "Ġtell": 8153,
      "rown": 8154,
      "Ġstandard": 8155,
      "Ø§ÙĦØ³": 8156,
      "ĠÙĪØ³ÛĮÙħ": 8157,
      "ĠØ¹Ø§Ø¯Øª": 8158,
      "ĠÚ¯ÙħØ±": 8159,
      "Ġinstall": 8160,
      "ĠÙħÙĤØ¯ÙħÛĴ": 8161,
      "ĠÙħØ§Ø¦": 8162,
      "imately": 8163,
      "itary": 8164,
      "ĠÙĦÛĮØ¦ÛĴ": 8165,
      "ban": 8166,
      "ĠØ§Ø¨ÙĦ": 8167,
      "Ø§Ø¹ÛĮ": 8168,
      "ĠØ³ÙħØª": 8169,
      "enn": 8170,
      "Ú¯ÙĪØ§Ø±": 8171,
      "ĠØµØ¯Ø§Ø±ØªÛĮ": 8172,
      "ĠAust": 8173,
      "ĠÙħÙĪØ³ÙħÛĮ": 8174,
      "Ø¬Ø³Ù¹Ø±": 8175,
      "Ø§Ø±Ø¦ÛĮÙĨ": 8176,
      "ĠØªØ¨ÙĦÛĮØº": 8177,
      "ĠÙģØ§Ø±Øº": 8178,
      "back": 8179,
      "ĠÚ©ÛĮÙ¾": 8180,
      "Ġwebsite": 8181,
      "Ø¬ÛģØ§Úº": 8182,
      "Ġbuilt": 8183,
      "Ġcoun": 8184,
      "Ġban": 8185,
      "ĠØ§ÙĦØ¯": 8186,
      "Ġveh": 8187,
      "ĠØ§ÙĨØ¯Ú¾ÛĮ": 8188,
      "Ġtotal": 8189,
      "Ġyourself": 8190,
      "ĠØ´Ø§ÙħÛĮ": 8191,
      "Ġfram": 8192,
      "ĠÙħÙĨØ¯Ø±Ø¬Ûģ": 8193,
      "dom": 8194,
      "ĠÚ©ÛģÙĦ": 8195,
      "Ġï¿½ï¿½ï¿½ï¿½ï¿½ï¿½": 8196,
      "Ġaccept": 8197,
      "Ġliter": 8198,
      "ĠØ¨ÙĨØªØ§": 8199,
      "php": 8200,
      "100": 8201,
      "Ø±Ù¾ÙĪØ±Ù¹": 8202,
      "Ġschools": 8203,
      "ĠÙħØ§Ø±Ø§": 8204,
      "Ú¯Ú¾Ø±": 8205,
      "ĠØ§ÙĦÙħØ¹": 8206,
      "Ġwood": 8207,
      "ĠÙĨÚ©ÙĦØ§": 8208,
      "asons": 8209,
      "Ġexc": 8210,
      "come": 8211,
      "ĠÛģÛĮØ±ÙĪ": 8212,
      "Ġhar": 8213,
      "ĠØ¹Ø¸ÙħØª": 8214,
      "ĠØªØ§Ø®ÛĮØ±": 8215,
      "Ġcomment": 8216,
      "ĠØ¨ÚĳÚ¾ÙĨÛĴ": 8217,
      "ÚĪØ²": 8218,
      "ĠØ³Ø§Ø¨ÙĤÛģ": 8219,
      "ÙĦÙĪØ¯": 8220,
      "Ġ2007": 8221,
      "ĠØŃÙĦÙģ": 8222,
      "ÙĦØ§ÙĪØª": 8223,
      "ÙĪÛĮØ¨": 8224,
      "Ġweb": 8225,
      "Ġinvolves": 8226,
      "icine": 8227,
      "irit": 8228,
      "Ġextreme": 8229,
      "ĠÙħÙĨØ¸Ùħ": 8230,
      "ĠÚ©ÛĮÙĨØ³Ø±": 8231,
      "obile": 8232,
      "ĠÙħØªØ§Ø«Ø±ÛĮÙĨ": 8233,
      "ĠØ¨Ø§Ø¨Ø±": 8234,
      "ĠØ§Ø³Ú©ÙĪ": 8235,
      "Ġled": 8236,
      "ĠÙħØ¹Øª": 8237,
      "Ġprevious": 8238,
      "ĠØ¬ÙĦØ³Ûģ": 8239,
      "Ġviews": 8240,
      "mb": 8241,
      "ĠØŃÚ©ÛĮÙħ": 8242,
      "Ø«ÛĮ": 8243,
      "ĠÙħÛĮØ³Ø±": 8244,
      "Ø³Ø±ÛĮ": 8245,
      "Ġprint": 8246,
      "Ø¯ÛĮØ±": 8247,
      "ĠÙĤØ§Ø³Ùħ": 8248,
      "ĠÙĨÛĮÙĦ": 8249,
      "ĠØ¨ÙĨØ¯ÛĴ": 8250,
      "ÙĪØ±Ø§": 8251,
      "Image": 8252,
      "Ġsimply": 8253,
      "ĠÚ©ÛģÛĴ": 8254,
      "Ġprotection": 8255,
      "While": 8256,
      "ĠÚ©Ø§Ø³": 8257,
      "ÛĮØ´": 8258,
      "Ø¬ÙĨÙĪØ¨ÛĮ": 8259,
      "just": 8260,
      "ĠÚ¯Ø¬Ø±Ø§Øª": 8261,
      "ĠØ¢ÙĦÛģ": 8262,
      "ĠØ±ÛĮØ§Ø³ØªÙĪÚº": 8263,
      "Ġgreater": 8264,
      "ĠÙĨØµÙģ": 8265,
      "igation": 8266,
      "ĠÚ¯ÛĮÙĨØ¯": 8267,
      "Ġsupply": 8268,
      "Ġuser": 8269,
      "Ġcred": 8270,
      "Ġwild": 8271,
      "Ġforms": 8272,
      "Ø¢Ø±": 8273,
      "ĠØŃØ§ÙħØ¯": 8274,
      "ĠØ´Ø§Ø¯": 8275,
      "ĠØ´Ø¨Ûģ": 8276,
      "Ø§Ø´Ø§": 8277,
      "ĠÙĦØ´Ú©Ø±": 8278,
      "ĠØ®Ø·Ø±Ø§Øª": 8279,
      "ÙĨØ¨ÛĮ": 8280,
      "ĠÚ¯Ø±ÛĮÙĨ": 8281,
      "ĠØŃØ³Ø§Ø³": 8282,
      "Ġserious": 8283,
      "ĠØªØ°Ú©Ø±Ûģ": 8284,
      "ÚĨÙĪÚº": 8285,
      "ĠØºØ§Ø¦Ø¨": 8286,
      "Ġoutside": 8287,
      "Ġsurv": 8288,
      "Ġbreat": 8289,
      "being": 8290,
      "ĠØ¯Ø§Ø³Øª": 8291,
      "ĠØ¨Ú¾ÙĪÚ©": 8292,
      "Ġtakes": 8293,
      "ĠØ§ÙĦØ£": 8294,
      "ĠØ§ÙħÛĮÙĨ": 8295,
      "ĠÙģÙĪØ§Ø¯": 8296,
      "ĠÛģÙĪÚĨÚ©ÛĮ": 8297,
      "Ġ32": 8298,
      "ÙħÚ©ÙĨ": 8299,
      "Ġrespect": 8300,
      "ĠÚ¯Ø§Ø±": 8301,
      "ĠÙħÛģØ§Ø±Øª": 8302,
      "Ġox": 8303,
      "ĠÚ©ÙĨØ§Ø±ÛĴ": 8304,
      "Ġbill": 8305,
      "US": 8306,
      "ĠØ¨ÙĬ": 8307,
      "Ġdry": 8308,
      "ĠØ¹ÙĦØ§ÙħØª": 8309,
      "ĠÙħÙĦØªÛĴ": 8310,
      "ĠÙħØ®Ø§ÙĦÙģÛĮÙĨ": 8311,
      "Ø²ÛĮØª": 8312,
      "ĠNorth": 8313,
      "ĠÚĨØ§Ø±ÙĪÚº": 8314,
      "Ġtur": 8315,
      "ĠØ¯ÛĮÛģ": 8316,
      "ĠÚ¯Ø§ÙĦ": 8317,
      "iment": 8318,
      "Ġdetermine": 8319,
      "Ġcosts": 8320,
      "ĠØŃÙĨ": 8321,
      "Ú©ÙĪØ¦": 8322,
      "Ġlands": 8323,
      "ÙĪÛĮØª": 8324,
      "ĠØ§ÛĮØ¬ÙĪ": 8325,
      "ĠÙ¾ÛģÙĨÚĨØ§ÛĮØ§": 8326,
      "time": 8327,
      "âĢĺÛĶ": 8328,
      "ĠØ§ÙĦØ®": 8329,
      "00000000": 8330,
      "ĠAllah": 8331,
      "Ġkar": 8332,
      "Ġchoose": 8333,
      "ĠSchool": 8334,
      "ĠØ¨ØªØ§Ø±ÛĮØ®": 8335,
      "ĠÚ¯ÙĦÛĴ": 8336,
      "ĠÙĪÙĦØ§": 8337,
      "ĠÙĨÙħØ§Ø¦ÙĨØ¯Ú¯ÛĮ": 8338,
      "ĠØ³ÙĨÙ¹Ø±": 8339,
      "ĠØ¯Ú©Ú¾Ø§ÛĮØ§": 8340,
      "ĠØ³Ø±Ù¾Ø±": 8341,
      "ditionally": 8342,
      "vey": 8343,
      "ĠÙĦÛķ": 8344,
      "ĠØ¬Ø§Ø¦ÛĮØ¯Ø§Ø¯": 8345,
      "Ø¨ÛĮØ¨": 8346,
      "ÙħÛĮÙĨØ§ÙĨ": 8347,
      "96": 8348,
      "Ġfoot": 8349,
      "ĠÛĶÛĶÛĶÛĶ": 8350,
      "Ġtherapy": 8351,
      "ÛĮÙĨÙ¹": 8352,
      "Ġdoctor": 8353,
      "ĠØ¯Ú¾ÙħÚ©ÛĮ": 8354,
      "ĠÙħØ´Ø§ÙĪØ±Øª": 8355,
      "ĠØªÙĪØ¨Ûģ": 8356,
      "ĠÚ©Ú¾ÛĮÙĨ": 8357,
      "Ġopportunities": 8358,
      "Úķ": 8359,
      "ĠØ±ÙĪØ²ÛĴ": 8360,
      "ĠØªÚ¾ÙĪÚĳØ§": 8361,
      "Ġbasic": 8362,
      "ĠØ¹Ø±ÙģØ§ÙĨ": 8363,
      "ĠØ¨ÙĦÛĮÚ©": 8364,
      "ĠÙĤØ¨Ø¶ÛĴ": 8365,
      "Ġfund": 8366,
      "ĠÙħØ°Ø§ÙĤ": 8367,
      "izes": 8368,
      "Ø¹ÛĮÙĨ": 8369,
      "ĠÙħØ²Ø§Ø¬": 8370,
      "ĠPart": 8371,
      "ĠØ³ÛģÛĮÙĦ": 8372,
      "ĠØ¯Ø±Ú©Ø§Ø±": 8373,
      "ĠÙĦÛĮÚ©Ø³": 8374,
      "ĠØ§ÛĮÚ©Ù¹": 8375,
      "Ġextra": 8376,
      "Ġideas": 8377,
      "ï¿½ï¿½ï¿½ï¿½ï¿½": 8378,
      "xiety": 8379,
      "Ø´Ø§ÙĨ": 8380,
      "Ġstrategies": 8381,
      "ĠÙģÙĪØ§Ø¦Ø¯": 8382,
      "Ġexpress": 8383,
      "Ø§ÚĳÛĮ": 8384,
      "ĠØµÙĦØ§ØŃÛĮØªÙĪÚº": 8385,
      "ĠÙħØ³Ø§Ø¬Ø¯": 8386,
      "ĠØ·ÙĪÙģØ§ÙĨ": 8387,
      "ĠRec": 8388,
      "ĠØ¬Ø§Ø³Ú©ÛĴ": 8389,
      "ni": 8390,
      "ĠÙĦÚ¯ÛĮÚº": 8391,
      "ÙħÛĮÛģ": 8392,
      "ĠÙħÙĨÚĪÛĮ": 8393,
      "Ġsteps": 8394,
      "ĠØ§Ø³ØªØ¹ÙģÛĮ": 8395,
      "Ø§ÛĮÙģ": 8396,
      "att": 8397,
      "ĠØ§ÙĦÙħØ¨Ø§Ø±Ú©": 8398,
      "ĠØ¯Ø±Ø¬ÛĴ": 8399,
      "ĠØ¢ÛĮØ§Øª": 8400,
      "ĠComp": 8401,
      "Ġadditional": 8402,
      "Ø¬ÙĪÙĦØ§Ø¦ÛĮ": 8403,
      "ĠØªØ±Ø¯": 8404,
      "Ø¬Ø³Ù¹": 8405,
      "ĠÙĨØ¸ÛĮØ±": 8406,
      "ĠÙĦØ·Ùģ": 8407,
      "Ġbelieve": 8408,
      "ĠØ¨Ø§ÙĨØ¯Ú¾": 8409,
      "Ù¾Ù¹": 8410,
      "ĠØ±ÛĮÙĦÛĮØ²": 8411,
      "ØŃØ±": 8412,
      "arily": 8413,
      "ĠØ³ÛģØ§Ø±": 8414,
      "Ø§Ø·Ø¨": 8415,
      "ĠØ³Ø§ÚĳÚ¾ÛĴ": 8416,
      "Ġprojects": 8417,
      "Ġreflect": 8418,
      "+]": 8419,
      "ÛĮØ³Ø§": 8420,
      "Ġequipment": 8421,
      "Ġnormal": 8422,
      "ĠØ¨ÙĪÙĦÙĨÛĴ": 8423,
      "lamm": 8424,
      "ĠEarth": 8425,
      "ĠØ¬ÙħØ¹ÛĮØª": 8426,
      "Ø§Ø±ÛĮÙĪÚº": 8427,
      "ĠØ¨ÙĪÚĳ": 8428,
      "ĠØ´ÛĮØ·Ø§ÙĨ": 8429,
      "Ú©Ø±ÙĪÚĳ": 8430,
      "ĠÚĪØ³Ù¹Ø±Ú©Ù¹": 8431,
      "ĠØ¬ÙħÙĦÛģ": 8432,
      "âĢ¦.": 8433,
      "ĠDes": 8434,
      "ĠÙĤØ³ÙħØª": 8435,
      "Ġ[+]": 8436,
      "Ġdistrib": 8437,
      "ĠØ¨Ø§ÙĦØ®ØµÙĪØµ": 8438,
      "Ø§ÙģØªÛĮ": 8439,
      "ĠÙħÙĪØ¶ÙĪØ¹Ø§Øª": 8440,
      "ĠÙĨÙģØ§Ø°": 8441,
      "ĠØ§Ø³ÙĦÙħ": 8442,
      "âĢĭ": 8443,
      "Ġaccom": 8444,
      "ĠÙ¾Ø§ÙĦÛĮØ³ÛĮÙĪÚº": 8445,
      "ĠØ¨ÚĨÙ¾ÙĨ": 8446,
      "itute": 8447,
      "Ġnutri": 8448,
      "Ġobserv": 8449,
      "ĠÛĮØ³": 8450,
      "Ù¾Ú¾": 8451,
      "ĠØªØ¬Ø§ÙĪØ²": 8452,
      "IT": 8453,
      "ĠØ´Ø§ÛģØ±": 8454,
      "ĠÙħØ±ÙĪ": 8455,
      "Ú©ØªØ§Ø¨": 8456,
      "ĠØ«ÙĪØ§Ø¨": 8457,
      "ĠØ®ÙĪØ´ØŃØ§ÙĦÛĮ": 8458,
      "75": 8459,
      "Ġtiss": 8460,
      "ĠÙħØ®ÙĦÙĪÙĤ": 8461,
      "ĠÙħÙħÙĨ": 8462,
      "iddle": 8463,
      "onstr": 8464,
      "Ġcamp": 8465,
      "ĠOff": 8466,
      "aya": 8467,
      "Ġapplication": 8468,
      "76": 8469,
      "rition": 8470,
      "ĠØŃÚ©ÙħØ±Ø§ÙĨÛĮ": 8471,
      "ĠÛĮÚ©Ùħ": 8472,
      "Ø°Ø±Ø§Ø¦Ø¹": 8473,
      "ÙĤØ¨": 8474,
      "Ġcover": 8475,
      "Ġconc": 8476,
      "osure": 8477,
      "Ø¨ÛĮØ§Ø¡": 8478,
      "Ù¹Ø±ÛĮÙ¹": 8479,
      "Ġfem": 8480,
      "Ġpromot": 8481,
      "gn": 8482,
      "iy": 8483,
      "Ø¬Ø¨Ú©Ûģ": 8484,
      "ĠÙĨØ´Ø§ÙĨØ¯ÛģÛĮ": 8485,
      "ĠÚ©Ø±ÙĨØ³ÛĮ": 8486,
      "ĠÙħØ²Ø§ØŃÙħØª": 8487,
      "ĠØ§Ø´ØªÛģØ§Ø±": 8488,
      "ĠÙĦØ·ÛĮ": 8489,
      "ĠPer": 8490,
      "Ġprimary": 8491,
      "98": 8492,
      "Ġpolicy": 8493,
      "ĠØ§Ø²Ø§Úº": 8494,
      "Ġhalf": 8495,
      "Ġtransform": 8496,
      "ĠÙ¾Ø±Ø§Ø¦ÛĮ": 8497,
      "ÙĤÛĮÙĤØª": 8498,
      "ĠØ§ÛĮØ´ÛĮ": 8499,
      "ĠØ¨Ø±ÛĮÙģ": 8500,
      "ĠÙħØŃØ§Ø°": 8501,
      "Ġviol": 8502,
      "ï´¾": 8503,
      "ĠØ¬Ø§Ø¦ÛĮÚ¯Ø§": 8504,
      "empt": 8505,
      "ĠÚ©Ø§Ù¾": 8506,
      "Ġsevere": 8507,
      "ĠØ§ÙĨÙĨÚ¯Ø²": 8508,
      "Ú©ÙĪÚ©": 8509,
      "ĠÚĪÚ¾ÙĪÙĨÚĪ": 8510,
      "ĠØ®Ùħ": 8511,
      "ĠØ³Ø±ÚĨ": 8512,
      "ÙĨÙħÙĨÙ¹": 8513,
      "ÙĨØ±": 8514,
      "Ġappl": 8515,
      "ĠÚ©Ø§Ø±Ú©ÙĨØ§ÙĨ": 8516,
      "ament": 8517,
      "Ġshown": 8518,
      "Ġexplain": 8519,
      "ĠÚ©Ø§ÙħÙĦ": 8520,
      "Ġleaders": 8521,
      "Ġtend": 8522,
      "aug": 8523,
      "ĠÙĤØ§Ø±ÛĮ": 8524,
      "Ġfit": 8525,
      "ĠÛģÙĪÚĨÚ©Ø§": 8526,
      "Ġattack": 8527,
      "Ø¶Ø§": 8528,
      "ĠØ¹ÙħÙĦØ¯Ø±": 8529,
      "ĠØ¹Ø±ÙĪØ¬": 8530,
      "ĠÚ©ÙĦÛĮØ¯ÛĮ": 8531,
      "itution": 8532,
      "ĠØ¨ÙĨØ¯Ûģ": 8533,
      "ĠØ¬Ø´ÙĨ": 8534,
      "aly": 8535,
      "uries": 8536,
      "ÙĪØ§ÙĨÛĮ": 8537,
      "Ġmagn": 8538,
      "Ġgenerally": 8539,
      "ĠÙ¹Ø§Ù¾": 8540,
      "Ø®ØªÛģ": 8541,
      "ĠØ³ÙĨØ¬ÛĮØ¯Ûģ": 8542,
      "ĠØ³Ø±ÙģØ±Ø§Ø²": 8543,
      "Ġroad": 8544,
      "ĠØ³Ø®ØªÛĮ": 8545,
      "Ø®ÛĮØ§ÙĦ": 8546,
      "ĠÚ¯Ø±ÛĮØ²": 8547,
      "ĠÙħÙĨÙģØ±Ø¯": 8548,
      "ĠÛ´": 8549,
      "Ġhighly": 8550,
      "ĠÛģÙĪÚĨÚ©ÛĴ": 8551,
      "ĠÚĨÚ©Ø±": 8552,
      "ĠØ¨Ø§Ø²ÙĪ": 8553,
      "ension": 8554,
      "ĠÙħÙħØ¨Ø±Ø§ÙĨ": 8555,
      "overy": 8556,
      "ĠÙĪØµ": 8557,
      "ĠÚ©ÛĴÙĦÛĮÛĴ": 8558,
      "Ġsustainable": 8559,
      "ĠØ¨Ú¾Ø±ÛĮ": 8560,
      "ĠÙħØ¸Ø§ÛģØ±ÛĮÙĨ": 8561,
      "Ø§Ø¦ÙħÛģ": 8562,
      "ĠØ¹Øµ": 8563,
      "ĠÙħÙĪÙĨ": 8564,
      "ĠÚ¯ÙĪØ§Ûģ": 8565,
      "ĠÙĦÚ¯ØªÛĮ": 8566,
      "Ø§Ø¦Ø±ÛĮ": 8567,
      "Ġnight": 8568,
      "ĠØ§ÙģØªØ®Ø§Ø±": 8569,
      "ĠÙħÙĤØª": 8570,
      "ĠIndian": 8571,
      "ĠÙħÛĮÙ¹ÙĨÚ¯": 8572,
      "Ġtesting": 8573,
      "ĠØ¨ÛĮÙħØ§Ø±ÛĮÙĪÚº": 8574,
      "ĠØ¬ÛģØ§ÙĨÚ¯ÛĮØ±": 8575,
      "Ø±Ú©ÛĴ": 8576,
      "ĠØ¯ÛģØ§Ø¦ÛĮ": 8577,
      "Ø¹Ø¨Ûģ": 8578,
      "Ġstrength": 8579,
      "ĠØ§Ø³Ú©Ø§": 8580,
      "ĠØ·Ø§ÙĤ": 8581,
      "oes": 8582,
      "lim": 8583,
      "Ġdang": 8584,
      "Ġeth": 8585,
      "Ġbuy": 8586,
      "ĠMany": 8587,
      "ĠØ§ÛĮÙħØ±": 8588,
      "ĠÙħÙĪØµÙĪÙĦ": 8589,
      "ĠÙĨØ¹ÛĮÙħ": 8590,
      "ĠÚ¯ÛĮØ§Ø±Ûģ": 8591,
      "Ġpack": 8592,
      "ĠTra": 8593,
      "Ġelements": 8594,
      "aim": 8595,
      "ÛĮØ¨Øª": 8596,
      "ĠHis": 8597,
      "âĢį": 8598,
      "Ġplatform": 8599,
      "Ø³Ù¹ÛĮ": 8600,
      "Ø§Ø¨Ú¾ÛĮ": 8601,
      "Ġrefer": 8602,
      "Ø§Ú¯Ø³Øª": 8603,
      "ĠØ¬Ø§Ù¾Ø§ÙĨ": 8604,
      "Ø·ÙĦØ§ØŃ": 8605,
      "yond": 8606,
      "Ġhon": 8607,
      "Ø§Ø±ÛĮÛģ": 8608,
      "Ġcompre": 8609,
      "vest": 8610,
      "Ġrisks": 8611,
      "ĠØ§ÙħØªÛĮØ§Ø²": 8612,
      "Ġdifference": 8613,
      "Ġlegal": 8614,
      "ĠÙĨØ§Ø¬Ø§Ø¦Ø²": 8615,
      "ength": 8616,
      "ĠÙħØ¸Ø§ÙĦÙħ": 8617,
      "Ġreducing": 8618,
      "ĠÚ©ÙĨÙ¹": 8619,
      "ĠÚĨÚ¾Øª": 8620,
      "ĠØ§Ø·ÙħÛĮÙĨØ§ÙĨ": 8621,
      "Ġtransport": 8622,
      "ĠÚ©Ø±ÙĪÚĳÙĪÚº": 8623,
      "But": 8624,
      "ĠÙħØ¹ÛĮØ§Ø±ÛĮ": 8625,
      "ĠØ®ÛĮØ¨Ø±Ù¾Ø®ØªÙĪÙĨØ®ÙĪØ§": 8626,
      "Ġbehind": 8627,
      "era": 8628,
      "Ġsometimes": 8629,
      "Ġtree": 8630,
      "ĠØŃØ§ÙħÛĮ": 8631,
      "Ġpoor": 8632,
      "ÛĮÙĨÚĪÙĦ": 8633,
      "ĠØ¹ÙĤÛĮØ¯Ûģ": 8634,
      "Ġexperiences": 8635,
      "ĠÙ¾Ø±Ø§Ø³": 8636,
      "Ġemp": 8637,
      "Ġvirus": 8638,
      "ÛģÙĨØ¯ÙĪ": 8639,
      "ees": 8640,
      "ÙĨÙģ": 8641,
      "Ò³": 8642,
      "rew": 8643,
      "ĠÙ¾ÚĳÚ¾ÛĴ": 8644,
      "Ġhumans": 8645,
      "ĠDis": 8646,
      "ĠÚĨØ§ÙĦÛĮØ³": 8647,
      "Ġpage": 8648,
      "ĠÚ¯ÙĦÙĪ": 8649,
      "ĠÚ¯Ø§Ø±ÚĪ": 8650,
      "ĠØ¬Ø°Ø¨": 8651,
      "ĠÚ¯Ø±Ø§": 8652,
      "ography": 8653,
      "ĠÙħÙĨØµØ¨": 8654,
      "ĠÙħÙĨØ§ÙģØ¹": 8655,
      "ĠResearch": 8656,
      "Ø§Ø®Ø°": 8657,
      "Ù¾Ø§ÙĦ": 8658,
      "ĠØ§ØµÙĪÙĦÙĪÚº": 8659,
      "Ø´ÙĨØ²": 8660,
      "ĠÙĨØ±Ùħ": 8661,
      "ĠFrom": 8662,
      "Ġmeasures": 8663,
      "ØŁâĢĺâĢĺ": 8664,
      "ĠØ¢ÙĪØ±": 8665,
      "ĠØ®Ø¯Ø´Ûģ": 8666,
      "ĠØ¬ÙĨØ§Ø²Ûģ": 8667,
      "ĠØ±Ø¹": 8668,
      "ĠÙ¹ÛĮÙħÙĪÚº": 8669,
      "ops": 8670,
      "ĠÚ©ÙĪØ±Ø³": 8671,
      "ĠÙ¹ÙĨ": 8672,
      "ĠØªØ¹Ø¨ÛĮØ±": 8673,
      "ĠØ¶ÛĮØ§Ø¡": 8674,
      "ÙħÙĪØ¬ÙĪØ¯": 8675,
      "ĠØªÙĦØ§ÙĪØª": 8676,
      "coming": 8677,
      "ÙĤÙĪÙĦ": 8678,
      "Ġkids": 8679,
      "Ø¹Ø§Ø±": 8680,
      "ĠÙĨÚ©Ø§ÙĦØ§": 8681,
      "Ġcontribute": 8682,
      "Ø§ÙħÛĮØ±": 8683,
      "Ġfast": 8684,
      "Ġwarm": 8685,
      "ĠÙħÙĦØ§ØŃØ¸Ûģ": 8686,
      "Ø§ÙģØºØ§ÙĨØ³ØªØ§ÙĨ": 8687,
      "ĠØ±Ø¬Ø³Ù¹Ø±": 8688,
      "ÚĨÚ©": 8689,
      "ĠJapan": 8690,
      "Ex": 8691,
      "ÙĦÙĨ": 8692,
      "ĠÙħØ±ØŃÙĦÛģ": 8693,
      "Ġsolution": 8694,
      "][": 8695,
      "ĠÙ¾Ø§ÙĨØ§ÙħÛģ": 8696,
      "ÙĪØ¶": 8697,
      "ĠØ³Ø§ÙģÙ¹": 8698,
      "ĠÛĮØ±": 8699,
      "Ġones": 8700,
      "enge": 8701,
      "Ġimage": 8702,
      "Ġvisual": 8703,
      "ĠØ°ÙĪØ§ÙĦÙģÙĤØ§Ø±": 8704,
      "ĠÙ¾ÚĳÚ¾ØªÛĴ": 8705,
      "Ġfig": 8706,
      "ĠØŃØ§Ú©": 8707,
      "asks": 8708,
      "ÙĦÙĪØ§Ø±": 8709,
      "che": 8710,
      "ĠÙ¾Ø®ØªÙĪÙĨ": 8711,
      "ĠØªØ§Ø«Ø±": 8712,
      "ÙħØ§Ùħ": 8713,
      "ching": 8714,
      "ĠÙ¾ÙĪØ¯": 8715,
      "Úµ": 8716,
      "ĠÙħØ¹Ø§Ø´Ø±ØªÛĮ": 8717,
      "iot": 8718,
      "ĠØªÚ¾Ø§ÙĨÛģ": 8719,
      "Ġdemand": 8720,
      "ĠÙħØªØ¨Ø§Ø¯ÙĦ": 8721,
      "ĠØ¬ÙħØ§Ø¹ØªÛĮÚº": 8722,
      "ĠÐ±": 8723,
      "ĠØ´Ø¬": 8724,
      "ĠØ®ØµÙĪØµØ§": 8725,
      "Ġcaption": 8726,
      "ĠØ¨Ø§Ø¬ÙĪÛģ": 8727,
      ".)": 8728,
      "ĠØ³ÛĮÙĨÙ¹": 8729,
      "Ġbacteria": 8730,
      "ĠÚ©ÙģØ±": 8731,
      "ĠÙĨØ§ÙħØ¹ÙĦÙĪÙħ": 8732,
      "ĠÙĪØ¨": 8733,
      "ĠØ¹Ø§Ø´ÙĤ": 8734,
      "ĠÙĤØ§Ùģ": 8735,
      "ĠØºØ°": 8736,
      "ĠØ²ÛĮØ¨": 8737,
      "wik": 8738,
      "Ġdirectly": 8739,
      "Ġbroad": 8740,
      "ĠÙĪØª": 8741,
      "ĠÙħÛĮÙ¹Ø±ÙĪ": 8742,
      "Ø¨ÙĦÙĪÚĨØ³ØªØ§ÙĨ": 8743,
      "ĠØ²Ø±Ø§Ø¹Øª": 8744,
      "ĠØ§Ø±Ø¨ÙĪÚº": 8745,
      "ĠØ§ÙĪØ±Ø§Ø³": 8746,
      "alls": 8747,
      "ĠØ®ÙĪØ±Ø´ÛĮØ¯": 8748,
      "Ġsn": 8749,
      "ĠØ¹ÙĦÛĮØŃØ¯Ûģ": 8750,
      "Ġinside": 8751,
      "ĠInternational": 8752,
      "Ġstarted": 8753,
      "ĠÚĪÛĮÙģ": 8754,
      "ĠÙģØ·Ø±Øª": 8755,
      "Ø§Ø±Ù¹ÙħÙĨÙ¹": 8756,
      "urdu": 8757,
      "ĠÚĪØ¨ÙĦÛĮÙĪ": 8758,
      "ĠØ¨Ø¯ÙĦÛĴ": 8759,
      "Pro": 8760,
      "Ġimmedi": 8761,
      "ĠÙĦÙħØ¨ÛĮ": 8762,
      "ĠGl": 8763,
      "Ġcompared": 8764,
      "ĠØªØ¹Ø§Ø±Ùģ": 8765,
      "ĠØ¨ÙĨØªÛĮ": 8766,
      "Ø§ÛģØ¨": 8767,
      "ĠÙ¾ÙĪØ´": 8768,
      "ĠØ¢Ø¦ÛĮÙĨÛĮ": 8769,
      "ulated": 8770,
      "ĠÙĦÛĮØ§ÙĤØª": 8771,
      "ÛģÙĨ": 8772,
      "ĠØ§ÙĦÙģØ·Ø±": 8773,
      "ÙĪÛĮØ§Ø±Ú©": 8774,
      "Ġdecre": 8775,
      "ĠÙĤØ§Ø¯ÛĮØ§ÙĨÛĮ": 8776,
      "Ø¬ÙħÙĨÙ¹": 8777,
      "ĠÛģÙĪØ´": 8778,
      "ĠØ´ÙĪÚ©": 8779,
      "ĠDay": 8780,
      "Ġaverage": 8781,
      "ĠØ¹Ø§Øµ": 8782,
      "ki": 8783,
      "ĠØ§ÙĪÙĦÛĮÙĨ": 8784,
      "Ġsymbol": 8785,
      "Ġprep": 8786,
      "head": 8787,
      "Ġseem": 8788,
      "Ġdemonstr": 8789,
      "itis": 8790,
      "ĠII": 8791,
      "ĠÚ©Ø§ÙĦØ¹Ø¯Ùħ": 8792,
      "Ġpoints": 8793,
      "ali": 8794,
      "icated": 8795,
      "Ġinfection": 8796,
      "ĠÛģÚĳØªØ§ÙĦ": 8797,
      "ĠÚ©Ú¾Ø±": 8798,
      "Ø±Ø¯Ûģ": 8799,
      "ĠØ¨ØªØ§Ø¦ÛĮ": 8800,
      "ĠÚ©Ø±ÙĦÛĮÚº": 8801,
      "Ġindepend": 8802,
      "ĠØ³Ø±Ø§Ø¬": 8803,
      "ĠØŃÙĦØ§ÙĦ": 8804,
      "ÙħØ±Ú©Ø²ÛĮ": 8805,
      "ĠÙħØ³ÙĦÙħÛģ": 8806,
      "ĠÚ¯ÛģØ±ÛĮ": 8807,
      "ĠØ¯ÙĪÚĨØ§Ø±": 8808,
      "ĠØ§ÙĪÙ¾ÙĨ": 8809,
      "Ġbalance": 8810,
      "Ġappropriate": 8811,
      "Ġcollabor": 8812,
      "ederal": 8813,
      "AD": 8814,
      "Ġbit": 8815,
      "Ú¾ÙĪ": 8816,
      "ĠEduc": 8817,
      "ĠÙģØ§Ø¦Ø²": 8818,
      "Ġreach": 8819,
      "ĠØ±Ø§ØŃ": 8820,
      "Ġcode": 8821,
      "Ġmom": 8822,
      "ĠØµÙģØŃØ§Øª": 8823,
      "ÙĪØ§Ø³": 8824,
      "ÙģÙĦ": 8825,
      "ĠÙĪØ¨Ø§": 8826,
      "ĠØ§Ø²ÛĮÚº": 8827,
      "Ġanimal": 8828,
      "ĠØ¨Ø§Ø¦": 8829,
      "ĠÙĪÛĮØ³Ù¹": 8830,
      "ĠØ¹ÙĦÙħØ§Ø¦ÛĴ": 8831,
      "ĠEd": 8832,
      "ĠÛģÙĪØ¬Ø§ØªÛĴ": 8833,
      "Ġsil": 8834,
      "ĠÙħÙĨØ§ÛĮØ§": 8835,
      "Äģ": 8836,
      "ĠØ²ÙħØ§ÙĨ": 8837,
      "Ġ48": 8838,
      "ĠØªÙĨØ§Ø¸Ø±": 8839,
      "ĠÚ©Ø§Ø´Øª": 8840,
      "ĠÙħÚĨÚ¾": 8841,
      "Ø®Ø§ÙĨÛģ": 8842,
      "ster": 8843,
      "Ġsolutions": 8844,
      "ĠÚĪØ±ÙĪÙĨ": 8845,
      "ĠÙħØ±Ø¨Ø¹": 8846,
      "Ø§Ø³Ø¯": 8847,
      "Ġinsp": 8848,
      "ĠÚ©ÛĮØ±ÛĮ": 8849,
[...]
