{
  "version": "1.0",
  "truncation": null,
  "padding": null,
  "added_tokens": [
    {
      "id": 0,
      "content": "[unk]",
      "single_word": false,
      "lstrip": false,
      "rstrip": false,
      "normalized": false,
      "special": true
    },
    {
      "id": 1,
      "content": "[pad]",
      "single_word": false,
      "lstrip": false,
      "rstrip": false,
      "normalized": false,
      "special": true
    },
    {
      "id": 2,
      "content": "[endoftext]",
      "single_word": false,
      "lstrip": false,
      "rstrip": false,
      "normalized": false,
      "special": true
    }
  ],
  "normalizer": null,
  "pre_tokenizer": {
    "type": "ByteLevel",
    "add_prefix_space": false,
    "trim_offsets": true,
    "use_regex": true
  },
  "post_processor": null,
  "decoder": null,
  "model": {
    "type": "BPE",
    "dropout": null,
    "unk_token": "[unk]",
    "continuing_subword_prefix": null,
    "end_of_word_suffix": null,
    "fuse_unk": false,
    "byte_fallback": false,
    "ignore_merges": false,
    "vocab": {
      "[unk]": 0,
      "[pad]": 1,
      "[endoftext]": 2,
      "!": 3,
      "\"": 4,
      "#": 5,
      "$": 6,
      "%": 7,
      "&": 8,
      "'": 9,
      "(": 10,
      ")": 11,
      "*": 12,
      "+": 13,
      ",": 14,
      "-": 15,
      ".": 16,
      "/": 17,
      "0": 18,
      "1": 19,
      "2": 20,
      "3": 21,
      "4": 22,
      "5": 23,
      "6": 24,
      "7": 25,
      "8": 26,
      "9": 27,
      ":": 28,
      ";": 29,
      "<": 30,
      "=": 31,
      ">": 32,
      "?": 33,
      "@": 34,
      "A": 35,
      "B": 36,
      "C": 37,
      "D": 38,
      "E": 39,
      "F": 40,
      "G": 41,
      "H": 42,
      "I": 43,
      "J": 44,
      "K": 45,
      "L": 46,
      "M": 47,
      "N": 48,
      "O": 49,
      "P": 50,
      "Q": 51,
      "R": 52,
      "S": 53,
      "T": 54,
      "U": 55,
      "V": 56,
      "W": 57,
      "X": 58,
      "Y": 59,
      "Z": 60,
      "[": 61,
      "\\": 62,
      "]": 63,
      "^": 64,
      "_": 65,
      "`": 66,
      "a": 67,
      "b": 68,
      "c": 69,
      "d": 70,
      "e": 71,
      "f": 72,
      "g": 73,
      "h": 74,
      "i": 75,
      "j": 76,
      "k": 77,
      "l": 78,
      "m": 79,
      "n": 80,
      "o": 81,
      "p": 82,
      "q": 83,
      "r": 84,
      "s": 85,
      "t": 86,
      "u": 87,
      "v": 88,
      "w": 89,
      "x": 90,
      "y": 91,
      "z": 92,
      "{": 93,
      "|": 94,
      "}": 95,
      "~": 96,
      "¡": 97,
      "¢": 98,
      "£": 99,
      "¤": 100,
      "¥": 101,
      "¦": 102,
      "§": 103,
      "¨": 104,
      "©": 105,
      "ª": 106,
      "«": 107,
      "¬": 108,
      "®": 109,
      "¯": 110,
      "°": 111,
      "±": 112,
      "²": 113,
      "³": 114,
      "´": 115,
      "µ": 116,
      "¶": 117,
      "·": 118,
      "¸": 119,
      "¹": 120,
      "º": 121,
      "»": 122,
      "¼": 123,
      "½": 124,
      "¾": 125,
      "¿": 126,
      "Â": 127,
      "Ã": 128,
      "Ä": 129,
      "Å": 130,
      "Æ": 131,
      "Ç": 132,
      "È": 133,
      "É": 134,
      "Ê": 135,
      "Ë": 136,
      "Ì": 137,
      "Í": 138,
      "Î": 139,
      "Ï": 140,
      "Ð": 141,
      "Ñ": 142,
      "Ò": 143,
      "Ó": 144,
      "Ô": 145,
      "Õ": 146,
      "Ö": 147,
      "×": 148,
      "Ø": 149,
      "Ù": 150,
      "Ú": 151,
      "Û": 152,
      "Ü": 153,
      "Ý": 154,
      "Þ": 155,
      "ß": 156,
      "à": 157,
      "á": 158,
      "â": 159,
      "ã": 160,
      "ä": 161,
      "å": 162,
      "æ": 163,
      "ç": 164,
      "è": 165,
      "é": 166,
      "ê": 167,
      "ë": 168,
      "ì": 169,
      "í": 170,
      "î": 171,
      "ï": 172,
      "ð": 173,
      "ñ": 174,
      "ò": 175,
      "ó": 176,
      "ô": 177,
      "Ā": 178,
      "ā": 179,
      "Ă": 180,
      "ă": 181,
      "Ą": 182,
      "ą": 183,
      "Ć": 184,
      "ć": 185,
      "Ĉ": 186,
      "ĉ": 187,
      "Ċ": 188,
      "ċ": 189,
      "Č": 190,
      "Ď": 191,
      "ď": 192,
      "Đ": 193,
      "đ": 194,
      "Ē": 195,
      "ē": 196,
      "Ĕ": 197,
      "ĕ": 198,
      "Ė": 199,
      "ė": 200,
      "Ę": 201,
      "ę": 202,
      "Ě": 203,
      "ě": 204,
      "Ĝ": 205,
      "ĝ": 206,
      "Ğ": 207,
      "ğ": 208,
      "Ġ": 209,
      "ġ": 210,
      "Ģ": 211,
      "ģ": 212,
      "Ĥ": 213,
      "ĥ": 214,
      "Ħ": 215,
      "ħ": 216,
      "Ĩ": 217,
      "ĩ": 218,
      "Ī": 219,
      "ī": 220,
      "Ĭ": 221,
      "ĭ": 222,
      "Į": 223,
      "į": 224,
      "İ": 225,
      "ı": 226,
      "Ĳ": 227,
      "ĳ": 228,
      "Ĵ": 229,
      "ĵ": 230,
      "Ķ": 231,
      "ķ": 232,
      "ĸ": 233,
      "Ĺ": 234,
      "ĺ": 235,
      "Ļ": 236,
      "ļ": 237,
      "Ľ": 238,
      "ľ": 239,
      "Ŀ": 240,
      "ŀ": 241,
      "Ł": 242,
      "ł": 243,
      "Ń": 244,
      "Ø§": 245,
      "ÛĮ": 246,
      "ĠØ": 247,
      "Ú©": 248,
      "ĠÙ": 249,
      "Ø±": 250,
      "ÙĪ": 251,
      "Ûģ": 252,
      "ÛĴ": 253,
      "ĠÚ©": 254,
      "ÙĨ": 255,
      "Ø§Ø": 256,
      "ÙĦ": 257,
      "Ùħ": 258,
      "ĠØ§": 259,
      "Úº": 260,
      "ĠÙħ": 261,
      "Øª": 262,
      "ĠÛģ": 263,
      "Ø¯": 264,
      "ÛĮÚº": 265,
      "Ø³": 266,
      "Ú¾": 267,
      "ĠØ³": 268,
      "ĠØ¨": 269,
      "Ú¯": 270,
      "ĠÙ¾": 271,
      "ĠÙĨ": 272,
      "Ø¨": 273,
      "Ø§ÙĨ": 274,
      "ĠÚ©ÛĮ": 275,
      "ÙĪØ±": 276,
      "ĠØª": 277,
      "ĠÚ©ÛĴ": 278,
      "ĠØ§Ø": 279,
      "Ø§Ø±": 280,
      "ĠØ¬": 281,
      "ÛĶ": 282,
      "ĠØ¯": 283,
      "Ùģ": 284,
      "ÙĤ": 285,
      "ĠÙħÛĮÚº": 286,
      "ĠÙĪ": 287,
      "Ù¹": 288,
      "Ø¹": 289,
      "Ø§ÙĦ": 290,
      "ÚĨ": 291,
      "ÙĪÚº": 292,
      "ĠÚ©Ø±": 293,
      "ĠÛģÛĴ": 294,
      "ĠØ±": 295,
      "ĠÙĦ": 296,
      "Ø´": 297,
      "Ù¾": 298,
      "Ø¬": 299,
      "Ø¦": 300,
      "Ø§Ø¦": 301,
      "ĠØ§ÙĪØ±": 302,
      "ĠÚ¯": 303,
      "Ø§Ùħ": 304,
      "Ø§Øª": 305,
      "Ø²": 306,
      "ĠØ³ÛĴ": 307,
      "Ø±ÛĮ": 308,
      "ĠÚ©ÙĪ": 309,
      "ØĮ": 310,
      "ĠØ§Ø³": 311,
      "ØŃ": 312,
      "ÛĮØ§": 313,
      "ĠÚ©Ø§": 314,
      "ĠØ¹": 315,
      "ĠÚ©Ûģ": 316,
      "ĠÛģÙĪ": 317,
      "ÛĮÚ©": 318,
      "ÛĮÙĨ": 319,
      "ĠØŃ": 320,
      "ÚĪ": 321,
      "ĠØ®": 322,
      "ĠØ§ÙĨ": 323,
      "ÙĨÛĴ": 324,
      "ĠØ´": 325,
      "ĠÙ¾Ø±": 326,
      "ĠÙĨÛĴ": 327,
      "ĠØ¢": 328,
      "Ú¾ÛĮ": 329,
      "âĢ": 330,
      "ĠÙģ": 331,
      "Ø§Ø¯": 332,
      "Øµ": 333,
      "ÙĦÛĮ": 334,
      "ĠÚĨ": 335,
      "ÛĮØ±": 336,
      "Ø§Ø¨": 337,
      "ĠÙĤ": 338,
      "ĠÛĮ": 339,
      "ĠÛģÛĮÚº": 340,
      "Ø§Ûģ": 341,
      "Ø¦ÛĴ": 342,
      "Ø®": 343,
      "Úĳ": 344,
      "ĠÙĨÛģ": 345,
      "ĠØ§ÙĦ": 346,
      "Ø§Ú©": 347,
      "Ø§Ø³": 348,
      "Ø³Øª": 349,
      "Ø¦ÛĮ": 350,
      "Ùİ": 351,
      "Ø·": 352,
      "ÙĪÙĨ": 353,
      "ĠØµ": 354,
      "ĠØ¨Ú¾ÛĮ": 355,
      "ÙħÛĮ": 356,
      "ØªÛĴ": 357,
      "ØªÛĮ": 358,
      "ĠØªÚ¾": 359,
      "ĠØ·": 360,
      "ĠÛĮÛģ": 361,
      "ÙĨØ¯": 362,
      "ĠØ§ÛĮÚ©": 363,
      "ÙĨÛĮ": 364,
      "ÙĨØ§": 365,
      "ĠÙĨÛģÛĮÚº": 366,
      "ÙĦØ§": 367,
      "ÛĮØ³": 368,
      "ĠØ²": 369,
      "ĠØªÙĪ": 370,
      "Ø¸": 371,
      "ÛĮØ¯": 372,
      "ØªØ§": 373,
      "ĠØ±Ûģ": 374,
      "Ø§Ø²": 375,
      "ÙĦÛģ": 376,
      "ÙĪÙĦ": 377,
      "ĠØ§Ù¾": 378,
      "Ø§Ø¦ÛĮ": 379,
      "Ø¶": 380,
      "ÙĲ": 381,
      "ĠÚ©ÛĮØ§": 382,
      "Ø§Ø±ÛĮ": 383,
      "Ġ2": 384,
      "ĠÚĪ": 385,
      "ĠÙĪÛģ": 386,
      "ĠÙ¹": 387,
      "ÛĮÙħ": 388,
      "ÙĪØ¯": 389,
      "ÙĪÙħ": 390,
      "Ùĵ": 391,
      "Ø³ØªØ§ÙĨ": 392,
      "ĠØĮ": 393,
      "Ùı": 394,
      "ÙĨÚ¯": 395,
      "âĢĺ": 396,
      "ĠØ¬ÙĪ": 397,
      "Ø±ÙĪ": 398,
      "Ú¯Ø±": 399,
      "Ġ1": 400,
      "Ø§Ø¦ÛĴ": 401,
      "Ø³ÛĮ": 402,
      "ĠÙĦÛĮ": 403,
      "ĠÙĪØ§ÙĦ": 404,
      "Ø§ÙĨÛĮ": 405,
      "ĠÙħÙĦ": 406,
      "Ù¹ÛĮ": 407,
      "ĠØ±ÙĪ": 408,
      "Ø§Ø¹": 409,
      "ĠÛģÙħ": 410,
      "ĠÛĶ": 411,
      "ÛĮÙĦ": 412,
      "ĠØªÚ¾Ø§": 413,
      "Ø§Úº": 414,
      "ÙĬ": 415,
      "Ú©Ú¾": 416,
      "ĠÙ¾ÛĮ": 417,
      "Ø¨Ø±": 418,
      "Ú¾Ø±": 419,
      "ÙĦÙħ": 420,
      "ĠØ¯ÛĮ": 421,
      "Ġ(": 422,
      "Ù¹Ø±": 423,
      "ĠÙħØ¹": 424,
      "Ø§ÙĨÛĴ": 425,
      "ï¿": 426,
      "ï¿½": 427,
      "ĠÚ©Ø±ÙĨÛĴ": 428,
      "Øº": 429,
      "Ø§Ú©Ø³ØªØ§ÙĨ": 430,
      "ĠÙħÙĨ": 431,
      "Ø§Ùģ": 432,
      "ÙĦÛĴ": 433,
      "Ø«": 434,
      "ĠÙħÙĪ": 435,
      "ĠØ§Ùħ": 436,
      "ĠÙħØŃ": 437,
      "âĢĻ": 438,
      "ÛĮØª": 439,
      "Ø§ØªÚ¾": 440,
      "Ø±Ø¯": 441,
      "Ú©ÛĮ": 442,
      "Ø°": 443,
      "ĠØ¯ÙĪ": 444,
      "Ø±Ùħ": 445,
      "Ú©Ûģ": 446,
      "Ø±Ùģ": 447,
      "ĠÛģÛĮ": 448,
      "Ø´ÙĨ": 449,
      "01": 450,
      "ĠØªØ¹": 451,
      "ĠÙ¾Ûģ": 452,
      "ĠØ¬Ø³": 453,
      "ĠÙħØ³": 454,
      "Ø§ÙĤ": 455,
      "ĠØ¨ÛĮ": 456,
      "Ø§Ø¬": 457,
      "ĠÙ¾Ø§Ú©Ø³ØªØ§ÙĨ": 458,
      "ÙĦØ§Ùħ": 459,
      "ĠØ³ÛĮ": 460,
      "ÙĴ": 461,
      "ĠØº": 462,
      "ĠÚ¯ÛĮØ§": 463,
      "Ø§ØŃ": 464,
      "an": 465,
      "Ø¹Ø¯": 466,
      "ĠØ¨Ûģ": 467,
      "ĠØ¨ÙĨ": 468,
      "ÙĪØ¨": 469,
      "ĠØ§Ù¾ÙĨÛĴ": 470,
      "ÚĨÚ¾": 471,
      "ĠØŃÚ©": 472,
      "in": 473,
      "ÛĮÛģ": 474,
      "ÙħØ¯": 475,
      "ĠØ¨Ú¾": 476,
      "ĠØ§Ø¨": 477,
      "ĠØ¢Ù¾": 478,
      "ĠØ³Ø§ØªÚ¾": 479,
      "ĠÙĦÛĮÛĴ": 480,
      "ĠØ³Ú©": 481,
      "Ú¯ÛĮ": 482,
      "ĠÚ©ÛģØ§": 483,
      "ĠØ¨Ø±": 484,
      "ĠØ§ÛĮ": 485,
      "ï¿½ï¿½": 486,
      "ÙĪÛĮ": 487,
      "ĠØ°": 488,
      "ĠØªÚ©": 489,
      "ĠØ¬ÙĨ": 490,
      "ĠÙĦØ¦ÛĴ": 491,
      "ĠØ§Ùģ": 492,
      "Ø±ØŃ": 493,
      "Ø§Ø±ÛĴ": 494,
      "ĠÙĦÙĪ": 495,
      "..": 496,
      "ĠØ§ÙĦÙĦÛģ": 497,
      "ÙĤØª": 498,
      "ĠØ¹Ùħ": 499,
      "ĠØ§ÛĮØ³": 500,
      "ĠØ§Ø¹": 501,
      "Ù°": 502,
      "ĠÛģÙĪØ¦ÛĴ": 503,
      "ĠÚ¯Ø§": 504,
      "ÙĪØ±ÛĮ": 505,
      "ĠÙħÙĤ": 506,
      "Ø¯ÛĮ": 507,
      "Ø±Ø¨": 508,
      "Ø±Ú©": 509,
      "Ġ201": 510,
      "ĠØ¯ÛĮØ§": 511,
      "ĠÙħÛĮ": 512,
      "ĠØ¬Ø¨": 513,
      "ÙĪØ¬": 514,
      "ĠÚ©Ùħ": 515,
      "ĠØ¨Ø¹Ø¯": 516,
      "er": 517,
      "Ùĳ": 518,
      "ĠØ¨Úĳ": 519,
      "ĠØ³ÙĪ": 520,
      "ĠØªÚ¾ÛĴ": 521,
      "Ø´Øª": 522,
      "ÙħÛģ": 523,
      "ĠØ¯Ø±": 524,
      "ÙĤÛĮ": 525,
      "Ø§ÙĨÛģ": 526,
      "ĠØ¨ÙĦ": 527,
      "ĠÙħØª": 528,
      "Ø²ÛĮØ±": 529,
      "Ø§Ø´": 530,
      "ĠØ¬Ø§ÙĨ": 531,
      "ĠØ¨ÛģØª": 532,
      "Ø§Øµ": 533,
      "ĠÛĮØ§": 534,
      "Ø¯Ø±": 535,
      "ar": 536,
      "ĠÚ©Ø±ØªÛĴ": 537,
      "ĠÚ©ÙĪØ¦ÛĮ": 538,
      "Ø¢": 539,
      "ÛĶÛĶ": 540,
      "ĠØ¶": 541,
      "ĠØ¬Ø§Øª": 542,
      "Ø¬Ûģ": 543,
      "ÛĮÚ©ÙĨ": 544,
      "ĠØ¯ÙĨ": 545,
      "ÛģØ±": 546,
      "ĠÚ©Ú¾": 547,
      "on": 548,
      "ĠØ³Ø¨": 549,
      "Ø¬Ú¾": 550,
      "00": 551,
      "ĠØ§Ø¯": 552,
      "Ú©Ø±": 553,
      "ĠÚ©Ø§Ùħ": 554,
      "Ø¯Ûģ": 555,
      "at": 556,
      "Ġt": 557,
      "ĠÙħØ·": 558,
      "ĠØ±ÛģÛĴ": 559,
      "ĠØªØŃ": 560,
      "ĠØ§Ù¾ÙĨÛĮ": 561,
      "ĠØ¨Ø§Øª": 562,
      "ĠØªÚ¾ÛĮ": 563,
      "Ø±Øª": 564,
      "ĠØ®ÙĪ": 565,
      "Ø§Ø¯ÛĮ": 566,
      "ĠØ§ÙĨÛģ": 567,
      "ĠØ±Ú©Ú¾": 568,
      "ĠÚ©Ø³ÛĮ": 569,
      "ĠâĢ": 570,
      "ĠÙģÛĮ": 571,
      "ÙĪØ±Øª": 572,
      "ĠÚ©Ø§Ø±": 573,
      "ĠØ¬Ø§Ø¦ÛĴ": 574,
      "Ùĩ": 575,
      "ÙĪÙħØª": 576,
      "ĠÙĦÙĪÚ¯": 577,
      "Ø±ÛĮÙĨ": 578,
      "ĠØ§ØŃ": 579,
      "ĠÙĪØ§ÙĦÛĴ": 580,
      "Ø®Øª": 581,
      "Ø±Ûģ": 582,
      "Ú©ÛĴ": 583,
      "ĠØ®Ø§ÙĨ": 584,
      "ÛĮØ§Úº": 585,
      "Ø§ÙĦÛĮ": 586,
      "ÙĨÙ¹": 587,
      "ĠÚ¯ÛĴ": 588,
      "ĠÙĦÚ¯": 589,
      "ÛĮØ§Ø¯": 590,
      "ÙĪÙ¹": 591,
      "ĠØªÙħ": 592,
      "Ø§Ø±Øª": 593,
      "ĠØªØ±": 594,
      "ĠØ¯ÙĪØ±": 595,
      "ĠÙĨØ¸": 596,
      "Ø±Ø§ÙĨ": 597,
      "ĠØ¹ÙĦÛĮ": 598,
      "ĠÙ¾ÙĪ": 599,
      "ĠÙĪØ²ÛĮØ±": 600,
      "ĠÚĨØ§Ûģ": 601,
      "Ø±ÛĴ": 602,
      "Ø§Ù¾": 603,
      "Ø§Ø¨ÙĤ": 604,
      "ĠØ§ÙĨØª": 605,
      "Ø§Ø³Øª": 606,
      "ĠÚ¯Ø¦ÛĮ": 607,
      "Ġ-": 608,
      "ĠÙĦÛĮÚ©ÙĨ": 609,
      "ĠÚĨÚ¾": 610,
      "Ù¹Ú¾": 611,
      "ØŁ": 612,
      "ÙĦØ§Ùģ": 613,
      "ĠÙħÙĦÚ©": 614,
      "ĠØ³Ùħ": 615,
      "ĠÙ¾Úĳ": 616,
      "or": 617,
      "ĠÛģÙĪÙĨÛĴ": 618,
      "ĠØ³Ø±": 619,
      "ÛģÙħ": 620,
      "ÛĮÙĪ": 621,
      "ĠØŃÚ©ÙĪÙħØª": 622,
      "ĠÙħØ´": 623,
      "ÛĮØ²": 624,
      "ÙĪÛģ": 625,
      "Ø¨ÛĮ": 626,
      "ÛĮÚ©Ú¾": 627,
      "ÙħÙĦ": 628,
      "Ú©Ø§": 629,
      "al": 630,
      "ÙĪØ§Ùħ": 631,
      "ÙħØ§ÙĦ": 632,
      "st": 633,
      "ÙĨØ³": 634,
      "Ø§Ø¡": 635,
      "en": 636,
      "ĠÛģÙĪÚº": 637,
      "ĠÙĨÙĪ": 638,
      "ĠØ·Ø±ØŃ": 639,
      "ĠØ§Ø®": 640,
      "ĠØ³Ø§ÙĦ": 641,
      "Ø§Ø±Ûģ": 642,
      "Ø§Ø¤": 643,
      "ĠÙģØ±": 644,
      "ĠØ§Ø³Øª": 645,
      "ĠÛģÙĪØ§": 646,
      "ÙĦÙĤ": 647,
      "ĠØ¨ÚĨ": 648,
      "ĠÚ¯ÛĮ": 649,
      "ĠÙĨØ§Ùħ": 650,
      "ÙĪØ³": 651,
      "Ø¨Ø§Ø¯": 652,
      "Ø§ÛĮØ§": 653,
      "Ø§Ø¶": 654,
      "ĠÚ¯Ø¦ÛĴ": 655,
      "ĠÛģØ±": 656,
      "ĠÙĪÙĤØª": 657,
      "ÙĦØ§ÙĤ": 658,
      "ĠØ¯ÛĮÚ©Ú¾": 659,
      "ĠØ§Ø³ÙĦØ§Ùħ": 660,
      "Ø±ÛĮÙģ": 661,
      "ĠÚ©ÚĨÚ¾": 662,
      "Ú©ÙĦ": 663,
      "ĠØ¬Ùħ": 664,
      "ĠØ§Ú¯Ø±": 665,
      "ĠØ²ÛĮØ§Ø¯": 666,
      "Ø¯Ø§Ø±": 667,
      "ĠØ±ÛģØ§": 668,
      "ĠØ¯ÛĴ": 669,
      "ĠØ¬Ø§": 670,
      "ÙĦØ¦ÛĴ": 671,
      "ĠØ§Øª": 672,
      "ĠâĢĻ": 673,
      "ĠÙĨÙħ": 674,
      "Ø¨Ûģ": 675,
      "ĠÚ©Ø±ÛĮÚº": 676,
      "Ø§Ø¦ÛĮÚº": 677,
      "he": 678,
      "ĠÛģÙĪÚ¯": 679,
      "ĠØ±ÛĮ": 680,
      "ĠØ·ÙĪØ±": 681,
      "ÙģÛĮ": 682,
      "ĠA": 683,
      "ØªÙħ": 684,
      "Ø§ÙĨØ§": 685,
      "ĠØ¯ÛĮÙĨ": 686,
      "Ø¸Ùħ": 687,
      "ÙĪØ±Ù¹": 688,
      "ÙģØª": 689,
      "Ø¹Ûģ": 690,
      "âĢĺâĢĺ": 691,
      "ĠÚ©Ø±ÙĨØ§": 692,
      "ÙĪØ§ÙĦ": 693,
      "ĠØ²ÛĮØ§Ø¯Ûģ": 694,
      "Ø³Ùħ": 695,
      "ĠÚ©ÛĮÙĦØ¦ÛĴ": 696,
      "ĠÙħØ³ÙĦÙħ": 697,
      "ÙĦØ³": 698,
      "ĠÙ¾Ú¾Ø±": 699,
      "ÙĨØ¬": 700,
      "ĠÙģÛĮØµ": 701,
      "ÙĪØª": 702,
      "ĠØ¯ÙĪØ³": 703,
      "ÙģØ±": 704,
      "ĠÙĤØ±": 705,
      "ĠÙ¾ÛĮØ´": 706,
      "Ġ3": 707,
      "ÛĮÙĪÚº": 708,
      "Ø§Ø¦ÙĦ": 709,
      "Ø±Ø§Ø¯": 710,
      "ĠØ®ÙĦØ§Ùģ": 711,
      "it": 712,
      "ĠØ´Ûģ": 713,
      "Ø¨ÙĦ": 714,
      "Ø´Ùħ": 715,
      "ÙĦÛĮÙħ": 716,
      "ĠÙĥ": 717,
      "ĠÙħØ·Ø§Ø¨ÙĤ": 718,
      "ed": 719,
      "Ø§Ø®": 720,
      "ĠØ¶Ø±": 721,
      "Ø§ÙĨÙĪÚº": 722,
      "ĠØ§ÙħØ±ÛĮ": 723,
      "ĠØ·Ø±Ùģ": 724,
      "Ġ:": 725,
      "Ø´ÛĮ": 726,
      "ĠØ§ÙĨØ³": 727,
      "Ø¯Ø§": 728,
      "Ø¬ÙĪØ¯": 729,
      "ĠØ§Ø¬": 730,
      "Ø§Ø¹Øª": 731,
      "ÛĮØ¨": 732,
      "ÙħØª": 733,
      "es": 734,
      "Ø§ØªÛĮ": 735,
      "ĠÙ¾ÛģÙĦÛĴ": 736,
      "ĠØ§Ú©": 737,
      "Ø¡": 738,
      "Ø§Ø±ÙĪÚº": 739,
      "ĠÙħØ²": 740,
      "ĠØ¯Ûģ": 741,
      "ĠÙ¾Ø§Ø±": 742,
      "Ø§ÙĪØ±": 743,
      "Ø§ØµÙĦ": 744,
      "Ø¯Ø§ÙĦ": 745,
      "ĠÙħÛĮØ±": 746,
      "Ġa": 747,
      "ÙĨÛģ": 748,
      "ĠÙħØŃÙħØ¯": 749,
      "ĠS": 750,
      "ÙĦÙĪ": 751,
      "ĠÛģÙĪØªØ§": 752,
      "ĠØªÙĤ": 753,
      "ĠØªØ¨": 754,
      "Ø³Ù¹": 755,
      "om": 756,
      "ÙĨÚĨ": 757,
      "is": 758,
      "Ø±ÛĮØ¨": 759,
      "ĠØªÙħØ§Ùħ": 760,
      "ĠP": 761,
      "ÙĨÚĪ": 762,
      "ĠØŃØ§ÙĦ": 763,
      "ĠØ§ÙĤ": 764,
      "Ø®Øµ": 765,
      "ĠØµØŃ": 766,
      "ĠØµØ±Ùģ": 767,
      "ÙĪÚĳ": 768,
      "ĠØ¨ÛĴ": 769,
      "ĠØ¹ÙĪØ§Ùħ": 770,
      "ĠØ´Ø§Ùħ": 771,
      "ÛĮÙĨÛĮ": 772,
      "ĠÙģØ±Ùħ": 773,
      "Ø§ÛģØ±": 774,
      "Ġs": 775,
      "ĠØ±ÛģÛĮ": 776,
      "ĠÙ¹ÛĮ": 777,
      "ĠÙħØ¯": 778,
      "ou": 779,
      "ĠØ³Ø§Ùħ": 780,
      "ĠØ®Ø·": 781,
      "Ø±ÛĮÚ©": 782,
      "ĠØ§Ø³ÛĴ": 783,
      "ĠØ§ÙĪ": 784,
      "ĠØ¨Ø§Ø±": 785,
      "ĠØ¨Ø¯": 786,
      "Ø²ÛĮ": 787,
      "ÚĨÛĮ": 788,
      "ĠØ¬Ûģ": 789,
      "ĠÛģÙĪØ¦ÛĮ": 790,
      "Ġp": 791,
      "ĠØ§ÛĴ": 792,
      "Ø±Ø§": 793,
      "ĠØ±ÙĪØ²": 794,
      "ĠÙħÙĪØ¬ÙĪØ¯": 795,
      "Ġ|": 796,
      "ĠØ§ÙĨÛģÙĪÚº": 797,
      "Ø§Ø³ÛĮ": 798,
      "ĠØŃØ³": 799,
      "ĠØ¯ÙĨÛĮØ§": 800,
      "ĠØ«": 801,
      "ĠØ§Ûģ": 802,
      "ĠØ§ÛĮÙħ": 803,
      "ĠØ¯ÙĦ": 804,
      "âĢı": 805,
      "ĠÙĦÙĪÚ¯ÙĪÚº": 806,
      "ĠÙĪØ¬Ûģ": 807,
      "ĠÚ©Øª": 808,
      "ĠØ®ÙĪØ¯": 809,
      "ĠØ¬Ø§ØªØ§": 810,
      "Ú©Ø§Ø±": 811,
      "Ùī": 812,
      "ĠÚ©ÙħÛĮ": 813,
      "Ø§ÙĪ": 814,
      "ĠÙĪØ§ÙĦÛĮ": 815,
      "ĠÙĦÛĴ": 816,
      "ĠØ¬Ø§Ø±ÛĮ": 817,
      "ĠÙ¾ÛģÙĨÚĨ": 818,
      "ÙĪÙĨÛĮ": 819,
      "ØªØ±": 820,
      "Ø§Ø¦ÙĨ": 821,
      "ĠØŃØ§ØµÙĦ": 822,
      "ĠÙħÚ©": 823,
      "ĠØ§Ø³ØªØ¹": 824,
      "Ġm": 825,
      "Ġb": 826,
      "ĠØ²ÙĨØ¯": 827,
      "ĠM": 828,
      "ĠØŃØ¶": 829,
      "ĠØ¨ÙĨØ¯": 830,
      "Ù¾ÛĮ": 831,
      "ĠØ¹Ø¨": 832,
      "ĠÙħØ°": 833,
      "ĠØ¢Ø¦ÛĮ": 834,
      "ĠÚ¯Ú¾Ø±": 835,
      "ĠÙħØ§Ø±": 836,
      "ĠÛ": 837,
      "ĠÙħØ¬": 838,
      "Ú©ÙĨ": 839,
      "Ø±ÙĪØ¹": 840,
      "ĠÙĨØ¸Ø±": 841,
      "Ġc": 842,
      "ĠÚĪÛĮ": 843,
      "ĠØ¯Ú¾": 844,
      "ĠØ¨ÙĨØ§": 845,
      "ĠØ³ÙĨ": 846,
      "ĠØªÙĨ": 847,
      "ĠØŃÙĤ": 848,
      "ha": 849,
      "Ø¬Ú¾ÛĴ": 850,
      "ĠÚ©ÙĦ": 851,
      "ic": 852,
      "Ø±Ø²": 853,
      "ÙĳÙİ": 854,
      "ĠØºÛĮØ±": 855,
      "ĠØ§ÙģØ±Ø§Ø¯": 856,
      "Ùĭ": 857,
      "ĠØ¬Ø§ÙĨØ¨": 858,
      "ĠØ´Ø±ÙĪØ¹": 859,
      "ÙĪØ§ÙĨ": 860,
      "ĠØ¨Ø¬": 861,
      "Ø¯Ø§Ø¯": 862,
      "ĠØ§Ø³ÛĮ": 863,
      "re": 864,
      "ÙĦÛĮØ³": 865,
      "Ġ5": 866,
      "ÙĦÙģ": 867,
      "ĠÙĦÛĮØ§": 868,
      "Ġ4": 869,
      "ĠÚ¯Ø²": 870,
      "ĠÚ©ÛĮØ³": 871,
      "ÙħØ§ÙĨ": 872,
      "ÙĪØ§": 873,
      "Ġ0": 874,
      "ĠØ¨Ú¾Ø±": 875,
      "le": 876,
      "ĠØ¬ÛĮØ³": 877,
      "ĠØ±Ø³": 878,
      "Ø§ÛģÙħ": 879,
      "ĠÙħÛģ": 880,
      "Ø¨Øª": 881,
      "ĠÙħØ®Øª": 882,
      "ĠØ§Ø³ØªØ¹ÙħØ§ÙĦ": 883,
      "Ġw": 884,
      "Ø§Ø¦Ø±": 885,
      "Ø§ØŃØ¨": 886,
      "Ø§Ø¦Ùħ": 887,
      "ĠÙĪØ³": 888,
      "ĠØ¹ÙħÙĦ": 889,
      "201": 890,
      "ĠÙĪØ§ÙĤ": 891,
      "ĠØŃÙħ": 892,
      "ĠØ§Ø´": 893,
      "Ø§Ø¦Ø¯": 894,
      "ÙħÛĮÙĨ": 895,
      "ĠâĢĻâĢĻ": 896,
      "ĠØ¹ÙĦØ§ÙĤ": 897,
      "ĠØ¨ØŃ": 898,
      "ÙĪØ¯ÛĮ": 899,
      "Ġ..": 900,
      "ĠÙ¾ÛĮØ¯": 901,
      "ĠÚ©Ø±ØªØ§": 902,
      "ĠÙħØµ": 903,
      "ÚĪÛĮØ§": 904,
      "Ø³Ú©": 905,
      "ØµÙĪ": 906,
      "ĠÙħÚ¯Ø±": 907,
      "ÙĪØ§Ø±": 908,
      "ØºÛĮØ±": 909,
      "ĠÚ¯Ú¾": 910,
      "ĠÙģÙĪØ¬": 911,
      "ï¿½ï¿½ï¿½ï¿½": 912,
      "Ø§ØªÛĴ": 913,
      "ĠØµØ§ØŃØ¨": 914,
      "ĠØ§ÙĨÛģÛĮÚº": 915,
      "Ùĥ": 916,
      "ĠØ¬Ø§ÙĨÛĴ": 917,
      "Ø¯Ùħ": 918,
      "ĠØ´Ø®Øµ": 919,
      "ĠØ¨Ø§ÙĦ": 920,
      "Ø§Ø¸": 921,
      "ĠØ³ÙħØ¬Ú¾": 922,
      "ÙħØ¨": 923,
      "Ø¦Ø±": 924,
      "ing": 925,
      "ĠÛģÙĪØªÛĮ": 926,
      "Ø§Ú©Ù¹Ø±": 927,
      "ĠÚ©ÛģÙĨØ§": 928,
      "ĠØ´Ø§Ûģ": 929,
      "am": 930,
      "ĠÚ¯Ø±Ø¯": 931,
      "ĠØ§Øµ": 932,
      "ĠÚ©Ø±Ø¯": 933,
      "ĠØ´Ø±ÛĮÙģ": 934,
      "ĠØ®ÛĮ": 935,
      "Ù¹Ø³": 936,
      "ĠØ¸": 937,
      "Ø±Ø§Øª": 938,
      "ÙĪÙħÛĮ": 939,
      "ĠØŃØµ": 940,
      "ĠÙ¾ÚĳÚ¾": 941,
      "ĠÙĨÙĪØ§Ø²": 942,
      "Ú©ÙĪ": 943,
      "ĠØ§ÛĮÙĨ": 944,
      "Ø´Ûģ": 945,
      "ĠÙĨÛĮ": 946,
      "ÙĦÙĪÙħ": 947,
      "ĠÙĪÛĮ": 948,
      "Ø´Ø´": 949,
      "Ø§Ø¨ÛĮ": 950,
      "ĠØªØ¬": 951,
      "ĠT": 952,
      "ĠÙ¾Ø§Ø³": 953,
      "il": 954,
      "Ù¾ÙĪØ±Ù¹": 955,
      "ĠÙħØ²ÛĮØ¯": 956,
      "ĠN": 957,
      "ĠØµØ¯Ø±": 958,
      "ĠÙĨÙĤ": 959,
      "as": 960,
      "ÙĪÙĤ": 961,
      "ÚĳÛĮ": 962,
      "ĠÚĨÛĮ": 963,
      "ad": 964,
      "ĠØ²ÙĨØ¯Ú¯ÛĮ": 965,
      "ĠØ¨ÚĳÚ¾": 966,
      "Ġ19": 967,
      "ew": 968,
      "ĠÚĪØ§ÙĦ": 969,
      "ĠØ¹ÙĦÛĮÛģ": 970,
      "ĠC": 971,
      "ÙĪØ¹": 972,
      "ĠØ¯ÙĪØ±Ø§ÙĨ": 973,
      "ÙĤÛģ": 974,
      "ĠÙħØ±": 975,
      "ĠØ¨ÙĦÚ©Ûģ": 976,
      "ĠØ¢Ø¬": 977,
      "ÙħÛĮØª": 978,
      "ĠØ´ÛĮ": 979,
      "ĠØ¨ÛĮØ§ÙĨ": 980,
      "Ø±ÙĦ": 981,
      "ĠÛģÙħØ§Ø±ÛĴ": 982,
      "ĠÚ©Ø¨": 983,
      "ĠÙħØ¬Ú¾ÛĴ": 984,
      "ĠÙħØªØ¹": 985,
      "ĠØ¨ÙĨÛĮ": 986,
      "ĠI": 987,
      "Ø§ÙĦÙħ": 988,
      "ĠÚ©Ø±ÛĴ": 989,
      "Ø§Ø·": 990,
      "ÙĪÙĦÛĮ": 991,
      "Ø¨Ø§ÙĨ": 992,
      "Ù¾Ø±": 993,
      "ĠØ´Ø§ÙħÙĦ": 994,
      "ĠØ¨Ø§Ø±ÛĴ": 995,
      "ÙĦØ§ÙĨ": 996,
      "Ġo": 997,
      "Ø§Ú©Ûģ": 998,
      "Ø§ÚĨÛĮ": 999,
      "ĠØŃÙĪØ§ÙĦ": 1000,
      "ÙĪÙĨÚ©Ûģ": 1001,
      "âĢĿ": 1002,
      "ĠÙĦÚ©Ú¾": 1003,
      "ÙĪÙĨÙĪÚº": 1004,
      "Ġf": 1005,
      "ĠÙ¾ÙĪØ±": 1006,
      "ĠØŃÚ©Ùħ": 1007,
      "ĠÙ¾Ø³": 1008,
      "ĠÚĨÙĦ": 1009,
      "Ġthe": 1010,
      "ĠØªÛĮ": 1011,
      "ÙĨÙħ": 1012,
      "ĠÙ¾Ø±ÙĪ": 1013,
      "ĠÙ¾ÙĪÙĦÛĮØ³": 1014,
      "Ø§Ø±ÛĮØ®": 1015,
      "ĠØ¹Ø§Ùħ": 1016,
      "ĠØ¬ÙĨÚ¯": 1017,
      "ĠØ³Ú©ØªØ§": 1018,
      "ÚĪÛĮ": 1019,
      "ĠÚ©ÙĪØ´Ø´": 1020,
      "ĠØµÙĪØ±Øª": 1021,
      "ĠØ¹ÙĦÙħ": 1022,
      "ion": 1023,
      "Ú¾ÛĮÙĦ": 1024,
      "Ø±Ø¯ÙĪ": 1025,
      "Ø§ÙħØ§Øª": 1026,
      "ĠØ¬Ø¨Ú©Ûģ": 1027,
      "ĠØ¬ÛĮ": 1028,
      "ĠØ´ÛģØ±": 1029,
      "Ø¬ÙĨ": 1030,
      "ĠØŃØ¶Ø±Øª": 1031,
      "ÙĨØ¬Ø§Ø¨": 1032,
      "ĠØ³Ø§ÙħÙĨÛĴ": 1033,
      "ĠÙħÙĪÙĤ": 1034,
      "ĠÛģÙĪÚ¯Ø§": 1035,
      "ĠB": 1036,
      "Ø§Ø¹Ø¸Ùħ": 1037,
      "ÙħÙĨ": 1038,
      "ĠØ¯Ø¹": 1039,
      "Ġd": 1040,
      "Ø¨Ø§Ø±": 1041,
      "ÙĦØ¨": 1042,
      "Ø§ÙĨÚ¯": 1043,
      "ĠØªÛĮÙĨ": 1044,
      "ÙħÛĮÚº": 1045,
      "Ø§ÛģÙĪØ±": 1046,
      "Ġ\"": 1047,
      "ĠØ§Ù¹Ú¾": 1048,
      "Ø®ÙĪ": 1049,
      "ĠØ¬Ú¾": 1050,
      "ĠÙħØ³Øª": 1051,
      "ĠØ¯ÛģØ´Øª": 1052,
      "ÛģØ§Ø±": 1053,
      "Ù¹Ø±ÛĮ": 1054,
      "Ø´ÙħÛĮØ±": 1055,
      "Ø§Ø±ØªÛĮ": 1056,
      "ĠØ§ØŃÙħØ¯": 1057,
      "ĠØ§ÛĮØ³ÛĴ": 1058,
      "ay": 1059,
      "ĠÙħØ®ØªÙĦÙģ": 1060,
      "ĠÚ©ÙĨ": 1061,
      "Ġ6": 1062,
      "Ø¯ÛĮØ¯": 1063,
      "ĠØ¬ÙĦ": 1064,
      "Ø¬ÛĮ": 1065,
      "ĠÙĦÛĮÙĨ": 1066,
      "and": 1067,
      "Ø§Ø«": 1068,
      "Ø§ÙĨÚĨ": 1069,
      "Ø§ÙħÛĮ": 1070,
      "ĠØ¯ÛĮÙĨÛĴ": 1071,
      "ĠØ§ÛģÙħ": 1072,
      "ak": 1073,
      "ĠØ§Ù¾ÙĨØ§": 1074,
      "Ġ20": 1075,
      "ÛĮØ§Øª": 1076,
      "ĠØ¯ÙĪÙĨÙĪÚº": 1077,
      "ĠØ³ÛĮØ§Ø³ÛĮ": 1078,
      "ĠØ®Ø¨Ø±": 1079,
      "ĠD": 1080,
      "ĠÙĨÚ©": 1081,
      "ĠÛĮÛģØ§Úº": 1082,
      "Ûĥ": 1083,
      "ĠÚĪØ§Ú©Ù¹Ø±": 1084,
      "Ø§Øº": 1085,
      "Ø©": 1086,
      "ĠØ§ÙĨØ¯": 1087,
      "ĠÙ¾Ú¾": 1088,
      "ĠØ¢Ú¯": 1089,
      "ĠÙĦÚĳ": 1090,
      "ĠØ¨ÚĳÛĮ": 1091,
      "ĠØ¯ÛĮÚ¯Ø±": 1092,
      "ÙĦØ·": 1093,
      "Ø§ÛĮØª": 1094,
      "ĠØ§Ø¶": 1095,
      "ĠÙģÛĮØµÙĦÛģ": 1096,
      "ĠØ³ÛĮÚ©": 1097,
      "ĠÙħÙĨØµ": 1098,
      "ĠØ¯ÙĪØ³Ø±ÛĴ": 1099,
      "ĠØ¨ØªØ§": 1100,
      "ĠÙ¾Ø§Ø±Ù¹ÛĮ": 1101,
      "ĠÙĨØ´": 1102,
      "Ø¹ÛĴ": 1103,
      "20": 1104,
      "Ġï": 1105,
      "ĠÚ©ØªØ§Ø¨": 1106,
      "ĠØ¢Ø±": 1107,
      "ĠØ°Ø±ÛĮ": 1108,
      "ÙĪØ±Ø³": 1109,
      "ÙĬÚº": 1110,
      "ĠÙħÛĮØ±ÛĴ": 1111,
      "ĠÙĤØ§ÙĨ": 1112,
      "±Û": 1113,
      "ĠÛģÙĨØ¯": 1114,
      "ĠØ§ÛĮØ³Ø§": 1115,
      "Ø²Ø§Ø±": 1116,
      "ĠØªØ¹ÙĦÙĤ": 1117,
      "Ø³Ù¾": 1118,
      "ÙĨØ¯Ú¾": 1119,
      "Ø§Ø²Ûģ": 1120,
      "ĠØªØ±ÛĮÙĨ": 1121,
      "Ø´ØªÛģ": 1122,
      "ĠØŃÙĪØ§ÙĦÛĴ": 1123,
      "ĠÛģÙĪØªÛĴ": 1124,
      "id": 1125,
      "ĠØ¯Ø§Ø±": 1126,
      "ÚĪØ±": 1127,
      "Ġin": 1128,
      "ĠÙħØ¹Ø§Ùħ": 1129,
      "ĠØ´Ø¹": 1130,
      "Ûķ": 1131,
      "ĠØ³Ú©ØªÛĴ": 1132,
      "ØŃÛģ": 1133,
      "Ø¦ÛĮÚº": 1134,
      "ĠØ¹Ø¯Ø§ÙĦ": 1135,
      "ur": 1136,
      "ĠÚ©Ø³": 1137,
      "ĠØ¨ÛĮÙĨ": 1138,
      "Ù¾ÛĴ": 1139,
      "ĠØ¨Ú¾Ø§Ø±Øª": 1140,
      "ĠÙĤØ±Ø§Ø±": 1141,
      "ĠØ¹ÙħØ±Ø§ÙĨ": 1142,
      "Ù¾Ø§Ú©Ø³ØªØ§ÙĨ": 1143,
      "ĠÙ¾ÙĨØ¬Ø§Ø¨": 1144,
      "ĠÚ¯ÙĪ": 1145,
      "ews": 1146,
      "Ø§ÙĤÛĮ": 1147,
      "ĠÚ©Ø¦ÛĮ": 1148,
      "Ġ7": 1149,
      "Ġh": 1150,
      "Ø§Ú¯": 1151,
      "ÙĤÙĦ": 1152,
      "ĠÙħØªØ¹ÙĦÙĤ": 1153,
      "ĠØ§ÙĨØªØ®": 1154,
      "ĠÙĤØ¨": 1155,
      "Ú©Ù¹": 1156,
      "ĠØ´Ùħ": 1157,
      "ĠÛģØ§ØªÚ¾": 1158,
      "ĠØ³Ø¹": 1159,
      "ĠØªØ´": 1160,
      "ĠØ¬ÛģØ§Úº": 1161,
      "Ø§Ø¦Ø²": 1162,
      "ĠÙħØ§Ûģ": 1163,
      "ĠØªØ§Ø±ÛĮØ®": 1164,
      "âĢ¦": 1165,
      "ĠÙ¾ÛĮØ¯Ø§": 1166,
      "ĠØ¢Ø¨Ø§Ø¯": 1167,
      "ĠØ³Ù¾": 1168,
      "ent": 1169,
      "ĠÚ©Ø´ÙħÛĮØ±": 1170,
      "ĠØ¬ÙħØ§Ø¹Øª": 1171,
      "ĠØ±Ø¶": 1172,
      "ĠÙħÛĮÚĪÛĮØ§": 1173,
      "ĠØ¨Ø§": 1174,
      "ÙĦØ§Ø³": 1175,
      "ĠØ¶Ø±ÙĪØ±Øª": 1176,
      "Ø§Ø¨ÙĦ": 1177,
      "ÚĳÛĴ": 1178,
      "ĠÙĤÙĪÙħÛĮ": 1179,
      "ĠÙĪÙģ": 1180,
      "ĠØ¬Ø§Ø¦ÛĮÚº": 1181,
      "Ġk": 1182,
      "ĠØªÙģ": 1183,
      "ĠØ¬Ø§ØªÛĮ": 1184,
      "Ø±ÛĮÙħ": 1185,
      "ĠâĢĺ": 1186,
      "ÛĮÛĴ": 1187,
      "ÙĶ": 1188,
      "ĠØ¹Ø±Ø¨": 1189,
      "Ú¯Ûģ": 1190,
      "ĠÙĪØ§ÙĦØ§": 1191,
      "Ø²Ø§Ø¯": 1192,
      "ĠÙħØ¹Ø§Ø´": 1193,
      "Ø±ÙģØª": 1194,
      "ĠØªØŃØ±ÛĮÚ©": 1195,
      "ĠØ§Ø²": 1196,
      "ĠÚ©Ø¨Ú¾ÛĮ": 1197,
      "ĠÙħÚ©ÙħÙĦ": 1198,
      "ĠÚ©Ø±Ø¯ÛĮØ§": 1199,
      "ĠÚ©ÛĮÙĪÙĨÚ©Ûģ": 1200,
      "ĠØ¬ÛĮØ³ÛĴ": 1201,
      "ÛĮÚ©Ø³": 1202,
      "ĠØªØ±ÙĤÛĮ": 1203,
      "Ø§Ú©Ú¾": 1204,
      "Ġof": 1205,
      "ĠØªØ¹Ø§ÙĦÛĮ": 1206,
      "ĠÛģÙħÛĮÚº": 1207,
      "ĠØ¹ÙĦ": 1208,
      "Ù¹ÙĪ": 1209,
      "ĠØ®ÛĮØ§ÙĦ": 1210,
      "ĠØ§ÛģÙĦ": 1211,
      "ĠØ§ÙħØ±ÛĮÚ©ÛĮ": 1212,
      "ĠØ§Ø¶Ø§Ùģ": 1213,
      "Ø¸ÛĮÙħ": 1214,
      "ĠÚĨÛĮÙĨ": 1215,
      "ÛĮØ±Ø§ÙĨ": 1216,
      "ĠØ¬ÙĪØ§Ø¨": 1217,
      "ĠØ®ØªÙħ": 1218,
      "ØªÙĪÚº": 1219,
      "ĠØ§Ø¸": 1220,
      "âĢĻâĢĻ": 1221,
      "Ġn": 1222,
      "ÙĪØ±Ûģ": 1223,
      "ØºØ§ÙĨ": 1224,
      "Ø¨Ú¾": 1225,
      "ĠÚ©ÛĮÙĪÚº": 1226,
      "ĠÛģÙĦ": 1227,
      "ĠU": 1228,
      "Ø¨ÙĪ": 1229,
      "el": 1230,
      "ĠØµÙĪØ¨": 1231,
      "ÙħÛĮØ±": 1232,
      "ĠÙ¹ÛĮÙħ": 1233,
      "ĠÙħØ®": 1234,
      "ĠØªØµ": 1235,
      "Ġ8": 1236,
      "Ġto": 1237,
      "ÙĦØ²": 1238,
      "Ø§ÛĮ": 1239,
      "ĠÙħÙĪÙĤØ¹": 1240,
      "ĠÚ¯Ø±": 1241,
      "ĠØ´Ø±": 1242,
      "ĠÙ¾Ø³ÙĨØ¯": 1243,
      "ĠÚ©Ø§ÙħÛĮ": 1244,
      "ĠÛĮÙĤ": 1245,
      "ĠÙħØ§ÙĦ": 1246,
      "ĠØ¨ÚĳÛĴ": 1247,
      "Ø±ÙĪÚº": 1248,
      "ĠH": 1249,
      "Ù¹Ø§": 1250,
      "ĠØ§Ø¹Ø¸Ùħ": 1251,
      "Ø¯ÛĮÙĨ": 1252,
      "ĠØ³Ø§Ø¦": 1253,
      "ĠØªØ¹ÙĦÛĮÙħ": 1254,
      "Ġ10": 1255,
      "ĠØ¨ØªØ§ÛĮØ§": 1256,
      "ĠÚ¾": 1257,
      "ĠØ¯Ø³Øª": 1258,
      "ÛĮÙĨÛģ": 1259,
      "ĠØµÙģ": 1260,
      "Ø±ÛĮØ³": 1261,
      "ĠÚ©Ø±Ø§ÚĨÛĮ": 1262,
      "ol": 1263,
      "ĠÚ©ÛĮÛĴ": 1264,
      "ĠØ¯Ø±ÙħÛĮ": 1265,
      "ĠØ§ÙĨØªØ¸": 1266,
      "ÙĪÚ©": 1267,
      "ÙĪÚĨ": 1268,
      "ÙĪØ²": 1269,
      "Ø¢ÙĨ": 1270,
      "ĠØ¯ÛĮÚº": 1271,
      "ĠØ§ÙĨØµ": 1272,
      "ĠØ¹Ø±": 1273,
      "ØŃÚ©": 1274,
      "ĠÙħÙĨØµÙĪØ¨": 1275,
      "ĠØ§ÙģØ³": 1276,
      "ĠR": 1277,
      "du": 1278,
      "Ø§Ø±Ø§": 1279,
      "ĠÙħØ¹ÙĦÙĪÙħ": 1280,
      "ĠÚ¯Ø±ÙģØª": 1281,
      "ĠÙĤÙĪÙħ": 1282,
      "Ġ2018": 1283,
      "ĠØ¬Ú¯Ûģ": 1284,
      "Ġ9": 1285,
      "ĠØ³ÙĪØ§ÙĦ": 1286,
      "ĠÙħÙħ": 1287,
      "ÙħØ§ÙĦÚ©": 1288,
      "ĠØ´Ú©": 1289,
      "ĠÙ¾Ø§ÙĨÛĮ": 1290,
      "ĠØ±ÙĪÙ¾ÛĴ": 1291,
      "ĠÙĪØ§Ù¾": 1292,
      "âĢľ": 1293,
      "ĠÙģØ§Ø±": 1294,
      "ĠÚ©Ø±ÙĪ": 1295,
      "ĠÙħØ¶": 1296,
      "em": 1297,
      "ir": 1298,
      "ĠØ§ÙĨØ¯Ø±": 1299,
      "ĠØ¢ÙĨ": 1300,
      "ĠÙĦÛĮÚ¯": 1301,
      "ĠØ®ÙĪØ´": 1302,
      "ĠØ§ÙĨØªØ®Ø§Ø¨": 1303,
      "ĠØ§Ø¹ÙĦØ§ÙĨ": 1304,
      "Ø¹Øª": 1305,
      "un": 1306,
      "ĠÙ¹Ú¾": 1307,
      "ĠØ§Ø¸ÛģØ§Ø±": 1308,
      "ÙĦØ§ØŃ": 1309,
      "ĠÙĪØ²ÛĮØ±Ø§Ø¹Ø¸Ùħ": 1310,
      "ch": 1311,
      "Ø¬ÙĪ": 1312,
      "et": 1313,
      "ĠØ¹ÙħØ±": 1314,
      "ĠÙĨØ§": 1315,
      "ĠÙĪØ§ÙĦÙĪÚº": 1316,
      "ĠÙ¾Ø§Ú©Ø³ØªØ§ÙĨÛĮ": 1317,
      "ĠÚ©Ø±Ú©ÛĴ": 1318,
      "ĠÚĨØ§Ø±": 1319,
      "ĠØ³ÛĮÙĨ": 1320,
      "ØªÛģ": 1321,
      "ïº": 1322,
      "ØªÙĦ": 1323,
      "ĠØ§ÙĦØŃ": 1324,
      "Ø§Ø²ÛĮ": 1325,
      "ĠâĢĿ": 1326,
      "ag": 1327,
      "ĠØ§Ø¹ÙĦÛĮ": 1328,
      "ĠÙĤØ§Ø¦Ùħ": 1329,
      "ĠF": 1330,
      "ĠÙħÙģ": 1331,
      "ĠØ§Ø³ÙĦØ§ÙħÛĮ": 1332,
      "ĠØŃØ³ÛĮÙĨ": 1333,
      "ĠØ¢Ùģ": 1334,
      "ĠØ¯Ø±ÙħÛĮØ§ÙĨ": 1335,
      "ĠØ§Ø¯Ø§": 1336,
      "ĠÙħØ«": 1337,
      "Ø±ÛĮÙĦ": 1338,
      "ĠØ§ÙħØ§Ùħ": 1339,
      "ĠÙĪØ§ÙĤØ¹": 1340,
      "ĠÙĪØ±": 1341,
      "ĠÙħÛĮØ±ÛĮ": 1342,
      "ĠÙħÙĨØª": 1343,
      "ĠØ¨ÙĨØ§ÙĨÛĴ": 1344,
      "ØªÙĪ": 1345,
      "Ø§ÛĮÚ©": 1346,
      "Ø§ÙĦÙħÛĮ": 1347,
      "Ø³ÙĨ": 1348,
      "ĠØ³ÙĨØ¯Ú¾": 1349,
      "ĠÙĤØ³Ùħ": 1350,
      "ØªÛĮØ§Ø±": 1351,
      "ah": 1352,
      "ĠØ§ÙħØ±ÛĮÚ©Ûģ": 1353,
      "ĠÚ©ÙħÙ¾": 1354,
      "ĠØ¹Ø¯Ø§ÙĦØª": 1355,
      "ĠÚĨÛĮØ²": 1356,
      "ĠÙħÙħØ§ÙĦÚ©": 1357,
      "ĠÙģØ±ÙħØ§ÛĮØ§": 1358,
      "Ø§ØªÛĮÙĨ": 1359,
      "ĠØ¬Ø§ØªÛĴ": 1360,
      "ĠØ§ÙĨØ³Ø§ÙĨ": 1361,
      "ØµÛĮ": 1362,
      "ĠÙħØ¸": 1363,
      "ĠØ§ÛĮØ³ÛĮ": 1364,
      "ĠØ¯Ø§Ø®": 1365,
      "ĠÙģØ±ÙĪ": 1366,
      "Ø¬Ùħ": 1367,
      "ĠØ³ÙħÛĮØª": 1368,
      "ĠØªÙĤØ±ÛĮØ¨": 1369,
      "ĠÙħÙĨØ¸": 1370,
      "ĠÙĪÛģØ§Úº": 1371,
      "Ø¹ÙĨÛĮ": 1372,
      "ÙĦØ§ÙĪÛģ": 1373,
      "ĠÚĨØ§ÛģÛĮÛĴ": 1374,
      "ĠâĢĵ": 1375,
      "ĠÚ©Ø´": 1376,
      "Ø§ÙĪÙĨ": 1377,
      "à¤": 1378,
      "ĠØ®Ø§Øª": 1379,
      "ĠÙ¾Ø§Ú©": 1380,
      "ĠÙĦØ§ÛģÙĪØ±": 1381,
      "ĠØ¯ÛĮØªÛĴ": 1382,
      "ĠÙĨØ¸Ø§Ùħ": 1383,
      "ĠÙĨØ³": 1384,
      "âĢıâĢı": 1385,
      "ĠØ¯Ú©Ú¾": 1386,
      "ĠØ¨ÚĨÙĪÚº": 1387,
      "ĠÛĮÛģÛĮ": 1388,
      "ÙħØ¨ÙĦÛĮ": 1389,
      "ĠØªÚ¾ÛĮÚº": 1390,
      "ĠØ±Ø³ÙĪÙĦ": 1391,
      "Ġ2019": 1392,
      "ÙģØ¸": 1393,
      "ĠÚ©Ø§ÙĨ": 1394,
      "ÛĮØ³ÛĮ": 1395,
      "ĠÙĪØ³ÙĦÙħ": 1396,
      "ĠØªÛĮØ§Ø±": 1397,
      "...": 1398,
      "Ø§Ø¦Ø¹": 1399,
      "ĠÙħØ¯Ø¯": 1400,
      "Ú©Ø³": 1401,
      "Ø§Ø³ÙĦØ§Ùħ": 1402,
      "ĠØ³ÛĮØ¯": 1403,
      "Ð°": 1404,
      "ot": 1405,
      "Ø²Ùħ": 1406,
      "ĠÛģØ²Ø§Ø±": 1407,
      "Ġand": 1408,
      "Ú¯ÙĪ": 1409,
      "Ġ/": 1410,
      "ĠÚĨÙĨØ¯": 1411,
      "ĠØ³Ø±Ú©": 1412,
      "ĠK": 1413,
      "ĠØ§Ø±": 1414,
      "Ø§ØªØ§": 1415,
      "ĠÛģÙĪØ¬": 1416,
      "ÙĪÙĨØ§": 1417,
      "ĠØ±Ù¾ÙĪØ±Ù¹": 1418,
      "ĠØ§ÙģØºØ§ÙĨ": 1419,
      "ÛĶÛĶÛĶ": 1420,
      "ĠØ®Ø¯Ø§": 1421,
      "ĠØ¹ÙĦØ§ÙĪÛģ": 1422,
      "ĠÚ©Ù¾": 1423,
      "ul": 1424,
      "ĠÙħÙĪÙĦ": 1425,
      "ĠÙĨÛĮÙĪ": 1426,
      "Ġ12": 1427,
      "ÙħÛĮØ¯": 1428,
      "ĠØ³Ûģ": 1429,
      "ĠØ§ÙĦÙħ": 1430,
      "ĠØ·Ø±ÛĮ": 1431,
      "ĠØ§Ø³ÙħØ¨ÙĦÛĮ": 1432,
      "ĠØ¢Ø®": 1433,
      "ĠÛĮØ§Ø¯": 1434,
      "ĠÛģÙĨØ¯ÙĪ": 1435,
      "ĠÙĦØ§Ú©Ú¾": 1436,
      "ĠØµÙĦÛĮ": 1437,
      "ĠØ§Ø«": 1438,
      "ĠØ§ÙĨØµØ§Ùģ": 1439,
      "ĠÙĤÛĮÙħ": 1440,
      "ÚĳØ§": 1441,
      "ĠÚ©Ø±Ø¯Ø§Ø±": 1442,
      "ĠØ³Ùģ": 1443,
      "Ø¨Ø§ÙĦ": 1444,
      "ĠØ®ØµÙĪ": 1445,
      "ist": 1446,
      "ĠØ§Ø·": 1447,
      "ĠJ": 1448,
      "ĠØ¶Ø±ÙĪØ±ÛĮ": 1449,
      "ĠÙĦÚ¯Ø§": 1450,
      "ĠØ£": 1451,
      "ĠØ§Ø±Ø¯ÙĪ": 1452,
      "Ġl": 1453,
      "ĠØŃØµÛģ": 1454,
      "ĠØªØ¹Ø¯Ø§Ø¯": 1455,
      "ĠÙģÙĦÙħ": 1456,
      "ĠÛģÙħØ§Ø±ÛĮ": 1457,
      "ĠØ±ØŃ": 1458,
      "ĠØ³ÙĦØ³": 1459,
      "ĠÚ©Ø±ØªÛĮ": 1460,
      "Ø§Ø¨Øª": 1461,
      "ĠL": 1462,
      "ØªØ§ÙĦ": 1463,
      "ĠØ§Ø®ØªÛĮØ§Ø±": 1464,
      "ĠØ¬ÙĨØ±ÙĦ": 1465,
      "ĠÙĤØ¨ÙĦ": 1466,
      "ÙģØ§Ø¸": 1467,
      "ĠÙ¾ÙĪØ±ÛĮ": 1468,
      "im": 1469,
      "ĠÚĪØ±": 1470,
      "Ø§ÛģÛĴ": 1471,
      "ĠØ´ÛģØ±ÛĮ": 1472,
      "ĠØ®ÙĪØ§ØªÛĮÙĨ": 1473,
      "ĠÙģØ¶": 1474,
      "ĠG": 1475,
      "Ø§ÙĦØ¨": 1476,
      "ĠØ±ÛģÙĨÙħ": 1477,
      "ĠØ²ÛĮØ±": 1478,
      "ØªØŃ": 1479,
      "Ø¯ÛĴ": 1480,
      "ĠØ¹Ø¨Ø¯Ø§ÙĦ": 1481,
      "Ġon": 1482,
      "ĠÚ©ÙĪØ±Ù¹": 1483,
      "Ø¤": 1484,
      "Ø§Ø¨Ø·": 1485,
      "ĠÙĤØªÙĦ": 1486,
      "Ø§Ø±Ùģ": 1487,
      "ĠØ¯Ùģ": 1488,
      "ĠØ§ÙĦÙĦ": 1489,
      "ÙĪÛĮØ²": 1490,
      "Ġ)": 1491,
      "ÚĳÚ¾": 1492,
      "ĠØ¨Ú¾Ø§Ø±ØªÛĮ": 1493,
      "Ø§Ø¶ØŃ": 1494,
      "ĠØ¨Øª": 1495,
      "ÙĦØ§ÙĤØ§Øª": 1496,
      "ab": 1497,
      "ĠÚ©Ø¦ÛĴ": 1498,
      "us": 1499,
      "ow": 1500,
      "ĠØ®Ø±": 1501,
      "ĠØ°Ø±ÛĮØ¹ÛĴ": 1502,
      "ÙĨØª": 1503,
      "ĠÙĬ": 1504,
      "ĠØ¬ÙħØ¹": 1505,
      "ĠØ³ÙĪÚĨ": 1506,
      "ÛĮÚ©Ø´ÙĨ": 1507,
      "Ø§Ø¤Úº": 1508,
      "ĠØ±Ú©Ú¾ÙĨÛĴ": 1509,
      "ĠØ¢Ø¦ÛĴ": 1510,
      "ĠØ¨Ø§ÛģØ±": 1511,
      "ĠÙĤØ§ÙĨÙĪÙĨ": 1512,
      "ÙĨØ¯ÛĮ": 1513,
      "ht": 1514,
      "ÙĪØ§Ø²": 1515,
      "ĠØ¹Ø§ÙĦÙħÛĮ": 1516,
      "ĠØ§ÙĨØªÛģ": 1517,
      "ĠØ¨Ø³": 1518,
      "ĠØ§Ú¯": 1519,
      "ĠØ§Ø¬ÙĦØ§Ø³": 1520,
      "ĠØŃÙĦ": 1521,
      "ØµØ¯": 1522,
      "Ø§ÙĨØ¯": 1523,
      "Ø§Ø¬ÛĮ": 1524,
      "ĠÚĨÚ¾ÙĪÚĳ": 1525,
      "ĠØ§ÙĨØ³Ø§ÙĨÛĮ": 1526,
      "ÛĮÚ©ÙĦ": 1527,
      "ĠÙĪØ²": 1528,
      "ĠØ¨ÚĳØ§": 1529,
      "ĠÚ©Ø§ÙĦ": 1530,
      "ĠØŃÙĤÛĮ": 1531,
      "ĠØ®Ø§Øµ": 1532,
      "Ø§ÛģÛĮ": 1533,
      "ĠØ³Ø§Ø¨ÙĤ": 1534,
      "Ø¬ÛĴ": 1535,
      "ĠØ¹ÙĪØ±Øª": 1536,
      "ĠØ¨ÙĦÙĪÚĨ": 1537,
      "ĠÙĨÙħØ§Ø²": 1538,
      "ĠÙħØ±Ú©": 1539,
      "ĠÙħÙĦØ§ÙĤØ§Øª": 1540,
      "Ø¬Ø¯": 1541,
      "ÚĨÚ¾Ø§": 1542,
      "ĠØ§ØŃØª": 1543,
      "ĠØ³ÛĮØ§Ø³Øª": 1544,
      "ĠÙħØ°Ûģ": 1545,
      "Ġ11": 1546,
      "ØµÛĮÙĦ": 1547,
      "Ø§Ø¦Ø´": 1548,
      "ĠØ¯ÙĪØ³Ø±ÛĮ": 1549,
      "Ø³ÛĴ": 1550,
      "ĠØ³ÙĨÚ¯": 1551,
      "ĠÙĦØ§Ø¦ÙĨ": 1552,
      "ĠÛģÙĪÙĨØ§": 1553,
      "ĠØ¢Ø¦": 1554,
      "ÚĨÚ¾ÛĴ": 1555,
      "ĠÚ©Ú¾ÛĮÙĦ": 1556,
      "ĠØ¨ÛĮÙ¹Ú¾": 1557,
      "ĠÙħØ³ÙĦÙħØ§ÙĨÙĪÚº": 1558,
      "Ø´ÙĦ": 1559,
      "Ø±ÙĪÙģ": 1560,
      "Ø±ÛĮØ´ÙĨ": 1561,
      "ct": 1562,
      "ĠØ§ÙĦØ²": 1563,
      "ĠÛģÙĦØ§Ú©": 1564,
      "ĠØ¯ÙĪØ³Øª": 1565,
      "ÙĢ": 1566,
      "ĠØ²Ø¨Ø§ÙĨ": 1567,
      "ĠÙĤÛĮ": 1568,
      "ĠØ¨Ø®": 1569,
      "Ø¶Ûģ": 1570,
      "ÙĤÛĮÙĤ": 1571,
      "Ù¾ÙĪØ±": 1572,
      "ĠØ§ÙĤØ¯": 1573,
      "ĠØ¨Ø§Ø¹": 1574,
      "ĠÙħØ³Ø¦": 1575,
      "Ø¯Ø§ÙĨ": 1576,
      "ĠÙħØªØŃ": 1577,
      "Ø¯ÛĮØ«": 1578,
      "ĠÚ©ÙĪØ±": 1579,
      "ĠÙĨÙģ": 1580,
      "ĠØ§ÚĨ": 1581,
      "ÙĨØ¯Ûģ": 1582,
      "ĠØŃØ¯": 1583,
      "Ġy": 1584,
      "ĠØ¨ÛģØªØ±": 1585,
      "ĠØªÙħÛģ": 1586,
      "Ú©Ø§ÙĨ": 1587,
      "ĠÚ©ÛģØªÛĴ": 1588,
      "ĠÚ¯ÙĦ": 1589,
      "²Û": 1590,
      "ĠÙĤØ¯Ø±": 1591,
      "ĠÙħØ±Ø¯": 1592,
      "Ġ15": 1593,
      "ĠØ§ÙĨÚ¯": 1594,
      "ĠÙħØ±Øª": 1595,
      "ØµÙģ": 1596,
      "Ø¹ÙĤ": 1597,
      "ĠØ§Ø¶Ø§ÙģÛģ": 1598,
      "ÙĪØ¬ÙĪØ¯": 1599,
      "ĠØ±ÛĮØ§Ø³Øª": 1600,
      "oo": 1601,
      "Ø§Ø³Ú©": 1602,
      "10": 1603,
      "ĠÙ¾ÛĮØ±": 1604,
      "Ġ2017": 1605,
      "Ø§Ú¯Ø±": 1606,
      "ĠØ¢ÛĮØ§": 1607,
      "ĠØ°ÙħÛģ": 1608,
      "Ø¯Ø±ÛĮ": 1609,
      "ĠÚ¯Ø±ÙĪ": 1610,
      "ÙĨØ¯Ø±": 1611,
      "ĠØ¹Ø²": 1612,
      "ĠÙħÙĤØ§Ø¨": 1613,
      "ĠÙħØ¹ÛĮ": 1614,
      "ĠÙħØ³Ø§Ø¦ÙĦ": 1615,
      "ĠØªØŃØª": 1616,
      "ĠW": 1617,
      "ĠØ§ÙĨÚ¾": 1618,
      "ĠÙĨÙĪØ¬": 1619,
      "ĠØ§ÛĮÙģ": 1620,
      "ĠØµØŃØª": 1621,
      "ÚĪÛĮÙĪ": 1622,
      "ĠÚĨÛĮÙģ": 1623,
      "ĠÚ¯Ø±ÙģØªØ§Ø±": 1624,
      "ĠÙħØ´Ú©ÙĦ": 1625,
      "ĠØ¨Ø§Ø¹Ø«": 1626,
      "·º": 1627,
      "Ø§ÙĨÛģÙĪÚº": 1628,
      "ĠØ¨ØºÛĮØ±": 1629,
      "âĨ": 1630,
      "Ġ#": 1631,
      "Ø´ÙĨÙĦ": 1632,
      "ĠÙħØ´Øª": 1633,
      "ĠØ±Ú©": 1634,
      "ĠØ¢ÙĨÛĴ": 1635,
      "ÙħØŃ": 1636,
      "ĠÙĨØ¦ÛĴ": 1637,
      "ĠÚ©Ø±Ø¯ÛĮ": 1638,
      "ĠØ§ÙĦØ³": 1639,
      "Ġth": 1640,
      "ĠÙģØ±Ø§ÛģÙħ": 1641,
      "Ġ14": 1642,
      "Ø§ÙģÛĮ": 1643,
      "ĠÛĮØ¹ÙĨÛĮ": 1644,
      "ĠØ§ÙĨØ¬": 1645,
      "ĠØ¬Ø§Ø±Ûģ": 1646,
      "Ø§ÙħÛģ": 1647,
      "Ú¯Ø±Ø§Ùħ": 1648,
      "Ø§ÙĤØª": 1649,
      "ĠÙĨØ¦ÛĮ": 1650,
      "Ø§ÛĮÛģ": 1651,
      "ĠÙĨØ§Ú©": 1652,
      "ĠØ²ÙħÛĮÙĨ": 1653,
      "ĠØºÙĦØ·": 1654,
      "Ø¹ÛĮ": 1655,
      "ĠØ«Ø§Ø¨Øª": 1656,
      "ĠØ¨Ø¹": 1657,
      "ĠÛģÙĪÚ¯ÛĮ": 1658,
      "ĠØ¨ÙĨÛĮØ§Ø¯": 1659,
      "ĠØ¹Ûģ": 1660,
      "ĠÙĪØ§Ù¾Ø³": 1661,
      "ig": 1662,
      "ĠØ³Ø·": 1663,
      "Ø±Ú©Øª": 1664,
      "ĠØ¨Ø±Ø³": 1665,
      "ĠØªÙĦ": 1666,
      "ĠÙ¾Ø§ÙĦ": 1667,
      "com": 1668,
      "Ø«Ø±": 1669,
      "ĠØ¬ÙĦØ¯": 1670,
      "ĠÛĮÙĪÙĨ": 1671,
      "ÙĪØ²ÛĮØ±": 1672,
      "ĠØ¹ÙĨ": 1673,
      "ĠØ±Ø§Øª": 1674,
      "ĠØ§Ø³Ú©": 1675,
      "ĠØ¨Ú¾Ø§Ø¦ÛĮ": 1676,
      "ĠØªØŃÙĤÛĮÙĤ": 1677,
      "ĠÙ¾Ø§ÙĨÚĨ": 1678,
      "Úĺ": 1679,
      "ĠØ¯ÛĮÚ©Ú¾Ø§": 1680,
      "ĠØ§ÛĮØ±Ø§ÙĨ": 1681,
      "Ù¹ÛĴ": 1682,
      "ĠØ±Ø§Ûģ": 1683,
      "ĠØ±Ú©Ú¾Ø§": 1684,
      "ĠO": 1685,
      "ĠØ¨ÙĦØ§": 1686,
      "ÙĤØ±": 1687,
      "Ø§Ø±ÚĪ": 1688,
      "ia": 1689,
      "ĠÙħØ³ÙĦÙħØ§ÙĨ": 1690,
      "ØªÚ¾": 1691,
      "ĠØ§ÙħÛĮØ¯": 1692,
      "ĠØ³Ø¹ÙĪØ¯ÛĮ": 1693,
      "ĠÛĮÙĤÛĮÙĨ": 1694,
      "ÙĨØ§Ûģ": 1695,
      "ĠØ§ÙĨØ¯Ø§Ø²": 1696,
      "ĠÙ¾ÛģÙĦÛĮ": 1697,
      "ĠÙħØº": 1698,
      "ĠØ§ÙħÙĨ": 1699,
      "Ú¯Ø§": 1700,
      "ÙħØ±": 1701,
      "ĠØªÛĴ": 1702,
      "19": 1703,
      "ĠØ²Ø®": 1704,
      "Ø®ÙĪØ§Ø³Øª": 1705,
      "ve": 1706,
      "ĠØ±ÙĨÚ¯": 1707,
      "//": 1708,
      "Ø²Ø§Ø¯ÛĮ": 1709,
      "Ø¬Ø¨": 1710,
      "Ø°Ø§": 1711,
      "ĠØªØ§Ú©Ûģ": 1712,
      "Ð¸": 1713,
      "ĠØ¨ÚĨÛĴ": 1714,
      "ÙĪÙģ": 1715,
      "ĠØ®Ø¯": 1716,
      "ĠÚ©Ø±Ø±Ûģ": 1717,
      "ĠØ®Ø§Ø±": 1718,
      "ĠÙħØ·Ø§ÙĦ": 1719,
      "ĠÚ©ÙħÛĮÙ¹ÛĮ": 1720,
      "ÛĮØ³Ù¹": 1721,
      "ÙĪØ¨ÛĮ": 1722,
      "ĠØ§ÙĤØª": 1723,
      "Ú©Ø´": 1724,
      "ĠØ¹ÙĦØ§ÙĤÛĴ": 1725,
      "ĠÙĦÛģ": 1726,
      "ÙĪØ±Ù¹ÛĮ": 1727,
      "tp": 1728,
      "ĠÙĨÚ©ÙĦ": 1729,
      "ÛĮØ¯Ûģ": 1730,
      "ĠØªØ§ÛģÙħ": 1731,
      "Ø§Ø¦ÙĨÙ¹": 1732,
      "ÛĶÛĶÛĶÛĶ": 1733,
      "ĠÙĨØªÛĮ": 1734,
      "ĠØ³Ø·ØŃ": 1735,
      "ĠØ§Ø¨Ú¾ÛĮ": 1736,
      "Ġ18": 1737,
      "Ġg": 1738,
      "ĠØŁ": 1739,
      "ĠÙħÙĪÙĦØ§ÙĨØ§": 1740,
      "ĠÙĨÙħØ¨Ø±": 1741,
      "Ġ13": 1742,
      "ĠÙĤØ±ÛĮØ¨": 1743,
      "Ø§Ù¹": 1744,
      "ĠÚ©Ø§Ø±Ø±ÙĪ": 1745,
      "ĠÙħÛģÙħ": 1746,
      "Ú¯Ø§Ø±": 1747,
      "Ġ200": 1748,
      "ĠÙħÛĮÙĨ": 1749,
      "ÙĪØ´": 1750,
      "ĠØ¬Ø±Ùħ": 1751,
      "Ø³Ø§ÙĨ": 1752,
      "Ø§ÙĨÛĮÛģ": 1753,
      "ĠØ¯Ø¨": 1754,
      "://": 1755,
      "ĠÙĤØ±Ø¢ÙĨ": 1756,
      "ĠØ·ÙĦØ¨": 1757,
      "ĠØ²Ùħ": 1758,
      "ĠÙħØ§": 1759,
      "ĠÚ©ÛģÛĮÚº": 1760,
      "ĠØ±ÙĤ": 1761,
      "ÙĨØ²": 1762,
      "ĠØŃØ§ÙĦØ§Øª": 1763,
      "ĠE": 1764,
      "ĠØ¨ÙĨØ§ÛĮØ§": 1765,
      "ĠÙ¾Ø±ÛĮ": 1766,
      "ĠÙĤØ§Ø¨ÙĦ": 1767,
      "ĠØ§ÙĨØªØ®Ø§Ø¨Ø§Øª": 1768,
      "ĠÙ¾Ø§Ø¨": 1769,
      "ro": 1770,
      "Ġ.": 1771,
      "ĠØ¨Ø§Ø²": 1772,
      "ĠØ¯Ú¾Ùħ": 1773,
      "Ġ[": 1774,
      "Ø±ÛĮØ±": 1775,
      "ĠNews": 1776,
      "ĠØ³Ø±Ø¨Ø±": 1777,
      "ĠÙħØ§ÙĨ": 1778,
      "ĠÙħØ¨": 1779,
      "ĠÙħØŃØ¨Øª": 1780,
      "ĠØ±ÙĪÚ©": 1781,
      "ÙĪØµ": 1782,
      "Ø§Ø¶ÛĮ": 1783,
      "Ø±Ø§Ø¦ÛĮ": 1784,
      "ĠÛĮÙĪÙĨÛĮ": 1785,
      "ĠÙħØªØ§Ø«": 1786,
      "ĠØ³Ú©ØªÛĮ": 1787,
      "ĠÚ©ÙħÙ¾ÙĨÛĮ": 1788,
      "ĠÚ©ÙĪÙĨ": 1789,
      "ØŃØ§ÙĦ": 1790,
      "ï»": 1791,
      "ĠØ§ÙĪÙĦ": 1792,
      "ĠÙĤÛĮØ§Ùħ": 1793,
      "12": 1794,
      "Ġ'": 1795,
      "Ø±ÛĮÛģ": 1796,
      "ĠØ¯Ø±Ø®ÙĪØ§Ø³Øª": 1797,
      "ĠØ§Ø®Øª": 1798,
      "ÙħØ³": 1799,
      "Û±Û": 1800,
      "ĠØ¨Ø§ÙĪØ¬ÙĪØ¯": 1801,
      "ĠâĢľ": 1802,
      "ĠØ¨Ø¹Ø¶": 1803,
      "Ġ...": 1804,
      "ĠÙģÛĮØµØ¯": 1805,
      "Ø±ÙħÛĮÙĨ": 1806,
      "th": 1807,
      "Ø¯Ú¾": 1808,
      "Ø¨ÛĴ": 1809,
      "rdu": 1810,
      "ĠØ®ÙĪØ§Ûģ": 1811,
      "ÙĪØ±Ø³Ù¹ÛĮ": 1812,
      "ÙĦÙĪÚº": 1813,
      "ØºØ§Ø²": 1814,
      "ÛĮØ³ÛĴ": 1815,
      "ÛĮØ³Ø±": 1816,
      "Ġ2016": 1817,
      "ce": 1818,
      "ĠÛģØ¯Ø§": 1819,
      "ØµØ±": 1820,
      "ÙģØ±ÙĨØ³": 1821,
      "ĠØ¡": 1822,
      "ĠÚĨØ§ÛģØªÛĴ": 1823,
      "Ù¹ÙĨ": 1824,
      "ĠØ§ÛĮÙĦ": 1825,
      "ÛĮÚ©ÛĮ": 1826,
      "ĠØ¨ÙĪÙĦ": 1827,
      "ĠÙĪØ§Ø¶ØŃ": 1828,
      "ØµØ§ÙĨ": 1829,
      "ĠØ®ÙĪØ¨": 1830,
      "ÙĪÛģØ¯Ø±ÛĮ": 1831,
      "Ú¯Ø²": 1832,
      "ĠØ¦": 1833,
      "ĠØ¬ÙħÛģ": 1834,
      "Ġ16": 1835,
      "ĠÚ¯Ø±Ø¯ÛĮ": 1836,
      "ĠØªÛĮØ²": 1837,
      "ĠØªØ¹ÙħÛĮØ±": 1838,
      "ĠØ¬ÛĴ": 1839,
      "ĠÙĪØ§Ø¦Ø±": 1840,
      "ĠÙĨÛĮÙĪØ²": 1841,
      "ĠÙĨØ¹": 1842,
      "Ø±ÛĮØ¯": 1843,
      "ĠØ§Ø±Ø¨": 1844,
      "ĠØ´Ø§Ø¯ÛĮ": 1845,
      "ĠØ¯Ø§Ø±ÛĮ": 1846,
      "ĠÙħØŃÙģ": 1847,
      "ĠÙĪØ§Ø±": 1848,
      "ĠØ§Ø¯Ø§Ø±ÙĪÚº": 1849,
      "Ø¨ØŃ": 1850,
      "ÛĮÙĨÚĪ": 1851,
      "11": 1852,
      "ÙĦØ§Ø¹": 1853,
      "ra": 1854,
      "ĠÂ": 1855,
      "Ú©ÛĮÙĦ": 1856,
      "ĠØ´Ø¯ÛĮØ¯": 1857,
      "ĠØ³Ø§Øª": 1858,
      "ost": 1859,
      "ÙħØ§": 1860,
      "ĠØ§ÙĦÛĮÚ©Ø´ÙĨ": 1861,
      "ÚĨØ±": 1862,
      "ĠØŃØ¯ÛĮØ«": 1863,
      "ÙĪÙĦØª": 1864,
      "ĠØ¹ÙĦØ§ÙĤÙĪÚº": 1865,
      "ĠØŃÙĤÙĪÙĤ": 1866,
      "ĠÚ¯Ø²Ø´ØªÛģ": 1867,
      "Ø£": 1868,
      "ĠÙħÙĦÚ©ÛĮ": 1869,
      "ĠØ¨Ø§Ø¨": 1870,
      "ĠÚ©ÛĮØ³ÛĴ": 1871,
      "ÙĦØ§Øª": 1872,
      "ÙħÛĮØ´Ûģ": 1873,
      "ÛĮØŃ": 1874,
      "ÚĨÛĴ": 1875,
      "ĠÚ©Ø§Ø±Ø±ÙĪØ§Ø¦ÛĮ": 1876,
      "ĠØµØ¯": 1877,
      "ĠØ¬Ø§Ø¦Ø²": 1878,
      "Ø§Ø¬Ûģ": 1879,
      "ĠØ´Ú©Ø§Ø±": 1880,
      "Ø±ÛĮØ²": 1881,
      "ĠÙ¾ÛĮØº": 1882,
      "ĠØ²Ø®ÙħÛĮ": 1883,
      "ation": 1884,
      "Ù¾ÙĦØ²": 1885,
      "ĠÙĨÙĤØµØ§ÙĨ": 1886,
      "ĠÙĨÚ©Ø§ÙĦ": 1887,
      "ĠØ³Ø§": 1888,
      "ĠØ§Ø¯Ø§Ø±ÛĴ": 1889,
      "ĠÙ¾Ø±ÙĪÚ¯Ø±Ø§Ùħ": 1890,
      "ÙģÛģ": 1891,
      "ĠÛĮÙĪÙĨÛĮÙĪØ±Ø³Ù¹ÛĮ": 1892,
      "ÛģÛĮ": 1893,
      "ĠÚĪÚ¾": 1894,
      "Ø²ÛĮØ´ÙĨ": 1895,
      "ĠØ±Ø§Ø³Øª": 1896,
      "ĠÚ©Ø§ÙħÛĮØ§Ø¨": 1897,
      "ĠÙħØ®Ø§ÙĦ": 1898,
      "ĠØ¬Ø³Ù¹Ø³": 1899,
      "ĠÙĪÚĨ": 1900,
      "ĠØ®Ø·Ø§Ø¨": 1901,
      "Ø´Ø§Ûģ": 1902,
      "ik": 1903,
      "ĠØ®ØµÙĪØµÛĮ": 1904,
      "Ø§Ø¯Ø±": 1905,
      "ĠÙħØ³Ø¦ÙĦÛģ": 1906,
      "ĠUrdu": 1907,
      "ĠÛģÙĨØ¯ÙĪØ³ØªØ§ÙĨ": 1908,
      "ĠØ´ÛĮØ®": 1909,
      "ĠÙģÙĪØ¬ÛĮ": 1910,
      "ĠÛģÙħÛĮØ´Ûģ": 1911,
      "ĠØ³Ú©ÛĴ": 1912,
      "ĠØ³Ø±Ú©Ø§Ø±ÛĮ": 1913,
      "ØĽ": 1914,
      "ĠØªÙĨØ¸ÛĮÙħ": 1915,
      "ÙģØªÛģ": 1916,
      "ÙĪØ±ÙĨ": 1917,
      "Ġ17": 1918,
      "ÙħÛĮØ±ÛĮ": 1919,
      "Ø³ØªÛĮ": 1920,
      "ĠØ¯ÛĮØªØ§": 1921,
      "ĠÙħÛĮØ±Ø§": 1922,
      "ĠÙģÙĪÙĨ": 1923,
      "ĠÙ¾ÙĪØ§Ø¦ÙĨÙ¹": 1924,
      "ĠÙħØ§Ø±ÚĨ": 1925,
      "ĠØ¨Ø±Ø·": 1926,
      "ex": 1927,
      "um": 1928,
      "ÙĪØ¸": 1929,
      "ĠÚĨØ§ÛģØ¦ÛĴ": 1930,
      "ÚĳÚ©": 1931,
      "ĠÚ©Ø§ÙģÛĮ": 1932,
      "ĠÙĩ": 1933,
      "ĠÐ": 1934,
      "ĠØ°Ú©Ø±": 1935,
      "Ġha": 1936,
      "Ġ25": 1937,
      "ĠØ³Ø²": 1938,
      "Ú©ÛĮÙ¹": 1939,
      "ĠØ±Ú©Ú¾ØªÛĴ": 1940,
      "ĠØ§ÙĨØªØ¸Ø§Ùħ": 1941,
      "ĠØ¯Ø´Ùħ": 1942,
      "ĠÛĮÙĪ": 1943,
      "ĠØ¨Ø¬Ø§Ø¦ÛĴ": 1944,
      "ĠØ§ÙĨØªÛģØ§Ø¦ÛĮ": 1945,
      "ĠÙħØ³Ø¬Ø¯": 1946,
      "ĠÙĦÛĮÚº": 1947,
      "ĠØŃØ³ÙĨ": 1948,
      "ĠÙħØªØŃØ¯Ûģ": 1949,
      "ĠÙĦÛĮÙĨÛĴ": 1950,
      "ĠØ°Ûģ": 1951,
      "ĠØµØ¯ÛĮ": 1952,
      "ĠØ¹Ø§ÙĦÙħ": 1953,
      "ĠØ§ÙĨÙ¹Ø±": 1954,
      "ÙĤÛĮØ¯": 1955,
      "ĠØŃÙħÙĦÛģ": 1956,
      "ĠØªØ³": 1957,
      "ĠØ´ÙĪ": 1958,
      "Ø¨Ø§Ø²": 1959,
      "ÙĦØ¹": 1960,
      "Ø¯ÙĪ": 1961,
      "ÛĮØ§Ø¯Øª": 1962,
      "ĠÛ±Û": 1963,
      "ÙĪÛĮÚº": 1964,
      "Ø±Ø¨ÛĮ": 1965,
      "ĠØ³Ø®Øª": 1966,
      "ĠÛĮÙĪØ±": 1967,
      "ÙĪØ±ÚĪ": 1968,
      "vi": 1969,
      "ĠØ·Ø§ÙĤØª": 1970,
      "ĠØ§ÙĦØ¹": 1971,
      "Ø§Ø¯Ûģ": 1972,
      "Ø§Ø²Øª": 1973,
      "ĠÙħÙĤØµØ¯": 1974,
      "ÛĮÚ©Ø±": 1975,
      "ĠØ¸Ø§ÛģØ±": 1976,
      "ĠØ³ÙģØ±": 1977,
      "ber": 1978,
      "Ø§ÙĨØ³": 1979,
      "ĠÚ©Ø±Ø³Ú©": 1980,
      "ĠÙĦØ§": 1981,
      "ĠÚ©Ø±Ú©Ù¹": 1982,
      "ÙĤÛĴ": 1983,
      "ĠØ§ÙĨÚĪ": 1984,
      "Ø§Ø¹ÙĦÛĮ": 1985,
      "Ø®Ø±": 1986,
      "Ġis": 1987,
      "Ø§Ø¯Ø±ÛĮ": 1988,
      "Ú©Øª": 1989,
      "ÛĶâĢĺâĢĺ": 1990,
      "ĠÙħÛĮÚĨ": 1991,
      "Ġï¿½ï¿½ï¿½ï¿½": 1992,
      "ĠÚĨÚ©ÛĴ": 1993,
      "ĠÚĪØ§ÙĦØ±": 1994,
      "Ø±ÛĮØª": 1995,
      "ØºÛĮØ±Ûģ": 1996,
      "ĠÙĪÙĤ": 1997,
      "ĠÙĨØ¨ÛĮ": 1998,
      "Ø¢Ù¾": 1999,
      "ĠØ§ÙģØºØ§ÙĨØ³ØªØ§ÙĨ": 2000,
      "Ù¹Ú©": 2001,
      "ĠØŃØ±": 2002,
      "Ø§Ú©Ø±": 2003,
      "ĠØªÛģ": 2004,
      "ĠÙĤÛĮÙħØª": 2005,
      "istan": 2006,
      "ĠØ§Ø¬Ø§Ø²Øª": 2007,
      "ĠÚ©ÛģÛģ": 2008,
      "Ø§Ø±Ú©": 2009,
      "ĠØŃÛĮ": 2010,
      "ĠÙħÙĬÚº": 2011,
      "ĠÚ©Ø±ÙĪÚĳ": 2012,
      "Ø¦Ø±ÙħÛĮÙĨ": 2013,
      "ĠØ·Ø¨": 2014,
      "Ġ=": 2015,
      "ÙħØ¹": 2016,
      "ĠØŃÙĤÛĮÙĤØª": 2017,
      "ĠØ²Ø§Ø¦Ø¯": 2018,
      "ĠØ§ÙĦØ³ÙĦØ§Ùħ": 2019,
      "ĠØ¬Ø³Ùħ": 2020,
      "ut": 2021,
      "ĠÙħÙħÚ©ÙĨ": 2022,
      "ĠÚ¯ÙģØª": 2023,
      "ĠÙħÙĪØª": 2024,
      "ĠØ±Ø§Ø¨Ø·": 2025,
      "ĠÚ©ÙĪÙĨØ³": 2026,
      "ĠØ¯Ø§": 2027,
      "ĠØ§ØŃØªØ¬": 2028,
      "ĠÙħÙĦØ§Ø²": 2029,
      "Ú¯ÛĴ": 2030,
      "ĠÙ¾Ø§Ø±ÙĦÛĮÙħ": 2031,
      "Ú¾Ø§": 2032,
      "ĠØ¯Ø±Ø¬": 2033,
      "ers": 2034,
      "Ø§ÙģØª": 2035,
      "ĠØ§ØµÙĦ": 2036,
      "ĠÙĤÛĮØ§Ø¯Øª": 2037,
      "ĠÙħÙĤØ§Ùħ": 2038,
      "ĠÙħØµÙĨ": 2039,
      "ĠØ±Ø¶ÛĮ": 2040,
      "ÙĨÙĪÚº": 2041,
      "ĠØ§ÙĤØ¯Ø§ÙħØ§Øª": 2042,
      "ĠØ¹ÛĮØ¯": 2043,
      "ÙĦØª": 2044,
      "ĠØ¨ÛģØªØ±ÛĮÙĨ": 2045,
      "ÛĮÙĨÛĴ": 2046,
      "ĠØªØ±Ø¬": 2047,
      "ĠØ³Ø±Ùħ": 2048,
      "ĠØ§Ø¨ÙĨ": 2049,
      "ØŃØ¶": 2050,
      "Ø§ÙĦÛģ": 2051,
      "ĠÙħØ±ÛĮ": 2052,
      "ĠÙĦÚ¯ÛĴ": 2053,
      "ĠÙĪØºÛĮØ±Ûģ": 2054,
      "Ø¯ÙħÛĮ": 2055,
      "ĠØŃØ¬": 2056,
      "ÙĪÛĴ": 2057,
      "ĠØ¯ÛĮÙĨØ§": 2058,
      "Ø±ÙĪØ³": 2059,
      "Ø¯ÛĮÙĦ": 2060,
      "ÙĨÚĪÛĮ": 2061,
      "ĠØ¹ÙĦØ§Ùħ": 2062,
      "Ø²Ø¯": 2063,
      "ĠÛģÙĪÚ¯ÛĮØ§": 2064,
      "ĠÚ©Ú¾ÙĦØ§": 2065,
      "ĠØŃÙħÙĦÛĴ": 2066,
      "ĠØ¨Ø§Ø¯": 2067,
      "ĠØ¬Ø³ÛĴ": 2068,
      "ĠØ¨ÙĦÙĪÚĨØ³ØªØ§ÙĨ": 2069,
      "Ø§ÛĮØ¯": 2070,
      "ĠØ³Ø±Ø¨Ø±Ø§Ûģ": 2071,
      "ĠØ§Ø³Ù¹ÛĮ": 2072,
      "Ø§ÙħØ±ÛĮ": 2073,
      "ĠØ´Ø±Ú©Øª": 2074,
      "ww": 2075,
      "Ø§ÙĤÙĪØ§Ùħ": 2076,
      "Ø±Ø³": 2077,
      "Ø¬Ø³": 2078,
      "ĠØ¯Ùħ": 2079,
      "ÚĨÛģ": 2080,
      "ĠÙĪØ§Ø¦Ø±Ø³": 2081,
      "Ø³ÙĪØ³": 2082,
      "Ø¶ÛĮ": 2083,
      "ĠØ¬ÙĪÙĨ": 2084,
      "ĠÙĤØ¨ÙĪÙĦ": 2085,
      "ĠØ³ÙĦØ§Ùħ": 2086,
      "ĠØ¨ÛĮØ±": 2087,
      "ate": 2088,
      "ĠØ¯ÙĪØ¨": 2089,
      "Ø§ÙĦÙĦÛģ": 2090,
      "ØµÙĪÛĮØ±": 2091,
      "Ú©ÛĮØ§": 2092,
      "ĠØ®Ø§Ø±Ø¬Ûģ": 2093,
      "Ù¹ÙĦ": 2094,
      "ĠÚ¯ÙģØªÚ¯ÙĪ": 2095,
      "Ø«ÛĮØª": 2096,
      "ĠÙħÙĨÛģ": 2097,
      "ĠØªÙĦØ§Ø´": 2098,
      "ĠØ§Ø³Ø±Ø§Ø¦ÛĮ": 2099,
      "ĠÙģØ§Ø¦": 2100,
      "ĠØ±Ø¨": 2101,
      "ĠØ³Ø§Ø²": 2102,
      "ĠØ§ÙĤØ¨Ø§ÙĦ": 2103,
      "ÙĪÛĮÙĦ": 2104,
      "Ġ2020": 2105,
      "ĠÛģÙĪØ³Ú©": 2106,
      "ĠÚĨÚ¾ÙĪÙ¹": 2107,
      "ĠÚĨÙĪÛģØ¯Ø±ÛĮ": 2108,
      "ĠØ´Ø¯Ûģ": 2109,
      "Ø§Ø¯Øª": 2110,
      "ap": 2111,
      "ĠØ¨ÛĮÙħ": 2112,
      "ĠØ¨Ú¾ÛĮØ¬": 2113,
      "Ø¯ÙħØ§Øª": 2114,
      "ĠØ¬Ø§Ø³Ú©": 2115,
      "ĠÙ¾ÛĮÙ¾ÙĦØ²": 2116,
      "ÙĦÚ©": 2117,
      "ÙħÙ¾": 2118,
      "Ø¹ÙĦÛĮ": 2119,
      "Ù¹Ø±ÙĪ": 2120,
      "Ġat": 2121,
      "ĠØ¢Ú¯ÛĴ": 2122,
      "ĠØ¯Ø§ÙĨ": 2123,
      "Ø³ÛĮÙħ": 2124,
      "eb": 2125,
      "ĠÚ©Ø±ÙĦ": 2126,
      "ĠØ³Ù¾Ø±ÛĮÙħ": 2127,
      "Ù¹Ø±ÙĪÙĦ": 2128,
      "Ġfor": 2129,
      "if": 2130,
      "ĠÚĨÚ©Ø§": 2131,
      "ĠØ¢Ø²Ø§Ø¯": 2132,
      "ĠÙĨØµ": 2133,
      "ĠØªØ¨Ø¯ÛĮÙĦ": 2134,
      "Ú¯Ø§Ûģ": 2135,
      "ĠØ¨Ø¯ÙĦ": 2136,
      "ĠÙħÙĦØ§": 2137,
      "Ø§Ø¦Ø¨": 2138,
      "ĠÛģÙĪÚ¯Ø¦ÛĴ": 2139,
      "ÙĨØ§Ú©": 2140,
      "ĠÙĪØ·": 2141,
      "ĠÙħÙĦÛĮ": 2142,
      "ĠÛģØ¯Ø§ÛĮØª": 2143,
      "ĠÙħØ¹Ø§Ûģ": 2144,
      "Ø¯Ø¯": 2145,
      "18": 2146,
      "ĠÙ¾ÙĪØ±ÛĴ": 2147,
      "Ø¯ÛĮÙĦÛĮ": 2148,
      "ĠØ¨ÙĨÛĮØ§Ø¯ÛĮ": 2149,
      "Ø´Ø±": 2150,
      "ĠÚ©ÙħÛĮØ´ÙĨ": 2151,
      "Ġyou": 2152,
      "ĠØ¬ÙĨÛģ": 2153,
      "ĠØ§ØªØŃ": 2154,
      "all": 2155,
      "Ġ,": 2156,
      "ĠÙĦÚ©Ú¾Ø§": 2157,
      "ĠØ§ÙĦÙģØ§Ø¸": 2158,
      "ÙĨÚ©": 2159,
      "ĠÚ©Ø±Ù¾": 2160,
      "ÙħÙĪØ¯": 2161,
      "Ø¯Øª": 2162,
      "ĠØ®Ø§ÙĨØ¯Ø§ÙĨ": 2163,
      "ĠØ¬Ø°": 2164,
      "âĢĮ": 2165,
      "ĠØ¢Ø¨": 2166,
      "ĠØ±ÛģÛĮÚº": 2167,
      "ĠÙħØŃÚ©": 2168,
      "ĠÚ©Ø§ÙĨÙģØ±ÙĨØ³": 2169,
      "akistan": 2170,
      "ĠØ¯ÙĪØ¨Ø§Ø±Ûģ": 2171,
      "ĠØ¯Ø³": 2172,
      "Ġ30": 2173,
      "Ø§ØŃØª": 2174,
      "ĠØªÙĪØ¬Ûģ": 2175,
      "ĠÙĪÛģÛĮ": 2176,
      "\\\"": 2177,
      "15": 2178,
      "Ø§ÙĪÙĦ": 2179,
      "ĠÙĨÙĪØ¬ÙĪØ§ÙĨ": 2180,
      "ĠÙĤØ±Ø¨": 2181,
      "ĠÙĤØ·": 2182,
      "ĠØ±ÙĤÙħ": 2183,
      "000": 2184,
      "Ø³ØªÛģ": 2185,
      "Ø´ÛĮØ¯": 2186,
      "Ø±Ø¯Ø§Ø±ÛĮ": 2187,
      "--": 2188,
      "ĠÛĮÚ©": 2189,
      "ĠØ±ÛģÙĨÛĴ": 2190,
      "ĠØ±Ø§Ø¦ÛĴ": 2191,
      "ĠØ³ÙĦØ³ÙĦÛģ": 2192,
      "ĠÙģÛĮØµÙĦÛĴ": 2193,
      "ĠÙĥÛĴ": 2194,
      "ĠØ¬Ø§ÙĨØ§": 2195,
      "ĠØ¯Ø±ÛĮ": 2196,
      "ĠØ§ÙĦØ²Ø§Ùħ": 2197,
      "Ġ2015": 2198,
      "ĠØ¨ÙĪ": 2199,
      "ĠØ¨Ø¬ÙĦÛĮ": 2200,
      "ĠÙħØŃÙģÙĪØ¸": 2201,
      "Ø®Ø¨": 2202,
      "Ø³ÙħØ¨Ø±": 2203,
      "ĠØ¶Ø±ÙĪØ±": 2204,
      "ĠØ¯ÙĪØ±Ûģ": 2205,
      "13": 2206,
      "op": 2207,
      "Ø³Ø±": 2208,
      "ĠÙģÙĦØ³": 2209,
      "Ú¯ÙĦ": 2210,
      "ĠØ¹ÙĨÛģ": 2211,
      "ĠØ¨Ú©": 2212,
      "ĠØŃØ§ÙĦØª": 2213,
      "ĠÚ©ÙĪÙĨØ³ÙĦ": 2214,
      "ĠØªÙģØµÛĮÙĦ": 2215,
      "Ø¢ÙħØ¯": 2216,
      "ĠØ¹ÙĪØ§ÙħÛĮ": 2217,
      "Ġre": 2218,
      "Ú©Úĳ": 2219,
      "ĠØªØ¨Ø¯ÛĮÙĦÛĮ": 2220,
      "ĠÛģØ³Ù¾": 2221,
      "ĠØ¬Ø§Ùħ": 2222,
      "ĠÙħÛĮÙĦ": 2223,
      "ĠÙģÙĪØ±": 2224,
      "ĠÚ©Ø±Ø¯Ûģ": 2225,
      "ĠØ®Ø§ØªÙĪÙĨ": 2226,
      "ĠÚ©Ø§ÙħÛĮØ§Ø¨ÛĮ": 2227,
      "ĠV": 2228,
      "Ø¨ÙĪØª": 2229,
      "Ø±Ø§ÙĨØ³": 2230,
      "ĠØ¹ÙĦØ§Ø¬": 2231,
      "ØŃÚ©ÙĪÙħØª": 2232,
      "ĠÙ¹ÙĪ": 2233,
      "ĠØ´Ø§Ø¹": 2234,
      "ĠØ¯Ø§Ø®ÙĦ": 2235,
      "Ø§ÛģÙħÛĮ": 2236,
      "ĠØ¨Ø±Ø§Ø¦ÛĴ": 2237,
      "ĠÙĪÙģØ§ÙĤÛĮ": 2238,
      "ÙĨÙĪ": 2239,
      "ĠØ³Øª": 2240,
      "ĠÙħØ§Úº": 2241,
      "ÙĦÛĮÙĦ": 2242,
      "ÙĦØ³ÙĦ": 2243,
      "ĠØªØ¹ÙĦÙĤØ§Øª": 2244,
      "ĠÛģØ§Ø¦ÛĮ": 2245,
      "ĠÙģØ±ÙĪØ®Øª": 2246,
      "Ø§Ø¤ÙĨ": 2247,
      "ĠØµØŃÛĮØŃ": 2248,
      "ĠØ®Ø±ÛĮØ¯": 2249,
      "14": 2250,
      "ĠÙħØ±ØªØ¨Ûģ": 2251,
      "ĠØ±ÙĪØ´": 2252,
      "ĠØ¹Ø·": 2253,
      "ĠØ¢ÙĪØ§Ø²": 2254,
      "ĠÙ¾ÙĪØ±Ø§": 2255,
      "ĠÙħÙĪØ¬ÙĪØ¯Ûģ": 2256,
      "ÙĬÙĨ": 2257,
      "ec": 2258,
      "ep": 2259,
      "ĠÙĨÙĪÙ¹": 2260,
      "ĠØ§Ø³Ù¹": 2261,
      "ĠØ¢Ø®Ø±ÛĮ": 2262,
      "Ġ24": 2263,
      "ĠÙħØŃØ³ÙĪØ³": 2264,
      "ĠÚĨÛĮØ¦Ø±ÙħÛĮÙĨ": 2265,
      "ĠØ´ÛģÛĮØ¯": 2266,
      "ĠÙħÙĤØ¯": 2267,
      "ĠÚĨÚ©ÛĮ": 2268,
      "ĠÙħØ¸Ø§Ûģ": 2269,
      "ĠØ¢ØºØ§Ø²": 2270,
      "Ø®ÙĦØ§Ùģ": 2271,
      "ment": 2272,
      "ĠØ¢ÙĨÚ©Ú¾": 2273,
      "ØµÛģ": 2274,
      "ĠØ¨Ø§ÙĤÛĮ": 2275,
      "ĠØµÙĪØ¨Ø§Ø¦ÛĮ": 2276,
      "ĠØªÙĤØ³ÛĮÙħ": 2277,
      "ĠØ§ÛĮÙħØ§ÙĨ": 2278,
      "Ø§Ø´Øª": 2279,
      "ĠØ¨Ø²": 2280,
      "ĠØ±ÛĮÚ©": 2281,
      "ĠØµÙĪØ±ØªØŃØ§ÙĦ": 2282,
      "Ġ22": 2283,
      "ĠØ³Ù¹ÛĮ": 2284,
      "ĠØ¹Ø¸ÛĮÙħ": 2285,
      "ĠØªØŃÙģØ¸": 2286,
      "ĠÙħØ°ÛģØ¨ÛĮ": 2287,
      "ĠØ±ÛģÙĨÙħØ§": 2288,
      "ĠÙ¹Ø±Ùħ": 2289,
      "Ø§Ø¨Ø±": 2290,
      "Ø³ÙĪ": 2291,
      "ĠØ§ÙĦØ±ØŃ": 2292,
      "ĠØ§Ø³Ù¾": 2293,
      "os": 2294,
      "ÙĦØ§ÛģÙĪØ±": 2295,
      "Ø¶ÙĪØ¹": 2296,
      "ĠØªØµÙĪÛĮØ±": 2297,
      "ĠØ±ÙĪØŃ": 2298,
      "ĠØ±ÙĪØ§ÛĮØª": 2299,
      "Ġï·º": 2300,
      "ĠÚĨÙĨ": 2301,
      "ĠÙ¾ÛĮÚĨÚ¾ÛĴ": 2302,
      "ĠÙħØ¨Ø§Ø±": 2303,
      "Ø±Ø§Ø¦Ø¹": 2304,
      "ĠÙħÛĮØ§Úº": 2305,
      "ĠØªÛĮØ³": 2306,
      "ØŃØ¶Ø±Øª": 2307,
      "ØªØ§ÙĨ": 2308,
      "ĠÙĦÚĳÚ©ÛĮ": 2309,
      "ï¿½ï¿½ï¿½": 2310,
      "ĠÛģØ§Úº": 2311,
      "ÛģÙĪØ±": 2312,
      "ĠØ®ÙĪÙģ": 2313,
      "ĠÙħØ«Ø§ÙĦ": 2314,
      "ÚĳÛĮÙĪÚº": 2315,
      "ÙĪÙĦØ§Ø¦ÛĮ": 2316,
      "ĠÙħØ¹Ø§ÙħÙĦÛĴ": 2317,
      "ĠØ´Ø§ÛĮØ¯": 2318,
      "ĠØ§ÚĨÚ¾ÛĮ": 2319,
      "ĠÙĦØ¨": 2320,
      "ĠÚ¯Ø¦ÛĮÚº": 2321,
      "ĠÙħÙĨØµÙĪØ¨Ûģ": 2322,
      "ĠÙħØ·Ø§ÙĦØ¨Ûģ": 2323,
      "ÙħØ§Ø±": 2324,
      "ĠÚ©Ø±ÛĮÙħ": 2325,
      "ÙĪØ¯Ú¾": 2326,
      "ĠÚ¯Ú¾ÙĨÙ¹": 2327,
      "Ù¹Ø±Ø²": 2328,
      "ĠØ®Ø§Ùħ": 2329,
      "ĠØ¨ÛĮÙĨÚ©": 2330,
      "ĠØ¯ÙĨÙĪÚº": 2331,
      "Ø´Ø±ÛĮÙģ": 2332,
      "nd": 2333,
      "ess": 2334,
      "Ø¬Ø±": 2335,
      "ĠØ§Ø®Ø¨Ø§Ø±": 2336,
      "ĠÙħØ¹Ø§ÙħÙĦÛģ": 2337,
      "ĠÙħØŃÙħÙĪØ¯": 2338,
      "ĠØ³Ù¹": 2339,
      "ĠØ¢Ø²Ø§Ø¯ÛĮ": 2340,
      "Ø¨ÛĮØ±": 2341,
      "ĠØ®ÙĪÙĨ": 2342,
      "Ùį": 2343,
      "ÙĪÙħØ¨Ø±": 2344,
      "ang": 2345,
      "ĠØªÙĤØ±ÛĮØ¨Ø§": 2346,
      "ĠÙ¹Ø±ÙħÙ¾": 2347,
      "ĠAl": 2348,
      "Ø§Ø¦ÛĮÚ©": 2349,
      "ĠØ·Ø§ÙĦ": 2350,
      "ĠØŃÚ©ÙħØ±Ø§ÙĨ": 2351,
      "Ø§ØµØ±": 2352,
      "ĠÙĪØ§ÙĤØ¹Ûģ": 2353,
      "ĠØŃØ§Ùħ": 2354,
      "Û³": 2355,
      "ter": 2356,
      "Ø®ØªÙĪÙĨ": 2357,
      "Ø´Ø§ÙĪØ±": 2358,
      "ĠÛģØ³Ù¾ØªØ§ÙĦ": 2359,
      "ĠÚĨÙĦØ§": 2360,
      "ĠÚ¯Ø²Ø±": 2361,
      "ØªÙħØ§Ùħ": 2362,
      "ĠØ§Ø·ÙĦØ§Ø¹": 2363,
      "ĠÙĪÛĮÚĪÛĮÙĪ": 2364,
      "ĠÙģØ±ÛĮ": 2365,
      "Ø§ÙĤÙĪØ§ÙħÛĮ": 2366,
      "ĠØ®Ø¨Ø±ÛĮÚº": 2367,
      "ĠØ¨Ú¾Ù¹ÙĪ": 2368,
      "Ø§ÙĦØª": 2369,
      "ĠØ¬ÙħÛģÙĪØ±": 2370,
      "ĠØ³Ø±Ø¯": 2371,
      "ĠØ´ÛģØ¨Ø§Ø²": 2372,
      "ĠØ³Ø²Ø§": 2373,
      "Û°": 2374,
      "ĠØ¬ÛĮÙĦ": 2375,
      "ĠØŃÚ©Ø§Ùħ": 2376,
      "ÙĤØ§Øª": 2377,
      "ĠÚ©Ø§Ø±ÙĪØ¨": 2378,
      "ĠØ§ÙĦÚ¯": 2379,
      "ĠØŃÛĮØ«ÛĮØª": 2380,
      "Ø§Ø¯Ø«": 2381,
      "ĠÙħØ¦ÛĮ": 2382,
      "30": 2383,
      "Ø¨ÙĪØ·": 2384,
      "ĠØ¨ÙĪØ±ÚĪ": 2385,
      "ĠØ§ÙĦØ§ÙĤÙĪØ§ÙħÛĮ": 2386,
      "Ø¹Ùħ": 2387,
      "ĠØ¬Ø¯ÛĮØ¯": 2388,
      "ĠÙĪÛĮØ¨": 2389,
      "16": 2390,
      "Ú©Ø±Ø§ÚĨÛĮ": 2391,
      "ĠØµÙĦØ§ØŃ": 2392,
      "ĠâĢĺâĢĺ": 2393,
      "ĠÙħØ±ØŃ": 2394,
      "ĠÙ¾ÙĦ": 2395,
      "Ø§ÙĨÚ©": 2396,
      "ĠØªØ¹Ø§ÙĪÙĨ": 2397,
      "ĠØ§Ø¨ÙĪ": 2398,
      "Ġar": 2399,
      "ĠØ¹ÙħÙĦÛĮ": 2400,
      "ĠÙĨÙħØ§Ø¦": 2401,
      "ĠØ´ÙħØ§Ø±": 2402,
      "ri": 2403,
      "ĠØ¯ÙģØ§Ø¹": 2404,
      "ĠÙĪØ·ÙĨ": 2405,
      "ÙħÙĪÙĦ": 2406,
      "ĠÛĮÙĪÚº": 2407,
      "Ú©Ø±Ø¯": 2408,
      "ĠÙĪØ²Ø§Ø±Øª": 2409,
      "ĠÙ¹ÛĮÚ©Ø³": 2410,
      "ĠØ°Ø±ÛĮØ¹Ûģ": 2411,
      "ĠØ§Ø¯Ø§Ú©": 2412,
      "ĠÛ²Û": 2413,
      "ĠØ§ÛĮÚĪ": 2414,
      "17": 2415,
      "ØªÙĪØ¨Ø±": 2416,
      "ÙĪØ¬ÛĮ": 2417,
      "ĠÛģÙĪÚ¯Ø¦ÛĮ": 2418,
      "ĠØ³Ø±ÙħØ§ÛĮÛģ": 2419,
      "ĠØ¯ÛĮÚ©Ú¾ÙĨÛĴ": 2420,
      "Ù¹Ûģ": 2421,
      "Ð½": 2422,
      "ĠÛģÙħØ§Ø±Ø§": 2423,
      "ĠÚ¯Ø±ÙĪÙ¾": 2424,
      "ĠÙħØ§ÙĦÛĮ": 2425,
      "Ġ23": 2426,
      "ĠÙħÙĤØ§Ø¨ÙĦÛĴ": 2427,
      "ĠØ¬Ø±": 2428,
      "ĠØ³ÛĮÙĦ": 2429,
      "ore": 2430,
      "ĠÙĪØ§ÙĤØ¹Ø§Øª": 2431,
      "ĠÙĪÙĪÙ¹": 2432,
      "ĠØŃÙħØ§ÛĮØª": 2433,
      "Ø®ÛĮ": 2434,
      "ĠØ²ÙĪØ±": 2435,
      "Ø¬ÙĨØ³ÛĮ": 2436,
      "ĠÙħÙĦÛĴ": 2437,
      "ĠÙħØ±Ú©Ø²ÛĮ": 2438,
      "ĠØ±ÛģØªÛĴ": 2439,
      "ĠÙĤØ§ÙĨÙĪÙĨÛĮ": 2440,
      "ĠØ±ÙĪØ´ÙĨÛĮ": 2441,
      "Ø±Ø§Ûģ": 2442,
      "ĠÚ©Ø§Ø±ÛĮ": 2443,
      "ĠÙħØ§ØŃ": 2444,
      "Ø§ÙĨØª": 2445,
      "ĠÙħÛĮØ¯": 2446,
      "Ø§ÙĨÙĪÛĮ": 2447,
      "Ù¹ÙĨÚ¯": 2448,
      "ÙĪØ¬Ûģ": 2449,
      "ĠØ¥": 2450,
      "ĠØªØ§": 2451,
      "ĠÙĤØ§Ø¦Ø¯": 2452,
      "ĠØ·Ø±ÛĮÙĤÛģ": 2453,
      "ĠÚĨØ§ÛģØªØ§": 2454,
      "ĠØŃÙĦÙĤ": 2455,
      "ÑĢ": 2456,
      "ac": 2457,
      "ĠÙ¾ÛĮØºØ§Ùħ": 2458,
      "ĠÙ¾ÚĳÛĴ": 2459,
      "ĠÙģØ§Ø¦Ø¯Ûģ": 2460,
      "ÚĪÙĦ": 2461,
      "ĠÙħÙĪØ¯ÛĮ": 2462,
      "ÙĪÙ¹ÛĮ": 2463,
      "ĠÙ¹ÛĮØ³Ù¹": 2464,
      "ÙħØ²": 2465,
      "50": 2466,
      "ĠÙħØ¶Ø¨ÙĪØ·": 2467,
      "ĠØ¯Ø±Ø³Øª": 2468,
      "ĠÙ¾Ø§Ø¨ÙĨØ¯ÛĮ": 2469,
      "ÙĤØ¨ÙĦ": 2470,
      "ind": 2471,
      "ĠØ±Ø¬": 2472,
      "Ġ!": 2473,
      "ÙĬØ§": 2474,
      "ĠÙħÙĤØ§ÙħÛĮ": 2475,
      "ĠÙĪØ¶": 2476,
      "ĠÙĤÙĪØª": 2477,
      "ÛĮØ±Øª": 2478,
      "Ø«Ø§Ø±": 2479,
      "Ø§ÙĨÚĪ": 2480,
      "ĠØ³ÙĪØ´ÙĦ": 2481,
      "Ø³ÛĮØ¹": 2482,
      "Ø§Ø±Ù¹ÛĮ": 2483,
      "ĠÙħØ¹Ø§Ø´Ø±ÛĴ": 2484,
      "ĠÙģÙĪØ±Ø³": 2485,
      "ĠÙģØ§Ø¦Ø±": 2486,
      "ĠØ§ÛĮÚĨ": 2487,
      "ĠØ§ÙĦØ¯ÛĮÙĨ": 2488,
      "ÙĪØ«": 2489,
      "ĠÙħÙĨØ§": 2490,
      "ĠØºÙĦØ§Ùħ": 2491,
      "Ù¹ÙĨÛĴ": 2492,
      "ĠÙħÙĪØ¶ÙĪØ¹": 2493,
      "ĠØªØ§Ø²Ûģ": 2494,
      "ĠØ²Ø±Ø¯Ø§Ø±ÛĮ": 2495,
      "ĠØ§ØŃØªØ¬Ø§Ø¬": 2496,
      "ĠÙħØ¹ÙĦÙĪÙħØ§Øª": 2497,
      "ĠÙĪØ±Ú©": 2498,
      "ĠØ§ÙĦÙĨ": 2499,
      "ous": 2500,
      "ĠØ§ÙħÛĮØ±": 2501,
      "Ø³Ø§Ø³": 2502,
      "ĠÙĤØ¯": 2503,
      "ĠØ§ÙĨÚ¾ÙĪÚº": 2504,
      "Ø¨Ø§Øª": 2505,
      "ĠØ±ÙĪØ²Ûģ": 2506,
      "Ú¾ÛĴ": 2507,
      "ĠÙ¾ÛģÙĦØ§": 2508,
      "ĠPM": 2509,
      "ĠØ³Ø§ÙħÙĨØ§": 2510,
      "ĠØ®ÛĮØ±": 2511,
      "ĠØ¯Ø¹Ø§": 2512,
      "ĠØ§ØªÙĨØ§": 2513,
      "Ø§Ø°": 2514,
      "ĠØ§ÙħØ±ÛĮÚ©Ø§": 2515,
      "ain": 2516,
      "ĠÙ¾Ú¾ÛĮÙĦ": 2517,
      "ĠÙħØ±ÛĮØ¶": 2518,
      "ĠØ±ÛĮÚ©Ø§Ø±ÚĪ": 2519,
      "ĠÙĨÛĮØ§": 2520,
      "ĠØ®ÙĪØ§ÛģØ´": 2521,
      "ĠØ§ÚĨÚ¾Ø§": 2522,
      "ÙħÙĤ": 2523,
      "ĠØ¬Øª": 2524,
      "ĠÚ©Ø§Ø±Ú©ÙĨ": 2525,
      "ĠØ¶ÙĦØ¹": 2526,
      "ĠØ§ÙĪÙ¾Ø±": 2527,
      "ÙħÛĴ": 2528,
      "ÙĪØ±ÙĪÚº": 2529,
      "lo": 2530,
      "ĠÚĨÛĮÙĨÛĮ": 2531,
      "ĠØ§Ù¾Ø±ÛĮÙĦ": 2532,
      "Ú©Ø±ÛĮ": 2533,
      "ĠØ¬ÙĨÙĪØ±ÛĮ": 2534,
      "ÙĦÛĮÙģ": 2535,
      "ĠØŃØ§Ø¯Ø«": 2536,
      "ĠÙĤÛĮØ¯": 2537,
      "ĠâĢı": 2538,
      "ØµÙĦ": 2539,
      "ĠÚ©Ú¾Ø§ÙĨÛĴ": 2540,
      "ĠØ³ÙĦØ³ÙĦÛĴ": 2541,
      "Ú¯Øª": 2542,
      "ĠØ¢ÙħØ¯": 2543,
      "ĠØ§ÙħØ±": 2544,
      "ĠÙħØ®Ø§ÙĦÙģ": 2545,
      "ĠØ³ØªÙħ": 2546,
      "ĠØ³ÙħØ§Ø¹Øª": 2547,
      "ĠÙħØ¨Ø§Ø±Ú©": 2548,
      "ĠØ§Ø«Ø±": 2549,
      "ĠØ¯Ø´ÙħÙĨ": 2550,
      "ĠØªØ®": 2551,
      "ĠØ³Ø±Ú¯Ø±": 2552,
      "ĠÙ¾Ø±ÛĮØ´": 2553,
      "ĠâĢ¦": 2554,
      "ail": 2555,
      "Ø¶Ø§ÙĨ": 2556,
      "ĠØ¢ØªØ§": 2557,
      "Ø§Ø¦Ø¬": 2558,
      "ĠØ§ÛģÙħÛĮØª": 2559,
      "ÙĦÛĮÙ¹": 2560,
      "Ø§ÙĨÚĨÛģ": 2561,
      "ith": 2562,
      "ĠØµØ§Ùģ": 2563,
      "ĠØ®Ø¯ÙħØª": 2564,
      "ĠØ¨ÛĮÙĪÛĮ": 2565,
      "ĠÙħØªØ§Ø«Ø±": 2566,
      "ÛģØ±ÛĴ": 2567,
      "ĠØ¯Ø±ÙĪ": 2568,
      "Ø®ØµÙĪØµ": 2569,
      "ĠÙĦÙģØ¸": 2570,
      "Ø§Úĳ": 2571,
      "ĠØ¨Ø§ØªÛĮÚº": 2572,
      "ĠÙĨØ§Ú©Ø§Ùħ": 2573,
      "ĠØ§Ø®ØªÙĦØ§Ùģ": 2574,
      "Ø¦ÙĨ": 2575,
      "ĠØ¨Ø§ÙĦÚ©ÙĦ": 2576,
      "Ġ21": 2577,
      "ÛģØ±ÛĮ": 2578,
      "ĠØ·Ø§ÙĦØ¨": 2579,
      "ÙģØ§Ø±": 2580,
      "ĠØ§Ø¨Øª": 2581,
      "ĠØµØ¨ØŃ": 2582,
      "ĠÙĨÛĮØ¨": 2583,
      "ĠØªØ¬Ø±Ø¨": 2584,
      "2018": 2585,
      "ĠØµÙģØŃÛģ": 2586,
      "ÚĪÙĨÚ¯": 2587,
      "ĠÙħØ§ÙĨÚ¯": 2588,
      "ĠØ§ÙĨØ¬Ø§Ùħ": 2589,
      "ĠÙħØ³ÙĦØ³ÙĦ": 2590,
      "ĠÙģÙĪØ±ÛĮ": 2591,
      "ĠØ¬ÛĮØª": 2592,
      "Ø¯ÙĪÚº": 2593,
      "ĠØ¬Ø§Úº": 2594,
      "ĠÙħØ¹Ø§Ø´ÛĮ": 2595,
      "ĠØ·Ø§ÙĦØ¨Ø§ÙĨ": 2596,
      "ĠØ³ÚĨ": 2597,
      "ÙĪÙĦÙĪÚº": 2598,
      "ĠÙģÛĮØ³": 2599,
      "ĠÙħÙĤØ±": 2600,
      "ĠÙ¾ÚĳÚ¾ÛĮÚº": 2601,
      "ĠØ¨ØŃÙĤ": 2602,
      "ĠØ¨ÙĦÙĨØ¯": 2603,
      "Ð¾": 2604,
      "ĠÙĤØ¯Ùħ": 2605,
      "22": 2606,
      "ĠØ³ÛĮÙĨÛĮ": 2607,
      "ĠØ¯Ø³ÙħØ¨Ø±": 2608,
      "ĠØ§ÙĨØªØ¸Ø§ÙħÛĮÛģ": 2609,
      "ĠÙħÙĨØ¯": 2610,
      "0000": 2611,
      "ĠÚ©Ø´ÙħÛĮØ±ÛĮ": 2612,
      "âĢ¬": 2613,
      "ĠØ¬ÙĨÙĪØ¨ÛĮ": 2614,
      "ĠØ´Ø§ÙĨ": 2615,
      "ĠÚ©Ø±ÙĦÛĮØ§": 2616,
      "ĠÙħØ·ÙĦØ¨": 2617,
      "har": 2618,
      "Ġbe": 2619,
      "ĠÙ¾Ø§ÙĦÛĮØ³ÛĮ": 2620,
      "ĠØ´Ú©ÙĦ": 2621,
      "ver": 2622,
      "ĠØ±Ø§Ø¬": 2623,
      "ĠØ®Ø§ÙĦ": 2624,
      "ĠØ§ØªÙĨÛĮ": 2625,
      "ĠÙģÙĦ": 2626,
      "ĠÚ©ÛģØ§Úº": 2627,
      "ĠØ®ÛĮØ¨Ø±": 2628,
      "ĠÙħØ°ÛģØ¨": 2629,
      "ÙģØ§ÙĤ": 2630,
      "ĠÙħÙĨØ¹ÙĤ": 2631,
      "ĠÚ©ÙĪØ±ÙĪÙĨØ§": 2632,
      "ĠØ³Ø§ÙĦÛģ": 2633,
      "ÙĦÛĮÚ©ÙĨ": 2634,
      "Ø¹Ø§Ùħ": 2635,
      "ĠØ§ÙĦÙĤ": 2636,
      "Û´": 2637,
      "ĠØ³Ø§Ø±ÛĴ": 2638,
      "ÙħÙĨÙ¹": 2639,
      "ĠØ³ÚĳÚ©": 2640,
      "ĠØºØ±ÛĮØ¨": 2641,
      "Ø§Ø³Ø¨": 2642,
      "ĠØ³Ú©ÛĮ": 2643,
      "ĠÙħÙĨØªØ®Ø¨": 2644,
      "ĠÚ¯ÙĨØ§Ûģ": 2645,
      "ĠØ´Ú©Ø³Øª": 2646,
      "ØªÛĮÚº": 2647,
      "ĠÛģØ§ØªÚ¾ÙĪÚº": 2648,
      "ome": 2649,
      "ĠØ³ÙĪØ±": 2650,
      "ĠÙħÙĨØµÙĪØ¨ÛĴ": 2651,
      "ÛģÛĴ": 2652,
      "ĠØ§ÙĨÙ¹Ø±ÙĨÛĮ": 2653,
      "ÙħÛĮÙħ": 2654,
      "ub": 2655,
      "ĠØ§Ø¹ØªØ±": 2656,
      "Ù¾ÙĪ": 2657,
      "ĠØªØ±Ú©ÛĮ": 2658,
      "Ø´Ú©": 2659,
      "Ø¨ÙĪÙĦ": 2660,
      "ĠÚ©ÛĮØ®ÙĦØ§Ùģ": 2661,
      "ĠØ§ÙĨÚ©Ø§Ø±": 2662,
      "ĠÙħÛĮØ²": 2663,
      "ĠÙĪØ²ÛĮØ±Ø§Ø¹ÙĦÛĮ": 2664,
      "ĠÙħØ¬Ø¨": 2665,
      "ÙĨÚ¯ÛĮ": 2666,
      "ĠØ§ÙĦÙĦÙĩ": 2667,
      "ĠÚ©Ø±Ù¾Ø´ÙĨ": 2668,
      "ĠØ§ØŃØ³Ø§Ø³": 2669,
      "ĠÙģÚ©Ø±": 2670,
      "ĠØµÙĨ": 2671,
      "ĠØ§ÙĨÙĤÙĦ": 2672,
      "ÙĪØ³ÛĮ": 2673,
      "ĠÙĤØ±ÛĮ": 2674,
      "ĠØ¬ÛĮØ³Ø§": 2675,
      "ĠØ§ÙĤÙĪØ§Ùħ": 2676,
      "ĠØ³Ø¨Ø¨": 2677,
      "ĠØ³ÛĮÚ©Ø±": 2678,
      "ĠØ¯ÛĮØ±": 2679,
      "ip": 2680,
      "ĠØ·ÛĮ": 2681,
      "ĠÙħØ¬Ú¾": 2682,
      "ĠØ¯Ø§Ø®ÙĦÛģ": 2683,
      "ĠÙħÙĨØ¸Ø±": 2684,
      "ĠØ¢Ø¯ÙħÛĮ": 2685,
      "ÙħÛĮÙĦ": 2686,
      "ĠÙ¾ØªÛģ": 2687,
      "ĠØ³Ø§Ø±ÛĮ": 2688,
      "ĠØ§Ú©Ø«Ø±": 2689,
      "ÚĺÙĨ": 2690,
      "Ø¹Ø¯Ø¯": 2691,
      "ĠÚĪØ§Ø¦": 2692,
      "ĠØ®ÙĪØ±": 2693,
      "ĠÙħÛĮØ¯Ø§ÙĨ": 2694,
      "ĠØŃØ§Ø¶": 2695,
      "han": 2696,
      "Ġr": 2697,
      "ĠØ¨ÙĨØ¯ÛĮ": 2698,
      "ĠÙĨØ¬": 2699,
      "25": 2700,
      "ĠÙ¾ÛĮÚ©": 2701,
      "ĠØ§ÙĨÚ¾ÛĮÚº": 2702,
      "ÙĨÛĮØ§": 2703,
      "Ġby": 2704,
      "ĠØ²ÙĨØ¯Ûģ": 2705,
      "ĠÙĨØªÛĮØ¬ÛĴ": 2706,
      "....": 2707,
      "tps": 2708,
      "ĠÙĦØ§Ø¦": 2709,
      "06": 2710,
      "ĠÙħØ´ÛģÙĪØ±": 2711,
      "ĠØ§ÛĮÙĨÚĪ": 2712,
      "ĠÚ©ÛģØ§Ú©Ûģ": 2713,
      "ÛĮØ±Ûģ": 2714,
      "ĠØ³Ø§Ø¦ÙĨØ³": 2715,
      "ĠØ±Ø§Ø¨Ø·Ûģ": 2716,
      "ÙĦØŃ": 2717,
      "ĠØ³ÙĨÚ¯Ú¾": 2718,
      "Ú¯Ø±ÛĮ": 2719,
      "ĠÙĨÚ¯Ø±": 2720,
      "ine": 2721,
      "ĠØ¹Ø§Ø¦Ø¯": 2722,
      "ĠØ¬Ø¯": 2723,
      "ĠØ§ÙħÙĪØ±": 2724,
      "ÙħØ¨Ø±": 2725,
      "ĠØ¯Ú¾Ø±": 2726,
      "ĠÙĨØª": 2727,
      "ly": 2728,
      "ĠÙģÙĪ": 2729,
      "Ú¯ÛĮØ§": 2730,
      "ĠØ±ÙĪÚĪ": 2731,
      "ĠØµÙĦØ§ØŃÛĮØª": 2732,
      "ÙģØªÛĴ": 2733,
      "ĠØªØ¹ÛĮÙĨ": 2734,
      "ĠÙħØ§Ø±Ú©ÛĮÙ¹": 2735,
      "Ġj": 2736,
      "ĠØºÙĪØ±": 2737,
      "Ø§Ú©Ø±Ø§Øª": 2738,
      "ĠØªÙĨÙĤÛĮØ¯": 2739,
      "ÙĪØ²ÛĮØ´ÙĨ": 2740,
      "ĠØ´ÛĮØ±": 2741,
      "ĠØªØŃØ±ÛĮØ±": 2742,
      "ĠÛĶÛĶÛĶ": 2743,
      "ĠÙĦÛĮÙĨÚĪ": 2744,
      "ÛĮÙĨÚ©": 2745,
      "ĠØ±Ø¯": 2746,
      "ÙģÙĤ": 2747,
      "ĠÙħØ¹Ø§ÙħÙĦØ§Øª": 2748,
      "ĠÚ¯Ø§ÚĳÛĮ": 2749,
      "Ø²ÙĦ": 2750,
      "ĠØ³ÙħØ§Ø¬ÛĮ": 2751,
      "ĠÙħØŃÚ©ÙħÛģ": 2752,
      "ÙİÙĳ": 2753,
      "ĠØ·Ø±ÛĮÙĤÛĴ": 2754,
      "ĠØ§Ø³Ø±Ø§Ø¦ÛĮÙĦ": 2755,
      "ĠÛĮÙĤÛĮÙĨÛĮ": 2756,
      "ĠØ§Ú¯Ø³Øª": 2757,
      "ĠÚº": 2758,
      "ĠØªØ±Ø¨": 2759,
      "ĠÙħØ¬Ùħ": 2760,
      "ĠÚ©ÙĨÙ¹Ø±ÙĪÙĦ": 2761,
      "ĠØ¨Ø§Ù¾": 2762,
      "ĠÙĪØ§ÙĦØ¯": 2763,
      "ĠØ±ÙģØª": 2764,
      "ĠÚ©ÙĪØ¦": 2765,
      "ĠÚĨÙĦÛĴ": 2766,
      "ĠÙħÙĤØ§Ø¨ÙĦÛģ": 2767,
      "ĠØ¯ÛĮÛĴ": 2768,
      "ĠÚ©Ø±Ø±ÛģÛĴ": 2769,
      "âĨĳ": 2770,
      "Ú©Ø±Ø¯Ú¯ÛĮ": 2771,
      "Ø·ÛĮ": 2772,
      "ĠÙĪØŃ": 2773,
      "ĠÚ©Ú¾ÛĮ": 2774,
      "ĠÙĨØ´Ø§ÙĨÛģ": 2775,
      "ĠØ³ÙĦØ·": 2776,
      "ĠØ§Ø¹Øª": 2777,
      "ĠØ¹ÙĤ": 2778,
      "ĠØ§ØªØŃØ§Ø¯": 2779,
      "ĠØ³ÙĦ": 2780,
      "Ø³Ù¹Ø±": 2781,
      "ĠØ¨Ø±ÛĮ": 2782,
      "ĠØ³ÛĮÚ©Ø±Ù¹Ø±ÛĮ": 2783,
      "ĠØ·ÛĴ": 2784,
      "ĠØ±Ú©ÙĨ": 2785,
      "ĠØ¯ÙĦÚĨ": 2786,
      "ĠØ§ÙĤØªØ¯Ø§Ø±": 2787,
      "ØµÛĴ": 2788,
      "az": 2789,
      "ĠÙĦÛĮØªÛĴ": 2790,
      "Ø¯ÙĦ": 2791,
      "Ø§ÛĴ": 2792,
      "Ø¯ÙĪØ³": 2793,
      "ĠÙ¹Ú¾ÛĮÚ©": 2794,
      "ĠÙħØµÙĨÙĪØ¹": 2795,
      "ĠØ³Ø§Ø¦Ù¹": 2796,
      "ĠØªØµÙĪØ±": 2797,
      "ĠØ¯ÛģÙĦÛĮ": 2798,
      "Ø§ÙģØ¸": 2799,
      "ÙħÙĪÙĨ": 2800,
      "ĠØ¢ØªÛĴ": 2801,
      "ÙĦÛĮÛģ": 2802,
      "ĠÙĨÙĪØ±": 2803,
      "Ġ26": 2804,
      "ĠÛģÙĪØ±Ûģ": 2805,
      "ĠÚ©Ú¾ÙĪÙĦ": 2806,
      "ĠØĮÙĴ": 2807,
      "ĠÙħØ³ØªÙĤØ¨ÙĦ": 2808,
      "ĠÚ©Ø§ÙĨÚ¯": 2809,
      "ĠÙģØ±ÙĤ": 2810,
      "ĠØªØ¹Ø±ÛĮÙģ": 2811,
      "ĠØŃÙģØ§Ø¸": 2812,
      "Ġpm": 2813,
      "ill": 2814,
      "ĠÙħÛĮÙ¹Ø±": 2815,
      "ĠÙĨÙĪÙħØ¨Ø±": 2816,
      "ÙĨÚ¯ÙĦ": 2817,
      "ÙĪÛĮØ¯": 2818,
      "Ûµ": 2819,
      "ĠØªØ´Ø¯Ø¯": 2820,
      "ĠØ§Ø±Ø´": 2821,
      "Ð»": 2822,
      "ĠØ®Ø²": 2823,
      "Ġ2014": 2824,
      "ÙĮ": 2825,
      "ĠÚ¯Ø²Ø§Ø±": 2826,
      "ĠØ¨ÛĮÙħØ§Ø±ÛĮ": 2827,
      "ary": 2828,
      "ĠÙ¾Ø±ÛĮØ³": 2829,
      "ĠÚ©Ø§Ø±Ú©Ø±Ø¯Ú¯ÛĮ": 2830,
      "24": 2831,
      "ĠØ±Ùħ": 2832,
      "ĠPakistan": 2833,
      "ĠØ§ÙĦØŃÙĤ": 2834,
      "Ġe": 2835,
      "Ġam": 2836,
      "ĠÚ¯Ø°": 2837,
      "ĠØ¯ÙĪØ³Ø±Ø§": 2838,
      "ĠØŃØ¶ÙĪØ±": 2839,
      "Ø±Ø§Ø¬": 2840,
      "ĠØ¨ÙĨÙĨÛĴ": 2841,
      "ĠÙħØ´Ø±": 2842,
      "ĠÛģÙģØªÛĴ": 2843,
      "ĠÙģØ±ÙĪØ±ÛĮ": 2844,
      "ĠØ³Ú©Ú¾": 2845,
      "Ø§ÙĦÙĪØ¬ÛĮ": 2846,
      "ort": 2847,
      "Ø¦ÛĮÛĴ": 2848,
      "ĠØ¨Ø±Ø¯": 2849,
      "ĠØ´ÛģØ±ÛĮÙĪÚº": 2850,
      "ÙĦÛĮÙħÛĮ": 2851,
      "ÛĮØ³Ú©": 2852,
      "ĠØ¨Ø§Ø±Ø´": 2853,
      "ĠØ°Ø±Ø§Ø¦Ø¹": 2854,
      "ĠØ¬Ø§Ø¦Ø²Ûģ": 2855,
      "ĠØªÙĪÚĳ": 2856,
      "ember": 2857,
      "ĠÙħØ¹ÛĮØ§Ø±": 2858,
      "ï®": 2859,
      "ĠØ³Ø§ÙĨ": 2860,
      "ĠÚ©ÙħØ²": 2861,
      "ĠØ¬ÙĪÙĦØ§Ø¦ÛĮ": 2862,
      "ĠØ¢ÛĮØª": 2863,
      "ĠØ³ÙĦÙħ": 2864,
      "ĠØ§ÙħÚ©Ø§ÙĨ": 2865,
      "ÙĤÛĮÙĨ": 2866,
      "Ø§ÙħÙĨ": 2867,
      "Ġ27": 2868,
      "Ø³ÛĮÙĨ": 2869,
      "ĠÙģÙĦØ³Ø·": 2870,
      "Ø³ÛĮØŃ": 2871,
      "Ø±Ú©Ûģ": 2872,
      "ĠØ´ÙĨ": 2873,
      "ĠØ±Ú©Ú¾ÛĴ": 2874,
      "ĠÙħØ°Ø§Ú©Ø±Ø§Øª": 2875,
      "03": 2876,
      "ĠØ¯ÛģØ´ØªÚ¯Ø±": 2877,
      "ĠÙĨØ§Ø²": 2878,
      "ØµØŃ": 2879,
      "ĠØ¯Ø¹ÙĪÛĮ": 2880,
      "ĠØ±Ú©Ú¾ÛĮ": 2881,
      "ĠØ§ÙģØ³ÙĪØ³": 2882,
      "ĠØ¨ÙĤ": 2883,
      "ĠÙĨØ³ÙĦ": 2884,
      "Øĵ": 2885,
      "ĠØŃÛĮØ¯": 2886,
      "ĠØ·ÙĪÛĮÙĦ": 2887,
      "ĠØ¬Ú¾ÙĪÙ¹": 2888,
      "ĠØ¹Ø²ÛĮØ²": 2889,
      "up": 2890,
      "ĠÚ©Ø±ÙĨ": 2891,
      "ĠØ·ÙĦ": 2892,
      "ĠÙ¹ÛĮÚ©ÙĨ": 2893,
      "ĠÚ©Ø§ÙĦØ¬": 2894,
      "ĠÛģØ²": 2895,
      "ĠÙ¾Ø§": 2896,
      "ĠØ¢Ù¾Ø±ÛĮØ´ÙĨ": 2897,
      "ĠØ§Ú©ØªÙĪØ¨Ø±": 2898,
      "ÙĨØ¯ÙĨ": 2899,
      "Ġht": 2900,
      "Ø®ÙĪØ§Ûģ": 2901,
      "ĠÙħØŃØª": 2902,
      "ĠØªØ¹ÙĦÛĮÙħÛĮ": 2903,
      "ĠÛģÙĪÚĨ": 2904,
      "ĠØ³Ú©ÛĮÚº": 2905,
      "Ø§Ø¯Ø§Øª": 2906,
      "ĠØªØ¨Øµ": 2907,
      "ĠØ®ÙĪØ¨Øµ": 2908,
      "ĠØ¨ÛĮÙ¹ÛĮ": 2909,
      "ĠÙģÙĨ": 2910,
      "ĠÛģØ§Ø±": 2911,
      "ĠØ¨ÛĮÙ¹ÛĴ": 2912,
      "ĠØ¯Ú¾ÙĪ": 2913,
      "ĠÙħØªØ¹Ø¯Ø¯": 2914,
      "ĠØ±Ú©Ú¾ØªØ§": 2915,
      "Ø¹ÙĦ": 2916,
      "ÛĤ": 2917,
      "ÙĦÛĮÙĪ": 2918,
      "ĠÚ©ÛģØ§ÙĨÛĮ": 2919,
      "ĠØ´Ø±ÛĮÚ©": 2920,
      "Ø°Ûģ": 2921,
      "ĠÚ©Ø±ÙĨÛĮ": 2922,
      "ĠÙ¾Øª": 2923,
      "ĠØ¢Ø®Ø±": 2924,
      "ĠÙħÙĪØ¨": 2925,
      "ĠØ³Ø±ØŃ": 2926,
      "ĠÙģØ§Ø¦Ø±ÙĨÚ¯": 2927,
      "ĠÙĨØ´Ø§ÙĨ": 2928,
      "Ġ28": 2929,
      "23": 2930,
      "ÛģØ±Ø³Øª": 2931,
      "ĠØ¯Ø¹ÙĪØª": 2932,
      "Ø´ÛĮØ§": 2933,
      "ĠÙĤØ§Ø¨": 2934,
      "ĠÙħØ§ÙĦÚ©": 2935,
      "ĠÚĪÙ¾": 2936,
      "ĠØ§Ø´Ø§Ø¹Øª": 2937,
      "ĠÙĦÚ¯ØªØ§": 2938,
      "ĠÙ¾ÚĳØ§": 2939,
      "Ø¯Ø§Ø±ÛĮ": 2940,
      "ĠØ®ÙĪØ§Ø¨": 2941,
      "ĠØ§Ø®Ø¨": 2942,
      "Ø¨ÙĪØ¶Ûģ": 2943,
      "ĠØ§ÛĮØ¬": 2944,
      "ĠÚ¾ÛĴ": 2945,
      "ĠÙĦÚ©": 2946,
      "ĠØ³ØªÙħØ¨Ø±": 2947,
      "ĠØ¹Ø¨Ø¯": 2948,
      "ĠÙħØŃØ¯": 2949,
      "ĠØ´Ø±ØŃ": 2950,
      "ĠØ¹ÙĦÙħØ§Ø¡": 2951,
      "ĠØ§ÛĮØ±": 2952,
      "ĠØ®Ø¯ÙħØ§Øª": 2953,
      "ĠÙģØ±ÙĪØº": 2954,
      "ĠÙĨÛĮØ´ÙĨÙĦ": 2955,
      "ĠÙħØ¹ÙĨÛĮ": 2956,
      "ĠÙĦÛĮÚĪØ±": 2957,
      "ĠÙħÙĨØªÙĤÙĦ": 2958,
      "Û±": 2959,
      "ĠØ¹Ø¨Ø§Ø¯": 2960,
      "our": 2961,
      "ĠÙĦÚ¯ÛĮ": 2962,
      "ĠØ±Ø§Ø³": 2963,
      "ĠØ³Ø±ÙĪØ³": 2964,
      "ĠØ¨Ùħ": 2965,
      "ĠØªØ±Ø¨ÛĮØª": 2966,
      "ĠÚĨÚ¾ÙĪÙ¹ÛĴ": 2967,
      "ĠÙ¾ÙĪÚĨÚ¾Ø§": 2968,
      "ĠÚ¯ÙĪØ±ÙĨ": 2969,
      "age": 2970,
      "ĠÙĨÙħØ§Ø¦ÙĨØ¯": 2971,
      "ĠÙĨÛĮÚĨÛĴ": 2972,
      "ĠÙħÙĨØ¸ÙĪØ±": 2973,
      "ĠÚ©ÙħØ´ÙĨ": 2974,
      "ÙĪØ§ÙĨÙĪÚº": 2975,
      "ĠØ¬Ø§Ø³Ú©ØªØ§": 2976,
      "Ø¨Ø§Ø¨": 2977,
      "ĠØ¯ÛĮØ¦ÛĴ": 2978,
      "ĠØ¯Ø³ØªÛĮ": 2979,
      "ld": 2980,
      "ĠØŃÙħÙĦ": 2981,
      "ĠØ´Ø§Ø¦Ø¹": 2982,
      "ĠØ¨ÙĨØ§Ø¦ÛĴ": 2983,
      "ĠÙĨÙĪÙ¹Ø³": 2984,
      "Ø§ÛģØ¯": 2985,
      "iv": 2986,
      "ĠØ·Ø¨ÛĮ": 2987,
      "Ø²Ûģ": 2988,
      "ĠØ§ÙĨØªÙĤ": 2989,
      "Ø§Ø¨Ûģ": 2990,
      "ĠÙħØ¹ÛĮØ´Øª": 2991,
      "ĠØ²Ø±": 2992,
      "Ġwh": 2993,
      "ĠÙģØ±ÙħØ§ØªÛĴ": 2994,
      "Ø·Ø±": 2995,
      "ĠØ±Ø¶Ø§": 2996,
      "ÚĪØ§Ú©Ù¹Ø±": 2997,
      "ĠÙħØ§ØŃÙĪÙĦ": 2998,
      "ï·º": 2999,
      "ĠØ¨Ø§ÙĤ": 3000,
      "ØµØ§Ø¯ÛĮ": 3001,
      "ĠØ¨ÙĨÛĴ": 3002,
      "ĠØ¨Ú¾Ø±Ù¾ÙĪØ±": 3003,
      "oc": 3004,
      "ĠÙĪØ¬ÙĪØ¯": 3005,
      "ĠÙħÙĦÙĨÛĴ": 3006,
      "ĠÙħØ¬Ø¨ÙĪØ±": 3007,
      "Û¡": 3008,
      "ĠØ±ÙĨØ²": 3009,
      "od": 3010,
      "ĠÚ©Ú¾ÚĳÛĴ": 3011,
      "ĠØµØ§Ø±Ùģ": 3012,
      "ÙĳÙ°": 3013,
      "ĠØªØŃÙĤÛĮÙĤØ§Øª": 3014,
      "ĠThe": 3015,
      "ĠÚ©ÛģÙĨÛĴ": 3016,
      "ÙĪÙħØªÛĮ": 3017,
      "ĠÙĦØ§Ø²": 3018,
      "ĠØ§ÙĦÙģ": 3019,
      "ĠØ®ÙĪØ´ÛĮ": 3020,
      "ĠÙ¾Ø±ÙĪÙģ": 3021,
      "ĠÛĮÙĪÙĨÛĮÙĨ": 3022,
      "ĠØ±ÛģØªØ§": 3023,
      "ĠÙĨÙħØ§": 3024,
      "ĠØ§ÙģØª": 3025,
      "ĠÚ©ÙĦÙĪ": 3026,
      "ÚĪØ§": 3027,
      "ĠØ§Ù¾ÙĪØ²ÛĮØ´ÙĨ": 3028,
      "ĠÙ¾Ø§Ø±ÙĦÛĮÙħÙĨÙ¹": 3029,
      "ud": 3030,
      "ĠØ¨Ø±Ø§": 3031,
      "Û²Û": 3032,
      "ĠØ±ÛĮÙĦ": 3033,
      "05": 3034,
      "ĠØ¨ØŃØ«": 3035,
      "ĠÙ¾Ø±ÙĪÛĮØ²": 3036,
      "ĠÙħÙĪØ¨Ø§Ø¦ÙĦ": 3037,
      "ĠØ¢ØªÛĮ": 3038,
      "ĠØ¨Ø§Øº": 3039,
      "ĠØ¸ÙĦÙħ": 3040,
      "ĠÙĥØ±": 3041,
      "ĠØ¯Ø±Ø¬Ûģ": 3042,
      "ØªÙħØ§Ø¯": 3043,
      "ÙĢÙĢ": 3044,
      "ĠØ¯Ú¾ÙħØ§Ú©": 3045,
      "ĠÙħØ´ØªÙħÙĦ": 3046,
      "ĠØ¯ÛĮØªÛĮ": 3047,
      "Ø§ÙħØ§": 3048,
      "ØªÙģ": 3049,
      "ĠØ¬Ø¬": 3050,
      "ĠIn": 3051,
      "ĠÙĨØ§ÙĤ": 3052,
      "ĠØ¹Ø´": 3053,
      "Ø³Ù¹Ø±ÛĮÙĦ": 3054,
      "ĠÚ¯Ø§Ûģ": 3055,
      "ĠØ¨ÙĨÚ¯": 3056,
      "ĠÙ¾Ø´Ø§ÙĪØ±": 3057,
      "ĠØ¨Ø´": 3058,
      "ĠØ¨Ø±Ø·Ø§ÙĨÛĮÛģ": 3059,
      "ĠØ¹ÙĦØ§ÙħÛģ": 3060,
      "ĠØ³Ø±ÛĮ": 3061,
      "ĠØ§Ø¦": 3062,
      "ĠØ±ÙħØ¶Ø§ÙĨ": 3063,
      "ĠÙħØ¹Ø±ÙĪÙģ": 3064,
      "ĠÙģØ¶ÙĦ": 3065,
      "ĠØ¨Ø±Ø§Ûģ": 3066,
      "ĠØ¹Ø¨Ø§Ø³": 3067,
      "Ø®ÙĪØ§": 3068,
      "ÙĪØ·": 3069,
      "ĠÙħÙĦØ²": 3070,
      "ĠØ¨Ø·": 3071,
      "Ù¾ÙĨ": 3072,
      "ØµÙĪÙĦ": 3073,
      "ĠÙĨØ¸Ø±ÛĮ": 3074,
      "ÙĪÙħÙĨ": 3075,
      "27": 3076,
      "07": 3077,
      "ĠÚ©Ú¾ÙĦ": 3078,
      "Ø³Ø§ÙĦ": 3079,
      "ĠØ³Ø¹ÛĮØ¯": 3080,
      "ĠØ§ÙħØª": 3081,
      "ĠØ¬Ø§Ø±ÛģØ§": 3082,
      "04": 3083,
      "ÙĨØ§Ùħ": 3084,
      "ĠÙĪØ§": 3085,
      "ĠÙ¹Ø§Ø¦Ùħ": 3086,
      "ĠØ¬Ø§ÙĪÛĮØ¯": 3087,
      "ĠÚ¯ÛĮØ³": 3088,
      "ĠÚ©Ø±Ø§Ùħ": 3089,
      "ĠÚĨÚĳÚ¾": 3090,
      "ĠØ¬ÙħØ§Ø¹ØªÙĪÚº": 3091,
      "aw": 3092,
      "ĠØ®ØµÙĪØµ": 3093,
      "Ø§Ø¦ÛĮÚ¯ÛĮ": 3094,
      "ÙģØªØ±": 3095,
      "ee": 3096,
      "ĠØªÛĮØ±": 3097,
      "Ø§Ø¦Ù¹": 3098,
      "ĠØªØ±Ú©": 3099,
      "ĠÛģÙĪØ¬Ø§Ø¦ÛĴ": 3100,
      "ĠØ§Ø¯Ø¨": 3101,
      "09": 3102,
      "ĠØ§ØµÙĦØ§ØŃ": 3103,
      "ĠØ¬Ø§ÙĨØªÛĴ": 3104,
      "ØªÚ¾ÛĮ": 3105,
      "26": 3106,
      "ÙĦÛĮÛĴ": 3107,
      "ĠÙĨØªÛĮØ¬Ûģ": 3108,
      "08": 3109,
      "ÛĮØ§Ø¡": 3110,
      "ĠÙħØ±Ú©Ø²": 3111,
      "Ø¹Ø¨": 3112,
      "ĠØ§ÙĦØ±": 3113,
      "ØŃÙĤ": 3114,
      "Ġv": 3115,
      "ĠØ´Ùģ": 3116,
      "Ø³Ø§ÙĨÛĮ": 3117,
      "ĠØ§Ù¹Ú¾Ø§": 3118,
      "ĠÙ¾ÛģÙĨÚĨØ§": 3119,
      "ĠÙħØºØ±Ø¨ÛĮ": 3120,
      "ĠÛĮÙĪÙħ": 3121,
      "Ġst": 3122,
      "ug": 3123,
      "ĠØ³Ø¬": 3124,
      "ÙħÙĦÚ©": 3125,
      "ĠÙħÙĨØ¹ÙĤØ¯": 3126,
      "Ø³Ø§Ø¨": 3127,
      "ĠÙħÛĮÚĪ": 3128,
      "ĠØ®Ø§ÙĨÛģ": 3129,
      "ĠØ¯ÛĮÚ©Ú¾ØªÛĴ": 3130,
      "ĠÙĨØªØ§Ø¦Ø¬": 3131,
      "ĠÚĨÙħ": 3132,
      "ĠØµÙĪØ¨ÛĴ": 3133,
      "ĠØªØ¨Ø§Ûģ": 3134,
      "ĠÙĥÙī": 3135,
      "ĠÙģÙ¹": 3136,
      "ĠÙħØ±Ø§Ø¯": 3137,
      "ĠØ¨Ø§Ø²ÛĮ": 3138,
      "ĠÙħØŃØ¶": 3139,
      "Ù¾Ø§": 3140,
      "ant": 3141,
      "ĠÙ¾ÛĮÙħ": 3142,
      "ÚĨØ§": 3143,
      "Ø¯Ø§Ø¦ÛĮ": 3144,
      "ĠØ¹Ø²Øª": 3145,
      "ĠØ¬ÙħÛģÙĪØ±ÛĮØª": 3146,
      "ĠÙĤØµ": 3147,
      "ĠÙģÙĬ": 3148,
      "28": 3149,
      "ĠÙ¾Ú¾ÛĮ": 3150,
      "Ġ2013": 3151,
      "ĠÙħØ³ÛĮØŃ": 3152,
      "ĠØ§Ú©Ø±Ùħ": 3153,
      "ĠY": 3154,
      "Ø±Ú¯": 3155,
      "ĠØ¹ÙĦØ§ÙĤÛģ": 3156,
      "ĠÙĤØ±Ø¶": 3157,
      "·²": 3158,
      "ĠÛģÙ¹": 3159,
      "ÙģÛĮÙĤ": 3160,
      "ĠØ´Ø¯Øª": 3161,
      "ĠÙĪØ¹Ø¯": 3162,
      "ØªÙħØ§Ø¹": 3163,
      "ĠØ§ÙĤØªØµØ§Ø¯ÛĮ": 3164,
      "ĠØªÙģØµÛĮÙĦØ§Øª": 3165,
      "Û¹": 3166,
      "ĠÙ¹Ø±": 3167,
      "ĠØ¨ÛĮØ³": 3168,
      "ĠØªØ³ÙĦÛĮÙħ": 3169,
      "ĠØ³Ú©ÙĪÙĦ": 3170,
      "ĠÙ¾ÚĨÚ¾": 3171,
      "ĠØ´Ø±Ùħ": 3172,
      "ĠØªØ§Ø¬": 3173,
      "ĠÙĨØ§ÙĦ": 3174,
      "ĠØ¯Ø±Ø¯": 3175,
      "Ø®ØªÙĪÙĨØ®ÙĪØ§": 3176,
      "ÙĪÙĦÛĮØª": 3177,
      "Ġ29": 3178,
      "ĠØ°Ø§ØªÛĮ": 3179,
      "ĠØ±Ø§Ø³ØªÛģ": 3180,
      "ĠØ§ÛĮÚ©Ø³": 3181,
      "ĠØ§Ø¹ØªÙħØ§Ø¯": 3182,
      "est": 3183,
      "ĠÙħÙĪØ±": 3184,
      "ĠÙħÙĪØ³Ùħ": 3185,
      "ĠØ³ÙĨØ§": 3186,
      "Ø±Ø§Ø±": 3187,
      "ĠÙĨÙĪÚº": 3188,
      "ĠØ§ÙĨÙĤÙĦØ§Ø¨": 3189,
      "Û²": 3190,
      "ĠØ¨Ø±ÙĪ": 3191,
      "ĠÚĨØ§ÛģÛĴ": 3192,
      "ast": 3193,
      "ĠÙĨØ§Ø±": 3194,
      "ĠØ¬ÙĨØ§Ø¨": 3195,
      "ĠØ¨Ø§Ø¯Ø´Ø§Ûģ": 3196,
      "Û·": 3197,
      "ĠÙĪÙĨ": 3198,
      "ĠÙ¾ÙĪØ³Ù¹": 3199,
      "ĠØ¹Ø«": 3200,
      "ĠÙģÙĤ": 3201,
      "ĠÙ¾ÛĮØ³": 3202,
      "ĠÚ©ÙħØ´ÙĨØ±": 3203,
      "ĠØŃÚ©ÙħØª": 3204,
      "ĠÙģØ±Ø§ÛģÙħÛĮ": 3205,
      "à¥": 3206,
      "ĠÚ¯Ø±Ùħ": 3207,
      "ĠÙħØ´ØªØ±Ú©Ûģ": 3208,
      "ĠØ´Ø®ØµÛĮØª": 3209,
      "Û¶": 3210,
      "ĠÙ¾ÛĮÙĨ": 3211,
      "ĠØ³Ø§ØªÚ¾ÛĮ": 3212,
      "ĠÚ¯Ú¾Ø±ÙĪÚº": 3213,
      "ÙĦÚĪ": 3214,
      "ØªØ§ÛģÛĴ": 3215,
      "ĠÙħÙĪØ§Ø¯": 3216,
      "ĠØ§Ø³Ùħ": 3217,
      "ĠØ§Ø®Ø¨Ø§Ø±Øª": 3218,
      "ĠØ§ØŃÚ©": 3219,
      "2016": 3220,
      "ĠÙħØ§ÛģØ±ÛĮÙĨ": 3221,
      "Ù¾ÙĨÚĪÛĮ": 3222,
      "ĠØ´Ø§ÛģØ¯": 3223,
      "ĠÙĨØ§Ùģ": 3224,
      "ĠÙ¾ÙĨØ§Ûģ": 3225,
      "ĠÙħØµÙĨÙĪØ¹Ø§Øª": 3226,
      "ĠØ±ØŃÙħ": 3227,
      "ĠÙĪØ§ÙĦØ¯ÛĮÙĨ": 3228,
      "ĠØ±ÙĪØ³": 3229,
      "ÙħØŃÙħØ¯": 3230,
      "ĠØ§ÛĮØ¬ÙĨØ³ÛĮ": 3231,
      "ĠØ¨ÛĮÚ¯": 3232,
      "ks": 3233,
      "ĠØªØ´Ú©ÛĮÙĦ": 3234,
      "ĠØªØ±Ø¬ÙħØ§ÙĨ": 3235,
      "ĠØ¢ØµÙģ": 3236,
      "ĠØ§Ø®Ø¨Ø§Ø±ØªØ§Ø²Ûģ": 3237,
      "Ø§Ø¹Ø¯Ûģ": 3238,
      "ĠÙħØ±ÛĮÙħ": 3239,
      "ĠØ¹Ø·Ø§": 3240,
      "ĠÙħÙĤØ¯ÙħÛģ": 3241,
      "Ú¾ÙĪÚº": 3242,
      "ĠØ§ÙģØ³Ø±Ø§ÙĨ": 3243,
      "Ø¹ÙĪØ¯": 3244,
      "ĠÚĪÛĮØ³Ú©": 3245,
      "ĠØªÚ¾ÙĪÚĳ": 3246,
      "pr": 3247,
      "Ø¹Ø§ÙĦ": 3248,
      "ĠØ§ÙģØ±ÛĮ": 3249,
      "Ù¹Ú¾ÛĮ": 3250,
      "29": 3251,
      "ĠØ¨Ø®Ø´": 3252,
      "Ø±Ø¶": 3253,
      "Ġ50": 3254,
      "ĠØ¨ØŃØ±Ø§ÙĨ": 3255,
      "ĠÙħÙĤØ±Ø±": 3256,
      "ÙĳÙĲ": 3257,
      "ÙħØ´": 3258,
      "ÚĨØ§Ø±": 3259,
      "ĠÙ¾ÙĪÚĨÚ¾": 3260,
      "Ù¾Ú¾Ø±": 3261,
      "ĠØ¹ÛģØ¯": 3262,
      "omment": 3263,
      "ust": 3264,
      "Ø¹ÙħØ±Ø§ÙĨ": 3265,
      "ĠÙ¹Ø±ÛĮÙĨ": 3266,
      "ĠÙģØªØŃ": 3267,
      "Ø³Ù¹Ø±ÛĮ": 3268,
      "osted": 3269,
      "ĠÙħÙĨÛĮ": 3270,
      "ĠÙħØ´ÛĮÙĨ": 3271,
      "ÛĮÚ©Ù¹": 3272,
      "ĠØªÛĮÙĦ": 3273,
      "ĠØ§ÙĪÙĨ": 3274,
      "ĠÙĦÙĪÚĪ": 3275,
      "ĠÚ¯Ø±ÙĪÛģ": 3276,
      "ĠØ®Ø·ÛĴ": 3277,
      "Ø¯ÛĮÙĤ": 3278,
      "ĠÙĦØ§ÙĨÛĴ": 3279,
      "ĠÙħØŃÙĨØª": 3280,
      "ĠØ«Ø¨ÙĪØª": 3281,
      "ov": 3282,
      "ĠØ¯Ø§Ø±Ø§ÙĦ": 3283,
      "Ø±ÛĮØ²ÛĮ": 3284,
      "ĠØŃÙĤÛĮÙĤÛĮ": 3285,
      "qu": 3286,
      "Ø§Ø¦ÛĮÙĪÚº": 3287,
      "ian": 3288,
      "Ø²ÙĨ": 3289,
      "ext": 3290,
      "ĠØ¢Ø¨Ø§Ø¯ÛĮ": 3291,
      "ĠÙħØ¹Ø§ÛģØ¯ÛĴ": 3292,
      "ĠÂ»": 3293,
      "ĠØ¢Ûģ": 3294,
      "Ø§Ø®Øª": 3295,
      "Ø³Ø¨": 3296,
      "ĠÚ¯ÙĪÙĦ": 3297,
      "ĠØ¨ÛĮØª": 3298,
      "Ġwith": 3299,
      "ĠÙħØ§Ø¶ÛĮ": 3300,
      "ĠØ±ÙĪÙħ": 3301,
      "ĠÙĤØ±Ø¨Ø§ÙĨÛĮ": 3302,
      "ight": 3303,
      "ĠØ§Ø¬ØªÙħØ§Ø¹": 3304,
      "ĠØ¬ÙĨÛģÙĪÚº": 3305,
      "iz": 3306,
      "ĠÙ¾ÙĨ": 3307,
      "ĠØ¯ÙģØªØ±": 3308,
      "ĠÙ¹ÛĮÚ©ÙĨØ§ÙĦÙĪØ¬ÛĮ": 3309,
      "ity": 3310,
      "ĠØ³ÙĨÛĮ": 3311,
      "Û¸": 3312,
      "ĠÚĨÛĮØª": 3313,
      "ĠØ¯ÛĮÙĨÛĮ": 3314,
      "ran": 3315,
      "ĠØ³Ø§ÙħØ§ÙĨ": 3316,
      "Ø¨Ø§": 3317,
      "af": 3318,
      "ïºħ": 3319,
      "ĠØ¢ÙĦ": 3320,
      "ĠØªÛĮØ²ÛĮ": 3321,
      "ĠÙģÛģØ±Ø³Øª": 3322,
      "ĠÙĲ": 3323,
      "eng": 3324,
      "ĠÙĤØ¨Ø±": 3325,
      "ÛĮÙĨØ¯": 3326,
      "ĠØ¯Ú©Ú¾Ø§Ø¦ÛĮ": 3327,
      "Ú©Ø´Ø§Ùģ": 3328,
      "Ø§Ø¦ÛĮØ¯": 3329,
      "ÙħØ³ÙĦÙħ": 3330,
      "??": 3331,
      "ĠØ§ÛģØªÙħØ§Ùħ": 3332,
      "ĠØ±Ø§Ø³ØªÛĴ": 3333,
      "Ġïº": 3334,
      "ĠÙģØ±Ø¯": 3335,
      "ĠØªØ§Ø±ÛĮØ®ÛĮ": 3336,
      "ĠØ§ÚĨÚ¾ÛĴ": 3337,
      "ĠØ³ÙħØ¬Ú¾ØªÛĴ": 3338,
      "ï·²": 3339,
      "Ûİ": 3340,
      "ÚĨÛĮÙĨ": 3341,
      "ĠÙħØ¶ÙħÙĪÙĨ": 3342,
      "ĠÚ©Ø§ÙĦÙħ": 3343,
      "ĠÙħØ°ÙħØª": 3344,
      "ĠØŃÛĮØ§Øª": 3345,
      "Ø¢Ø¬": 3346,
      "ĠØ±Ú©Ú¾ÙĨØ§": 3347,
      "ĠÚ©Ø±ÙĦÛĮ": 3348,
      "ĠÚ©Ú¾Ø§ÙĨØ§": 3349,
      "ÙĪØ§ÙĨÛĮÙĨ": 3350,
      "Ġ100": 3351,
      "ĠØ§Ø³Ú©ÙĪÙĦ": 3352,
      "Ø±ÙĪÙħ": 3353,
      "ĠØ³ÙĦØ§ÙħØªÛĮ": 3354,
      "ont": 3355,
      "ĠÙ¾ÙĪÙĦ": 3356,
      "ÛĮØ§Ûģ": 3357,
      "art": 3358,
      "Ġà¤": 3359,
      "ĠÙģØ±Ø§ÙĨØ³": 3360,
      "ĠØ¢Ø³Ø§ÙĨ": 3361,
      "ĠØ¬Ø§Ø±ÛģÛĮ": 3362,
      "Ø§ÙħÛĮÙĨ": 3363,
      "ĠØ±Ú©Ú¾ÛĮÚº": 3364,
      "ĠÙĦÛĮÙĨØ§": 3365,
      "ĠÚ©Ø§Ø±ÙĪØ¨Ø§Ø±": 3366,
      "ĠØ¨ÛĮÚĨ": 3367,
      "Ø±ÛĮÚ©Ù¹Ø±": 3368,
      "Ø¦ÛĮÙĨ": 3369,
      "ĠØ¨Øº": 3370,
      "ĠÙĪØ±ÙĦ": 3371,
      "ĠØ´Ø¨": 3372,
      "ÙħÛĮÙĪÚº": 3373,
      "ØĴ": 3374,
      "ĠØ§ÙģÙĪ": 3375,
      "ĠÙĪØ±ÙĦÚĪ": 3376,
      "ĠÙħØ¸Ø§ÛģØ±Ûģ": 3377,
      "ĠØ¨ÛĮÙ¹Ú¾ÛĴ": 3378,
      "ĠØ³Ø§Ø²Ø´": 3379,
      "Ø¹ÙĤØ§Ø¯": 3380,
      "ĠÚ©Ø§ÙĨÚ¯Ø±ÛĮØ³": 3381,
      "ĠÚ¯Ø±Ø¯ÙĪÚº": 3382,
      "Ø®Ø·": 3383,
      "ĠÙĨÙĪØ¬ÙĪØ§ÙĨÙĪÚº": 3384,
      "ĠÙħÙĦÙĪØ«": 3385,
      "ĠØ¹Ø¯Ùħ": 3386,
      "Ù¾ÛĮØ±": 3387,
      "ĠÙ¾ÙĦØ§ÙĨ": 3388,
      "Ø³Ù¹Ùħ": 3389,
      "ĠÙģÙĨÚĪ": 3390,
      "ĠØµØŃØ§ÙģÛĮ": 3391,
      "Ø§ÙĪÛĮ": 3392,
      "ĠØŃÛĮØ¯Ø±": 3393,
      "ĠÙĦÚ¯Ø§ÙĨÛĴ": 3394,
      "ĠØªÙħÛģØ§Ø±ÛĴ": 3395,
      "ĠØ±ÙĪØ´ÙĨ": 3396,
      "ĠÙĨÙĤÙĦ": 3397,
      "Ñģ": 3398,
      "ĠÙĥÛģ": 3399,
      "!!": 3400,
      "ĠÙħÙĦØ²Ùħ": 3401,
      "ĠÚ¯Ø±ÛĮ": 3402,
      "ĠØ§ØªÙģØ§ÙĤ": 3403,
      "ĠÚ©Ø§Ø¨": 3404,
      "ĠÚ©Ø±ÙĪÚº": 3405,
      "ĠÙ¾Ø§Ø¨ÙĨØ¯": 3406,
      "ĠÙĨØ«Ø§Ø±": 3407,
      "ĠÙĤÙĪØ§ÙĨÛĮÙĨ": 3408,
      "ĠØ®Ø±Ø§Ø¨": 3409,
      "ĠÙħØ¬ÙħÙĪØ¹": 3410,
      "ĠÙħÙĨØ¸ÙĪØ±ÛĮ": 3411,
      "ĠØŃÚ©ÙĪÙħØªÛĮ": 3412,
      "ĠØŃÙģØ§Ø¸Øª": 3413,
      "ĠØ§Ú¯ÙĦÛĴ": 3414,
      "ĠÛģÙĨ": 3415,
      "02": 3416,
      "ĠØ¨Ø¬Ù¹": 3417,
      "ĠÙ¾ÚĳÚ¾ÙĨÛĴ": 3418,
      "ĠØ´Ú©Ø§": 3419,
      "Ø§Ø¬Ø¯": 3420,
      "hi": 3421,
      "ĠØ®Ø±ÚĨ": 3422,
      "ĠØ¨Ø·ÙĪØ±": 3423,
      "ĠÙħÙĤØ¨ÙĪØ¶Ûģ": 3424,
      "ĠØ¨Ø¬ÛĴ": 3425,
      "Ú©Ùħ": 3426,
      "Ø¨Ø±Ø¯": 3427,
      "ĠÚĨÙĨØ§ÙĨÚĨÛģ": 3428,
      "ĠÙħÙĦÚ©ÙĪÚº": 3429,
      "Ø¦ÛĮØ±": 3430,
      "ĠØ§ÙĨÚ©Ø´Ø§Ùģ": 3431,
      "ÑĤ": 3432,
      "ÙĪØ²ÛĮØ±Ø§Ø¹Ø¸Ùħ": 3433,
      "ĠØ§ØªØ±": 3434,
      "Ø¯Ùģ": 3435,
      "ĠÙĪÙĪ": 3436,
      "ĠØªØµØ¯ÛĮÙĤ": 3437,
      "Ø°ÛĮØ±": 3438,
      "ĠØ³ÙĦÛĮÙħ": 3439,
      "ĠÚ©ÛĮÙĪ": 3440,
      "ÙĤØ±Ø§Ø±": 3441,
      "ĠÙĪØ¬": 3442,
      "ÙħÙĪÙĦÛĮ": 3443,
      "ĠØ®Ø·Ø±Ûģ": 3444,
      "og": 3445,
      "ÙĬØ±": 3446,
      "ĠÙħØªÙĨ": 3447,
      "Ù¾Ûģ": 3448,
      "ĠÙĦÚ¯Ø§ÛĮØ§": 3449,
      ").": 3450,
      "ÛĮØ¯Ú¯ÛĮ": 3451,
      "ear": 3452,
      "ĠØ§ÙĨØ¹ÙĤØ§Ø¯": 3453,
      "ĠÚĨØ±": 3454,
      "ĠÙģØ§Ø±Ùħ": 3455,
      "ĠÚ¯Ú¾ÙĨÙ¹ÛĴ": 3456,
      "ĠØ¬ÛĮØ³ÛĮ": 3457,
      "Ø§Ø·Ø±": 3458,
      "Ø¨Ú¾Ø§Ø±Øª": 3459,
      "ĠØ§ÙĨÚ¯ÙĦ": 3460,
      "ĠØ§Ø·ÙĦØ§Ø¹Ø§Øª": 3461,
      "ĠØ§Ø±Ú©": 3462,
      "ĠØªØ±Ø¬ÙħÛģ": 3463,
      "21": 3464,
      "Ġit": 3465,
      "ĠÚ©Ø±Ø³Ú©ØªÛĴ": 3466,
      "ĠØ§Ø¯Ø§Ø±Ûģ": 3467,
      "ĠØ¨Ø±Ø§Ø¨Ø±": 3468,
      "ĠÙħÚ©Ø§ÙĨ": 3469,
      "Ø±ÛĮÙģÚ©": 3470,
      "ÙĪØ¬ÛģØ¯": 3471,
      "ĠØ«ÙĤ": 3472,
      "ĠÛģØ²Ø§Ø±ÙĪÚº": 3473,
      "ĠÙ¾ÛģÙĦÙĪ": 3474,
      "ĠÙħÙħØ¨Ø±": 3475,
      "ĠØ§ÙĨØ¯Ø§Ø²Ûģ": 3476,
      "ĠÙģÙĪØ±Ø³Ø²": 3477,
      "ĠØ®ÙĪØ¨ØµÙĪØ±Øª": 3478,
      "ĠØ±Ø®": 3479,
      "ĠÙĨÛģØ§ÛĮØª": 3480,
      "ĠÛĮÙĪØ³": 3481,
      "ĠÚ¯ÙĪØ±ÙĨØ±": 3482,
      "ĠÙħØ´Ú©ÙĦØ§Øª": 3483,
      "ĠÙĪØ¢": 3484,
      "ĠÙĦÙĨ": 3485,
      "ĠÙ¾ÛģÙĨÚĨÛĴ": 3486,
      "ĠØ³ÙĨØª": 3487,
      "ya": 3488,
      "ÙĪÙĨÚĪ": 3489,
      "ĠÚĪÛĮØ²": 3490,
      "ÙĲÙĳ": 3491,
      "ĠÙĨØ§ÙħÛĮ": 3492,
      "ĠÚ©ÙĦØ§Ùħ": 3493,
      "ĠØ§Ø±Ú©Ø§ÙĨ": 3494,
      "ĠØ§Ø«Ø±Ø§Øª": 3495,
      "ĠÙ¾Ø§ÛĮØ§": 3496,
      "ĠØªÙħÛģÛĮÚº": 3497,
      "Ø§ÙĪÛĮØ²": 3498,
      "ĠØ´Ø¹Ø¨Ûģ": 3499,
      "ÙĪÙ¾": 3500,
      "Ø³Ø§Ø¦": 3501,
      "ĠÙģÛĮØµÙĦ": 3502,
      "2017": 3503,
      "ĠØ³ÙĪÙĦ": 3504,
      "ĠØ´ÙħØ§ÙĦÛĮ": 3505,
      "ĠØ²ÙħØ§ÙĨÛĴ": 3506,
      "ĠØ¯ÛĮØ¯": 3507,
      "ĠÙĦÙĪÙ¹": 3508,
      "Ú©Ø§Ø±ÙĪÚº": 3509,
      "Ġhe": 3510,
      "Ø³Ø¹": 3511,
      "ĠÙħÙĪØ³ÛĮ": 3512,
      "ĠÙħØµØ±ÙĪÙģ": 3513,
      "Ø§Ù¾ÙĨÛĴ": 3514,
      "ĠØ³ÙĨØ¬": 3515,
      "ĠØ®ÙĪØ§Ø¬Ûģ": 3516,
      "ĠÛģØªÚ¾ÛĮ": 3517,
      "Ø¨Ú¾ÛĮ": 3518,
      "ĠØ¬ÙħØ¹Ûģ": 3519,
      "ĠÛģÙĪÚ©Ø±": 3520,
      "ĠØŃØµÙĪÙĦ": 3521,
      "ive": 3522,
      "ish": 3523,
      "ĠØ§ÛģÙĦÚ©Ø§Ø±": 3524,
      "ĠØ´ÙĪÛģØ±": 3525,
      "Ø³ÙħØ§ÙĨ": 3526,
      "Ú©Ø³ÛĮ": 3527,
      "ĠØ¬Ø¯ÙĪØ¬ÛģØ¯": 3528,
      "ĠØ±ÛĮÙĦÛĮ": 3529,
      "Ø¨ÙĪÚº": 3530,
      "ĠØ¹Ø¨Ø§Ø¯Øª": 3531,
      "Ø§Ú©ÛĮ": 3532,
      "ĠØªÙĪØ§ÙĨ": 3533,
      "ĠÙħÙĨØ§Ø³Ø¨": 3534,
      "ĠÙħÙĪÙĤÙģ": 3535,
      "ĠÛ²Û°": 3536,
      "Ø¥": 3537,
      "ĠÙħØ³Ø§Ùģ": 3538,
      "Ø¬ÛĮØŃ": 3539,
      "ĠØŃØ§ÙħÙĦ": 3540,
      "ÙĦØ§Ø¦ÛĮ": 3541,
      "ĠØ°Ø§Øª": 3542,
      "ĠØ§ÙĨÚĪÛĮØ§": 3543,
      "Ø±Ø²Ø§": 3544,
      "ĠØ¹Ø¬": 3545,
      "ĠÙĪØ§Ù¾Ø³ÛĮ": 3546,
      "ĠØ¹Ø¨Ø¯Ø§ÙĦÙĦÛģ": 3547,
      "Ø§Ø¤Ø³": 3548,
      "Ø²Ø§Ø²": 3549,
      "ÙĨÚ¯ÛĴ": 3550,
      "ĠÚ©ÙĦÛĮ": 3551,
      "ĠØ°ÛģÙĨ": 3552,
      "ĠØªÛĮØ§Ø±ÛĮ": 3553,
      "ĠÙĪØ³Ø§Ø¦ÙĦ": 3554,
      "Ġ199": 3555,
      "ĠÙĪÙĦ": 3556,
      "ĠÙħØ®ØµÙĪØµ": 3557,
      "Ø¹Ø§Øª": 3558,
      "ĠÚ©ÙħØ²ÙĪØ±": 3559,
      "ĠÙħÙĤØ§ÙħØ§Øª": 3560,
      "ÙĨÛģÛĮÚº": 3561,
      "Ø§Ø¦Ø³": 3562,
      "ĠÙĦÙħ": 3563,
      "ĠÙ¾ÛĮØ¯Ø§ÙĪ": 3564,
      "ĠØ¨Ø±Ø¯Ø§Ø´Øª": 3565,
      "ĠØ§Ú©Ø«": 3566,
      "ĠØ¨ÙĦØª": 3567,
      "âĢĺâĢĺÛĶ": 3568,
      "ĠÚĨÛĮÙĦ": 3569,
      "ÛģÙĪ": 3570,
      "Ø¨ØªÛģ": 3571,
      "ĠÚ©Ø±Ø§ÙĨÛĴ": 3572,
      "40": 3573,
      "ĠÙĦÛģØ°Ø§": 3574,
      "Ø°ÛĮ": 3575,
      "ÙĤØ±Ø¢ÙĨ": 3576,
      "ĠÙĦØŃ": 3577,
      "aj": 3578,
      "Ø·Ûģ": 3579,
      "Ġas": 3580,
      "Ø§ÙĦØŃ": 3581,
      "ĠØ§ÙĨØªÙĤØ§ÙĦ": 3582,
      "ĠØ±ÙĪØ§Úº": 3583,
      "ĠØ§ÙħØ¯Ø§Ø¯": 3584,
      "ĠØ´ÛģØ±ÙĪÚº": 3585,
      "ĠÚ¯ÙĦÚ¯Øª": 3586,
      "ĠØ±ÛģØªÛĮ": 3587,
      "ĠÙ¾ÛĮØ³ÛĴ": 3588,
      "ÙĳÙı": 3589,
      "ĠØ³ÙĦÙħØ§ÙĨ": 3590,
      "33": 3591,
      "ĠÚĪÛĮÙħ": 3592,
      "ÛģØ±Ûģ": 3593,
      "ÚĳÙĪÚº": 3594,
      "ĠØŃÙĪØµ": 3595,
      "Ø§ÙħØ±ÛĮÚ©ÛĮ": 3596,
      "ĠØ§ØŃØªØ³Ø§Ø¨": 3597,
      "ĠØ§ÛĮØ±Ø§ÙĨÛĮ": 3598,
      "Ø§ÛĮÙħ": 3599,
      "Ù¾Ø³": 3600,
      "ĠÛĮØ§ÙģØªÛģ": 3601,
      "ĠÙ¾Ø§Ø¦ÛĴ": 3602,
      "ĠÙĪÙĦÛĮ": 3603,
      "ĠÙħØ´Ø±Ùģ": 3604,
      ")ÛĶ": 3605,
      "ĠÛĮÙĪØ±Ù¾": 3606,
      "ĠØ¨ÙĦØªØ³ØªØ§ÙĨ": 3607,
      "ĠØ§ÙħÛĮØ¯ÙĪØ§Ø±": 3608,
      "Ġme": 3609,
      "ĠØ®ÙĦÛĮ": 3610,
      "ĠØªØ±Ø¬ÛĮØŃ": 3611,
      "ĠØ®Ø§ØªÙħÛģ": 3612,
      "ĠÙ¾Ø§ÙĨ": 3613,
      "ĠØ¯Ø§Ø¦Ø±": 3614,
      "ĠÙħØ³ØªØ±Ø¯": 3615,
      "Ø±Ø§Ùģ": 3616,
      "ĠØ¢Ø¦ÙĨØ¯Ûģ": 3617,
      "ĠØ®ÛĮØ§ÙĦØ§Øª": 3618,
      "Ø§Ø¸Ø±": 3619,
      "www": 3620,
      "Ø§ÙħØª": 3621,
      "ÙĦÙĪØ¨": 3622,
      "ĠØ°ÛĮÙĦ": 3623,
      "ĠÙĨØ¬ÛĮ": 3624,
      "ĠâĢĮ": 3625,
      "ĠØŃØµÛĴ": 3626,
      "ĠÙ¾Ú©": 3627,
      "ÛĮÚ©Ù¹Ø±": 3628,
      "Ú¯ÙĨ": 3629,
      "ĠØ¯ÙģØ¹Ûģ": 3630,
      "Ø§Ùĩ": 3631,
      "Ġ×": 3632,
      "ĠØ§ÙĦØ²Ø§ÙħØ§Øª": 3633,
      "ĠÚ©ÙĪØ¦Ù¹Ûģ": 3634,
      "Ø§ØŃØ¯": 3635,
      "Ø§ÙĪÛĮØ±": 3636,
      "ĠØ³ÛģÙĪÙĦØª": 3637,
      "ÙħÙĦÚ©Øª": 3638,
      "ĠÙħØŃØ±ÙĪÙħ": 3639,
      "ĠØŃÙħÙĦÙĪÚº": 3640,
      "ĠÙĪØ§Ø¨": 3641,
      "ĠÙħÙĦØ§Ø²ÙħÛĮÙĨ": 3642,
      "ĠØ±ÛĮÙĨ": 3643,
      "ÙĪÙĦÛĮØ§Øª": 3644,
      "ĠØ§ÙĪÛģ": 3645,
      "ĠAr": 3646,
      "ÙĨØ§ÙħÛģ": 3647,
      "ÛģÙĪÙħ": 3648,
      "ĠØ¬ÙĦØ³": 3649,
      "ĠØ§ÛĮØ¦Ø±": 3650,
      "Ø±ÛĮØŃ": 3651,
      "ĠØ·Ø±Ø²": 3652,
      "ĠØ¹Ø±ØµÛĴ": 3653,
      "ĠÙ¾Ú©Úĳ": 3654,
      "ÙĦÙĪÚ©": 3655,
      "ĠÛģÙĪØ³Ú©ØªØ§": 3656,
      "ĠØªØ¨Ø§Ø¯": 3657,
      "ĠØ§ÙĨØªØ¸Ø§Ø±": 3658,
      "Ø´ÙĪØ±": 3659,
      "ĠØ§Ø±Ø´Ø§Ø¯": 3660,
      "ĠØ®Ø§Ø·Ø±": 3661,
      "ĠØ¨Ø±Ø·Ø§ÙĨÙĪÛĮ": 3662,
      "ĠØ³Ø±Ø¯Ø§Ø±": 3663,
      "ĠØ³ÙħØ¬Ú¾Ø§": 3664,
      "ĠÛĮÙĪØ³Ùģ": 3665,
      "Ð´": 3666,
      "ĠÚ©Ú¾ÚĳØ§": 3667,
      "ĠÚ©Ú¾ÙĪ": 3668,
      "ĠØ§ÙħØªØŃ": 3669,
      "ĠØ¯ÙĪØ³Ø±ÙĪÚº": 3670,
      "ĠØ§Ø¨ØªØ¯Ø§Ø¦ÛĮ": 3671,
      "ĠØ´Ø±ÛĮ": 3672,
      "47": 3673,
      "ĠØ±ØŃÙħØª": 3674,
      "ĠÙħÙĨÙ¹": 3675,
      "ĠÙĨØ²Ø¯": 3676,
      "ĠÙħÙĦØª": 3677,
      "Ù¾ÙĦ": 3678,
      "Ñĥ": 3679,
      "ite": 3680,
      "ØªØ±Ø¬": 3681,
      "ĠÙħØ¯Øª": 3682,
      "ĠØµÙĪØ¨Ûģ": 3683,
      "ĠØ¯ÙĪÙĦØª": 3684,
      "Ġal": 3685,
      "ĠØ¨Ø±Ø§Ø¯Ø±ÛĮ": 3686,
      "ĠØ³Ú©ÛĮÙĪØ±Ù¹ÛĮ": 3687,
      "ĠØªÙĪÙĤ": 3688,
      "ÙĪÙĤØª": 3689,
      "ÙĨÚ¯Ø²": 3690,
      "ĠØ³ÛĮÙ¹": 3691,
      "ĠØ¬ÛģØ§Ø²": 3692,
      "ĠØ³ÛĮÚ©Ú¾": 3693,
      "ere": 3694,
      "ĠÙĨÛĮÚ©": 3695,
      "ĠØ±Ø´ÛĮØ¯": 3696,
      "Ø³ÙĦ": 3697,
      "ĠØ±Ø´": 3698,
      "one": 3699,
      "ĠØ±ÙĪÚ©ÙĨÛĴ": 3700,
      "ated": 3701,
      "ĠÙĨÙĪØ§Ø²Ø´Ø±ÛĮÙģ": 3702,
      "ÙĪØ¬Ú¾": 3703,
      "Ø§Ø³ØªÛĮ": 3704,
      ")ØĮ": 3705,
      "se": 3706,
      "ØĲ": 3707,
      "ĠØ§ï·²": 3708,
      "sl": 3709,
      "ÙĦØ§ÙĤÛĮ": 3710,
      "ĠÙĦÙĨØ¯ÙĨ": 3711,
      "ĠØ·Ø§ÛģØ±": 3712,
      "Ġan": 3713,
      "Ø§Ø¯Ùħ": 3714,
      "ide": 3715,
      "ĠÚĪÛĮÙĪ": 3716,
      "Ù¾Ø§Ø±Ù¹ÛĮ": 3717,
      "ĠØ§Ù¾ÛĮÙĦ": 3718,
      "ĠØ¯ÙħØ§Øº": 3719,
      "ĠØ¢Ø¦ÛĮÚº": 3720,
      "ĠÚ©ÛģØªØ§": 3721,
      "âĢ®": 3722,
      "ĠØ³ÛĮØ±ÛĮØ²": 3723,
      "ĠØµØ§Ø±ÙģÛĮÙĨ": 3724,
      "Ø§Ø±Ù¹": 3725,
      "ĠÙĦØ§Ø´": 3726,
      "Ø§Ø¹Ø´": 3727,
      "ff": 3728,
      "Ġthat": 3729,
      "ĠÙ¾Ø±ÙĪÙģÛĮØ³Ø±": 3730,
      "ĠÛģØ¬": 3731,
      "Ø§Ø²ÛĴ": 3732,
      "ĠØŃØ§ÙĦÛĮÛģ": 3733,
      "ĠØ§ÙĦØ¨": 3734,
      "Home": 3735,
      "ĠÙħÙģØª": 3736,
      "ĠØ¬Ø§Ø³": 3737,
      "ĠÚ©Ø«": 3738,
      "ial": 3739,
      "ĠÚĨØ§ÙĦ": 3740,
      "ÙĪÙĨØ¯": 3741,
      "200": 3742,
      "ĠÙĤÙĦ": 3743,
      "ĠÙħØ¹ÙħÙĪÙĦÛĮ": 3744,
      "ĠÙ¾Ø±ÛĮØ´Ø§ÙĨ": 3745,
      "uk": 3746,
      "ĠØ¹ÙĪØ±ØªÙĪÚº": 3747,
      "ĠSt": 3748,
      "Ġ2012": 3749,
      "ĠÚ©ÛĮÙħÙ¾": 3750,
      "ĠØ¨Ø±ÙĤØ±Ø§Ø±": 3751,
      "ĠÙħØŃØ¯ÙĪØ¯": 3752,
      "ies": 3753,
      "ĠØ¯Ø³ØªÛĮØ§Ø¨": 3754,
      "Ø¶ÙĦ": 3755,
      "ĠØ§ÙĬ": 3756,
      "ĠÙĦÙĨÚ©": 3757,
      "ÙĪØ§Úº": 3758,
      "ard": 3759,
      "ĠÙ¹ÙĪÙ¹": 3760,
      "ĠØªØ®ÙĦÛĮ": 3761,
      "ĠÙĪØ¶Ø§ØŃØª": 3762,
      "ĠÙĥØ§": 3763,
      "ĠÙĪÚ©ÛĮÙĦ": 3764,
      "ØªÙĨ": 3765,
      "ĠÙħØ§ÚĪÙĦ": 3766,
      "Ø§Ø¦ÛĮÙĪ": 3767,
      "ib": 3768,
      "ĠÙĥÙĪ": 3769,
      "ĠÚ©Ø§Ø±ÚĪ": 3770,
      "ĠØ¹ÙħØ§Ø±Øª": 3771,
      "ĠØ§ÙĨÚ¯Ø±ÛĮØ²ÛĮ": 3772,
      "ĠÚĪÙ¾Ù¹ÛĮ": 3773,
      "ÛĮÙĨØ§": 3774,
      "ĠÛĶÛĶ": 3775,
      "ĠÙ¾ÚĳØªØ§": 3776,
      "ĠØªØ¬ÙĪÛĮØ²": 3777,
      "ĠØŃØ§ÙģØ¸": 3778,
      "ĠØ§Ø±Ø¯": 3779,
      "ÙĪØ§Ø¦ÛĮ": 3780,
      "ĠÙĪÚ©Ù¹": 3781,
      "ong": 3782,
      "ÙģÛĮÛģ": 3783,
      "ĠØ³ÙĨØ¨Ú¾": 3784,
      "Ûĵ": 3785,
      "ĠØ³ÛĮÚ©ÛĮ": 3786,
      "ĠØ§ÙĤØ¯Ø§Ùħ": 3787,
      "Ø§Ø¦ÙĪ": 3788,
      "ĠÙħØªØ¹ÙĦÙĤÛģ": 3789,
      "ĠØªØµØ§ÙĪÛĮØ±": 3790,
      "Ø®Ø±ÛĮ": 3791,
      "ÙħØ§ÙĨÛĮ": 3792,
      "ĠÙħÙĨØµÙĪØ¨ÙĪÚº": 3793,
      "39": 3794,
      "ĠØ³Ø³Ù¹Ùħ": 3795,
      "ĠØ¨ÚĨÛģ": 3796,
      "35": 3797,
      "Ø®Ø§Ø±": 3798,
      "ĠÙģØ§Ø¦ÙĨ": 3799,
      "end": 3800,
      "ĠØ¨Ø±Ø¢ÙħØ¯": 3801,
      "ĠØ¶ÙħØ§ÙĨ": 3802,
      "ĠØ¢Ùħ": 3803,
      "ĠØ§Ø¯Ø§Ø¦ÛĮÚ¯ÛĮ": 3804,
      "2019": 3805,
      "ph": 3806,
      "ĠØ¹Ø±ØµÛģ": 3807,
      "''": 3808,
      "ÛĮÙĦÛĴ": 3809,
      "Ø¹ÙħÙĦ": 3810,
      "ĠÚĨÛĮÙĦÙĨØ¬": 3811,
      "ĠÛģÙĪÙĨÛĮ": 3812,
      "ĠâĨ": 3813,
      "Ġ&": 3814,
      "ĠÙ¹Ø±ÛĮÙģÚ©": 3815,
      "ÙĪÙĨÚ¯": 3816,
      "ĠØªØ¬Ø§Ø±Øª": 3817,
      "ĠÙ¾Ø§Ø¦ÛĮ": 3818,
      "45": 3819,
      "Ø¯Ø§ÙĨÙĪÚº": 3820,
      "Ø±Ø§Ø¡": 3821,
      "ĠÙħØ¬ÙħÙĪØ¹ÛĮ": 3822,
      "ĠØ¯ÙĪØ±ÛĴ": 3823,
      "ord": 3824,
      "ĠØ¨ÙĨØ§ÙĨØ§": 3825,
      "ĠØ¨ÛģØªØ±ÛĮ": 3826,
      "ĠÙħØ¹Ø§ÙĪÙĨ": 3827,
      "Ġ>": 3828,
      "ĠÙģØ§Ø±ÙĪÙĤ": 3829,
      "ĠØ´Ø§Ø¹Ø±": 3830,
      "ĠÙĪØ³ÛĮØ¹": 3831,
      "Ġ2011": 3832,
      "ĠØ²ÙħØ§ÙĨÛģ": 3833,
      "ĠØªÙĪÚº": 3834,
      "Ø³Ù¹Ø±ÛĮÙĦÛĮØ§": 3835,
      "ook": 3836,
      "ĠØ³Ø§ÙĦÙĪÚº": 3837,
      "ĠÛĮÙĪØ±Ù¾ÛĮ": 3838,
      "ĠØ¹Ø±Ø§ÙĤ": 3839,
      "ĠØ²ÛĮ": 3840,
      "ĠÛģÙĨÚ¯": 3841,
      "la": 3842,
      "ĠØ¹ÙĦÙħÛĮ": 3843,
      "Â»": 3844,
      "ĠÛģØ§Ø¤Ø³": 3845,
      "out": 3846,
      "ĠØ³ÙĪØ¯": 3847,
      "ĠÙĨÛĮÙ¹": 3848,
      "ĠØ¹Ø¯": 3849,
      "ĠØ§ÙĨØ³Ø§ÙĨÛĮØª": 3850,
      "ĠØ±ÙĪÙ¾": 3851,
      "ĠØ¯ÛĮÚ©Ú¾ÛĮÚº": 3852,
      "36": 3853,
      "ÙħØ²ÛĮØ¯": 3854,
      "ØªØ¨": 3855,
      "ĠÃ": 3856,
      "ĠØ®Ø·Ø±": 3857,
      "Ø§ÙĨÚ©Ûģ": 3858,
      "ĠÙħØ¨Øª": 3859,
      "ï¯": 3860,
      "ĠØ¨Ú¾ÙĪÙĦ": 3861,
      "ĠØ³Ø§ÙĦØ§ÙĨÛģ": 3862,
      "ĠØ±Ø§ÙĪÙĦ": 3863,
      "ĠÚ©ÙħØ§ÙĦ": 3864,
      "ĠÙħÙĦØ²ÙħØ§ÙĨ": 3865,
      "ÙĪÙ¹ÙĪ": 3866,
      "ĠÚĨÙĪÙĨÚ©Ûģ": 3867,
      "ru": 3868,
      "48": 3869,
      "ĠØ³ÛĮÚ©ÛĮÙĪØ±Ù¹ÛĮ": 3870,
      "ĠÚĪØ§Ø¦Ø±ÛĮÚ©Ù¹Ø±": 3871,
      "Ø³Ù¾ÛĮ": 3872,
      "ĠÛģÙĬÚº": 3873,
      "ĠÙħÛģØ§Ø¬": 3874,
      "ĠØ®Ø§ØªÙħÛĴ": 3875,
      "ÙĪÛĮÙ¹": 3876,
      "37": 3877,
      "ØŃÚ©Ø§Ùħ": 3878,
      "ĠÙĨØ²Ø¯ÛĮÚ©": 3879,
      "ĠØªÙĪØ§ÙĨØ§Ø¦ÛĮ": 3880,
      "ĠØ§Ù¹": 3881,
      "ĠØ¢ÙĨÚ©Ú¾ÙĪÚº": 3882,
      "ĠØ§Ø®ØªØª": 3883,
      "Ø§Ø¦ÙĪÚº": 3884,
      "aily": 3885,
      "ĠØ§ÙģÙĪØ§Ø¬": 3886,
      "ĠØ·ÙĦØ¨Ûģ": 3887,
      "ĠÙħØ«Ø¨Øª": 3888,
      "ĠÛģÛĮÙĦ": 3889,
      "ie": 3890,
      "ĠZ": 3891,
      "ÙĨÚĪØ§": 3892,
      "ĠØ´Ø§Ø¹Ø±ÛĮ": 3893,
      "ĠØ¨ÙĨØ§Ø¦ÛĮ": 3894,
      "ĠÙĤØ¨Ø¶Ûģ": 3895,
      "ÙģÛĴ": 3896,
      "ÛĶâĢĺ": 3897,
      "Ø±ÛĮØ§": 3898,
      "ĠÙħÙĨØ³": 3899,
      "ĠÚĨÛĮÙħ": 3900,
      "ĠØ§ÙĪÙĤØ§Øª": 3901,
      "ĠØ§ØªÙĨÛĴ": 3902,
      "ÙĦÛĮØª": 3903,
      "Ø¬Ø¦ÛĴ": 3904,
      "ĠÚĨÚ¾ÙĪÙ¹ÛĮ": 3905,
      "ÛĮÙĨØ³": 3906,
      "ĠØ¬Ø²": 3907,
      "ĠÙħÙħÙĦÚ©Øª": 3908,
      "ĠÙħØ®Ø§ÙĦÙģØª": 3909,
      "ĠÙħØŃØ¨": 3910,
      "ĠØ§ÙĨÙ¹Ø±ÙĨÛĮØ´ÙĨÙĦ": 3911,
      "ĠÙħØ²Ø§ØŃ": 3912,
      "ĠÚ©ÛĮÙħ": 3913,
      "ĠØªØ±ÙħÛĮÙħ": 3914,
      "ĠØ§ØµÙĪÙĦ": 3915,
      "38": 3916,
      "Ø§Ø±Ø§Øª": 3917,
      "ĠØ§Ø³Ù¾ØªØ§ÙĦ": 3918,
      "ĠØ¬ÙĨØª": 3919,
      "ĠØ¹Ø±Ø¶": 3920,
      "ĠØ¬ÙĨØ³ÛĮ": 3921,
      "ĠØ¨Ø²Ø±Ú¯": 3922,
      "ĠØ±ÙĪØ§": 3923,
      "ame": 3924,
      "ĠØ¬Ø§Ø±": 3925,
      "Ø§Ø¦ÙĤ": 3926,
      "ĠÚĨÛĮÚ©": 3927,
      "ĠÙĨÚ¯Ø§Ø±": 3928,
      "Ø¯ÙĪØ³Ø±ÛĮ": 3929,
      "ĠÚ©ÛĮÚº": 3930,
      "ĠÙĦØŃØ§Ø¸": 3931,
      "Ú©ÙĪØ±Ûģ": 3932,
      "ÙĬÙħ": 3933,
      "ĠØ³ÛĮÙĨØ¦Ø±": 3934,
      "ĠÚ©ÙĦØ§Ø³": 3935,
      "ĠÙ¾ÛĮØ¯Ø§ÙĪØ§Ø±": 3936,
      "Ø°Ø±": 3937,
      "ĠØ§ÙĨØªØ®Ø§Ø¨ÛĮ": 3938,
      "https": 3939,
      "ĠÙģØ±ÙħØ§": 3940,
      "Ø®Ûģ": 3941,
      "ĠAM": 3942,
      "ĠØ¢Ø±ÙħÛĮ": 3943,
      "ĠÚ©Ú¾ÙĦØ§ÚĳÛĮ": 3944,
      "ĠÙģÙĦØ³Ø·ÛĮÙĨ": 3945,
      "ĠÙħÙĪÙ¹Ø±": 3946,
      "Ø°ÛĮØ¨": 3947,
      "Ø±ÛĮÙ¹Ø±ÛĮ": 3948,
      "ĠÙħØŃØªØ±Ùħ": 3949,
      "ĠÙĪØ§ØŃØ¯": 3950,
      "rom": 3951,
      "ĠÙħÙģØªÛĮ": 3952,
      "ĠÚ©ÙĦØ¨": 3953,
      "ĠØ¹Ø³Ú©": 3954,
      "Ø³Ø§Ùħ": 3955,
      "ĠØºÙħ": 3956,
      "ĠÙģÙĪØ±Ùħ": 3957,
      "ĠØ§Ø±Ø§Ø¯": 3958,
      "ĠÚ©Ø±ÛĮ": 3959,
      "Ø§Ø¯ÙĤ": 3960,
      "ØŃÚ©Ùħ": 3961,
      "ĠØ¨Ù¹": 3962,
      "ØªØ±Ø§Ùħ": 3963,
      "ĠØ§ÙħØªØŃØ§ÙĨ": 3964,
      "Ø§ÛģÙĦ": 3965,
      "ĠÙģØ¶Ø§Ø¦ÛĮ": 3966,
      "ĠÙ¾ÚĨ": 3967,
      "ĠÙģØ±Ø¶": 3968,
      "ĠÙ¾Ø±Ø³Øª": 3969,
      "ÙĪØ¯Ûģ": 3970,
      "ĠØ´ÙĪØ±": 3971,
      "ĠØŃÛĮØ±Øª": 3972,
      "ĠØ§ÙĦØ±ØŃÙħÙĨ": 3973,
      "ĠØ§ÙĦØ·": 3974,
      "ÛĨ": 3975,
      "ðŁ": 3976,
      "ĠØ¯Ø§Ø¯": 3977,
      "ice": 3978,
      "ĠØ§ÙĨØ³Ø§ÙĨÙĪÚº": 3979,
      "ÙĨÚĪÛĴ": 3980,
      "ØªÛĮØ¨": 3981,
      "ĠÙħÙĨØ¯Ø±": 3982,
      "ĠØ§Ø¶Ø§ÙģÛĴ": 3983,
      "ĠØ´Ø§ÙĨØ¯Ø§Ø±": 3984,
      "ĠÙĨØ§ÙģØ°": 3985,
      "ĠØ¨Ø®Ø§Ø±ÛĮ": 3986,
      "ÙģØ±ÛĮ": 3987,
      "ĠØ¶ÙħØ§ÙĨØª": 3988,
      "ĠÚĨÚ¾Ù¾": 3989,
      "ĠÚ¯Ø±ÙģØªØ§Ø±ÛĮ": 3990,
      "ĠÛģÛĮØ±": 3991,
      "Ø³Ø¹ÙĪØ¯ÛĮ": 3992,
      "ĠØ²Ø¨Ø±Ø¯": 3993,
      "Ø·ÙĦ": 3994,
      "ĠØŃØ±Ø§Ùħ": 3995,
      "ĠØ³Ø±ØŃØ¯": 3996,
      "Ù¹Ø±ÙĪÛĮÙĪ": 3997,
      "ĠÙħØ±Ø²Ø§": 3998,
      "ĠÙ¹ÛĮÚ©": 3999,
      "ĠÚ¯Ø°Ø´ØªÛģ": 4000,
      "ĠØ´ÛģØ§Ø¯Øª": 4001,
      "ĠÚ©Ø§Ø¨ÛĮÙĨÛģ": 4002,
      "ĠÚ©Ú¾ÙĦØ§ÚĳÛĮÙĪÚº": 4003,
      "ĠØ±ÙĪØ§ÙĨÛģ": 4004,
      "Ø¯ÙĨÛĮØ§": 4005,
      "ĠØµØŃØ§Ø¨Ûģ": 4006,
      "ĠÙģØ§Ø¦ÙĨÙĦ": 4007,
      "ĠØµØŃØ§Ùģ": 4008,
      "ĠØ§Ø®ÙĦØ§ÙĤÛĮ": 4009,
      "ĠØªÙĨØ§Ø²": 4010,
      "ÛĮÙĨÙĪÚº": 4011,
      "ĠØªØ´ÙĪÛĮ": 4012,
      "Ø§Ø¤ÙĨÙ¹": 4013,
      "Ø§ÙħØ±ÛĮÚ©Ûģ": 4014,
      "ĠØµØ¯Ø§Ø±Øª": 4015,
      "ĠÙ¾ÛģÚĨ": 4016,
      "ĠØ§ÛĮÙ¹": 4017,
      "Ø²ÛĮÛģ": 4018,
      "ĠÙħØ¨ÙĨÛĮ": 4019,
      "ĠØ±ÙģØªØ§Ø±": 4020,
      "ĠÙħØ¤": 4021,
      "ĠØ§Ú¯Ø±ÚĨÛģ": 4022,
      "ĠØ´ÛģØ²Ø§Ø¯": 4023,
      "ĠØ¨Ú¾Ø§Ø±ÛĮ": 4024,
      "ĠÙ¹Ø±ÛĮ": 4025,
      "ĠÙĪØ¢ÙĦÛģ": 4026,
      "Ø±Ø¯ÛĮ": 4027,
      "ĠÙĪÛģÛĮÚº": 4028,
      "Ø¹Ø§": 4029,
      "ĠØ¹Ø±Ùģ": 4030,
      "ĠÙħØ¬ÛĮØ¯": 4031,
      "Ġ$": 4032,
      "ĠØ§ÙĦØ¨ØªÛģ": 4033,
      "Ø§Ø³Ùħ": 4034,
      "Ø§ÙĦØ§": 4035,
      "ĠØ¯ÛĮØ´": 4036,
      "Ø§Ø³Ù¹": 4037,
      "ĠØ¬ÙĨÛģÛĮÚº": 4038,
      "lic": 4039,
      "Ø§ØªØ°Ûģ": 4040,
      "ĠØ¯Ø§Ø¦": 4041,
      "âĢ¬âĢ®": 4042,
      "ĠØ¯Ú¾ÙħØ§Ú©ÛĴ": 4043,
      "Ú¯Ø§ÙĨ": 4044,
      "ĠÙ¾Ø¨ÙĦ": 4045,
      "ĠØ´Ù¾": 4046,
      "Ġthis": 4047,
      "ĠÙħØ±ÛĮØ¶ÙĪÚº": 4048,
      "ĠØ¹Ø§ÙħØ±": 4049,
      "Ø§Ø±Ø´": 4050,
      "ĠÙħÙĤØ¨ÙĪÙĦ": 4051,
      "ĠØ±Ø§ÙĪÙĦÙ¾ÙĨÚĪÛĮ": 4052,
      "ry": 4053,
      "ĠØ§ÚĨØ§ÙĨÚ©": 4054,
      "Ø±ÙħÛĮ": 4055,
      "ĠØ§ÙĨÚ¯ÛĮ": 4056,
      "ĠØ°ÛģÙĨÛĮ": 4057,
      "ĠØ§ÙĪÙĦØ§Ø¯": 4058,
      "Ġare": 4059,
      "ĠÚĨØ§ÙĨØ¯": 4060,
      "ĠÚĨÛģØ±ÛĴ": 4061,
      "ĠÙħØ·Ø§ÙĦØ¹Ûģ": 4062,
      "ĠÙħØ¬ÙĦØ³": 4063,
      "Ġï»": 4064,
      "Ø§Ø¦ÛĮØ§Úº": 4065,
      "ØªØ§ØŃ": 4066,
      "Ðµ": 4067,
      "ĠØ±Ú©Ú¾ØªÛĮ": 4068,
      "ĠØ§ØªØ§Ø±": 4069,
      "ĠÙĨÙħØ§ÛĮØ§Úº": 4070,
      "Ø³ÛĮØ±": 4071,
      "ĠØ³Ú©Ø§": 4072,
      "ĠØ¨Ø§ØªÙĪÚº": 4073,
      "ĠÛģÙħØ±Ø§Ûģ": 4074,
      "Ø§ØªÚ¾Ø§": 4075,
      "ĠØ§Ø¹ØªØ±Ø§Ø¶": 4076,
      "av": 4077,
      "ĠØ¨Ø§ÙĦØ§": 4078,
      "ĠØ¢Ø±Ûģ": 4079,
      "ĠÙĤÙĦÙħ": 4080,
      "ĠØªØ¬Ø±Ø¨Ûģ": 4081,
      "ĠØ´Ø¹Ø¨ÛĴ": 4082,
      "ĠÚ©Ù¾ØªØ§ÙĨ": 4083,
      "ĠÙħÙĦØ§Ø²ÙħØª": 4084,
      "ĠÙħØ®ØªØµØ±": 4085,
      "ĠÚ¯ÙĦÛĮ": 4086,
      "ĠØ§Ú©Ø«Ø±ÛĮØª": 4087,
      "ĠÙĦØ§Ø¦ÛĴ": 4088,
      "ĠØ§Ø®ØªØ±": 4089,
      "ĠÚĨØ§ÛģØªÛĮ": 4090,
      "ĠØ¨ÛģÙĨ": 4091,
      "ĠÙħÛģÛĮÙĨÛĴ": 4092,
      "46": 4093,
      "Ø§Ø´ÛĮ": 4094,
      "ĠØ§Ø¹Ø²Ø§Ø²": 4095,
      "ĠÙĪØ±ÙĨÛģ": 4096,
      "Ø¨Ú¾Ø§Ø±ØªÛĮ": 4097,
      "Ġ40": 4098,
      "ĠØ¢Ø¦ÛĮÙĨ": 4099,
      "revi": 4100,
      "ĠØ³ÙĦØ·Ø§ÙĨ": 4101,
      "Ø¤Úº": 4102,
      "ĠÙħØ¯ÛĮÙĨÛģ": 4103,
      "ĠØ®Ø²Ø§ÙĨÛģ": 4104,
      "Ø¯Ø³": 4105,
      "ĠØŃÛĮØ±Ø§ÙĨ": 4106,
      "ĠÙĤØ§Ø¨ÙĪ": 4107,
      "ĠØªØ§Ø±": 4108,
      "ĠØªÚ©ÙĦÛĮÙģ": 4109,
      "ĠÙħØ±Ø¶ÛĮ": 4110,
      "Ø§ÛĮØ³": 4111,
      "Ø§ÙĨÚĪØ±": 4112,
      "ÛĶ[": 4113,
      "ĠÚ¯ÙĪØ±": 4114,
      "ĠØ§ÙĦØµ": 4115,
      "ÙĨØ¯ÛĴ": 4116,
      "ĠØ®Ø§ÙĦÛĮ": 4117,
      "ĠÙħØ¨ØªÙĦØ§": 4118,
      "ĠÙħÙĦØªÛĮ": 4119,
      "ĠMar": 4120,
      "Ø§ÙħØ§Ùħ": 4121,
      "ham": 4122,
      "Ù¾ÙĨØ¬Ø§Ø¨": 4123,
      "ĠØ¯ÛĮÚ©": 4124,
      "ĠØ¨Ú¾Ø§Ú¯": 4125,
      "ĠÙ¾ÛģÙĨ": 4126,
      "ĠÙħØ²Ø¯": 4127,
      "ĠØŃÚ©ÙħØ±Ø§ÙĨÙĪÚº": 4128,
      "ĠØ±ÛĮØ§Ø¶": 4129,
      "ĠÚ©ÛĮØ³Ø§ØªÚ¾": 4130,
      "ÙģØ³": 4131,
      "ĠÙħÙĪØ¬ÙĪØ¯Ú¯ÛĮ": 4132,
      "ĠÙĪÙģØ¯": 4133,
      "ĠØŃÙĪØµÙĦÛģ": 4134,
      "ĠÙĪÙģØ§Øª": 4135,
      "ØŃØ¯": 4136,
      "ĠØ·ÙĦØ§ÙĤ": 4137,
      "ĠØ±ÙĪØŃØ§ÙĨÛĮ": 4138,
      "Ø¸Ø±": 4139,
      "ĠØªÙĤØ±ÛĮØ±": 4140,
      "ĠÙ¾ÚĳÛĮ": 4141,
      "ĠÙħÙĦØªØ§": 4142,
      "ĠRe": 4143,
      "49": 4144,
      "ĠØ¨ÛĮÙĦ": 4145,
      "ĠØ§Ø´Ø§Ø±Ûģ": 4146,
      "Ø±Ø§Ùħ": 4147,
      "ĠØ³ÛĮÚ©ÙĪØ±Ù¹ÛĮ": 4148,
      "Ø§Ú©ÛĮÙĨ": 4149,
      "ĠØ³ÙĪØ§": 4150,
      "ĠØ§ÙĨØªÛģØ§": 4151,
      "Ú©ÙĪØ±": 4152,
      "ĠÙħØºØ±Ø¨": 4153,
      "ĠÙĦØ§ÙĦ": 4154,
      "Ú©Ø´ÙħÛĮØ±": 4155,
      "ĠÙĨÙģØ±Øª": 4156,
      "ĠÚ©ÙħÛĮÙĪÙĨ": 4157,
      "ĠØ§Ø¹ØªØ¨Ø§Ø±": 4158,
      "__": 4159,
      "ĠØ³ÙģÛĮØ±": 4160,
      "ĠØ±Ø´ØªÛģ": 4161,
      "ĠØªÚ©ÙħÛĮÙĦ": 4162,
      "Ø´ØªØ±": 4163,
      "ĠÚĪØ§Ø¤ÙĨ": 4164,
      "ĠØ±ÛĮÙĦÙĪÛĴ": 4165,
      "Ù¾Ø±ÛĮØ´ÙĨ": 4166,
      "ĠØ²Ø¨": 4167,
      "ĠØ¬ÙħÛģÙĪØ±ÛĮ": 4168,
      "ĠØ®Ø·Ø±ÙĨØ§Ú©": 4169,
      "ĠØ³Ø§Ø²ÛĮ": 4170,
      "ĠÙ¾Ø´Øª": 4171,
      "ĠØ³ÛģÙĪÙĦÛĮØ§Øª": 4172,
      "ĠØ§ÙĨÙ¹Ø±ÙĪÛĮÙĪ": 4173,
      "ĠØ³Ù¾Ø±": 4174,
      "revious": 4175,
      "Ø¹ÛĮØª": 4176,
      "tic": 4177,
      "Ġâ": 4178,
      "ØµÙĪÙħ": 4179,
      "ĠÙĦØ¨Ø§Ø³": 4180,
      "ĠØ¹Ø¨Ø§Ø³ÛĮ": 4181,
      "ĠÙħØ¬Ø±Ùħ": 4182,
      "ĠÙħÛĮÚĪÛĮÚ©ÙĦ": 4183,
      "ĠÙħÙĤØ¯Ùħ": 4184,
      "ĠØ§ÛĮØ´ÙĨ": 4185,
      "ĠÙ¹Ø§Ø¦ÙħØ²": 4186,
      "Ø³ÛĮØ¯": 4187,
      "31": 4188,
      "ÙĪØ§Ø¶ØŃ": 4189,
      "ĠØ§Ø®Ø±Ø§Ø¬": 4190,
      "ĠÙĦØ§Ú©Ú¾ÙĪÚº": 4191,
      "ĠØ¯ÛĮÙĪ": 4192,
      "ĠØ¯Ø±Ø®Øª": 4193,
      "ĠØ§ØŃØªØ±Ø§Ùħ": 4194,
      "ĠÙĤÛĮÙħØªÙĪÚº": 4195,
      "âĢıâĢıâĢıâĢı": 4196,
      "ĠÙĦØ§Ú¯": 4197,
      "Ġor": 4198,
      "ĠØ¨ÙĪØ¬Ú¾": 4199,
      "ng": 4200,
      "ĠÚĨÙĪØª": 4201,
      "ĠØŃØ§Ø¶Ø±": 4202,
      "ĠØ¯Ø¨Ø¦ÛĮ": 4203,
      "Ù¾ÙĪÙĦÛĮØ³": 4204,
      "ĠØ¯ÙĦÚĨØ³Ù¾ÛĮ": 4205,
      "ÙħØ¬Ú¾ÛĴ": 4206,
      "ĠQ": 4207,
      "iews": 4208,
      "pp": 4209,
      "ĠÙħØµØ±": 4210,
      "ĠØ§ÙģØ³Ø±": 4211,
      "ĠØ¨Ø§Ø²Ø§Ø±": 4212,
      "ĠÙĨØ§ÙħÛģ": 4213,
      "ÛģØ±Ø§": 4214,
      "Ġ31": 4215,
      "ĠÚ©ÙħØ±ÛĴ": 4216,
      "ØŃØ§ÙĨ": 4217,
      "ĠÛģÙĪØ³": 4218,
      "ood": 4219,
      "ĠØ¨Ø¯Ú¾": 4220,
      "ĠÙĤØ±Ø§": 4221,
      "Ø§Ø¦Ø´ÛĮ": 4222,
      "ĠØ¢Ù¹Ú¾": 4223,
      "ĠØ¹Ø«ÙħØ§ÙĨ": 4224,
      "ĠØ§Ø®ØªØªØ§Ùħ": 4225,
      "ĠØ§Ø³Ú©ÛĴ": 4226,
      "Ø²Ø¨": 4227,
      "ĠØ§Ø´Øª": 4228,
      "ĠØ¬Ø±ÙħÙĨÛĮ": 4229,
      "2015": 4230,
      "ÙĪØ§Ø±ÚĪ": 4231,
      "ĠØ±ÛĮØ§Ø³ØªÛĮ": 4232,
      "ĠÙĪØ±Ø²ÛĮ": 4233,
      "Ø¬Ø§ÙĨ": 4234,
      "ĠØ¨Ø§Ø±Ûģ": 4235,
      "ØªØ¹": 4236,
      "ĠØ±ÛģÙĨØ§": 4237,
      "ĠØ§Ø¹Ø¯Ø§Ø¯": 4238,
      "ĠÙĪØ§Ø¬": 4239,
      "ĠÙĤØ¯ÛĮÙħ": 4240,
      "ĠØºÙĦØ·ÛĮ": 4241,
      "ĠÙĬÛģ": 4242,
      "ĠØªÙĨØ®ÙĪØ§Ûģ": 4243,
      "Ø§Ø¯ÛĮØ§": 4244,
      "ĠÛĮÙĤÛĮÙĨØ§": 4245,
      "ĠÙħØ³Ø¦ÙĦÛĴ": 4246,
      "ĠÙħØµØ·": 4247,
      "ĠÚ©Ø§Ø±ÙĪÚº": 4248,
      "ĠØ³Ø±Ú©Ø§Ø±": 4249,
      "ĠÚ©Ø§Øº": 4250,
      "ØªÙģØµÛĮÙĦ": 4251,
      "ĠÙħÙĪØ³": 4252,
      "ĀĀ": 4253,
      "Ù¹Ú¾Ø§": 4254,
      "ai": 4255,
      "ÙĨØ§ÙĨ": 4256,
      "Ú©Ø§ÙĪÙ¹": 4257,
      "ØªØ´": 4258,
      "ĠØ²ÛĮØ§Ø¯ØªÛĮ": 4259,
      "ĠØ±ÛĮÙ¹": 4260,
      "ĠÙģØ·": 4261,
      "ĠØ¨ÛĮÚ©": 4262,
      "ĠÙ¾ÛĮØ´Ûģ": 4263,
      "ĠâĨĴ": 4264,
      "ĠØ¯Ø§Ø¹Ø´": 4265,
      "ÙĦØŃÛģ": 4266,
      "Ø¨ÙĦØ§": 4267,
      "ĠØµØ¯ÛĮÙĤÛĮ": 4268,
      "ĠÙħÙĦÛĮÙĨ": 4269,
      "ĠØ³Ø§ÙĨØŃÛģ": 4270,
      "ĠØ´Ú©Ø±": 4271,
      "ĠÙĨØ§Ø¦Ø¨": 4272,
      "Ø°Ú©Ø±": 4273,
      "ĠØ§ÛĮÚĪÛĮ": 4274,
      "ÛĮÙĪÙ¹Ø±": 4275,
      "ĠÚ©Ø´ÙħÛĮØ±ÛĮÙĪÚº": 4276,
      "ĠØ¯Ø±ÙĪØ§Ø²ÛĴ": 4277,
      "ĠØ´Ø®ØµÛĮØ§Øª": 4278,
      "ĠÙĨØ´Ø³Øª": 4279,
      "Ú¯Ú¾": 4280,
      "ĠØºØ§ÙĦØ¨": 4281,
      "ĠØ¯Ø§Ø±Ø§ÙĦØŃÚ©ÙĪÙħØª": 4282,
      "ĠØ¨Ø§Ø±ÛĮ": 4283,
      "ĠØ§Øº": 4284,
      "ĠØ¯ÙĦÛĮÙĦ": 4285,
      "Ú©ÛĮØ´ÙĨ": 4286,
      "ĠÚĨÙĦÛĮ": 4287,
      "ĠØ¹ÙĨÙĪØ§ÙĨ": 4288,
      "ĠØªØ§Ø¨": 4289,
      "Ú¾ÛĮÚº": 4290,
      "Ú©Ø´ÙĨ": 4291,
      "ÙĪØ¯Ú¾Ø±ÛĮ": 4292,
      "ĠØ³ÙĪÙĨ": 4293,
      "Ø´ÙĪ": 4294,
      "ĠÙĨØ¨": 4295,
      "ĠÙħØ¨ÛĮÙĨÛģ": 4296,
      "Ù¾Ø§Ú©": 4297,
      "ĠØ´Ú©Ø±ÛĮÛģ": 4298,
      "Ú©Ø§Ø±ÛĮ": 4299,
      "ĠØ§ÙģØªØªØ§ØŃ": 4300,
      "ĠÛĮØ§Ø±": 4301,
      "ĠØ®ÙģÛĮÛģ": 4302,
      "ĠØªØ±ÙĤÛĮØ§ØªÛĮ": 4303,
      "ÙĨÙĪØ§Ø²": 4304,
      "ĠØªØ¬Ø§Ø±ØªÛĮ": 4305,
      "ĠØ§Úĳ": 4306,
      "ĠÙĪØ§ÙĤØ¹ÛĴ": 4307,
      "ĠÙĨÙĪÚ©Ø±ÛĮ": 4308,
      "----": 4309,
      "ĠØ¹ÙĤÛĮØ¯": 4310,
      "ĠØŃÙĪØ§ÙĦÛģ": 4311,
      "ÙĪÙĪ": 4312,
      "55": 4313,
      "ØŁØŁ": 4314,
      "Posted": 4315,
      "ĠÛģÙĪØ¦ÛĮÚº": 4316,
      "ĠØ§Ø³Ø§ØªØ°Ûģ": 4317,
      "ĠØ³ÙģÛĮØ¯": 4318,
      "ĠÙħØ¶Ø§ÙħÛĮÙĨ": 4319,
      "ĠÙģØ³": 4320,
      "ĠÙ¾ÚĨÚ¾ÙĦÛĴ": 4321,
      "ĠØ³ÙĪØ§ÙĦØ§Øª": 4322,
      "ÙħÙĨÛĮ": 4323,
      "Ø§Ø¦ÙĨØ§Øª": 4324,
      "99": 4325,
      "ĠâĢĶ": 4326,
      "ĠØªØ¹ÛĮÙĨØ§Øª": 4327,
      "ĠÚĨÙĦÙĨÛĴ": 4328,
      "ĠÙ¹Ø§Ø¤ÙĨ": 4329,
      "ĠÚĨÛĮØ²ÛĮÚº": 4330,
      "ĠØ§ØªÚ¾": 4331,
      "ĠÙĨØ¬Ø§Øª": 4332,
      "Ġag": 4333,
      "ïºİ": 4334,
      "ĠÙħØ³ØªÙĤÙĦ": 4335,
      "ĠÚĪÙĪÙĨ": 4336,
      "ĠÚ¾ÙĪ": 4337,
      "ĠÚ©ØªÙĨÛĴ": 4338,
      "ĠØ±Ø§Ø¬Ûģ": 4339,
      "ĠØ§Ø°": 4340,
      "ĠØ¯ÙĪØ³ØªÙĪÚº": 4341,
      "eh": 4342,
      "ĠØ¨Ø§ÙĤØ§Ø¹Ø¯Ûģ": 4343,
      "ĠÙ¾Ø°ÛĮØ±": 4344,
      "Ø§ÙĦÛĴ": 4345,
      "Ø¹ÙĦÙĪÙħ": 4346,
      "ĠÙ¾ÙĨØ¬": 4347,
      "ĠÙħØ¹Ø§ÛģØ¯Ûģ": 4348,
      "ĠØ±ÛĮÙħ": 4349,
      "Ø§ÙĤØ¹": 4350,
      "ĠØ¹Ø±Ø¨ÛĮ": 4351,
      "Ø§Ø¦ÛĮÚĪ": 4352,
      "ØĶ": 4353,
      "ĠÂ«": 4354,
      "ĠØ¬Ø¹ÙĦÛĮ": 4355,
      "ĠØ¹ÛģØ¯ÛĴ": 4356,
      "Ø°Ø§Ø¨": 4357,
      "Ø§ØªØ±": 4358,
      "Ø¦ÙĨØ¯Ûģ": 4359,
      "ĠÙħØ«ÙĦØ§": 4360,
      "ĠØ³ÛĮØ§Ûģ": 4361,
      "ĠÙĪÛĮÙĦ": 4362,
      "edia": 4363,
      "ĠØ´ÙĨØ§Ø®Øª": 4364,
      "ĠØµØ§Ø¯ÙĤ": 4365,
      "Ġ06": 4366,
      "ĠØ´Ø±Ú©": 4367,
      "ĠØ§ÛĮÙĪØ§Ø±ÚĪ": 4368,
      "ĠØ§ÛģÙĦÚ©Ø§Ø±ÙĪÚº": 4369,
      "ĠØ§Ø¯Ø§Ú©Ø§Ø±Ûģ": 4370,
      "ĠÚ©ÛĮÙģ": 4371,
      "tion": 4372,
      "ĠØ¹ÙĨØ§ØµØ±": 4373,
      "ĠØ³ÙħÙĨØ¯Ø±": 4374,
      "ĠØ§Ú©Ø¨Ø±": 4375,
      "ĠØŃØ§ÙĦØ§ÙĨÚ©Ûģ": 4376,
      "ĠØ§ÙĦØ´": 4377,
      "ĠØ¨ÙĨØ§Ø¦ÛĮÚº": 4378,
      "ĠÙ¾Ø§Ø±Ú©": 4379,
      "ST": 4380,
      "ØŃØµ": 4381,
      "ach": 4382,
      "ĠØ§ÙĦØª": 4383,
      "ĠÙħØ´ÙĪØ±Ûģ": 4384,
      "Ġun": 4385,
      "ĠØ§ÛĮÙĪØ§ÙĨ": 4386,
      "ĠØªÙĤØ§Ø¶": 4387,
      "ĠØ³Ø§Ø¦ÛĮÚ©ÙĦ": 4388,
      "ĠÙħÚĨ": 4389,
      "ĠØªØ§Ø«": 4390,
      "Ø±ÛĮØ±ÛĮ": 4391,
      "Ø§Ø¯ÛĮØ«": 4392,
      "ĠØ¯ÛĮÙĪØ§Ø±": 4393,
      "ĠØ¯ÙĪØ¯Ú¾": 4394,
      "ĠØªÛģØ°ÛĮØ¨": 4395,
      "ĠØ¨Ø§ÛģÙħÛĮ": 4396,
      "ĠÚĨÛĮØ²ÙĪÚº": 4397,
      "ĠØ¨ÙĦØ§ÙĪÙĦ": 4398,
      "ĠÙ¾ØªÚ¾Ø±": 4399,
      "ÛģÙħØ§Ø±ÛĴ": 4400,
      "ĠÙģØª": 4401,
      "ĠÙģØ§Ø¦ÙĦ": 4402,
      "ÙħÚ¯Ø±": 4403,
      "ĠØªÙĪØ³ÛĮØ¹": 4404,
      "ÙĬÙĩ": 4405,
      "ĠÙħØ±Ø¯ÙĪÚº": 4406,
      "Ð³": 4407,
      "ĠØ¬Ø§Ù¾": 4408,
      "ĠØªÙģØªÛĮ": 4409,
      "ĠØ¨ÛĮØ±ÙĪÙĨ": 4410,
      "Ø¢Ø¦ÛĮ": 4411,
      "lah": 4412,
      "ĠØŃØ¶Ø±Ø§Øª": 4413,
      "ÚĨÙĨ": 4414,
      "ĠØ§ÛĮÛģ": 4415,
      "line": 4416,
      "ĠØ§Ù¾ÙĨ": 4417,
      "Ø§ÙĨØ¯Ú¾ÛĮ": 4418,
      "ĠØ§Ø´Ø±Ùģ": 4419,
      "ĠÚ©Ø±Ø±ÛģÛĮ": 4420,
      "ĠÚĪØ±Ø§Ø¦ÛĮ": 4421,
      "ĠØ±Ø§Ø´": 4422,
      "ĠØªØ¬Ø²ÛĮÛģ": 4423,
      "ÙĤÙĪÙħÛĮ": 4424,
      "ĠÙģÙĪØ±Ø§": 4425,
      "Next": 4426,
      "âĢĶ": 4427,
      "Ø¨ÙĨ": 4428,
      "ĠØµÙģØ§Ø¦ÛĮ": 4429,
      "ĠÙĪØ¹Ø¯Ûģ": 4430,
      "ĠØ¨ÚĨØ§ÙĨÛĴ": 4431,
      "ĠØ§Ø³Ø¯": 4432,
      "Ġhttp": 4433,
      "Ø§ØµØ¯": 4434,
      "ĠÙħØ´Ø±ÙĤÛĮ": 4435,
      "ĠÚ©ÙħÙ¾ÙĨÛĮÙĪÚº": 4436,
      "ĠÙ¾ÛĮÙ¹": 4437,
      "ĠØ®Ø§ÙħÙĪØ´": 4438,
      "Ø¬Ø§": 4439,
      "ĠÙģÛĮÙĦ": 4440,
      "ĠØ³ÙĨØ¯": 4441,
      "Ø¸ÙħÛĮ": 4442,
      "ĠÙ¾ÙĪØ±Ù¹": 4443,
      "ĠØŃØ±Ú©Øª": 4444,
      "org": 4445,
      "ĠØ°Ø±Ø§": 4446,
      "ĠÙĨØ¸Ùħ": 4447,
      "ĠØªØ¨ØµØ±ÛĴ": 4448,
      "ob": 4449,
      "ĠØ¹Ø§Ø´": 4450,
      "ĠÚĪÛĮØ²Ø§Ø¦ÙĨ": 4451,
      "ĠÙ¹ÛĮÙĦÛĮ": 4452,
      "34": 4453,
      "Ø¬ÙĨÚ¯": 4454,
      "ĠÙģÛĮÚ©": 4455,
      "ĠØ§Ø±Ø§Ú©ÛĮÙĨ": 4456,
      "ĠØ¬Ø±Ø§Ø¦Ùħ": 4457,
      "ÛĮÙħÙĨ": 4458,
      "ĠÙĪÛĮØ²": 4459,
      "ĠÙĨÛģÙĬÚº": 4460,
      "ĠØ³Ø§Ø±Ø§": 4461,
      "ÙĦØ±": 4462,
      "ÙħÙĪ": 4463,
      "Ø±Ø§ÙĨÛĮ": 4464,
      "port": 4465,
      "ĠÛģÙģØªÛģ": 4466,
      "ĠØ¯ÛģØ´ØªÚ¯Ø±Ø¯ÛĮ": 4467,
      "ĠÚ¯ÛĮÙĦ": 4468,
      "Ø¨Ø±Ø·": 4469,
      "ĠØ§Ø³ØªØŃÚ©Ø§Ùħ": 4470,
      "ĠØ¹Ø¬ÛĮØ¨": 4471,
      "ÙŃ": 4472,
      "ĠÙĦÚ¯Ø§Ø¦ÛĴ": 4473,
      "ĠÙ¾ÛģÙĨÚĨÙĨÛĴ": 4474,
      "ĠØ¨ÛĮÙ¹Ø§": 4475,
      "ĠØ¸ÙģØ±": 4476,
      "Ø¨Ø§Ø¯ÛĮ": 4477,
      "ĠØ¯ÙĪÚĳ": 4478,
      "ĠÙĨÚ¯Ø§Ûģ": 4479,
      "Ġï¿½": 4480,
      "ĠÚ¯Ø§Ø¤Úº": 4481,
      "ĠØ§Ø®ØªÛĮØ§Ø±Ø§Øª": 4482,
      "Ø§Ø¦ÛĮÚ©ÙĪØ±Ù¹": 4483,
      "ĠØŃØ³Ø§Ø¨": 4484,
      "ØªÙģØµÛĮÙĦØ§Øª": 4485,
      "ĠØ³Ø¹Ø¯": 4486,
      "ĠÚ©Ø±Ùħ": 4487,
      "ĠÚ©Ø§ÙħÙĪÚº": 4488,
      "ØªÙħÛĮ": 4489,
      "ĠÙħØ§ÛģØ±": 4490,
      "ĠØ´ÛĮØ¹Ûģ": 4491,
      "57": 4492,
      "Ø§ÙģØºØ§ÙĨ": 4493,
      "ĠØ¬Ø§ÙĨØªØ§": 4494,
      "ĠØ³ÛĮÙĨÙ¹Ø±": 4495,
      "Ø´ÛĮØ§Øª": 4496,
      "ĠØ§ÛĮÙ¾": 4497,
      "ĠØµÙĨØ¹Øª": 4498,
      "ĠØµØŃØ§ÙģÛĮÙĪÚº": 4499,
      "Ø¬Ø±Ø²": 4500,
      "ĠØ³ÙħØ§Ø¬": 4501,
      "ĠÚ©ÙĪØ±ÛĮØ§": 4502,
      "ĠÚ©ÙĪÛģ": 4503,
      "ÛģØ²Ø§Ø±": 4504,
      "ĠÙĤØ±ÛĮØ´ÛĮ": 4505,
      "ÙħØ¨Ø¦ÛĮ": 4506,
      "56": 4507,
      "ĠØªØ±ØªÛĮØ¨": 4508,
      "ĠØ³Ø±Ú¯Ø±ÙħÛĮÙĪÚº": 4509,
      "ĠØ§Ø³Ú©ÛĮ": 4510,
      "Ù¾Ø§Ú©Ø³ØªØ§ÙĨÛĮ": 4511,
      "ØĮØĮ": 4512,
      "ĠØ´Ø±ÛĮØ¹Øª": 4513,
      "ĠÛģÛĮÚĪ": 4514,
      "Ù¾ÙĪØ±ÛĮ": 4515,
      "ÙĨØ¯ÙĪÚº": 4516,
      "ĠØµÙģØŃ": 4517,
      "ass": 4518,
      "Ú©ÙĪØ¦ÛĮ": 4519,
      "ĠØ§Ø¨Ø±Ø§Ûģ": 4520,
      "ĠÚ©ØªØ¨": 4521,
      "ÛĮØ¹ÙĨÛĮ": 4522,
      "ĠØ§Ú©Ø§Ø¤ÙĨÙ¹": 4523,
      "ĠØ¹ÙĦÙĪÙħ": 4524,
      "ĠÛ²Û°Û±Û": 4525,
      "Previous": 4526,
      "Ø§ÛĮØªÛĮ": 4527,
      "Ðº": 4528,
      "Ġde": 4529,
      "ÙĪØ§Ø¨": 4530,
      "ĠØ¨ÚĨÛĮ": 4531,
      "ĠØ³Ø®": 4532,
      "ĠÙħØªØ¹Ø§Ø±Ùģ": 4533,
      "ĠÚ©ØªÙĨÛĮ": 4534,
      "ĠØªÙĨØ¸ÛĮÙħÙĪÚº": 4535,
      "ĠØ¨ÚĳÚ¾Ø§ÙĨÛĴ": 4536,
      "ĠÚ©Ø§Ø¦ÙĨØ§Øª": 4537,
      "ĠÙħØ¯Ø§Ø±": 4538,
      "ĠÙħÛģÙĨÚ¯": 4539,
      "Ø§Ø±Ø¨": 4540,
      "Ù¾ÛĮØ´": 4541,
      "ĠØ¬Ø°Ø¨Ø§Øª": 4542,
      "ĠØ±Ø³Ø§Ø¦ÛĮ": 4543,
      "Ø³Ø§Ø¨ÙĤ": 4544,
      "ĠØ¯Ø±ÛĮØ§ÙģØª": 4545,
      "urdu": 4546,
      "ĠØ¬Ø¹": 4547,
      "Ø±ÙĪÛĮ": 4548,
      "ĠØ¹ÙĤÙĦ": 4549,
      "ĠÙħØ§Ø¨": 4550,
      "ĠÙħÚ©Ûģ": 4551,
      "ĠØ§ÙħÛĮ": 4552,
      "ĠØ¹ÛĮØ³": 4553,
      "ĠØ¢Ø¤": 4554,
      "ĠÚĨÙĪØ±ÛĮ": 4555,
      "Ø®Ø¨Ø±": 4556,
      "ĠÙ¾Ø³ÙĨØ¯ÛĮ": 4557,
      "Ġ05": 4558,
      "Ø§ÙĪØª": 4559,
      "ĠØ¯Ø¨Ø§Ø¤": 4560,
      "Ø§Ø±ÙĤ": 4561,
      "ĠÙħØ§ÛĮÙĪ": 4562,
      "ĠÙĪØ§ÙĦØ¯Ûģ": 4563,
      "Ġ2010": 4564,
      "ĠÙĪØ§ÙĤØ¹ÛĮ": 4565,
      "Ð¼": 4566,
      "ÙĬÙĦ": 4567,
      "Ġ''": 4568,
      "ĠØ³ÙħØ¬Ú¾ÙĨÛĴ": 4569,
      "ĠØ¬Ø§ÙĨÛĮ": 4570,
      "ĠØ§ÙĦÛĮ": 4571,
      "ÙĪÙĨØ³": 4572,
      "ĠÙħØ³Ø¹ÙĪØ¯": 4573,
      "ĠØ®ÙĦ": 4574,
      "ĠØ¢Ú¯Ø§Ûģ": 4575,
      "ÛĶ(": 4576,
      "Ø§ÛĮÙĨ": 4577,
      "ĠÚ©ØªØ§Ø¨ÙĪÚº": 4578,
      "ÙĬØ¯": 4579,
      "ĠØ®Ø§ÙĦØ¯": 4580,
      "ĠDaily": 4581,
      "ĠÚ¯ÙĨ": 4582,
      "ĠÙĪØ§Ø¨Ø³ØªÛģ": 4583,
      "Ð°ÑĢ": 4584,
      "ĠÙħØ°Ú©ÙĪØ±Ûģ": 4585,
      "ĠÙ¾Ø§ÙĨÛĴ": 4586,
      "ĠÙĨØ§ÙħØ²Ø¯": 4587,
      "ĠÙħØ¹ØµÙĪÙħ": 4588,
      "ÙĤØ§ÙĨ": 4589,
      "ĠÙĨØ§ÙĤØ§Ø¨ÙĦ": 4590,
      "ØµÙĪØ¨": 4591,
      "ĠÙħØ§Ø³": 4592,
      "ĠØ±ÙĪØ²Ø§ÙĨÛģ": 4593,
      "Ø²ÙħÛĮÙĨ": 4594,
      "ĠÙĪØ§Ø¯ÛĮ": 4595,
      "Ø´ÛĴ": 4596,
      "ĠÙĤÛĮØ§ÙħØª": 4597,
      "ĠØ§ØªÛĴ": 4598,
      "80": 4599,
      "ĠØ±ÛģØ§Ø¦Ø´": 4600,
      "),": 4601,
      "ĠÙħØ¹ÙħÙĪÙĦ": 4602,
      "ĠÙģÙĤÛģ": 4603,
      "ĠÙĦØ§ÛĮØ§": 4604,
      "ÙĪØ¹Ûģ": 4605,
      "ĠØ¬ÙħÙĪÚº": 4606,
      "ĠÙħØªØ§Ø«Ø±Ûģ": 4607,
      "ĠÙħÙģØ§Ø¯Ø§Øª": 4608,
      "Ø¬Ø§Ùħ": 4609,
      "Ù´": 4610,
      "ĠÙħÙĨØ²ÙĦ": 4611,
      "Ú©ÚĨÚ¾": 4612,
      "Ø¨ÛģØª": 4613,
      "ĠÙħÙĤØ¯ÙħØ§Øª": 4614,
      "ĠØ§ÙĨÚ©ÛĴ": 4615,
      "ØŃÛĮØ¯": 4616,
      "ĠØ²ÛĮÙĨ": 4617,
      "ÙħÛĮØ§Úº": 4618,
      "44": 4619,
      "ĠØ§Ø³ØªÙĤ": 4620,
      "ÙĬØª": 4621,
      "ĠØ³ÛĮÙĨÛĮÙ¹": 4622,
      "ĠØ¨Ú¯": 4623,
      "ĠØ¨Ø§Ø¬": 4624,
      "ĠØ§ÙģØ±ÛĮÙĤÛģ": 4625,
      "ĠÚ©Ú¾Ø§": 4626,
      "ĠØ³ÙģØ§Ø±Øª": 4627,
      "Ø§ÙģÙ¹": 4628,
      "ĠÚĨÙĪ": 4629,
      "ÙĤÙĪÚº": 4630,
      "ĠØ§ÙĨÚ¯ÛĮØ²": 4631,
      "ĠØ°ÛĮ": 4632,
      "ĠØ¨ÙĨÚ¯ÙĦÛģ": 4633,
      "Ø±Ø§Ø²": 4634,
      "ĠÙ¾ÙĦÛĮÙ¹": 4635,
      "ĠØ´ÙĪÙĤ": 4636,
      "ĠØ¨ØŃØ§ÙĦÛĮ": 4637,
      "ĠÙĦÚ©Ú¾ØªÛĴ": 4638,
      "ĠÚĨÙĦØ§ÙĨÛĴ": 4639,
      "ĠÙĢ": 4640,
      "ect": 4641,
      "Ú©Ø±ÙĪ": 4642,
      "ĠÚ©ÙĪØ´Ø´ÙĪÚº": 4643,
      "ĠØ±Ú©Ø§ÙĪÙ¹": 4644,
      "ĠØ¬ÛģØ§Ø¯": 4645,
      "Ø§Ù¾ÙĨÛĮ": 4646,
      "ĠÙ¾ÛĮÙħØ§ÙĨÛĴ": 4647,
      "ĠØ§Ø¹ØªØ±Ø§Ùģ": 4648,
      "ĠÚ©Ù¹": 4649,
      "Ġ197": 4650,
      "ĠØ±ÙĪÙĨ": 4651,
      "ÙĨÚ¯Ù¹ÙĨ": 4652,
      "ĠÙĨØ¯": 4653,
      "ĠÙĦÙĬ": 4654,
      "ÙħÛĮÙ¹Ø±": 4655,
      "ĠÚ©Ù¾ÚĳÛĴ": 4656,
      "ĠØ¯ÛĮÚ©Ú¾ÛĮ": 4657,
      "58": 4658,
      "ĠÙ¾ÛĮÙ¾ÙĦØ²Ù¾Ø§Ø±Ù¹ÛĮ": 4659,
      "Ø³ÙĦØ§Ùħ": 4660,
      "ÛģÙħÛĮÚº": 4661,
      "ĠØ¨Ø³Øª": 4662,
      "Ø§ØŃÙĦ": 4663,
      "ĠØ³ÛĮÙħ": 4664,
      "ĠÙģØ®Ø±": 4665,
      "ÚĳÛĮØ§Úº": 4666,
      "ĠØ§ÛĮÚ©Ø´ÙĨ": 4667,
      "ØŃØ¯Ûģ": 4668,
      "Ø®ÙĦ": 4669,
      "ĠÙħØ¹Ø§Ø´Ø±Ûģ": 4670,
      "ĠØŃÙĤØ§Ø¦ÙĤ": 4671,
      "ĠØ°Ø®": 4672,
      "ĠØ³ÙĪØ§Ø±": 4673,
      "oll": 4674,
      "ĠØ§Ø³ØªØ§Ø¯": 4675,
      "ĠÙħÙĤØ¯Ø§Ø±": 4676,
      "ĠCh": 4677,
      "Ġyour": 4678,
      "ĠÚĪÙĪÛĮ": 4679,
      "Ø´ÛĮØ®": 4680,
      "ĠØ¬ÙĨÚ¯ÛĮ": 4681,
      "ĠÙħÙĨÙģÛĮ": 4682,
      "ĠØ¯ÛĮÚ©Ú¾ÙĨØ§": 4683,
      "Ø§ÙĨÛĮØ§Úº": 4684,
      "Ø§ÙģØ±Ø§Ø¯": 4685,
      "ĠØªÙĨÚ¯": 4686,
      "Ø¢Ø¨Ø§Ø¯": 4687,
      "ĠØ§Ø´ÛĮØ§Ø¡": 4688,
      "ÙħÛĮØ±ÛĴ": 4689,
      "Ø¹ÙĪØ§Ùħ": 4690,
      "ĠØ§ÙģØ²": 4691,
      "ÙħÛĮØ²": 4692,
      "ĠÙĪÛĮØ³ÛĴ": 4693,
      "ĠÚĪØ§ÙĦØ§": 4694,
      "ĠØ§Ø¨Ø±Ø§ÛģÛĮÙħ": 4695,
      "âĨĲ": 4696,
      "ĠØ¬Ø§ÙħØ¹": 4697,
      "ĠØ¨Ø±Ø³ÙĪÚº": 4698,
      "Ġmore": 4699,
      "ĠÚ©Ø§Ø±ÙĪØ¨Ø§Ø±ÛĮ": 4700,
      "ĠØ¬Ø§ÙħØ¹Ûģ": 4701,
      "Ø·Ø§ÙĨ": 4702,
      "Øĳ": 4703,
      "ĠØ¬ÙĨØ³": 4704,
      "Ù¹ÙĪÚº": 4705,
      "ÛĮÙĨÚ¯ÛĴ": 4706,
      "ĠØ³ÙĪÙĨÛĴ": 4707,
      "ĠÚĪÛĴ": 4708,
      "ÙģØ¹": 4709,
      "Ø±Ø¨Øª": 4710,
      "Ú¾ÛĮØ±": 4711,
      "ĠÚ©Ø§ØºØ°": 4712,
      "ĠØ±Ø§ÙĨØ§": 4713,
      "ĠÙ¾ÙĦØ§": 4714,
      "Ġfrom": 4715,
      "Ø³Ûģ": 4716,
      "ĠØ¨Ú¾ÛĮØ¬Ø§": 4717,
      "ĠÚ¯ÙĨØ¬": 4718,
      "ĠÚ©Ø§Ø±Ú©ÙĨÙĪÚº": 4719,
      "ĠÙ¾Ø§Ú©Ø³ØªØ§ÙĨÛĮÙĪÚº": 4720,
      "ĠÚĨÙĪÚ©": 4721,
      "ĠÙħØ±ØªØ¨": 4722,
      "ĠÙ¹Ú©Ù¹": 4723,
      "ĠÙĨØ¨ÙĪØª": 4724,
      "ĠÙħÙĪØ§ÙĤØ¹": 4725,
      "ĠØ¹Ø²Ùħ": 4726,
      "ĠØ¬Ø³ÙħØ§ÙĨÛĮ": 4727,
      "ĠÙħØ³ÙĦØŃ": 4728,
      "59": 4729,
      "ĠØ§ÛĮÚ©Ø³Ù¾": 4730,
      "ĠØ³ÛĮÙĨÛĮÙ¹Ø±": 4731,
      "ĠØ³ÚĳÚ©ÙĪÚº": 4732,
      "ĠÛģØ¯Ùģ": 4733,
      "ĠØ±Ø§Ùħ": 4734,
      "ĠÚ©Ø§Ù¹": 4735,
      "ĠØ§Ø³Ø±Ø§Ø¦ÛĮÙĦÛĮ": 4736,
      "Ø³Ø·": 4737,
      "Ù¾Ø±ÙĪ": 4738,
      "ĠØ´ÙħÙĪÙĦÛĮØª": 4739,
      "ĠØ¯Ø§Ø±ÙĪÚº": 4740,
      "Ġ{": 4741,
      "ĠÚ¯ÙĪØ´Øª": 4742,
      "ÙħÙĪÙĦØ§ÙĨØ§": 4743,
      "ĠØŃØ§Ø¯Ø«ÛĴ": 4744,
      "ĠÛģÙĪÙ¹ÙĦ": 4745,
      "ĠØ§Ø³ÙĦØŃÛģ": 4746,
      "ĠÙĨÚ©Ø§ØŃ": 4747,
      "ĠÙĨÚ¯Ø±Ø§ÙĨÛĮ": 4748,
      "ĠØ§ÙĨÛģÛĮ": 4749,
      "ĠØ§ØªÚ¾Ø§Ø±Ù¹ÛĮ": 4750,
      "ĠÙħÙĦØªØ§ÙĨ": 4751,
      "ĠÙ¾Ø¨ÙĦÚ©": 4752,
      "ĠØ®ÛĮØ²": 4753,
      "ĠØ®Ø§ÙĨÛĴ": 4754,
      "ĠØªØ´ÙĪÛĮØ´": 4755,
      "Ø§Ú©ÙĪ": 4756,
      "ĠÙħØ¯Ø±": 4757,
      "ĠÙħÛģÙħØ§ÙĨ": 4758,
      "ĠØ§ØŃØ³ÙĨ": 4759,
      "ĠÙħØ±ØŃÙĪÙħ": 4760,
      "ĠØ±ÙĪØ²Ú¯Ø§Ø±": 4761,
      "ØªØ±Ø¬ÙħÛģ": 4762,
      "ĠØ¨Ø§Ø·": 4763,
      "ĠØ§Ø®ÙĦØ§ÙĤ": 4764,
      "ĠØŃØ¯ÙĪØ¯": 4765,
      "ĠÙ¾Ø±ÙĪØ§Ø²": 4766,
      "ari": 4767,
      "ĠØ§ÙĨÙ¹Ø±ÙĨÛĮÙ¹": 4768,
      "ÙĪÙĨÛģ": 4769,
      "ÙħØªØ§Ø²": 4770,
      "âĢĵ": 4771,
      "ĠØ´Ú©Ø§ÛĮØª": 4772,
      "ĠÚ©Ø±Ø±ÛģØ§": 4773,
      "ĠÙ¾ÛģÚĨØ§ÙĨ": 4774,
      "AA": 4775,
      "ĠØ±Ø§Ø²": 4776,
      "ĠØ§ÙĨØ¹Ø§Ùħ": 4777,
      "ĠÙĦÚĳØ§Ø¦ÛĮ": 4778,
      "ĠÚ©Ø±Ø³": 4779,
      "ĠØ¬Ø§Ø±ÛģÛĴ": 4780,
      "ĠØ¹Ø°Ø§Ø¨": 4781,
      "ĠØ¯Ú©Ø§ÙĨ": 4782,
      "Ø¯Ø§Ø¡": 4783,
      "ĠØ¯ÙĦÚĨØ³Ù¾": 4784,
      "Ø§Ú©Ø³": 4785,
      "ÙģÙ¹": 4786,
      "ĠØ¦ÛĴ": 4787,
      "ĠÙĨØ§ØµØ±": 4788,
      "ĠÙ¾ÙĪØ²ÛĮØ´ÙĨ": 4789,
      "Ø¬Ø²": 4790,
      "ash": 4791,
      "ĠØªØ¨Ø§Ø¯ÙĦÛģ": 4792,
      "ĠÚĨÙĪØ¯Ú¾Ø±ÛĮ": 4793,
      "Ù¹ÛĮØ§Úº": 4794,
      "ÙĨØ¯Ú¯ÛĮ": 4795,
      "ĠØ§ØŃØ§Ø¯ÛĮØ«": 4796,
      "ĠÚ©Ùģ": 4797,
      "ĠÙħØ®ÙĦÙĪ": 4798,
      "ĠÙ¾Ø®ØªÙĪÙĨØ®ÙĪØ§": 4799,
      "ĠØ±ÙĪØ§ÛĮØ§Øª": 4800,
      "ĠÙ¾ÛĮÙĨÛĴ": 4801,
      "ĠÙħØ±Ø¶": 4802,
      "ĠØ³Ø±Ùģ": 4803,
      "ĠÙĨØ¹ÙħØª": 4804,
      "Ġpro": 4805,
      "Ú©Ù¹Ø±": 4806,
      "ĠØ¯Ø±Ø§ØµÙĦ": 4807,
      "ĠÚĨØ§ÛģÛĮ": 4808,
      "ĠÚ¯Ø§ÚĳÛĮÙĪÚº": 4809,
      "ÙĪØ±ÙĪ": 4810,
      "ĠØ¨ÚĳÚ¾Ø§": 4811,
      "ĠÙħÙĤØ§ØµØ¯": 4812,
      "ÚĨÛĮÙģ": 4813,
      "pl": 4814,
      "41": 4815,
      "ĠØ§ÙĨÚ©ÛĮ": 4816,
      "ÙĪØ´ÛĮ": 4817,
      "ĠÙĤØ§Øª": 4818,
      "ĠØªÚ¾Ø§Ùħ": 4819,
      "Ø¬ÙħØ¹": 4820,
      "Ġus": 4821,
      "ĠÙħÙģØ§Ø¯": 4822,
      "Ø§Ø¤ÙĨÚĪ": 4823,
      "ĠØ¦ÛĮ": 4824,
      "Ú©Ø§ÙĦÙħ": 4825,
      "ĠÙģÛĮÚ©Ù¹Ø±ÛĮ": 4826,
      "ĠØªØ¯": 4827,
      "ĠØ§Ø¹ÙħØ§ÙĦ": 4828,
      "ck": 4829,
      "ĠØ§ÙĪÙĪØ±": 4830,
      "ĠÙħØ´Ø±ÙĤ": 4831,
      "Ú©ÙĨÛģ": 4832,
      "Ġhttps": 4833,
      "ack": 4834,
      "ĠØ§ÛĮØ³ÙĪØ³ÛĮ": 4835,
      "Ø¬Ø§Ø²": 4836,
      "ĠÙ¾Ø§ÙĦÛĮØ³": 4837,
      "Ġnot": 4838,
      "ĠÙ¹Ú©": 4839,
      "ĠÙħØ±Ø¨": 4840,
      "ĠØ§ÙĦÛģ": 4841,
      "ĠØ§Ø¦ÛĮØ±": 4842,
      "Ø¹ÙĦÙħ": 4843,
      "ĠÛģÙĪÙĨÚ¯ÛĴ": 4844,
      "ĠÙĦÛĮØªØ§": 4845,
      "ory": 4846,
      "ĠÛģØ§Ø¦ÛĮÚ©ÙĪØ±Ù¹": 4847,
      "ĠÙģØ§Ø·": 4848,
      "ÛĮÛģØ§Úº": 4849,
      "ĠØ§ÙĦÛĮÚ©Ù¹Ø±": 4850,
      "ĠÚ©ÙĪÚĨ": 4851,
      "ĠØ§Ø¯Ø¨ÛĮ": 4852,
      "ink": 4853,
      "ĠÚ¯ÙĪÛĮØ§": 4854,
      "ĠÙĪØ³Ø·ÛĮ": 4855,
      "ĠØ´Ø±Ø·": 4856,
      "ĠÙ¾ÛģØ§Úĳ": 4857,
      "ĠÙ¾Ø§ÙĪØ±": 4858,
      "ĠØ´Ø¹Ø±": 4859,
      "Ø§Ø¦Ùģ": 4860,
      "ĠÙģÙĦØ§ØŃ": 4861,
      "ĠAb": 4862,
      "ĠÙ¹Ú©Ø±": 4863,
      "omments": 4864,
      "Ø´Ø§Ø±": 4865,
      "ĠÙĪØ²ÙĨ": 4866,
      "Ø¯Ø§Øª": 4867,
      "ÚĪÛĴ": 4868,
      "ĠÙĦÙĨÚ©Ø§": 4869,
      "ĠÙħØ·Ø§ÙĦØ¨": 4870,
      "Ù¹ÚĪ": 4871,
      "Ø§Ø´ÙĨÚ¯Ù¹ÙĨ": 4872,
      "ions": 4873,
      "Ø§ÙĦÙģ": 4874,
      "ĠÙĦÚ©Ú¾ÙĨÛĴ": 4875,
      "ĠÙ¹Ø±Ø§ÙĨØ³": 4876,
      "ĠØ¨Ø§Ø´": 4877,
      "Ø¶ÛĴ": 4878,
      "ĠØ¨Ø§ÙĨ": 4879,
      "ĠØ¨Ø§ÙĨØ¯": 4880,
      "ĠÙħØ±ØŃÙĦÛĴ": 4881,
      "ĠÙħØ´ÛĮØ±": 4882,
      "ĠÛģÙĪØ¬Ø§ØªØ§": 4883,
      "ï´": 4884,
      "ĠØ³ÙĪØ±Ø¬": 4885,
      "ĠØªÙĪÙĤØ¹": 4886,
      "Ø¬Ø±Ø§Øª": 4887,
      "ĠØ´Ø±Ø§Ø¨": 4888,
      "ĠÙħØµØ·ÙģÛĮ": 4889,
      "ĠÙħØµÙĨÙģ": 4890,
      "ĠMay": 4891,
      "ĠÚĨÛĮÙĨÙĦ": 4892,
      "ĠØªØ¨Ø§ÛģÛĮ": 4893,
      "ĠPr": 4894,
      "Ġsh": 4895,
      "ĠØ¨ØŃØ§ÙĦ": 4896,
      "ure": 4897,
      "ĠÛĮØ§Ø³": 4898,
      "na": 4899,
      "ĠØ§Ú©ÛĮ": 4900,
      "ĠÙģØ±ÙħØ§ÙĨ": 4901,
      "ĠÙħØ¹Ø°": 4902,
      "ÙĨØ³Ø±": 4903,
      "ĠØ±ÙĪØ³ÛĮ": 4904,
      "Ø®Ø§ÙĨ": 4905,
      "old": 4906,
      "32": 4907,
      "ĠÙħØ¹Ø§Ùģ": 4908,
      "ĠÚĨÙĦØªØ§": 4909,
      "ale": 4910,
      "ĠØ¬ÙĪØ§ÙĨ": 4911,
      "ĠÚ©Ø§Ø±ÙĪØ§Ø¦ÛĮ": 4912,
      "ĠØ¬ÙĨÙħ": 4913,
      "ath": 4914,
      "ĠÛ³": 4915,
      "ĠJun": 4916,
      "nt": 4917,
      "ĠØ§Ù¹Ú¾Ø§ÛĮØ§": 4918,
      "ÙĪÙĨÙ¹": 4919,
      "ĠØ³Ø¨Ø²": 4920,
      "ĠØ®Ø´Ú©": 4921,
      "ĠÚ©Ø±Ø§": 4922,
      "Ġ+": 4923,
      "http": 4924,
      "ĠÙĤÙħØ±": 4925,
      "ĠÙĦØ¹": 4926,
      "Ġ07": 4927,
      "ØŃØª": 4928,
      "ĠØ§ÙħØªÛĮ": 4929,
      "ĠØªÙħÛģØ§Ø±ÛĮ": 4930,
      "ĠØŃÙĦÙĤÛģ": 4931,
      "ĠÙĦÚ©Ú¾ÛĮ": 4932,
      "Ø¨ÙĪØ¯": 4933,
      "ĠØªÙĪÛģ": 4934,
      "ĠØ§Ø¯Ø§Ú©Ø§Ø±": 4935,
      "ĠÚ©Ø±Ø³Ú©ØªØ§": 4936,
      "ĠÙħØŃØ¨ÙĪØ¨": 4937,
      "Ġpr": 4938,
      "ĠØ¨ÛģØ§Ø±": 4939,
      "ĠÙĨØ§Ú¯": 4940,
      "ĠØ±ÙĪÛĮÛģ": 4941,
      "sh": 4942,
      "ĠØ¨Ø±Ùģ": 4943,
      "ĠÚ©ÙĬ": 4944,
      "Ø§ÛģÙĪÚº": 4945,
      "ĠViews": 4946,
      "ØºØ±": 4947,
      "Ø§Ø±Ø¯ÙĪ": 4948,
      "Ú©ÙĪÚº": 4949,
      "ĠØ¯Ø¦ÛĮÛĴ": 4950,
      "ĠØ§ÛĮØ´ÛĮØ§": 4951,
      "ĠØ¯Ø³ØªØ§ÙĪÛĮØ²": 4952,
      "ĠØ³Ù¾ÙĪØ±Ù¹": 4953,
      "The": 4954,
      "man": 4955,
      "ĠÙĨØ¸Ø±ÛĮÛģ": 4956,
      "own": 4957,
      "ĠØ³Ø±ÙĪ": 4958,
      "ÛĶâĢĿ": 4959,
      "ØªØ±Ø§ÙĦ": 4960,
      "ĠØªÙĨÛģ": 4961,
      "ĠØ§ÙĨØªØ¸Ø§ÙħØ§Øª": 4962,
      "Ú©ÚĳÙĪÚº": 4963,
      "ĠÚĨÚ©": 4964,
      "ĠÙĦÛģØ±": 4965,
      "Ø§Ø¨Ø·Ûģ": 4966,
      "ØµØ¨": 4967,
      "ĠØªØ®ÙĦÛĮÙĤ": 4968,
      "ĠÙħÙĨØ´ÛĮØ§Øª": 4969,
      "ĠØ¯ÙĪØ³ØªÛĮ": 4970,
      "ÙĨØ§Ø¡": 4971,
      "ĠØ¯ÙĦÛĮ": 4972,
      "ĠÙĨØ±ÛĮ": 4973,
      "ĠÙĪØµÙĪÙĦ": 4974,
      "Øį": 4975,
      "ĠÙħØ§Ø±ÛĴ": 4976,
      "ÙħØ§Ûģ": 4977,
      "ĠØ±ØŃÙħÛģ": 4978,
      "ĠØ³ÙĨÚ¯ÛĮÙĨ": 4979,
      "ĠØ±ÛģÙĨÙħØ§Ø¤Úº": 4980,
      "ĠØ±Ú©ÙĨÛĮ": 4981,
      "ĠÙ¾Ø±ÛĮØ´Ø§ÙĨÛĮ": 4982,
      "ĠØ§ØªÙĪØ§Ø±": 4983,
      "ÛĶâĢľ": 4984,
      "Ø§Ø¦Ø´Ûģ": 4985,
      "ĠØ³ÙĦÙĪÚ©": 4986,
      "ĠØ¬Ø±ÙħÙĨ": 4987,
      "Ġ70": 4988,
      "ĠØ®ÙĪØ±Ø§Ú©": 4989,
      "ĠÙģÙĪÙ¹ÙĪ": 4990,
      "60": 4991,
      "ĠÙĦØ§Ø²ÙħÛĮ": 4992,
      "orld": 4993,
      "ĠÙĦÙħØ¨": 4994,
      "ĠØ³Ø±Ø®": 4995,
      "ĠÚĪÙĪÙĨÙĦÚĪ": 4996,
      "ĠØ§ÙĨÙĪØ±": 4997,
      "ĠØ³ÙģØ§Ø±Ø´": 4998,
      "ell": 4999,
      "Ġle": 5000,
      "ĠÙĤÛĮÙħØªÛĮ": 5001,
      "ĠÙħØ§Ø¨ÛĮÙĨ": 5002,
      "ÙĪØ§ÙĦÛĴ": 5003,
      "ĠÙĦØ§Ú©": 5004,
      "ĠØ¨ÛĮØ±ÙĪÙĨÛĮ": 5005,
      "ĠØ¢Ø³ÙħØ§ÙĨ": 5006,
      "ĠØ§Ù¹Ú¾Ø§ÙĨÛĴ": 5007,
      "ĠÙħÙĤØ¯Ø³": 5008,
      "ĠÛģÙĪØ³Ú©ØªÛĮ": 5009,
      "ĠØ³Ø§ÙĨØ³": 5010,
      "ĠØ®Ø·Ø±ÛĴ": 5011,
      "ØŃÛĮ": 5012,
      "ĠØ³ÛĮÚ©Ø±ÛĮÙ¹Ø±ÛĮ": 5013,
      "ÙħÙĪÚº": 5014,
      "ĠÙĦÛĮÚ©Ø±": 5015,
      "Ø¨Ø§Ø¯ÙĦ": 5016,
      "ĠÚĪÛĮÙ¹Ø§": 5017,
      "ĠÚ©ØªÙĨØ§": 5018,
      "Ø´Ø§": 5019,
      "ĠÚĨÙĪØ±": 5020,
      "ĠÙ¾ÚĳÚ¾Ø§": 5021,
      "ĠÙ¾ÛĮØºÙħØ¨Ø±": 5022,
      "\\\":": 5023,
      "ĠÙ¾Ú¾ÙĦ": 5024,
      "ĠÙħØ´ÙĨ": 5025,
      "ĠÚ¯Ø§ÙĨØ¯Ú¾ÛĮ": 5026,
      "ĠØ¬ÙĦØ¯ÛĮ": 5027,
      "Ġï¿½ï¿½ï¿½ï¿½ï¿½": 5028,
      "Ø§Ø¦Ø·": 5029,
      "ĠÙħÙ¹ÛĮ": 5030,
      "ĠÙģØ±ÙĤÛģ": 5031,
      "ĠØ·ÙĦØ¨Ø§Ø¡": 5032,
      "ĠØ±Ø§": 5033,
      "ĠÙħØ¯Ø§Ø®": 5034,
      "ĠØ¨ÙĦØ§Ú©": 5035,
      "×Ļ": 5036,
      "ĠØ¶Ø±ÙĪØ±ÛĮØ§Øª": 5037,
      "ĠØªÛĮÙĨÙĪÚº": 5038,
      "ĠÙ¾ÛĮØ¯Ø§Ø¦Ø´": 5039,
      "ĠØ§Ø±Øª": 5040,
      "ĠØ§Ø¬ØªÙħØ§Ø¹ÛĮ": 5041,
      "ĠÚĪÙĪÛĮÚĺÙĨ": 5042,
      "ĠÙħÙħÚ©ÙĨÛģ": 5043,
      "ĠÙħØ³Ø§ÙģØ±": 5044,
      "ĠØ§ØªØŃØ§Ø¯ÛĮ": 5045,
      "ĠÙ¾ØªØ§": 5046,
      "ĠÙĤØ±Ø§Ø±Ø¯Ø§Ø¯": 5047,
      "ĠØµÙĪ": 5048,
      "Ġ60": 5049,
      "ĠØ¸Ø§ÙĦÙħ": 5050,
      "Ø§Ø¦Ù¾": 5051,
      "ĠØ¨ÙĪÙĦØ§": 5052,
      "ĠØ§ÙĨÙģØ±": 5053,
      "ĠÚ©Ø´ÛĮ": 5054,
      "ĠØ§ÙĦØ§": 5055,
      "ĠØ§Ø¯Ú¾Ø±": 5056,
      "ÙħØ§Ø±ÚĨ": 5057,
      "ĠØ§ÙĨØ¬ÛĮÙĨ": 5058,
      "ÙģÛĮØµØ¯": 5059,
      "Ø±Ú©Ø§Ø±": 5060,
      "Ø®ÙĪØ¯": 5061,
      "ĠØ³ÛĮØ±": 5062,
      "ĠØ§ÙĦØ±ØŃÙħØ§ÙĨ": 5063,
      "ĠÛĮÙħÙĨ": 5064,
      "ĠØ¬ÙĪÚĳ": 5065,
      "ĠÙ¾Ø±Ø§ÙĨÛĴ": 5066,
      "Ú¯Ø²Ø´ØªÛģ": 5067,
      "ĠÙģØ±ÙħØ§Ø¦ÛĴ": 5068,
      "ĠØ§ÙĨØ³Ø¯Ø§Ø¯": 5069,
      "ĠÚĨÙ¾": 5070,
      "ĠØ§Ø®Ø±Ø§Ø¬Ø§Øª": 5071,
      "ĠØ¯Ú¾ÙħØ§Ú©Ûģ": 5072,
      "42": 5073,
      "ĠÙĨØ³Ø¨Øª": 5074,
      "ĠÚĨØ§Ø¦ÛĴ": 5075,
      "ĠØªÙĪÛģÛĮÙĨ": 5076,
      "ĠÚ©Ú¾ÚĳÛĮ": 5077,
      "Ø±ÙĪØ²": 5078,
      "ĠÙħØ¯Ø§Ø®ÙĦØª": 5079,
      "ĠÙħÙĨØ³ÙĪ": 5080,
      "Ø´Ø§Ùħ": 5081,
      "ĠÙħÙĨØ³ÙĦÚ©": 5082,
      "ÚĨÙĦ": 5083,
      "ĠØ¨ÚĳÚ¾ØªÛĮ": 5084,
      "ĠÙĨÙģØ³": 5085,
      "ĠÙ¾Ø§Ø±ÙĦÛĮÙħØ§ÙĨÛĮ": 5086,
      "ĠÚ©ØªØ§Ø¨ÛĮÚº": 5087,
      "ĠÛĮÚ©Ø³": 5088,
      "ĠØµØ¨Ø±": 5089,
      "ĠØ¬ÙĪØ´": 5090,
      "ÛĮÚ©ÚĨØ±": 5091,
      "Ġ03": 5092,
      "ays": 5093,
      "ana": 5094,
      "Ø¬ÛĮÛĴ": 5095,
      "ĠØ¹Ø¯Ø§ÙĦØªÙĪÚº": 5096,
      "ĠØªÛĮØ³Ø±ÛĮ": 5097,
      "ĠØªØ¨ØµØ±Ûģ": 5098,
      "ÙĦÛĮØº": 5099,
      "Ø²ÛĮØ²": 5100,
      "ĠÙħØ³Ú©Ø±": 5101,
      "ÙĨØ§Úº": 5102,
      "Ù¹ÛĮÙģ": 5103,
      "Ø§Ø¦ÙĦÛĮ": 5104,
      "ea": 5105,
      "ĠÙĤÙĪÙĦ": 5106,
      "Ø¹Ú©Ø³": 5107,
      "ĠÛģØ§Ø´": 5108,
      "ĠÙħÛĮÚ©": 5109,
      "Ġï®": 5110,
      "Ø§Ø³ÛĴ": 5111,
      "ĠØ±ÙģÛĮÙĤ": 5112,
      "Ú¾Ùħ": 5113,
      "ĠÙģØ±ÙħØ§Ø¦ÛĮ": 5114,
      "ĠØ§ØŃØªØ¬Ø§Ø¬ÛĮ": 5115,
      "ĠØ®ØµÙĪØµÛĮØ§Øª": 5116,
      "hat": 5117,
      "ÙĤØ§": 5118,
      "ĠÙ¹ÛĮÙĨ": 5119,
      "ÙĪØ§ÙĦÛģ": 5120,
      "Ġ35": 5121,
      "ĠÚ©Ø±ÙĪÙĨØ§": 5122,
      "ĠØ§Ø±Ø§Ø¯Ûģ": 5123,
      "able": 5124,
      "ĠÙĪØ¬ÙĪÛģ": 5125,
      "ÚĳÚ¾ÛĴ": 5126,
      "ĠÚ©ÙĪÙ¹": 5127,
      "ĠÙĨØ§Ø²ÙĦ": 5128,
      "ØªÛĮØ§Ø·": 5129,
      "ÙĦØ§Úº": 5130,
      "ĠÙĨÛĮØ²": 5131,
      "ĠÙ¾Ø³ÙĨØ¯ÙĪÚº": 5132,
      "ĠØ±ÛģØ§Ø¦Ø´ÛĮ": 5133,
      "ĠØ¯Ø±Ø¢ÙħØ¯": 5134,
      "ĠÚĪØ§ÙĦÙĨÛĴ": 5135,
      "ĠÛĴ": 5136,
      "ĠÙ¾ÚĳÚ¾ÛĮ": 5137,
      "ÚĳÚ¾ÛĮ": 5138,
      "88": 5139,
      "Ġall": 5140,
      "ĠØ§ØŃÚ©Ø§ÙħØ§Øª": 5141,
      "ĠØ¢ÙĨÚ©Ú¾ÛĮÚº": 5142,
      "ĠØ³ÙĨÛģ": 5143,
      "70": 5144,
      "ÙĪÙĦØ±": 5145,
      "ticle": 5146,
      "ĠÙ¾ÛĮØ³Ûģ": 5147,
      "ĠØ¨ÛĮÙħØ§Ø±": 5148,
      "ĠÚĪÚ¯Ø±ÛĮ": 5149,
      "ØŃØ§ÙĤ": 5150,
      "ĠÚ©ÙħÙ¾ÛĮÙĪÙ¹Ø±": 5151,
      "ĠØ³Ø±Ø¨Ø±Ø§ÛģÛĮ": 5152,
      "ĠÛĮÛģÙĪØ¯": 5153,
      "ĠØ¨ÛĮØ¯": 5154,
      "ØµØ¯Ø±": 5155,
      "ĠØ¯ÙĪÚº": 5156,
      "Ø³ÙĪØ§ÙĦ": 5157,
      "ĠÙĦÙħØŃ": 5158,
      "ĠJan": 5159,
      "ĠØ§Ø³Ù¹ÛĮØ´ÙĨ": 5160,
      "Ø§ÙĨØ³ÛĮ": 5161,
      "ĠØ®ÛĮØ¨Ø±Ù¾": 5162,
      "ĠÙģÛģ": 5163,
      "ĠØ§Ø¶Ø§ÙģÛĮ": 5164,
      "ĠØ±ÛĮÙĨØ¬Ø±Ø²": 5165,
      "ÙĤØ³Ùħ": 5166,
      "ĠÙĨÛĮØª": 5167,
      "ĠØ¢Ø±Ø§Ùħ": 5168,
      "Tag": 5169,
      "ĠØ§ØŃÚ©Ø§Ùħ": 5170,
      "ĠØ³Ø±ÙĪØ±": 5171,
      "ĠÚ¯ÛĮÙħ": 5172,
      "Ú¯ÛĮØ±": 5173,
      "ĠØŃØªÙħÛĮ": 5174,
      "ĠØ·ÙĪÙģ": 5175,
      "ĠØ¨ÚĨØ§": 5176,
      "Ø§Ø¨ÙĨ": 5177,
      "ĠÙĪØ§Ø¬Ø¨": 5178,
      "Ġpost": 5179,
      "ĠÙħØ¹Ø·ÙĦ": 5180,
      "ĠØªÙģØªÛĮØ´": 5181,
      "ĠØ°ÙĪØ§ÙĦ": 5182,
      "ĠØ²Ø¨Ø±Ø¯Ø³Øª": 5183,
      "ĠØºØ±Ø¶": 5184,
      "ĠÙĨÙģØ³ÛĮ": 5185,
      "ĠØ¹Ø³Ú©Ø±ÛĮ": 5186,
      "ÚĪÙĪ": 5187,
      "ØªØ§Ø±ÛĮØ®": 5188,
      "ĠØ¨Ø§ÙĨÛĮ": 5189,
      "ĠÛģØªÚ¾ÛĮØ§Ø±": 5190,
      "Ø±ÙĪØ¬": 5191,
      "ĠÙ¾ÛĮØ´Ú©Ø´": 5192,
      "ĠÙ¾Ø±ÙĪØ±": 5193,
      "ĠØ§Ø¨ÛĮ": 5194,
      "Ø´Ú©Ø±": 5195,
      "Ø§ÙĤØ¨": 5196,
      "ĠÚ©ÙĦÚ©": 5197,
      "ĠØ³Ú©ÙĪÙĨ": 5198,
      "ĠØ´Ø¹Ø¨ÙĪÚº": 5199,
      "ĠØ³ÙĪØ³Ø§Ø¦": 5200,
      "Ú¯Ø§Ø±ÛĮ": 5201,
      "ĠØ§Ø«Ø§Ø«": 5202,
      "ĠØ´Ø±Ø§Ø¦Ø·": 5203,
      "ÙĪÚ©Ø±ÛĮ": 5204,
      "ÙĨØ¯Ø±Ûģ": 5205,
      "aa": 5206,
      "ĠØ³ÙĨØ¨Ú¾Ø§ÙĦ": 5207,
      "ĠÙħØ¹Ø§ÙģÛĮ": 5208,
      "ĠÚ©Ø§Ø´": 5209,
      "ĠØ±ÙĪØ§ÛĮØªÛĮ": 5210,
      "ĠØ¹Ø´ÙĤ": 5211,
      "ĠØªØ´Ø±ÛĮÙģ": 5212,
      "ĠØ´Ø¹ÙĪØ±": 5213,
      "ÙģØ±Ø¯": 5214,
      "ĠØ¨Øµ": 5215,
      "ĠØ¢Ø³Ø§ÙĨÛĮ": 5216,
      "ĠØ³ÙĪØ³Ø§Ø¦Ù¹ÛĮ": 5217,
      "itle": 5218,
      "ĠØ§ÙĦÙĤØ±Ø¢ÙĨ": 5219,
      "Ø¯ÛģØ´Øª": 5220,
      "ĠÙĪØ§ÙĤÙģ": 5221,
      "Ú©ÛĮÙĪÚº": 5222,
      "ĠØ§ÛĮÙ¹ÙħÛĮ": 5223,
      "ĠÙĨØ§Ù¾": 5224,
      "Ø¸Ûģ": 5225,
      "ĠÙħÙħØªØ§Ø²": 5226,
      "ĠØ§ÙĪØ³": 5227,
      "ĠØ§ÙĨÚ©ÙĪ": 5228,
      "ĠÙĤØ¯Ø±ØªÛĮ": 5229,
      "ĠØ§ØŃØ³Ø§ÙĨ": 5230,
      "ĠØŃØ§Ø¯Ø«Ûģ": 5231,
      "ĠÙĨÙħØ§Ø¦Ø´": 5232,
      "ĠÙ¾ÛĮØ§Ø±": 5233,
      "ĠØ¯Ø±Ø³": 5234,
      "ĠØ¨ÙĤÙĪÙĦ": 5235,
      "Ġ04": 5236,
      "ĠÙģØ±Ø§Ø±": 5237,
      "Ù¹Ø±ÙĨÚ¯": 5238,
      "ĠÚ¯ÙĪÙĦÛĮ": 5239,
      "('": 5240,
      "ĠÚ©ÛĮÙģÛĮØª": 5241,
      "Ø¹ØªÛĮ": 5242,
      "ÙĨÚ¯Ø±": 5243,
      "ĠØ±Ø§Ø¨Ø·ÛĴ": 5244,
      "ĠØŃÙĦÙĤÙĪÚº": 5245,
      "âĢ¦âĢ¦": 5246,
      "ĠØ¹ÛģØ¯ÛĮØ¯": 5247,
      "ĠÙħÙĨÚ¯ÙĦ": 5248,
      "ĠÙħØŃÙĦ": 5249,
      "ĠÚ©Ø±Ø§ÛĮØ§": 5250,
      "ĠÚ©Ø§ÙģØ±": 5251,
      "gle": 5252,
      "ĠØ³Ø³Øª": 5253,
      "ĠØ³ÙĨÙĨÛĴ": 5254,
      "Ġwas": 5255,
      "ĠØ«ÙĤØ§ÙģØª": 5256,
      "ĠØ¹Ø¯Ø§ÙĦØªÛĮ": 5257,
      "ĠØŃØ²Ø¨": 5258,
      "ĠØ§ÙĪØ¨": 5259,
      "ĠØ§ÙĦØ§Ø³ÙĦØ§Ùħ": 5260,
      "ĠØªØ¹Ø§ÙĦ": 5261,
      "ĠÙģØ¹Ø§ÙĦ": 5262,
      "ØªÛĮØ³": 5263,
      "ĠÚ©ÙĪÚĪ": 5264,
      "ĠÙħÛģØ±Ø¨": 5265,
      "ĠØ¬ÙħØ¹Ø±Ø§Øª": 5266,
      "ĠØŃØ±Ùħ": 5267,
      "ĠÙĤØ±ÛĮØ¨ÛĮ": 5268,
      "ĠÚĪÛĮÙĨ": 5269,
      "ÚĪÛĮÙĨ": 5270,
      "ĠÚ©Ø±Ø¯ÛĮÚº": 5271,
      "ĠØ³ÙħØ¬Ú¾ØªØ§": 5272,
      "ĠÚ©ÛĮØ³Ø²": 5273,
      "day": 5274,
      "ĠØ¨ÛĮØ§ÙĨØ§Øª": 5275,
      "ĠÙĦØ§Ù¾": 5276,
      "ĠØ³Ø§Ø¯Ûģ": 5277,
      "ĠØ§Ø®Ø°": 5278,
      "ÚĪÛĮÙħ": 5279,
      "ĠØ±Ø¬ØŃØ§ÙĨ": 5280,
      "¡Ù": 5281,
      "ĠÛģØ¯Ø§ÛĮØ§Øª": 5282,
      "ĠØ§ÙĨÚ¯ÙĦÛĮÙĨÚĪ": 5283,
      "ØŃØ§ÙĦÛĮ": 5284,
      "Ø³ÙĨØ¯Ú¾": 5285,
      "ĠØ¬Ø§ÙĨÙĪØ±": 5286,
      "ĠØªÛĮØ³Ø±ÛĴ": 5287,
      "ĠÙ¾Ø±Ø¯Ûģ": 5288,
      "Ø¬ÙĪØ§Ø¨": 5289,
      "ĠØ¬ØªÙĨØ§": 5290,
      "ĠØ®Ø§ÙħÙĪØ´ÛĮ": 5291,
      "ĠØ¨ÙĦØ§Ú¯": 5292,
      "ĠOn": 5293,
      "Ø¨Ø¹": 5294,
      "ĠØ¬ÙĪÛģØ±ÛĮ": 5295,
      "ï¿½ï¿½ï¿½ï¿½ï¿½ï¿½ï¿½ï¿½": 5296,
      "Ġ2009": 5297,
      "Ġ09": 5298,
      "ĠÙ¾ÛģÙĨÚĨØ§ÙĨÛĴ": 5299,
      "Ġhave": 5300,
      "ÛĶÛĶÛĶÛĶÛĶÛĶÛĶÛĶ": 5301,
      "ĠÙģÛĮÚĪ": 5302,
      "Ø¸Ø§ÛģØ±": 5303,
      "ĠÛģÙĨØ¯ÙĪØ³ØªØ§ÙĨÛĮ": 5304,
      "ÙĩØ§": 5305,
      "ĠØ§ØŃØªÛĮØ§Ø·": 5306,
      "Ú©Ø§Ùħ": 5307,
      "ics": 5308,
      "ĠÙħØ·ÙĦÙĪØ¨": 5309,
      "ĠØ¨ÙĪÙĦÛĮ": 5310,
      "ÙĦØ§Ú©Ú¾": 5311,
      "ĠØ³ÛĮØ§ÙĦ": 5312,
      "ÙĨÚ©Ú¾": 5313,
      "ÙĨØ¦ÛĮ": 5314,
      "ĠÙħØ³ØªØŃÚ©Ùħ": 5315,
      "ĠØºÙģ": 5316,
      "ĠØ¨Ø±Øª": 5317,
      "Ø³Ø§": 5318,
      "ĠÛ±Û¹": 5319,
      "ĠØ¯ÛĮÚ©Ú¾ÛĴ": 5320,
      "Ù¾Ø´Ø§ÙĪØ±": 5321,
      "Ø±ÛĮÙĦÙĪ": 5322,
      "ĠØ¢Ø³Ù¹Ø±ÛĮÙĦÛĮØ§": 5323,
      "ĠÙģØ§Øµ": 5324,
      "Ø§Ø¹Ø¯": 5325,
      "ĠØ¨ÛĮØ´ØªØ±": 5326,
      "ĠÚĨÚ¾Ù¹ÛĮ": 5327,
      "ĠØ§ÙĤÙĦÛĮ": 5328,
      "ĠÛģØ§ÙĦ": 5329,
      "ĠÚ©Ø±ÙĪØ§ÙĨÛĴ": 5330,
      "Ø³Ù¹Ø±Ú©Ù¹": 5331,
      "ĠÙ¾Ú¾ÙĪÙĦ": 5332,
      "mad": 5333,
      "ĠØ¢Ø±Ù¹": 5334,
      "ÙĨÛĮÙģ": 5335,
      "ĠÙħÛģØ±": 5336,
      "86": 5337,
      "ĠØ¯Ø§ÙĨØ´": 5338,
      "ĠÙĦØº": 5339,
      "ØµÛĮÙĦÛĮ": 5340,
      "ÙĦØ§ÛĮØ§": 5341,
      "ĠÙ¾ÙĪÙĦÛĮÙĪ": 5342,
      "ĠAs": 5343,
      "ØªÙĤ": 5344,
      "ĠØ¬Ø§Ø¦ÛĮ": 5345,
      "ĠÙħÙĪØ«Ø±": 5346,
      "ĠØªÛĮØ±ÛĴ": 5347,
      "aid": 5348,
      "ĠØ³ÛĮÙģ": 5349,
      "ĠÙĦÚĳÚ©ÛĮÙĪÚº": 5350,
      "ĠØ³ÛĮØ§ØŃ": 5351,
      "Ø¯ÛĮÛģ": 5352,
      "îĢ": 5353,
      "ĠØ®Ø±ÛĮ": 5354,
      "ĠÙĦÚ©Ú¾ÛĴ": 5355,
      "ĠÚ©Ø±ÙĪØ§": 5356,
      "ĠØ§Ø³ÙĦØ§ÙħÛĮÛģ": 5357,
      "54": 5358,
      "co": 5359,
      "ĠØ¢ÙĨØ§": 5360,
      "à¦": 5361,
      "Ø§Ø¦Ø¶": 5362,
      "ĠÙĪÙĪÚĪ": 5363,
      "ĠÚĨÛģ": 5364,
      "Ġcom": 5365,
      "ĠØ¹ÙĦØ§ÙĤØ§Ø¦ÛĮ": 5366,
      "ĠØ¹Ø¸Ùħ": 5367,
      "ØªØ§ÛģÙħ": 5368,
      "ĠÙĨØ§Ø¸": 5369,
      "ĠØ¯ÙĦØ§Ø¦ÙĦ": 5370,
      "2014": 5371,
      "ĠÛģÙĪØ±ÛģÛĮ": 5372,
      "ĠØ¯Ø³ØªØ®Ø·": 5373,
      "ĠØ¬ÙĨØ§ØŃ": 5374,
      "ĠØŃÚ©ÙĪÙħØªÙĪÚº": 5375,
      "ree": 5376,
      "ĠØ§Ù¹Ú¾Ø§Ø¦ÛĴ": 5377,
      "ĠØ·Ø¨ÙĤÛģ": 5378,
      "ĠInd": 5379,
      "ĠÙħÛģØ§Ø¬Ø±ÛĮÙĨ": 5380,
      "ĠØ¢Ø²Ùħ": 5381,
      "ÙģÙĤØ§Ø±": 5382,
      "ĠÚĨÚ¾Ø§Ù¾": 5383,
      "aq": 5384,
      "ĠØ¹Ø¯ÙĦÛĮÛģ": 5385,
      "ĠÚĪØ¨": 5386,
      "Ġex": 5387,
      "ĠÙħØ¯Ø§Ø±Ø³": 5388,
      "ĠÚĨÛģØ±Ûģ": 5389,
      "51": 5390,
      "Ø¬ÙĦ": 5391,
      "ĠÛģÙħØ¯": 5392,
      "Ø¨ÛĮÙĨ": 5393,
      "ĠØ§ÙĨÚĪØ³Ù¹Ø±ÛĮ": 5394,
      "ĠÚ©ÙħØ§Ø±": 5395,
      "ĠJul": 5396,
      "ĠÚĪØ§Ø±": 5397,
      "ĠØ¶ÙĦ": 5398,
      "ĠØ¹Ø§Ø¦Ø´Ûģ": 5399,
      "ĠÛģÚĳ": 5400,
      "ĠØ¨Ø¯ÙĨ": 5401,
      "ĠÙħØ§Øª": 5402,
      "ĠÙħØŃÙģÙĦ": 5403,
      "ĠÙĨÛĮÙĨØ¯": 5404,
      "ÙħØ±Ú©": 5405,
      "ĠØªØ¹ÙĦÛĮÙħØ§Øª": 5406,
      "ĠØ¬Ø§Ø±ØŃ": 5407,
      "ĠÙģÛĮÙħ": 5408,
      "ĠØ¬Úĳ": 5409,
      "ĠApr": 5410,
      "Ø§ÛĮØ±Ø§ÙĨ": 5411,
      "Ø¨Ø±ÛĮ": 5412,
      "ĠÚ©ÙĪØ´Ø´ÛĮÚº": 5413,
      "Ġ08": 5414,
      "ØªÚ©": 5415,
      "ĠÚ©Ø«ÛĮØ±": 5416,
      "ĠØ§Ø³ÙħØ§Ø¹": 5417,
      "ĠÙģÙĦÙħÙĪÚº": 5418,
      "ĠÚ¯Ø±ÙħÛĮ": 5419,
      "ĠÙĨØ§Ú©Ø§ÙħÛĮ": 5420,
      "ĠØ³ÙĦØ·ÙĨØª": 5421,
      "ĠÙĨÙĪØ¹ÛĮØª": 5422,
      "ĠØ³ÙĨØ§Ø¦ÛĮ": 5423,
      "ĠØ·Ø§Ø±ÙĤ": 5424,
      "Ø§Ù¹Ø§": 5425,
      "Ġ80": 5426,
      "ĠØ¢Ø³": 5427,
      "ĠØºÙĨÛĮ": 5428,
      "ull": 5429,
      "Ú©ÛĮØ§Úº": 5430,
      "ĠØ¨Ø§Ø¨Ø§": 5431,
      "ÛĮÙĨÚ¯": 5432,
      "Ø¬ÛģØªÛĮ": 5433,
      "ĠØ±ÛĮÙģØ±ÙĨØ³": 5434,
      "ÙĨØ¯ÙĪ": 5435,
      "ĠØ§Ø¹ÙĪØ§ÙĨ": 5436,
      "ĠØ§Ø³ØªÙĤØ¨Ø§ÙĦ": 5437,
      "ĠÙĪÚ©": 5438,
      "ĠÛģÛĮÙĦØªÚ¾": 5439,
      "ĠÛģÙĦØ§Ú©Øª": 5440,
      "ĠÙ¾Ø±Ø§ÙĨÛĮ": 5441,
      "ÚĨÙĪÛģØ¯Ø±ÛĮ": 5442,
      "ĠØªÚ¾ÙĪÚĳÛĮ": 5443,
      "ĠOct": 5444,
      "43": 5445,
      "ĠÙ¹ÙĪØ¦": 5446,
      "ĠÚ©ÙĦÙĪÙħÛĮÙ¹Ø±": 5447,
      "ĠØµÙĦ": 5448,
      "ĠØ§ÙħØ§Ø±Ø§Øª": 5449,
      "Ø¯Ø§Ø¯ÛĮ": 5450,
      "ÙģÛĮØ¸": 5451,
      "ĠØªÙģØ³ÛĮØ±": 5452,
      "ĠØ®Ø§Ú©": 5453,
      "ĠÚ©ÙħØ±": 5454,
      "Ø°Ú©Ø±Ûģ": 5455,
      "ĠØŃØ±Ø§Ø³Øª": 5456,
      "ĠØ§ÙĨÙĪ": 5457,
      "ĠØ®ÙĦØ§ÙģØª": 5458,
      "Ġab": 5459,
      "'s": 5460,
      "ÙĪÙģØ§ÙĤÛĮ": 5461,
      "ĠÚ©ÛĮÙĦ": 5462,
      "ĠØ§ÛĮÚ¯Ø²": 5463,
      "ÙħØ¨Ø§Ø±Ú©": 5464,
      "Ġvi": 5465,
      "ĠÙħÙĤÛĮÙħ": 5466,
      "ĠÙĨØµÛĮØ¨": 5467,
      "×ķ": 5468,
      "ĠÙģÛĮØ¶": 5469,
      "ĠÚ©Ø´ÛĮØ¯Ú¯ÛĮ": 5470,
      "Ø¨ÛĮØ§": 5471,
      "ĠØ§Ø³Ù¹ÛĮÙ¹": 5472,
      "Ø±ØªÛĮ": 5473,
      "ĠÙħØªÙĨØ§Ø²": 5474,
      "ÙĪÛĮØ§Øª": 5475,
      "ĠØ§ÙħØ§ÙĨ": 5476,
      "Ø§Ø¬Ø§Ø¦Ø²": 5477,
      "ĠØ§Ø¶ÙĦØ§Ø¹": 5478,
      "ase": 5479,
      "ĠØ¯Ø±Ø¬ÙĨ": 5480,
      "Ġï¿½ï¿½ï¿½": 5481,
      "Ù¹Ú¾ÛĴ": 5482,
      "ĠØ¯ÙĦÙĪÚº": 5483,
      "ĠØ®Ø§Ø±Ø¬": 5484,
      "ĠÙ¾ÙĨØ¯Ø±Ûģ": 5485,
      "ĠÙĪØ§Ø³": 5486,
      "ĠØŃØµÙĪÚº": 5487,
      "ĠÚ©ÙĦÙħ": 5488,
      "Ø³Ù¾Ø±ÛĮÙħ": 5489,
      "53": 5490,
      "ĠØ¨ÛĮÚ¯Ùħ": 5491,
      "ÛģÛĮÚº": 5492,
      "ĠØ²ÙĦØ²": 5493,
      "ĠØ³Ø±Ø²ÙħÛĮÙĨ": 5494,
      "ĠNov": 5495,
      "ĠÛģÙĪØ±ÛģØ§": 5496,
      "Ø§Ú©Øª": 5497,
      "ĠÛĮÛģÙĪØ¯ÛĮ": 5498,
      "ÙħØµ": 5499,
      "ĠØ¬ØªÙĨÛĮ": 5500,
      "ĠØ¢Ú¯ÛĮØ§": 5501,
      "ĠDec": 5502,
      "Ø¹Ø¯Ùħ": 5503,
      "ĠÙĦÙĪÚ©": 5504,
      "ĠÙĦÚĳÚ©ÛĴ": 5505,
      "ĠØ±Ø¯Ø¹ÙħÙĦ": 5506,
      "ĠØ¢ÛģØ³ØªÛģ": 5507,
      "ĠÚĪØ±Ø§Ùħ": 5508,
      "ĠØ±ÛĮØ³": 5509,
      "slam": 5510,
      "ØµÙĪÙģ": 5511,
      "ĠÙ¾ÛĮÚĨ": 5512,
      "ÙħØ®Øª": 5513,
      "ĠÙģÙĦØ³Ø·ÛĮÙĨÛĮ": 5514,
      "ÙĪØªÚ¾": 5515,
      "ĠÙĨØ¹Ø±ÛĴ": 5516,
      "ĠØ§ÙģØ¶ÙĦ": 5517,
      "ĠÙħÙģÛĮØ¯": 5518,
      "ĠØ®Ø³": 5519,
      "ĠØ´ÛģØ±Øª": 5520,
      "ĠÙĨØ§ÙĪÙĦ": 5521,
      "ĠÚ©ÙħØ§ÙĨÚĪØ±": 5522,
      "Ø§ÙĪØ²": 5523,
      "ÙĬÛģ": 5524,
      "Ø¨Ø¯Ú¾": 5525,
      "ĠØ¨Ú¾Ú¯": 5526,
      "Ø¢Ø®Ø±": 5527,
      "ĠØ³ÙĪÚĨØ§": 5528,
      "ĠÙĪØ¬ÙĪÛģØ§Øª": 5529,
      "ĠØ³ÙħÛĮ": 5530,
      "Ú©Ú¾Ø§": 5531,
      "ĠØ¹ÙĤÛĮØ¯Øª": 5532,
      "ĠØ¬Ø¨Ø±": 5533,
      "Ø·Ùģ": 5534,
      "ĠØ¨ÙĨÛĮØ§Ø¯ÙĪÚº": 5535,
      "ĠÙħÛĮØ²Ø§Ø¦ÙĦ": 5536,
      "Ø¦ÙĦ": 5537,
      "ĠØ¨Ú¾Ø§Ø¦ÛĮÙĪÚº": 5538,
      "ÛĶ\"": 5539,
      "ĠÙĪÛĴ": 5540,
      "ĠØŃØ§Ø¬ÛĮ": 5541,
      "ĠÙĨØ±ÛĮÙĨØ¯Ø±": 5542,
      "ĠÙħØ¸ÙĦÙĪÙħ": 5543,
      "ĠÙĪÛĮÚº": 5544,
      "ĠØ±ÛģØ§Ø¦ÛĮ": 5545,
      "Ø´ÛĮÙĨ": 5546,
      "ĠØ§Ø¹Ø¬Ø§Ø²": 5547,
      "ĠÚĪÙĪØ¨": 5548,
      "ĠÙĨØ§Ø±Ø§Ø¶": 5549,
      "ĠÙħÙĪÙĦÙĪÛĮ": 5550,
      "Ø§ØŃÙħØ¯": 5551,
      "ĠØ¬Ø§ÙĨÚĨ": 5552,
      "ĠÚ¯ÚĳÚ¾": 5553,
      "ĠÙ¾Ø±ÚĨ": 5554,
      "ĠÛģÙĪØ¬Ø§ØªÛĮ": 5555,
      "ĠÙħÙĤØ§Ø¨ÙĦ": 5556,
      "ĠØ¯ÙģØ§Ø¹ÛĮ": 5557,
      "Ø²Ø®": 5558,
      "ØºØ§": 5559,
      "ĠØ¨Ø±Ø¹Ú©Ø³": 5560,
      "ime": 5561,
      "ÙĪÙĨÚ©": 5562,
      "ĠØ·ÛĮØ§Ø±ÛĴ": 5563,
      "ĠØ¹Ø§Ø±Ùģ": 5564,
      "ĠÙģØ¶Ø§": 5565,
      "ĠÚĨÚ¾ÙĪÙ¹Ø§": 5566,
      "ĠÙģØ§Ø·ÙħÛģ": 5567,
      "ĠØºØ±Ø¨Øª": 5568,
      "ĠÙĨØ§Ø¯": 5569,
      "ĠØ·Ø§ÙĤØªÙĪØ±": 5570,
      "ĠÛģØ§": 5571,
      "ÙĪØ§Ø±ÙĪÚº": 5572,
      "ĠÙģØ±Ø§Ø¦Ø¶": 5573,
      "ĠÙĦØ¦ÛĮ": 5574,
      "ĠØ´Ø§ÛģÛĮ": 5575,
      "ĠØ¨ÙĦØ¯ÛĮ": 5576,
      "ĠÙĨÚ©Ø§ÙĦÙĨÛĴ": 5577,
      "ÚĪÙĨ": 5578,
      "Ø¬ÙĨÙĪØ±ÛĮ": 5579,
      "52": 5580,
      "ĠÙĤØµÙĪØ±": 5581,
      "ĠØ±ÛģÙĨÙħØ§Ø¦ÛĮ": 5582,
      "ĠÚ¯ÙĪÙĨ": 5583,
      "Ø§ÙħÙĨÙ¹": 5584,
      "ĠØ¬Ø°Ø¨Ûģ": 5585,
      "Ġ01": 5586,
      "ĠSep": 5587,
      "ĠÙ¾Ø±Ø³ØªÛĮ": 5588,
      "Ø§ÙĦØ±": 5589,
      "ĠÛģÙĪØ¬Ø§Ø¦ÛĮÚº": 5590,
      "à¸": 5591,
      "ÙĪÙĤØ¹": 5592,
      "ĠÙħÙĪÙħÙĨ": 5593,
      "Ø¯Ú¾Ø±": 5594,
      "Ø¯Ø§Ø±ØªÛĮ": 5595,
      "Ø§Ø¯ÛĮØ§ÙĨÛĮ": 5596,
      "ĠØ²Ø¯Ûģ": 5597,
      "ĠØ¨ÙĨØ§ØªÛĴ": 5598,
      "ĠÙħÙĨØ§Ø¸Ø±": 5599,
      "ĠØ§ÙĨÚ¯Ø±ÛĮØ²": 5600,
      "ØªØ±ÛĮÙĨ": 5601,
      "Ù¹ÛĮÙĦÛĮ": 5602,
      "Ø¨Ø·": 5603,
      "ĠØ§ØµÙĦØ§ØŃØ§Øª": 5604,
      "ĠØ±Ø¬ÙĪØ¹": 5605,
      "ĠØ´ÙħØ§Ø±ÛĮ": 5606,
      "hed": 5607,
      "ober": 5608,
      "Ø§Ø®ÛĮØ±": 5609,
      "Ġarticle": 5610,
      "ey": 5611,
      "AN": 5612,
      "Ġcon": 5613,
      "ÙĪØ§ÙĦÛĮ": 5614,
      "Ø¹Ø¨Ø¯Ø§ÙĦ": 5615,
      "ĠØ´ÙģØ§Ùģ": 5616,
      "Ð±": 5617,
      "Ø¹Ø§ÙĦÙħÛĮ": 5618,
      "ĠÙħÙĨØ³ÙĪØ®": 5619,
      "Ø¶Ø±": 5620,
      "ĠØ¬Ø§ÙĨÙĪØ±ÙĪÚº": 5621,
      "ĠÙĪÚĪ": 5622,
      "ĠÙ¾Ú¾ÛĮÙĨÚ©": 5623,
      "Ø¬Ø±Ùħ": 5624,
      "Ø³ÙĦÙħ": 5625,
      "Ø§Ø¬Ø§Ø¦ÛĴ": 5626,
      "Ø§ÙĨÚ¾ÙĪÚº": 5627,
      "ĠÚ©Ø±Ø¯ÛĴ": 5628,
      "ÙħÙĨÚ¯ÙĦ": 5629,
      "Ø¯ÛģÛĮ": 5630,
      "ĠÚĪÛĮÙĦ": 5631,
      "ÙĨØ³ÙĪ": 5632,
      "ĠØ·Ø¨ÙĤÛĴ": 5633,
      "ĠØ³ÛĮÙĨÚ©ÚĳÙĪÚº": 5634,
      "ĠØ¯Ú¾ÛĮ": 5635,
      "ØªØŃØ±ÛĮÚ©": 5636,
      "ĠÙĨÙħÙ¹ÙĨÛĴ": 5637,
      "ĠÚ©ÛĮØ¬Ø¦ÛĴ": 5638,
      "Ġcan": 5639,
      "ĠÚ¯Ø±Ø§Ùħ": 5640,
      "act": 5641,
      "Ø§Ø¯ÙĪ": 5642,
      "ÙĨÛĮÙĪØ²": 5643,
      "ĠØ¶ÙħÙĨ": 5644,
      "ĠÚ©Ú¾ÛĮÙĦÙĨÛĴ": 5645,
      "ĠØ¹ÛĮØ³ÛĮ": 5646,
      "ĠØ³ÛĮÙĦØ§Ø¨": 5647,
      "ĠÛģÙĪØ§Ø¦ÛĮ": 5648,
      "ĠÙĤØ¯Ø±Øª": 5649,
      "ĠÙ¾Ù¹ÛĮ": 5650,
      "Ø¨ÙĦÙĪÚĨ": 5651,
      "ĠÙĨÚ©ÙĦÛĴ": 5652,
      "ĠÚ©ÛģØªÛĮ": 5653,
      "ÙĨÚĪØ±": 5654,
      "ĠØ¨ÙĦÛĴ": 5655,
      "Ú©Ú¾ÛĮÙĦ": 5656,
      "ĠØ¬Ø§Ø³Ú©ØªÛĮ": 5657,
      "ĠÙĨØ¸Ø±ÛĮØ§Øª": 5658,
      "ĠØ³Ø§ØªÚ¾ÛĮÙĪÚº": 5659,
      "ĠØ´ÛĮØ¦Ø±": 5660,
      "ĠØªØŃØµÛĮÙĦ": 5661,
      "ile": 5662,
      "ĠÙĪÛĮÚ©ÛĮ": 5663,
      "Ġad": 5664,
      "ĠÚ©Ø±ÚĨ": 5665,
      "Ġï¿½ï¿½": 5666,
      "ĠØªÙģØµÛĮÙĦÛĮ": 5667,
      "ĠØ¨Ú¾ÙĦØ§": 5668,
      "ĠÙ¾Ø§Ø¤Úº": 5669,
      "ĠØ·ÙĪØ±Ù¾Ø±": 5670,
      "ĠÙģÙĪØ¬ÛĮÙĪÚº": 5671,
      "Im": 5672,
      "Ø¹Ø¯Ø§ÙĦØª": 5673,
      "ĠØ¢Ú©Ø±": 5674,
      "Ġ*": 5675,
      "ĠÚĪØ±Ø§Ø¦ÛĮÙĪØ±": 5676,
      "ĠØ¬Ø§ÙĨÙĨÛĴ": 5677,
      "ĠÙĪÛĮÙĨ": 5678,
      "ÙĪØ§Øª": 5679,
      "ĠAug": 5680,
      "ĠØ§Ø³Ú©ÙĪ": 5681,
      "Ġch": 5682,
      "ĠØ§ÙĦØ·Ø§Ùģ": 5683,
      "Ø¹ÛĮØ¯": 5684,
      "ĠØ§ÙĤØ¯Ø§Ø±": 5685,
      "ĠÙģØ§Ø±Ø³ÛĮ": 5686,
      "ĠØ²Ø¯": 5687,
      "Ø¯ÛĮØ´": 5688,
      "ÙĪÙĨÛĴ": 5689,
      "ĠÙĨØ°Ø±": 5690,
      "ĠÚ©Ø±Ø§Ø¦ÛĮ": 5691,
      "Ø¯Ø¨": 5692,
      "ĠFor": 5693,
      "ĠØ±ÛĮØ²": 5694,
      "ĠÙĦØ¹ÙĨØª": 5695,
      "ĠÙĦÚ¯Ø§Ø¦ÛĮ": 5696,
      "ĠØ§ÙħØ±Ø§Ø¶": 5697,
      "ĠÑ": 5698,
      "ĠÚ©Ú¾ÙĦÛĴ": 5699,
      "ence": 5700,
      "Ú¯Ø¦ÛĮ": 5701,
      "ÚĪÙ¹": 5702,
      "Ø¬ÙħØ¹Ø±Ø§Øª": 5703,
      "ĠØµÙĪØ¨ÙĪÚº": 5704,
      "ĠâĢ¢": 5705,
      "ĠØ¨ÛĮÙ¹Ú¾Ø§": 5706,
      "ĠÙĤØ§Ø¶ÛĮ": 5707,
      "ĠÙĤØ·Ø±": 5708,
      "66": 5709,
      "ĠÚĨÙħÚ©": 5710,
      "ĠØ¨ÚĨÙĨÛĴ": 5711,
      "ĠÚ©Ø±Ø§Ø¦ÛĴ": 5712,
      "ĠØ¹Ø§Ø¨": 5713,
      "ĠÚ©ÙħÛĮÙĪÙĨÙ¹ÛĮ": 5714,
      "ÙĨÙ¹Ø³": 5715,
      "ÙĪÙħØ§": 5716,
      "AR": 5717,
      "ĠÙĦØ§Ø¦ÛĮ": 5718,
      "ĠØ¨Ø¯ÙĪÙĦØª": 5719,
      "Ø§ÙĪØ±Øª": 5720,
      "ĠÚ©ÛģÛĮ": 5721,
      "Ø±ÙĪÙ¾ÛĴ": 5722,
      "ult": 5723,
      "ĠÚĪØ§ÙĦÛĮ": 5724,
      "Ù¾ÛĮÚĪÛĮØ§": 5725,
      "Ø²Ø±": 5726,
      "ĠØ§Ø³ÙħØ§Ø¹ÛĮÙĦ": 5727,
      "Ø§ÙĨÚ¯ÛĮØ±": 5728,
      "ĠÙĤØ§ÙĦ": 5729,
      "ĠØªØŃØ³ÛĮÙĨ": 5730,
      "ĠÙĪØ§Ø¦Ø³": 5731,
      "ĠÛģÙħØª": 5732,
      "ĠÚ©Ú¾ÙĦÛĮ": 5733,
      "Ø§ÙĦØ³": 5734,
      "ÙĪØ±ÙĨØ§ÙħÙĨÙ¹": 5735,
      "ĠØ¨Ø§ÙĦÛĮ": 5736,
      "ĠÙĦØ§Ø²Ùħ": 5737,
      "ĠÙĨÙĤØ·Ûģ": 5738,
      "ĠØ¢Ø¤Ù¹": 5739,
      "Ùĸ": 5740,
      "ĠÙ¾Ù¹": 5741,
      "ĠÙħÙĪØ±Ø®Ûģ": 5742,
      "Ø±ØŃØ§ÙĦ": 5743,
      "ĠØ³Ø§Ø¦ÙĨ": 5744,
      "ĠÚ¯ÛĮØ±": 5745,
      "ĠØ§ÛĮÚ©Ø³Ù¾Ø±ÛĮØ³": 5746,
      "Ø§ÛģÙ¹": 5747,
      "ĠÙ¾ÚĨØ§Ø³": 5748,
      "ĠÚ©ÛĮÙĦÛĮÛĴ": 5749,
      "ĠÙĤØ¨Ø§Ø¦ÙĦÛĮ": 5750,
      "Ø²Ø§Ø¯Ûģ": 5751,
      "ĠØ§ÙĦÚ©": 5752,
      "ĠØ§ÙĨØ¬ÛĮÙĨØ¦Ø±": 5753,
      "ĠØ§ÛģÙĦÛĮÛģ": 5754,
      "ĠÚ¯ÙĪØ¦ÛĮ": 5755,
      "ĠØªÙĤØ±": 5756,
      "ĠØ¬ÙħÛģÙĪØ±ÛĮÛģ": 5757,
      "Ø¨Ø³": 5758,
      "Ø¬ÙĪÙĨ": 5759,
      "ÙĦÛĮÙĪÚº": 5760,
      "ĠÙħØ±Ø§Ú©": 5761,
      "ĠÛģØ§Ø¦": 5762,
      "ĠØŃØªÛĮ": 5763,
      "title": 5764,
      "Ø¨Ø¯": 5765,
      "ĠÙĤØ§Ø¯Ø±ÛĮ": 5766,
      "lish": 5767,
      "ĠØ¯Ø±ÙĪØ§Ø²Ûģ": 5768,
      "ĠØ¹ÙħØ¯": 5769,
      "ĠÚĪØ§Ù¹": 5770,
      "ĠØ³ÛĮØ¯ÙĨØ§": 5771,
      "ĠÙħØ¨Ø§Ø±Ú©Ø¨Ø§Ø¯": 5772,
      "Ø¬ÙħØ¹Ûģ": 5773,
      "ÚĳÙ¾": 5774,
      "ĠØ³ÙĪØ¦": 5775,
      "ĠÙħÙĨÚ¯": 5776,
      "Ġ}": 5777,
      "ĠÛĮÙĪÙĨÙ¹": 5778,
      "ĠÙĨÛĮÙĪØ²ÛĮ": 5779,
      "ĠØ®Ø±Ø§Ø¬": 5780,
      "ĠØ§Ø¯ÙĪÛĮØ§Øª": 5781,
      "ĠÙħÙĦØ§ØŃ": 5782,
      "ich": 5783,
      "ĠØªÛĮØ±ÛĮ": 5784,
      "ok": 5785,
      "ĠØ¨Ø²ÙĨØ³": 5786,
      "ual": 5787,
      "\"ÛĶ": 5788,
      "log": 5789,
      "ĠÚĨÙĦØªÛĴ": 5790,
      "ĠAnd": 5791,
      "ĠÙ¾Ú©Ø§Ø±": 5792,
      "ĠBy": 5793,
      "ĠØ¹ÛĮÙĨ": 5794,
      "ĠØ§ÙĨØ¯Ø±ÙĪÙĨÛĮ": 5795,
      "ĠØ¯Ø±Ø¨": 5796,
      "Ġ02": 5797,
      "ĠÙĨÚ©ÙĦÙĨÛĴ": 5798,
      "à¤¾": 5799,
      "ĠØ²ÛĮØ¯": 5800,
      "ÙħÛĮØ´ÙĨ": 5801,
      "ĠØ¢Ù¾Ø³": 5802,
      "ĠÚĨØªØ±Ø§ÙĦ": 5803,
      "Ø²Ø¦ÛĮ": 5804,
      "ĠØªØ¨ÙĦÛĮØº": 5805,
      "ĠØ§Ø®ØªÙĦØ§ÙģØ§Øª": 5806,
      "ĠFeb": 5807,
      "ĠØ´Ø±Ø¹ÛĮ": 5808,
      "ire": 5809,
      "ĠØ¬Ú¾Ú¯": 5810,
      "Ø§ÙĦÛĮÛģ": 5811,
      "ĠØ§Ø³ØŃØ§ÙĤ": 5812,
      "ĠÙħÛģÛĮØ§": 5813,
      "ĠÙģÛĮÙħÙĦÛĮ": 5814,
      "ÙĬØ©": 5815,
      "Ð°Ð½": 5816,
      "ÙĪØ²ÛĮØ±Ø§Ø¹ÙĦÛĮ": 5817,
      "ĠÙħÛģÙĨÚ¯Ø§Ø¦ÛĮ": 5818,
      "ĠÛģØ±Ú¯Ø²": 5819,
      "ĠÙĪÙĤØ§Ø±": 5820,
      "ĠÙħØ§ÙĨÛĮ": 5821,
      "ara": 5822,
      "ĠØµØ§ÙĦØŃ": 5823,
      "ĠØ¢ÙģØ³": 5824,
      "ĠÙĦÛĮØ¦ÛĴ": 5825,
      "ef": 5826,
      "ĠÙĦÚ¯ÙĨÛĴ": 5827,
      "ĠØ¬Ø§Ø¤": 5828,
      "ĠÛĮÚ©Ø¬ÛģØªÛĮ": 5829,
      "ĠÙħØ¹Ø§ÙĪ": 5830,
      "ĠØ¯Ø±ÛĮØ§": 5831,
      "ĠØ¯Ø±Ù¾ÛĮØ´": 5832,
      "ĠÙ¾Ú¾ÙĨØ³": 5833,
      "Ø±ÛĮÙĪÚº": 5834,
      "ĠÚĨØ§ÛģÛĮÚº": 5835,
      "ĠØ§Ú©Ú¾": 5836,
      "ĠÙģÙĨÚĪØ²": 5837,
      "ĠØ³ÙĪØ±Ûģ": 5838,
      "ÛĮØ´": 5839,
      "Ø¹ÙĨ": 5840,
      "ĠÙĨØµØ¨": 5841,
      "Ġcap": 5842,
      "ĠØŃÙĦÙģ": 5843,
      "ĠØ§ÙĦØ¯": 5844,
      "ĠØ¹Ø§Ø¯Øª": 5845,
      "ÙĦÙĪÚ¯": 5846,
      "ĠØ³ÛĮÚ©Ù¹Ø±": 5847,
      "ĠÙ¹Ú¾ÛģØ±": 5848,
      "ĠÙħÙĨØ¹": 5849,
      "ĠØ®ÙĦÛĮÙģÛģ": 5850,
      "ÛĮÚ©Ø§": 5851,
      "Ø±Ù¾ÙĪØ±Ù¹": 5852,
      "ĠÚ¯ÛĮÙĦØ§ÙĨÛĮ": 5853,
      "ÙħØ¦ÛĮ": 5854,
      "ĠØ¶ÙĦØ¹ÛĮ": 5855,
      "ĠÙħØ±ÙĨÛĴ": 5856,
      "Ø§Ù¾Ø±ÛĮÙĦ": 5857,
      "ign": 5858,
      "ĠÙĤØ§ØªÙĦ": 5859,
      "ĠÚ©ÛĴÙĦØ¦ÛĴ": 5860,
      "ĠÙĨÙĪØ§Ø¨": 5861,
      "Ø§ØŃÙĤ": 5862,
      "ÙģØ±ÙĪØ±ÛĮ": 5863,
      "ĠÙģØ§Øª": 5864,
      "ĠÚ©ÛĮÙĨÛĮ": 5865,
      "oogle": 5866,
      "ound": 5867,
      "Ø¬Ø³Ù¹Ø±": 5868,
      "ÙĨÚĪÛĮØ´ÙĨ": 5869,
      "ĠÙħØ§Ø¦": 5870,
      "ĠÙĨÚ©ÙĦØ§": 5871,
      "ĠØ¶Ø§Ø¦Ø¹": 5872,
      "min": 5873,
      "ĠØ³Ø¨ÙĤ": 5874,
      "ØªÛĮÙĪÚº": 5875,
      "ĠÙ¹ÙĪØ±ÙĨØ§ÙħÙĨÙ¹": 5876,
      "ĠØµØ¯Ø§Ø±ØªÛĮ": 5877,
      "ÙĦÙĩ": 5878,
      "ĠØ±ÙĪÙĦ": 5879,
      "ĠÚ¯ÙĨØ¯": 5880,
      "ĠÚ©ÛĮÙ¾": 5881,
      "ĠØ³Ø¨Ú¾ÛĮ": 5882,
      "per": 5883,
      "ĠÙĨÛĮÙĦ": 5884,
      "97": 5885,
      "ĠÚ¯Ú¾ÙĨÙ¹ÙĪÚº": 5886,
      "ĠØ¢ÙĦÛģ": 5887,
      "ĠÙħÙĦØªÙĪÛĮ": 5888,
      "ĠÙħÙĤØ¯ÙħÛĴ": 5889,
      "ĠØ¹Ø¸ÙħØª": 5890,
      "Ø§Ø¦ÛĮØ¯Ø§Ø¯": 5891,
      "ĠÚ©ÛģÛĴ": 5892,
      "ĠÙħÙĪØ³ÙħÛĮ": 5893,
      "ĠØŃØ§ÙħØ¯": 5894,
      "ĠÛģÛĮØ±ÙĪ": 5895,
      "Ġ@": 5896,
      "Ú¯ÙĪØ§Ø±": 5897,
      "Ø§Ø±Ø¦ÛĮÙĨ": 5898,
      "ĠØªØ§Ø®ÛĮØ±": 5899,
      "ĠÚ¾ÛĮÚº": 5900,
      "ĠÙħØ§Ø±Ø§": 5901,
      "ĠÚ©ÛģÙĦ": 5902,
      "Ú¯Ú¾Ø±": 5903,
      "ĠØ¹Ø§Ø±": 5904,
      "ÚĪØ²": 5905,
      "Ø¨Ø±Ø·Ø§ÙĨÛĮÛģ": 5906,
      "Ø¬ÛģØ§Úº": 5907,
      "ĠÚ¯ÙħØ±": 5908,
      "ĠÚĨØ§ÛģÛĮØ¦ÛĴ": 5909,
      "ĠØºØ§Ø¦Ø¨": 5910,
      "ike": 5911,
      "ĠØ¨ÙĨØªØ§": 5912,
      "ÙĪØ±Ø§": 5913,
      "ĠÙħÙĨØ¯Ø±Ø¬Ûģ": 5914,
      "ĠØŃØ±Ø§Ø±Øª": 5915,
      "ĠØ¬ÙĦØ³Ûģ": 5916,
      "ĠØ§ÙĦÙħØ¹": 5917,
      "ĠØ§ÙĨØ¯Ú¾ÛĮ": 5918,
      "ĠØ¨Ø§Ø¨Ø±": 5919,
      "Ú¯Ø±Ûģ": 5920,
      "ÙĦÙĪØ¯": 5921,
      "Ø§Ø¹ÛĮ": 5922,
      "ens": 5923,
      "ĠØ´Ø§ÙħÛĮ": 5924,
      "ĠÙģØ§Ø±Øº": 5925,
      "Ġwill": 5926,
      "ÙĪØ´ÙĨ": 5927,
      "Ġi": 5928,
      "Ø³Ø±ÛĮ": 5929,
      "Ġse": 5930,
      "ĠØ´Ø§Ø¯": 5931,
      "ĠÙħØ¹Øª": 5932,
      "ĠÙħÙĨØ¸Ùħ": 5933,
      "ĠÙĪØ³ÛĮÙħ": 5934,
      "ĠÚ©ÛĮÙĨØ³Ø±": 5935,
      "ĠØ¨ÚĳÚ¾ÙĨÛĴ": 5936,
      "ĠØ¨ØºØ§ÙĪØª": 5937,
      "ĠØ§Ø¨ÙĦ": 5938,
      "uary": 5939,
      "ĠÚ©Ø§Ø³": 5940,
      "ĠÙħÛĮØ³Ø±": 5941,
      "Ú¯Ø¦ÛĴ": 5942,
      "ollow": 5943,
      "ĠÚĨØ§Ø±ÙĪÚº": 5944,
      "ÙĨØ¨ÛĮ": 5945,
      "Ø¬ÙĨÙĪØ¨ÛĮ": 5946,
      "rit": 5947,
      "ĠØ³Ø§Ø¨ÙĤÛģ": 5948,
      "ĠØ±ÛĮØ§Ø³ØªÙĪÚº": 5949,
      "ĠØ¨Ùĩ": 5950,
      "Ø²ÛĮØª": 5951,
      "ĠÙĦØ´Ú©Ø±": 5952,
      "ĠÙĤØ§Ø³Ùħ": 5953,
      "\".": 5954,
      "Ù¾Ù¹": 5955,
      "Ø´ÙĪÚº": 5956,
      "ĠØ´ÛĮØ·Ø§ÙĨ": 5957,
      "ĠØŃÚ©ÛĮÙħ": 5958,
      "ĠÙħØªØ§Ø«Ø±ÛĮÙĨ": 5959,
      "ĠØ®Ø·Ø±Ø§Øª": 5960,
      "ĠØ¹ÙĦØ§ÙħØª": 5961,
      "ĠÚ©ÙĨØ§Ø±ÛĴ": 5962,
      "ĠØ¯Ø±Ø¬ÛĴ": 5963,
      "ĠØªØ°Ú©Ø±Ûģ": 5964,
      "Ø¢Ø±": 5965,
      "ĠØ´Ø¨Ûģ": 5966,
      "ÙħÚ©ÙĨ": 5967,
      "ÙĦØ§ÙĪØª": 5968,
      "ÙĪÛĮØ¨": 5969,
      "ĠÛĮØ³": 5970,
      "hab": 5971,
      "ĠØ³ÙħØª": 5972,
      "ĠØŃØ³Ø§Ø³": 5973,
      "Ø¯ÛĮØ±": 5974,
      "Ø¨ÛĮØ¨": 5975,
      "Ø§Ø·Ø¨": 5976,
      "ĠÚ¯Ø±ÛĮÙĨ": 5977,
      "ĠÙ¾ÛģÙĨÚĨØ§ÛĮØ§": 5978,
      "php": 5979,
      "ĠSh": 5980,
      "+]": 5981,
      "ĠÙħØ²Ø§Ø¬": 5982,
      "ĠTh": 5983,
      "Ãł": 5984,
      "ft": 5985,
      "ĠØ³Ø±Ù¾Ø±": 5986,
      "so": 5987,
      "ĠÙħØ®Ø§ÙĦÙģÛĮÙĨ": 5988,
      "Ġï¿½ï¿½ï¿½ï¿½ï¿½ï¿½": 5989,
      "67": 5990,
      "ĠÙĨØµÙģ": 5991,
      "Ġ[+]": 5992,
      "Ð·": 5993,
      "ĠÚ©Ú¾ÛĮÙĨ": 5994,
      "ĠØ¯Ø±Ú©Ø§Ø±": 5995,
      "ĠÙģÙĪØ§Ø¯": 5996,
      "cc": 5997,
      "Ġ500": 5998,
      "ĠØ¨Ú¾ÙĪÚ©": 5999,
      "Úµ": 6000,
      "ark": 6001,
      "ĠØ¨ÙĨØ¯ÛĴ": 6002,
      "ĠÚ¯Ø¬Ø±Ø§Øª": 6003,
      "Ø§Ø´Ø§": 6004,
      "ï´¾": 6005,
      "ĠÛģÙĪÚĨÚ©ÛĮ": 6006,
      "ace": 6007,
      "ĠØªÚ¾ÙĪÚĳØ§": 6008,
      "ĠØºØ²ÙĦ": 6009,
      "Úķ": 6010,
      "ĠØ³ÙĨÙ¹Ø±": 6011,
      "ĠØªÙĪØ¨Ûģ": 6012,
      "ĠØ¯Ú¾ÙħÚ©ÛĮ": 6013,
      "ĠÙĦÛĮÚ©Ø³": 6014,
      "Ú©ÙĪØ¦": 6015,
      "ĠØ§ÛĮÚ©Ù¹": 6016,
      "ÙħÛĮÙĨØ§ÙĨ": 6017,
      "ĠÙħÙĦØªÛĴ": 6018,
      "ĠÚ¯ÙĦÛĴ": 6019,
      "Ø§ÚĳÛĮ": 6020,
      "ĠØ¯Ø§Ø³Øª": 6021,
      "Ø¬ÙĪÙĦØ§Ø¦ÛĮ": 6022,
      "ĠÙĨØ¸ÛĮØ±": 6023,
      "ĠØ§Ø³ÙĦÙħ": 6024,
      "ĠÚ¯Ø§Ø±": 6025,
      "Ø«ÛĮ": 6026,
      "ĠÚ¯ÛĮÙĨØ¯": 6027,
      "Ø§ÙģØªÛĮ": 6028,
      "ĠÙģÙĪØ§Ø¦Ø¯": 6029,
      "ĠÙħÙĨÚĪÛĮ": 6030,
      "ĠÙħØ±ÙĪ": 6031,
      "ĠÙħØ´Ø§ÙĪØ±Øª": 6032,
      "Ø´Ø§ÙĨ": 6033,
      "ĠÙħÛģØ§Ø±Øª": 6034,
      "ina": 6035,
      "ÚĨÙĪÚº": 6036,
      "ĠÙĦÚ¯ÛĮÚº": 6037,
      "tember": 6038,
      "ĠÙĦÛķ": 6039,
      "ĠØ¨Ø§ÙĦØ®ØµÙĪØµ": 6040,
      "Ġup": 6041,
      "ĠØ§ÙĦÙħØ¨Ø§Ø±Ú©": 6042,
      "ĠØ±ÙĪØ²ÛĴ": 6043,
      "ER": 6044,
      "ĠØ¯Ú©Ú¾Ø§ÛĮØ§": 6045,
      "ĠØ³ÛģÛĮÙĦ": 6046,
      "âĢĺÛĶ": 6047,
      "ĠÙĤØ¨Ø¶ÛĴ": 6048,
      "ĠØµÙĦØ§ØŃÛĮØªÙĪÚº": 6049,
      "ĠØ§ÛĮØ¬ÙĪ": 6050,
      "ĠØ¨Ø§ÙĨØ¯Ú¾": 6051,
      "ĠØ§ÙĦØ£": 6052,
      "ĠÙĨÙħØ§Ø¦ÙĨØ¯Ú¯ÛĮ": 6053,
      "Ãĺ": 6054,
      "ĠÙĤØ§Ø±ÛĮ": 6055,
      "ĠØ±ÛĮÙĦÛĮØ²": 6056,
      "ĠÙĦØ·Ùģ": 6057,
      "ani": 6058,
      "ĠØ¨ÙĦÛĮÚ©": 6059,
      "ĠÙħØ°Ø§ÙĤ": 6060,
      "ĠØ¯ÛĮÛģ": 6061,
      "ĠÚĪØ³Ù¹Ø±Ú©Ù¹": 6062,
      "ĠØ§ÙħÛĮÙĨ": 6063,
      "ÙĪÛĮØª": 6064,
      "ÙĨØ±": 6065,
      "are": 6066,
      "ĠØªØ±Ø¯": 6067,
      "ĠÚ©Ø§Ù¾": 6068,
      "ram": 6069,
      "ĠÙħØ²Ø§ØŃÙħØª": 6070,
      "ÙħØ·": 6071,
      "ÙħÛĮÛģ": 6072,
      "ĠØ¬Ø§Ø³Ú©ÛĴ": 6073,
      "ĠØ¬Ø§Ø¦ÛĮØ¯Ø§Ø¯": 6074,
      "ĠÚ¯Ø§ÙĦ": 6075,
      "ÛĮØ³Ø§": 6076,
      "ĠØ´Ø§ÛģØ±": 6077,
      "px": 6078,
      "Ù¹Ø±ÛĮÙ¹": 6079,
      "ĠØ§Ø³ØªØ¹ÙģÛĮ": 6080,
      "ĠØ¨ÙĪÚĳ": 6081,
      "ĠØ¨ÙĪÙĦÙĨÛĴ": 6082,
      "Ø§ÛĮÙģ": 6083,
      "ĠÚ©Ø±ÙĨØ³ÛĮ": 6084,
      "Ø¹ÛĮÙĨ": 6085,
      "ĠÛ´": 6086,
      "ĠØ¨ØªØ§Ø±ÛĮØ®": 6087,
      "ake": 6088,
      "87": 6089,
      "ric": 6090,
      "ĠØ¨ÚĨÙ¾ÙĨ": 6091,
      "×ķ×": 6092,
      "ĠÙĨÙģØ§Ø°": 6093,
      "ĠØ¨ÙĬ": 6094,
      "ĠØªØ¬Ø§ÙĪØ²": 6095,
      "89": 6096,
      "ĠØ¬ÙħÙĦÛģ": 6097,
      "ĠØ®ÙĪØ´ØŃØ§ÙĦÛĮ": 6098,
      "ĠØ¢ÛĮØ§Øª": 6099,
      "ĠÙħØŃØ§Ø°": 6100,
      "Ø§Ø¦ÙħÛģ": 6101,
      "ØŁâĢĺâĢĺ": 6102,
      "ÙĤÛĮÙĤØª": 6103,
      "ĠÙĪÙĦØ§": 6104,
      "ÛĮÙĨÙ¹": 6105,
      "ĠØ§Ø³Ú©Ø§": 6106,
      "ĠØ·ÙĪÙģØ§ÙĨ": 6107,
      "ĠÙĦØ·ÛĮ": 6108,
      "ĠØ§ÙĦØ®": 6109,
      "ĠÙħØ³Ø§Ø¬Ø¯": 6110,
      "Ú©ÙĪÚ©": 6111,
      "ĠÙħÙħÙĨ": 6112,
      "ĠØ³ÛģØ§Ø±": 6113,
      "ï¿½ï¿½ï¿½ï¿½ï¿½": 6114,
      "Ø°Ø±Ø§Ø¦Ø¹": 6115,
      "Ø§ÙĩØ¯": 6116,
      "ĠØ¨ÙĨØ¯Ûģ": 6117,
      "for": 6118,
      "Ġsp": 6119,
      "ĠÙĤØ³ÙħØª": 6120,
      "ĠÙ¾Ø§ÙĦÛĮØ³ÛĮÙĪÚº": 6121,
      "ĠØ¹ÙħÙĦØ¯Ø±": 6122,
      "Ø³ÙĨØ¯": 6123,
      "ĠØ³Ø§ÚĳÚ¾ÛĴ": 6124,
      "ĠÙħÙĨÙģØ±Ø¯": 6125,
      "Ú©Ø±ÙĪÚĳ": 6126,
      "Ø¬Ø³Ù¹": 6127,
      "ĠØ¹Ø±ÙĪØ¬": 6128,
      "ĠØ³ÙĨØ¬ÛĮØ¯Ûģ": 6129,
      "ØŃØ±": 6130,
      "ĠÙĨØ´Ø§ÙĨØ¯ÛģÛĮ": 6131,
      "Ø§Ø±ÛĮÙĪÚº": 6132,
      "ĠØ§ÙĨÙĨÚ¯Ø²": 6133,
      "ĠÚ¯ÙĪØ§Ûģ": 6134,
      "ÙĨÙģ": 6135,
      "ĠÚĨÚ©Ø±": 6136,
      "ĠÚ©Ø§ÙħÙĦ": 6137,
      "ĠØŃÚ©ÙħØ±Ø§ÙĨÛĮ": 6138,
      "ÙĤØ¨": 6139,
      "Ø¬Ø¨Ú©Ûģ": 6140,
      "ĠØ¬ÙħØ¹ÛĮØª": 6141,
      "ĠÙħÙĪÙĨ": 6142,
      "Ù¾Ú¾": 6143,
      "ĠØ§Ø²Ø§Úº": 6144,
      "ĠÛĮÚ©Ùħ": 6145,
      "Ú©ØªØ§Ø¨": 6146,
      "Ø¨ÛĮØ§Ø¡": 6147,
      "Ġ2008": 6148,
      "ĠØ¬Ø´ÙĨ": 6149,
      "ĠÙ¾Ø±Ø§Ø¦ÛĮ": 6150,
      "ĠÙħÙĤØª": 6151,
      "eo": 6152,
      "ĠÚĪÚ¾ÙĪÙĨÚĪ": 6153,
      "Ġdo": 6154,
      "ĠØ¨ÛĮÙħØ§Ø±ÛĮÙĪÚº": 6155,
      "ĠØ¯ÛģØ§Ø¦ÛĮ": 6156,
      "ala": 6157,
      "ĠØ¹Ø±ÙģØ§ÙĨ": 6158,
      ");": 6159,
      "ĠÙħÙĪØ¶ÙĪØ¹Ø§Øª": 6160,
      "ÛĮØ¨Øª": 6161,
      "int": 6162,
      "Ġhas": 6163,
      "ĠÙħØ®ÙĦÙĪÙĤ": 6164,
      "ĠÚ©Ø§Ø±Ú©ÙĨØ§ÙĨ": 6165,
      "ĠØ§ÙģØªØ®Ø§Ø±": 6166,
      "Ø®ØªÛģ": 6167,
      "ĠÛģÙĪÚĨÚ©ÛĴ": 6168,
      "ĠÚ¯Ø§Ø±ÚĪ": 6169,
      "ĠØ«ÙĪØ§Ø¨": 6170,
      "Â¤": 6171,
      "ÙĪØ§ÙĨÛĮ": 6172,
      "Ø®ÛĮØ§ÙĦ": 6173,
      "ational": 6174,
      "ĠØ¬Ø§Ø¦ÛĮÚ¯Ø§": 6175,
      "ĠÚ©ÙĦÛĮØ¯ÛĮ": 6176,
      "ĠØ³Ø±ÙģØ±Ø§Ø²": 6177,
      "ue": 6178,
      "Ø§Ø±ÛĮÛģ": 6179,
      "ĠØ¨Ø§Ø²ÙĪ": 6180,
      "ĠØ³Ø±ÚĨ": 6181,
      "ĠØ¨Ú¾Ø±ÛĮ": 6182,
      "ĠØ¬Ø§Ù¾Ø§ÙĨ": 6183,
      "92": 6184,
      "ĠØ³Ø®ØªÛĮ": 6185,
      "ĠØ¬Ø°Ø¨": 6186,
      "ĠØ§ÛĮÙħØ±": 6187,
      "ĠÚ¯Ø±ÛĮØ²": 6188,
      "ĠÙħØ¸Ø§ÛģØ±ÛĮÙĨ": 6189,
      "ĠÙ¹ÛĮÙħÙĪÚº": 6190,
      "ĠÛģÙĪÚĨÚ©Ø§": 6191,
      "ebs": 6192,
      "........": 6193,
      "ĠØ¨Ø±ÛĮÙģ": 6194,
      "ĠÙĥÙĬ": 6195,
      "ÙĨÙħÙĨÙ¹": 6196,
      "ĠÛĶÛĶÛĶÛĶ": 6197,
      "ĠÙħØ¹ÛĮØ§Ø±ÛĮ": 6198,
      "ĠÙħÙĨØ§ÙģØ¹": 6199,
      "ĠÚ©ÙĨÙ¹": 6200,
      "ĠØºØ°": 6201,
      "ĠØ®ÛĮØ¨Ø±Ù¾Ø®ØªÙĪÙĨØ®ÙĪØ§": 6202,
      "ĠÙ¾Ø®ØªÙĪÙĨ": 6203,
      "ĠØ®Ùħ": 6204,
      "ĠØ§ØµØ·": 6205,
      "ĠØ¬ÙĨØ§Ø²Ûģ": 6206,
      "ĠÙĨØ§Ø¬Ø§Ø¦Ø²": 6207,
      "ĠÙĦÚ¯ØªÛĮ": 6208,
      "ĠØ§Ø´ØªÛģØ§Ø±": 6209,
      "ĠØ§ØµÙĪÙĦÙĪÚº": 6210,
      "ÛĮÙĨÚĪÙĦ": 6211,
      "ĠØ¹ÙĤÛĮØ¯Ûģ": 6212,
      "ĠÙ¾Ø±Ø§Ø³": 6213,
      "ĠÙħÙĪØµÙĪÙĦ": 6214,
      "ĠØªÚ¾Ø§ÙĨÛģ": 6215,
      "ĠØ§ÛĮØ´ÛĮ": 6216,
      "ĠÙħÙĦØ§ØŃØ¸Ûģ": 6217,
      "ĠJune": 6218,
      "Ø§Ø®Ø°": 6219,
      "ĠÙħÛĮÙ¹ÙĨÚ¯": 6220,
      "ĠÙĨØ¹ÛĮÙħ": 6221,
      "Ø±Ú©ÛĴ": 6222,
      "ĠØ¶ÛĮØ§Ø¡": 6223,
      "ĠÚ¯ÛĮØ§Ø±Ûģ": 6224,
      "Ø¶Ø§": 6225,
      "Ġnews": 6226,
      "âĢĭ": 6227,
      "ĠÙ¹Ø§Ù¾": 6228,
      "ĠØ±Ø¬Ø³Ù¹Ø±": 6229,
      "ĠØ¹Øµ": 6230,
      "ĠÙĨØ±Ùħ": 6231,
      "ĠØ·Ø§ÙĤ": 6232,
      "ĠÚ©ÛĴÙĦÛĮÛĴ": 6233,
      "ĠÙ¾ÚĳÚ¾ÛĴ": 6234,
      "ĠÙ¾Ø§ÙĨØ§ÙħÛģ": 6235,
      "BC": 6236,
      "ÙĦÙĨ": 6237,
      "ĠØ§Ø·ÙħÛĮÙĨØ§ÙĨ": 6238,
      "ĠÙ¾ÙĪØ¯": 6239,
      "ĠÚĨÚ¾Øª": 6240,
      "ĠÙħØ¸Ø§ÙĦÙħ": 6241,
      "ĠIslam": 6242,
      "ĠØŃÙĨ": 6243,
      "ĠØ¬ÛģØ§ÙĨÚ¯ÛĮØ±": 6244,
      "ĠÚ©Ø±ÙĪÚĳÙĪÚº": 6245,
      "ĠØŃØ§ÙħÛĮ": 6246,
      "ÚĨÚ©": 6247,
      "ĠØ¨Ø§Ø¬ÙĪÛģ": 6248,
      "ĠÙģØ·Ø±Øª": 6249,
      "Ø§Ø¦Ø±ÛĮ": 6250,
      "ĠØ§ÙħØªÛĮØ§Ø²": 6251,
      "ĠÙĦÙħØ¨ÛĮ": 6252,
      "Ø§Ø¨Ú¾ÛĮ": 6253,
      "ÙĤÙĪÙĦ": 6254,
      "ÛģÙĨØ¯ÙĪ": 6255,
      "ĠØªØ¹Ø¨ÛĮØ±": 6256,
      "ĠØªØ§Ø«Ø±": 6257,
      "ĠÙĤØ§Ø¯ÛĮØ§ÙĨÛĮ": 6258,
      "Ġ36": 6259,
      "ĠØ®Ø¯Ø´Ûģ": 6260,
      "ĠÚĨØ§ÙĦÛĮØ³": 6261,
      "Ø´ÙĨØ²": 6262,
      "ĠØ®ØµÙĪØµØ§": 6263,
      "ĠÙĪØª": 6264,
      "×Ļ×": 6265,
      "ĠÙħØ±ØŃÙĦÛģ": 6266,
      "ĠÙħØªØ¨Ø§Ø¯ÙĦ": 6267,
      "ĠÙĪØµ": 6268,
      "ĠÙħÙħØ¨Ø±Ø§ÙĨ": 6269,
      "ĠØ¢Ø¦ÛĮÙĨÛĮ": 6270,
      "Ø§Ú¯Ø³Øª": 6271,
      "ĠÚ¯Ø±Ø§": 6272,
      "ÙħÙĪØ¬ÙĪØ¯": 6273,
      "ĠÙħÙĨØµØ¨": 6274,
      "ĠØ¢ÙĪØ±": 6275,
      "ĠÙħØ¹Ø§Ø´Ø±ØªÛĮ": 6276,
      "ĠÚ¯ÙĦÙĪ": 6277,
      "Ø§ÛģØ¨": 6278,
      "ĠØ¹Ø§Øµ": 6279,
      "ĠØ¨ØªØ§Ø¦ÛĮ": 6280,
      "ĠÙĨÚ©Ø§ÙĦØ§": 6281,
      "load": 6282,
      "ÙĦÙĪØ§Ø±": 6283,
      "Ø¹Ø¨Ûģ": 6284,
      "ĠØ¹Ø§Ø´ÙĤ": 6285,
      "Ø§ÙģØºØ§ÙĨØ³ØªØ§ÙĨ": 6286,
      "ĠØ°ÙĪØ§ÙĦÙģÙĤØ§Ø±": 6287,
      "ĠÚĪØ¨ÙĦÛĮÙĪ": 6288,
      "Ø¨ÙĦÙĪÚĨØ³ØªØ§ÙĨ": 6289,
      "ĠØ¬ÙħØ§Ø¹ØªÛĮÚº": 6290,
      "very": 6291,
      "ĠØ¨Ø§Ø¦": 6292,
      "ĠÙ¾Ø§Ùħ": 6293,
      "Ù¾Ø§ÙĦ": 6294,
      "ÙħØ§Ùħ": 6295,
      "ĠØªÙĦØ§ÙĪØª": 6296,
      "Ø³Ù¹ÛĮ": 6297,
      "ĠÛĮØ±": 6298,
      "ÙĪØ¶": 6299,
      "==": 6300,
      "ĠØ³Ø§ÙģÙ¹": 6301,
      "ĠØ§ÙĪÙ¾ÙĨ": 6302,
      "ĠØ¨Ø¯ÙĦÛĴ": 6303,
      "Ø§Ø³Ø¯": 6304,
      "ÙĪÛĮØ§Ø±Ú©": 6305,
      "ĠÙ¾ÚĳÚ¾ØªÛĴ": 6306,
      "ØºØ§Ø±": 6307,
      "ĠÚ©ÙģØ±": 6308,
      "ĠØ´Ø¬": 6309,
      "90": 6310,
      "Ø¬ÙħÙĨÙ¹": 6311,
      "ĠØ±Ø¹": 6312,
      "ĠÙħÛĮÙ¹Ø±ÙĪ": 6313,
      "ĠØ³ÛĮÙĨÙ¹": 6314,
      "ĠØ®ÙĪØ±Ø´ÛĮØ¯": 6315,
      "ĠØ±Ø§ØŃ": 6316,
      "ĠÚĪØ±ÙĪÙĨ": 6317,
      "Ø§Ø±Ù¹ÙħÙĨÙ¹": 6318,
      "ĠÚ¯ÛģØ±ÛĮ": 6319,
      "ĠÙĪÛĮØ³Ù¹": 6320,
      "ĠÚĪÛĮÙģ": 6321,
      "lick": 6322,
      "Image": 6323,
      "ĠØ²Ø±Ø§Ø¹Øª": 6324,
      "ĠÚ©ÛĮØ±ÛĮ": 6325,
      "ĠØŃØ§Ú©": 6326,
      "Ġago": 6327,
      "ĠØ§ÙĪÙĦÛĮÙĨ": 6328,
      "ĠØ´ÙĪÚ©": 6329,
      "ĠÙĤØ§Ùģ": 6330,
      "ĠÙ¹ÙĨ": 6331,
      "ĠØ¯ÙĪÚĨØ§Ø±": 6332,
      "ĠØªØ¹Ø§Ø±Ùģ": 6333,
      "ĠÚ©ÙĪØ±Ø³": 6334,
      "ĠÙ¾ÙĪØ´": 6335,
      "ĠØ±Ø³Ø§ÙĦØª": 6336,
      "ebsite": 6337,
      "ĠØ¹ÙĦÛĮØŃØ¯Ûģ": 6338,
      "ĠØµÙģØŃØ§Øª": 6339,
      "ĠÙħÚĨÚ¾": 6340,
      "ĠØ¨ÙĨØªÛĮ": 6341,
      "ma": 6342,
      "ĠÚ©Ø§ÙĦØ¹Ø¯Ùħ": 6343,
      "ged": 6344,
      "ÙħØ±Ú©Ø²ÛĮ": 6345,
      "ĠØ¹ÙĦÙħØ§Ø¦ÛĴ": 6346,
      "Ú¾Ø§Ø±": 6347,
      "Ġ90": 6348,
      "ĠÙĨØ§Ø´": 6349,
      "ata": 6350,
      "ĠÙħØ³ÙĦÙħÛģ": 6351,
      "ĠØªÙħÛģØ§Ø±Ø§": 6352,
      "ĠÙ¾ÛĴ": 6353,
      "ĠÛģÙĪØ¬Ø§ØªÛĴ": 6354,
      "ĠÙĨØ§ÙħØ¹ÙĦÙĪÙħ": 6355,
      "Ø´Ø§Ø¡": 6356,
      "ĠÛģÙĪØ´": 6357,
      "ĠÙĪØ¨Ø§": 6358,
      "Ø³ØªÙħØ¨Ø±": 6359,
      "ĠØ§Ø±Ø¨ÙĪÚº": 6360,
      "ĠSha": 6361,
      "ĠØŃÙĦØ§ÙĦ": 6362,
      "ĠØ§ÙĪØ±Ø§Ø³": 6363,
      "ĠÙħÙĨØ§ÛĮØ§": 6364,
      "ĠØ¹ÙħØ¯Ûģ": 6365,
      "ĠØ¨Ø¯ØªØ±ÛĮÙĨ": 6366,
      "ĠÙĪØ¨": 6367,
      "ĠØ²ÛĮØ¨": 6368,
      "ĠIST": 6369,
      "ĠUn": 6370,
      "Ø¹Ø§Ø±": 6371,
      "ĠÙģØµÙĦ": 6372,
      "ĠÙĦÛĮØ§ÙĤØª": 6373,
      "ĠØ²ÙħØ§ÙĨ": 6374,
      "ĠÚ©Ø±ÙĦÛĮÚº": 6375,
      "ĠÚ¯Ú¾ÙĪÚĳ": 6376,
      "ĠØ§ÚĨÚ¾": 6377,
      "ĠÚ©Ø§Ø´Øª": 6378,
      "Ø§Ø±ÛģÛĴ": 6379,
      "ĠØ¹ÙħÙĦÛĴ": 6380,
      "ally": 6381,
      "Ø§ÙĩØ¯Ø©": 6382,
      "ĠØ³ÛĮÚ©ÙĨ": 6383,
      "ĠÙħÙĪÚĳ": 6384,
      "ĠØ¯Ø´ÙħÙĨÛĮ": 6385,
      "Ø§ÙĤØ§ÙĨ": 6386,
      "ruary": 6387,
      "Ø±Ø¯Ûģ": 6388,
      "ĠØ³ÛĮØ±Øª": 6389,
      "ĠÙĤÙĪ": 6390,
      "ÙĪØ±ØªÛĮ": 6391,
      "Ùİ:": 6392,
      "ÙģÙĦ": 6393,
      "ĠØ§ÛĮÚ¯Ø²ÛĮÚ©": 6394,
      "ÙĪØ§Ø³": 6395,
      "ĠÙħØ®ØªØµ": 6396,
      "Ø§ÙĨÛģÛĮÚº": 6397,
      "ĠØ¨Ø¯Ø±": 6398,
      "ÙĪØ±ÛĴ": 6399,
      "ĠØ§Ø²ÛĮÚº": 6400,
      "ĠØ§ÙĦÙģØ·Ø±": 6401,
      "ĠÙħÙĤØµ": 6402,
      "Ø´Ø§Øª": 6403,
      "ĠØ§ØµØ·ÙĦØ§ØŃ": 6404,
      "ĠÙħØ§ÙĨÙĨÛĴ": 6405,
      "ĠØ¯Ø§Ø¦Ø±Ûģ": 6406,
      "ĠÛģÚĳØªØ§ÙĦ": 6407,
      "ives": 6408,
      "ØµØ§Ùģ": 6409,
      "ĠØ®Ø±ÛĮØ¯Ø§Ø±ÛĮ": 6410,
      "les": 6411,
      "ĠÙħÛģÛĮÙĨÛģ": 6412,
      "ÛĮÛģÛĮ": 6413,
      "Ø´Ø§Úº": 6414,
      "ĠÙ¾Ø±Ø§Ø¬": 6415,
      "ĠØªÚ©ÙĨ": 6416,
      "ĠØªÙĨØ§Ø¸Ø±": 6417,
      "ĠÚ©Ú¾Ø±": 6418,
      "ĠØ®Ø¨Ø±ÙĪÚº": 6419,
      "ĠØ³Ø±Ø§Ø¬": 6420,
      "ond": 6421,
      "ĠÙģØ§Ø¦Ø²": 6422,
      "ĠÛµ": 6423,
      "ĠØŃÙĦÙĤÛĴ": 6424,
      "ĠØ±Ø³Ø§Úº": 6425,
      "ĠÙ¾ÛģÙĨÚĨÛĮ": 6426,
      "ĠØ¹Ø¸ÙħÛĮ": 6427,
      "Ġcaption": 6428,
      "Ø³ÛĮÙĦ": 6429,
      "ĠØ¨ÙĦØ¯ÛĮØ§ØªÛĮ": 6430,
      "ĠÙħØªØŃØ±Ú©": 6431,
      "Ø§ÙĦÙĤ": 6432,
      "ĠØºØµÛģ": 6433,
      "ĠØ§ÙĪØ¨Ø§ÙħØ§": 6434,
      "ĠØ¨Ø¸Ø§ÛģØ±": 6435,
      "ĠÙ¾Ø±ÙĪÙ¹": 6436,
      "ĠÙĨÙħÙĪÙĨÛģ": 6437,
      "ĠPro": 6438,
      "Ø®Ø§ÙĨÛģ": 6439,
      "ĠØ¨ÙĪØª": 6440,
      "ĠÚ¯Ø§ÚĳÛĮØ§Úº": 6441,
      "ĠØ¬ÙħØ§ÙĦ": 6442,
      "ĠApril": 6443,
      "Ú©ÙĪÙ¹": 6444,
      "ĠØ§Ø¨ÙĦØ§Øº": 6445,
      "Ø±ÛģÛĴ": 6446,
      "ĠØ±Ø´ØªÛĴ": 6447,
      "pd": 6448,
      "ĠÚĨØ§": 6449,
      "85": 6450,
      "ĠÛģØ§Ø´ÙħÛĮ": 6451,
      "Ø®ÛĮØ¨Ø±": 6452,
      ",\\\"": 6453,
      "ĠÛģØ±ÛĮ": 6454,
      "ould": 6455,
      "Ú¾ÙĪ": 6456,
      "ĠØ§ÙģØ²Ø§Ø¦ÛĮ": 6457,
      "Ú©ÙĪØ¦Ù¹Ûģ": 6458,
      "Ø¹ÙĦØ§Ùħ": 6459,
      "ĠØ¯Ø§Ø³ØªØ§ÙĨ": 6460,
      "ĠÚ©Ø±ÙĪØ§ÛĮØ§": 6461,
      "ÛĮØ§Ø¯Ûģ": 6462,
      "\\\":\\\"": 6463,
      "ĠØ§Ø®Ø¨Ø§Ø±Ø§Øª": 6464,
      "ÛĮØ±Ø§": 6465,
      "Ø±ÙĪÛģ": 6466,
      "ead": 6467,
      "ĠØ¬ÙĦØ§": 6468,
      "\\\",\\\"": 6469,
      "ĠØ§ÙĤØ³Ø§Ùħ": 6470,
      "âĢıâĢıâĢıâĢıâĢı": 6471,
      "ÙĪÙħÙĨÙ¹": 6472,
      "ÙħÙĦÚ©ÛĮ": 6473,
      "ĠâĢıâĢıâĢıâĢıâĢıâĢı": 6474,
      "ĠØ§Ø·Ø§Ø¹Øª": 6475,
      "ĠÛ±Û³": 6476,
      "ÙĦØ§Ú©": 6477,
      "ĠØ²Ø¨ÛĮØ±": 6478,
      "ÛĮØ±ÛĴ": 6479,
      "eg": 6480,
      "77": 6481,
      "ĠÛģØ±Ø§Ø³": 6482,
      "][": 6483,
      "ĠØªØ§ØŃ": 6484,
      "ĠØ¯Ø³ØªØ§ÙĪÛĮØ²Ø§Øª": 6485,
      "ĠØ¯Ø¹ÙĪÛĴ": 6486,
      "Ø§Ø¦ÙĪÙĨ": 6487,
      "ĠÙ¾Ø±Øª": 6488,
      "ĠØ±ÙĪÙ¹ÛĮ": 6489,
      "Ø¨Ø¹Ø¯": 6490,
      "ĠØ«ÙĤØ§ÙģØªÛĮ": 6491,
      "li": 6492,
      "ĠØªØ¹Ø²ÛĮØª": 6493,
      "ĠX": 6494,
      "ĠÙħØŃØ±Ùħ": 6495,
      "ĠØ§ÙħÛĮØ¯ÙĪØ§Ø±ÙĪÚº": 6496,
      "ĠØ²ÙĪÙĨ": 6497,
      "ĠÙ¾Ú¾Ø§ÙĨØ³ÛĮ": 6498,
      "ĠÙĦÚĳÙĨÛĴ": 6499,
      "ĠÙħØ´Ø§Ûģ": 6500,
      "ÛĮÙĪØ±": 6501,
      "ĠÙħØ³Ù¹Ø±": 6502,
      "ÙĶÙİ": 6503,
      "ĠÚ¯ÙĨØ¬Ø§Ø¦Ø´": 6504,
      "ĠÚ¯Ú¾Ø±ÛĮÙĦÙĪ": 6505,
      "ĠÙħØ±Ø§Ú©Ø²": 6506,
      "ĠÙĪØ±Ø²": 6507,
      "ĠÙĨØ²": 6508,
      "ĠÙħØªØŃØ¯": 6509,
      "wik": 6510,
      "ĠÙħÛĮØ¬Ø±": 6511,
      "Ø¨Ø§ÙĨÛĮ": 6512,
      "ĠÙ¾ÚĳÚ¾ÙĨØ§": 6513,
      "ĠÙħØ²Ø¯ÙĪØ±": 6514,
      "Ø³ÙĪØ±": 6515,
      "ĠØ²Ø¨Ø§ÙĨÙĪÚº": 6516,
      "ÙħÛĮØ±Ø§": 6517,
      "ĠØ¯Ø§Øº": 6518,
      "ÙĨÛģÙĪÚº": 6519,
      "ĠÚĪØ§Ú©Ù¹Ø±ÙĪÚº": 6520,
      "ĠÙħØ§Ùħ": 6521,
      "ÛģØ±Ø§ÙĨ": 6522,
      "Ø´ÛģØ¨Ø§Ø²": 6523,
      "ĠØªØ±Ø¯ÛĮØ¯": 6524,
      "ĠØ¬ÙĪØ§Ø²": 6525,
      "ÚĪÙĪÙĦ": 6526,
      "ĠØ³Ø±Ø§Ûģ": 6527,
      "ĠÙĨØ¨ÙĪÛĮ": 6528,
      "âĢ¦.": 6529,
      "ĠÙĨÙħØ§Ø¦ÙĨØ¯ÙĪÚº": 6530,
      "ĠÙĨÛģØ§Ø¯": 6531,
      "Ú©Ú¾Ø±": 6532,
      "ĠØ¨ÛģØ§ÙĪÙĦ": 6533,
      "ĠÚĨØ§ÙĨ": 6534,
      "ĠØ·ÙĦØ¨Ø§": 6535,
      "ĠØ¨ÛģØ§Ø¯Ø±": 6536,
      "ĠØ³Ø±Ú¯Ø±Ùħ": 6537,
      "ĠÙħØ±Ø¨Ø¹": 6538,
      "ĠØ®Ø±ÛĮØ¯ÙĨÛĴ": 6539,
      "ÛĶâĢı": 6540,
      "ĠØ§ÛĮÙĪØ¨": 6541,
      "ĠØ³Ø§Ø¦Ø²": 6542,
      "ĠOctober": 6543,
      "ĠÚ¯ÙĨØ§": 6544,
      "ĠÚ©Ø±Ø§ÛĮÛģ": 6545,
      "ĠØ²ÛĮØ§Ø±Øª": 6546,
      "ĠÚĪÛĮÚĳÚ¾": 6547,
      "ĠØ³ÛĮØ´ÙĨ": 6548,
      "ĠÚ¯ÙĪÚ¯ÙĦ": 6549,
      "Ø¬Ø±ÛĮ": 6550,
      "wit": 6551,
      "ĠÙĦØ³Ù¹": 6552,
      "ĠØ«ÙĨØ§Ø¡": 6553,
      "ï»®": 6554,
      "ĠÙħØ¸Ø§ÛģØ±ÛĴ": 6555,
      "ĠØ¬ÛģÙĨÙħ": 6556,
      "Ú©ÛĮÙĪ": 6557,
      "index": 6558,
      "Ø¹ÙĨÙĪ": 6559,
      "ĠØµØŃØ§ÙģØª": 6560,
      "ĠØ´Ø±Ø§Ú©Øª": 6561,
      "ĠØ¯ÙĪØ§": 6562,
      "ount": 6563,
      "ÙĲØĮ": 6564,
      "ĠAm": 6565,
      "ĠØ«Ø§ÙĨÛĮ": 6566,
      "ÃĻ": 6567,
      "ÛķØ±": 6568,
      "ĠÙĨØ¹Ø±Ûģ": 6569,
      "ama": 6570,
      "ĠØ§ÛĮÙĨÙ¹ÛĮ": 6571,
      "ĠØ¬Ú¾Ù¹": 6572,
      "ØµØŃÛĮØŃ": 6573,
      "Ø¹Ø±": 6574,
      "ĠØ¯ÛĮÚ©Ú¾ØªØ§": 6575,
      "ĀĀĀĀ": 6576,
      "ĠØ¯ÛĮØ¯ÛĮ": 6577,
      "ÙĤÛĮÙĤÛĮ": 6578,
      "ĠØ¢Ø®Ø±Øª": 6579,
      "oug": 6580,
      "ĠÙģØ±Ø´": 6581,
      "ĠÙĦÛĮØªÛĮ": 6582,
      "ĠÙģØ§Ù¹Ø§": 6583,
      "ĠØ¯Ú¾Ø±ÙĨÛĴ": 6584,
      "ĠØ¢ÙģØ±ÛĮ": 6585,
      "ØµÙĦÛĮ": 6586,
      "ĠÙ¹Ú¾ÙĪØ³": 6587,
      "ĠAllah": 6588,
      "ĠÙģÙĪÚĪ": 6589,
      "ÙĨÙĪÙħØ¨Ø±": 6590,
      "ĠØºØ²": 6591,
      "ĠØ¨Ø§Ø·ÙĦ": 6592,
      "ĠØ¯Ø´ÙħÙĨÙĪÚº": 6593,
      "ĠÚ©ÛĮØªØ§": 6594,
      "ĠÙĦØ§Ù¾ØªÛģ": 6595,
      "her": 6596,
      "Ò³": 6597,
      "Ø¹ÙĪÙĨ": 6598,
      "ĠÚ¯ÙĨØ§ÛģÙĪÚº": 6599,
      "ĠÙħÛĮØª": 6600,
      "Ø§Ù¾Ø±": 6601,
      "ĠØ¨ÙĨØ¯Ø±": 6602,
      "ÙĬÙĥ": 6603,
      "ĠØ§ÙĨØ³Ù¹ÛĮ": 6604,
      "ĠØ¯ÛģÛĮ": 6605,
      "ĠÛģÙĪØ³Ú©ØªÛĴ": 6606,
      "Ø¯Ú¾ÛĴ": 6607,
      "ĠÙħØªÙĪÙĤØ¹": 6608,
      "ĠJuly": 6609,
      "ĠÙħÙĪØ³ÛĮÙĤÛĮ": 6610,
      "ĠØ·ÛĮØ§Ø±Ûģ": 6611,
      "ĠMarch": 6612,
      "Ø§ÛĮØ³ÛĴ": 6613,
      "ction": 6614,
      "ĠØ¬Ø¹ÙģØ±": 6615,
      "65": 6616,
      "Ġka": 6617,
      "ĠØ¨Ø±ÛĮÙģÙĨÚ¯": 6618,
      "ĠØ§Ø´ØªØ±": 6619,
      "ĠComments": 6620,
      "ÙģØªØ§Ø¨": 6621,
      "ĠØ§Ø±Ø´Ø¯": 6622,
      "ĠØ§ÙħÚ©Ø§ÙĨØ§Øª": 6623,
      "Ø¹ÙĨÙĪØ§ÙĨÛĮ": 6624,
      "ĠØ¬Ø§Ø¯ÙĪ": 6625,
      "iy": 6626,
      "Ø¦Ø±Ø²": 6627,
      "ĠØ®Ø§Úº": 6628,
      "ĠØ¬ÙĦØ³ÛĴ": 6629,
      "ĠÙħÙĤØµÙĪØ¯": 6630,
      "ĠÚ¯Ú¾ÙĪÙħ": 6631,
      "ĠÙħØŃØªØ±ÙħÛģ": 6632,
      "ĠØ¨Ø¬Ø§": 6633,
      "ĠØ²Ø§Ø¦": 6634,
      "ĠÚ©Ø±ÛĮÙĨÚ¯ÛĴ": 6635,
      "ĠÙĪØ±Ø«": 6636,
      "Ø¯Ø§ÙĨÛĮ": 6637,
      "Ù¹ÛĮÙĨ": 6638,
      "ĠØ·Ø§ÙĦØ¨Ø§Øª": 6639,
      "ĠØ³ÛģØ§Ø±Ø§": 6640,
      "ĠØ¨Ø§Ø³": 6641,
      "ĠØ·Ø±": 6642,
      "ĠØµÙĨØ¹ØªÛĮ": 6643,
      "ĠÙħØ³ØªØŃÙĤ": 6644,
      "ĠÙĨØ±": 6645,
      "ĠØ±ÛĮÙ¹Ø§Ø¦Ø±": 6646,
      "ÛģÙģØªÛģ": 6647,
      "ĠÙĨØ§Ø¸Ùħ": 6648,
      "âĢ¦]": 6649,
      "Ø§ÙĦÛĮÚ©Ø´ÙĨ": 6650,
      "ĠØŃÙģÛĮØ¸": 6651,
      "ï®¯": 6652,
      "ĠÛģÙĪÙĦ": 6653,
      "ĠØ±ÛĮØ³Ø±": 6654,
      "ev": 6655,
      "ĠØ¬ÙĦÙĪØ³": 6656,
      "Ø§ÛģØ±ÛĮ": 6657,
      "ÙĤÛĮÛģ": 6658,
      "ĠØ±Ø§Ø¦": 6659,
      "ÙĪØ¨ÙĦ": 6660,
      "ĠØ¨ØŃØ±ÛĮÛģ": 6661,
      "ĠÙĨÙĤØ§Ø¨": 6662,
      "Ø¯Ø§Ø±ÙĪÚº": 6663,
      "ĠÙ¾Ø±Ø¯ÛĮØ´": 6664,
      "Ø§Ø³ÙĦØ§ÙħÛĮ": 6665,
      "ĠÙĤØ§Ø±Ø¦ÛĮÙĨ": 6666,
      "ĠÙħÙĨÛģØ§Ø¬": 6667,
      "ĠÙ¾Ø±ÚĨÙħ": 6668,
      "ĠÛģØ³Ù¾ØªØ§ÙĦÙĪÚº": 6669,
      "ĠÙħØ³Ø§ÙģØ±ÙĪÚº": 6670,
      "ÛģØ§Úº": 6671,
      "ÙĪÙģÛĮÚ©ÚĨØ±": 6672,
      "ÙĦÚ©Ú¾": 6673,
      "ĠØ¢Ú¯Ø¦ÛĮ": 6674,
      "ĠØ§ÙĨÚĪÛĮÙĨ": 6675,
      "ĠØ®Ø§ÙĦØµ": 6676,
      "ÙĪØ±ÛĮØ¬": 6677,
      "ĠØ±Ø§ÛģØ¯Ø§Ø±ÛĮ": 6678,
      "ĠØ³ÙĪÙħ": 6679,
      "ĠÙģÛģÙħ": 6680,
      "ĠØ§ÙĨØªØ¸Ø§ÙħÛĮ": 6681,
      "ĠØ§ÛĮØ¬ÙĪÚ©ÛĮØ´ÙĨ": 6682,
      "ĠØªØ§Ø±Ú©": 6683,
      "ÙĨÚ¯Ø§": 6684,
      "ĠÚ©Ø§Ø±Ù¾ÙĪØ±ÛĮ": 6685,
      "ĠÙħØ·Ø§ÙĦØ¨Ø§Øª": 6686,
      "ĠAn": 6687,
      "ĠÙĨØµØ§Ø¨": 6688,
      "Ø°Ø¨": 6689,
      "ĠØ±Ø§Ø´Ø¯": 6690,
      "ĠÙħØŃØ¯Ø«": 6691,
      "ĠØ§ØºÙĪØ§": 6692,
      "Ġ32": 6693,
      "ĠØ®Ù¹Ú©": 6694,
      "ØªØ±ÙħÛĮÙħ": 6695,
      "ĠÚĨÚ¾ÛĮÙĨ": 6696,
      "ĠÚĪÛĮÙĪÙ¹ÛĮ": 6697,
      "Ø´ØªÙĪÚº": 6698,
      "Ø¶Ø¨": 6699,
      "ĠÙħØ§ÛĮÙĪØ³": 6700,
      "ĠØ¹ÛģØ¯Ûģ": 6701,
      "ĠØ³ÛĮØ§Ø³ØªØ¯Ø§ÙĨ": 6702,
      "ÛģÙħØ§Ø±ÛĮ": 6703,
      "ĠÙĤÙĪØªÙĪÚº": 6704,
      "Ġz": 6705,
      "ĠÙĪÛĮØ¦Ø±": 6706,
      "ĠÚ¯Ø±ÙĨÛĴ": 6707,
      "ĠØ³Ú©ÙĪÙĦÙĪÚº": 6708,
      "ĠÙĪØ²Ø±Ø§Ø¡": 6709,
      "âĢ¢": 6710,
      "ĠØ²ÛģØ±": 6711,
      "ĠÙĪØ§Ø±Ø¯Ø§Øª": 6712,
      "ĠØĵ": 6713,
      "ĠØ§Ø¨Ú¾Ø±": 6714,
      "ĠÛģÙģØª": 6715,
      "ĠJanuary": 6716,
      "ĠÙ¾Ø§Ø¨ÙĨØ¯ÛĮÙĪÚº": 6717,
      "ĠÛģØ¬Ø±Øª": 6718,
      "Ø¯Ø¨Ø¦ÛĮ": 6719,
      "âĢį": 6720,
      "ork": 6721,
      "nglish": 6722,
      "Ú©ÛĮÙĪÙĨÚ©Ûģ": 6723,
      "lis": 6724,
      "ĠØ³Ø§Ø¯": 6725,
      "Ø³Ø§ÙĦÛģ": 6726,
      "ĠÙħØ¹Ø§ÙĪÙĨØª": 6727,
      "ĠØ·ÙĪ": 6728,
      "ĠØµÙĪÙģÛĮ": 6729,
      "ĠÙħÙħØ¨Ø¦ÛĮ": 6730,
      "ĠØ±ÙĨ": 6731,
      "Ġ45": 6732,
      "ĠØºØ±": 6733,
      "ize": 6734,
      "Ø§Ú©ØªÙĪØ¨Ø±": 6735,
      "ĠØ±Ù¾ÙĪØ±Ù¹Ø³": 6736,
      "Ø¬ÙħØ§Ø¹Øª": 6737,
      "Ø¯Ø³ÙħØ¨Ø±": 6738,
      "ĠØ±ÙĪØ²ÙĨØ§ÙħÛģ": 6739,
      "ĠØ¬Ø§ÙĨÙĪÚº": 6740,
      "ÙĤØ·": 6741,
      "irst": 6742,
      "ĠØ¯Ú©Ú¾Ø§": 6743,
      "Â«": 6744,
      "ĠÙĦØ§Ø¦Ø¨": 6745,
      "ĠÚ¯Ø§Ùħ": 6746,
      "ĠÙ¾ÙĦØ§Ø³": 6747,
      "kh": 6748,
      "ĠØ´Ø§Ø¦": 6749,
      "ĠÙĪÙģØ§ÙĤ": 6750,
      "ĠÛģÙĨØ³": 6751,
      "ĠØ¨Ø§Ø±Ø´ÙĪÚº": 6752,
      "ĠØ±ÙĪÚ©Ø§": 6753,
      "ĠÙ¾ÙĪØ§Ø¦ÙĨÙ¹Ø³": 6754,
      "ĠØ±ØŃÙħÛĥ": 6755,
      "ĠØĴ": 6756,
      "Ø¹ÙĪ": 6757,
      "ĠÙĨÙħØ§Ø¦ÙĨØ¯Ûģ": 6758,
      "ĠØ²Ú©ÙĪ": 6759,
      "Ø¬ÛĮÙĦ": 6760,
      "ĠØ¯ÛĮÚ©Ú¾ÙĪ": 6761,
      "ĠÙħØ§Ùģ": 6762,
      "ĠAli": 6763,
      "bb": 6764,
      "ĠÙĨÛĮÙħ": 6765,
      "ĠØ¨ØªØ§ØªÛĴ": 6766,
      "ĠÐ±": 6767,
      "ÙĪÛĮØ±": 6768,
      "ÛģØ§": 6769,
      "ĠØ¶ÙħÙĨÛĮ": 6770,
      "ĠØªÚ¾Ø±": 6771,
      "ĠØ§Ø¯ÛĮØ¨": 6772,
      "sk": 6773,
      "Ġhis": 6774,
      "Ġmy": 6775,
      "ĠÙĤØ§Ø¦ÙĦ": 6776,
      "ĠØ³Ø±ÙĪÛĴ": 6777,
      "ĠØ±Ø®Øµ": 6778,
      "ĠÙħØ¸ÙģØ±": 6779,
      "Äģ": 6780,
      "Ġman": 6781,
      "ĠÚ©ÙĦÚĨØ±": 6782,
      "84": 6783,
      "Ø®ÙĪØ§ØªÛĮÙĨ": 6784,
      "Ġï´": 6785,
      "ĠÚĨÛĮØ®": 6786,
      "ĠØ¨ÚĳÚ¾ØªÛĴ": 6787,
      "Ø´ÛĮØ±": 6788,
      "Ù¾Ø§Ø±": 6789,
      "ĠØ¬ØªÙĨÛĴ": 6790,
      "ĠÙĪÛĮÚĪÛĮÙĪØ²": 6791,
      "ĠØ¬Ø§Ú©Ø±": 6792,
      "ĠÙħÙĦØ§Ø²Ùħ": 6793,
      "ĠØ¢ÙģÛĮØ³Ø±": 6794,
      "ÙĹ": 6795,
      "ĠÙĦØ§Ú¯Øª": 6796,
      "Ø³ÛĮÙĨÛĮ": 6797,
      "ĠÙĦÙħØŃÛģ": 6798,
      "ĠØªØµØ§Ø¯Ùħ": 6799,
      "ĠØ±Ø³Ùħ": 6800,
      "ĠØ¨ÙĦÙĪ": 6801,
      "ĠÙħØ®Ø§Ø·Ø¨": 6802,
      "ĠØ¨Ø±ÛĮÚ©": 6803,
      "ĠÙĪØŃØ¯Øª": 6804,
      "ĠÙ¾ÛĮØ±ÙĪÛĮ": 6805,
      "ĠÙħØ±ÙĦÛģ": 6806,
      "ĠØ±Ø§ØŃÛĮÙĦ": 6807,
      "ÛĮÙĨØ§Ø±": 6808,
      "ĠØ§ÙħØ¯Ø§Ø¯ÛĮ": 6809,
      "ĠØ¨Ø§Ø¦ÛĮÚº": 6810,
      "Ø¯ÛĮÚ©Ú¾": 6811,
      "ĠØ¬ÙħÛĮÙĦ": 6812,
      "Ø®Ø¯Ø§": 6813,
      "ĠØ¢Ø¯": 6814,
      "ïº®": 6815,
      "ĠØ³Ú©ÛĮÙħ": 6816,
      "ï¯¿": 6817,
      "ĠÙħÙ¹": 6818,
      "ĠÙ¾ÚĳØªÛĮ": 6819,
      "ĠÙħÛģØ±Ø¨Ø§ÙĨÛĮ": 6820,
      "lim": 6821,
      "ĠØ¢Ø¯Ùħ": 6822,
      "ĠØ¨ÙĨÙĪ": 6823,
      "ÙħÚ©": 6824,
      "ĠÙĨØ§ÙĤØµ": 6825,
      "ĠÙĨØ¸Ø±ÛĮØ§ØªÛĮ": 6826,
      "ĠÙħÛģØ¯ÛĮ": 6827,
      "Ġ[âĢ¦]": 6828,
      "ĠÙħØ¸Ø§ÛģØ±": 6829,
      "eed": 6830,
      "ĠÙĨÙħØ§Ø¦ÙĨØ¯ÛĴ": 6831,
      "Ġki": 6832,
      "ĠØ¨ÙĪØ³": 6833,
      "Ù¹Ø±ÙĨ": 6834,
      "ĠÛĮÙĪÙĨØ³": 6835,
      "Ġso": 6836,
      "ĠØ¢ÙģØ±ÛĮØ¯ÛĮ": 6837,
      "ĠØ¨ØªØ§Ø¦ÛĮÚº": 6838,
      "ĠÚĨÚ¾ÛĮ": 6839,
      "Ð²": 6840,
      "Ġï¿½ï¿½ï¿½ï¿½ï¿½ï¿½ï¿½": 6841,
      "ĠØ²ÛģØ±ÛĮ": 6842,
      "ĠØºØ°Ø§": 6843,
      "ĠØ§ÙĦØŃØ§ÙĦ": 6844,
      "ĠÙħØ§ÙĦÛĮØ§ØªÛĮ": 6845,
      "2013": 6846,
      "ĠØ±Ø§Ø¶ÛĮ": 6847,
      "Ġcont": 6848,
      "Ø¬ÙĨØ±ÙĦ": 6849,
      "IN": 6850,
      "ĠÙĤÙĦØ¨": 6851,
      "ĠÙħØ¬ÙħÙĪØ¹Ûģ": 6852,
      "ĠÙ¾Ú¾ÛĮÙĦØ§ÙĨÛĴ": 6853,
      "ĠØ±ÛĮÚĪÛĮÙĪ": 6854,
      "ĠØ¢ÙĨØ³ÙĪ": 6855,
      "ings": 6856,
      "ĠØ³ÛĮÚ©ÙĨÚĪ": 6857,
      "Ø¯ÙĨ": 6858,
      "ĠÙ¹Ø±Ú©": 6859,
      "ĠÚ©Ú¾ÙĪÙĦÙĨÛĴ": 6860,
      "Ġper": 6861,
      "ĠØ±ÛĮØ³Ø±ÚĨ": 6862,
      "ĠÙĪØ§Ø´ÙĨÚ¯Ù¹ÙĨ": 6863,
      "Ø§Ø¯ÛĮØª": 6864,
      "ĠÙħØ§Ø³Ù¹Ø±": 6865,
      "pt": 6866,
      "ĠGeo": 6867,
      "ĠØ§ÙĨÙ¹ÛĮÙĦÛĮ": 6868,
      "ĠØŃØ¨ÛĮØ¨": 6869,
      "ĠÚ¯Ø±Ø¯ÙĨ": 6870,
      "ĠØªØ¬Ø§ÙĪÛĮØ²": 6871,
      "Ú¯Ø±ÛĮÙ¹": 6872,
      "ÙħØ§ÙĨÛĮÙ¹Ø±ÙĨÚ¯": 6873,
      "ĠÚĨÚ¾ÙĪÚĳÙĨÛĴ": 6874,
      "ĠÚ¯ÛģØ±ÛĴ": 6875,
      "ĠÙ¹Ø§Ø±": 6876,
      "Ø³Ù¹ÙĨÙ¹": 6877,
      "Ù¾ÛĮÙ¾ÙĦØ²": 6878,
      "ĠØ¨Ú©Ø±": 6879,
      "ÙģØ±Ùħ": 6880,
      "ĠÚ¯Ø±ÛĮÚĪ": 6881,
      "ĠÙĨØµÛĮ": 6882,
      "ĠSeptember": 6883,
      "ĠØ¯ÛģØ§ÙĨÛĮ": 6884,
      "ĠØ¯Ú¾Ø±ÙĨØ§": 6885,
      "ĠØ³ÙģØ§Ø±ØªÛĮ": 6886,
      "ØªØ±Ùħ": 6887,
      "ĠÙĦÛĮØ³": 6888,
      "ĠØ®Ø±Ø§Ø¨ÛĮ": 6889,
      "ĠØ¨Ø¯Ø¹ÙĨÙĪØ§ÙĨÛĮ": 6890,
      "ĠØ¨Ø´ÛĮØ±": 6891,
      "ĠÙĦÙ¹": 6892,
      "ĠÙħØ§Ø¦ÛĮÚ©": 6893,
      "ĠØªÙĦÛĴ": 6894,
      "ĠÙħÙĨØ§ÙĨÛĴ": 6895,
      "ĠAugust": 6896,
      "ÙĪÙĦØ§": 6897,
      "ÙĦÛĮØ¯": 6898,
      "ical": 6899,
      "2011": 6900,
      "ĠØ§Ø³Ù¾ÛĮÚ©Ø±": 6901,
      "ÙĨÛĮØ¨": 6902,
      "ĠØ¨Ø±Ú©Øª": 6903,
      "ĠØ³Ø§Ø¦ÙĨØ³ÛĮ": 6904,
      "ĠÙģØ¶ÛĮÙĦ": 6905,
      "ÒĽ": 6906,
      "ĠØ§ÙģØ±ÛĮÙĤÛĮ": 6907,
      "ĠØªØ§Ø¬Ø±": 6908,
      "ĠØ¹ÙĦÙĬÙĩ": 6909,
      "ĠÛģÙĨÚ¯Ø§ÙħÛĮ": 6910,
      "ĠØ¨Ø§Ú©Ø³": 6911,
      "ĠØªÙĨÛģØ§": 6912,
      "ĠØ¹Ø§Ø¨Ø¯": 6913,
      "ĠØ§ÛĮÙħØ±Ø¬ÙĨØ³ÛĮ": 6914,
      "ĠØ¯Ø±Ø§Ø²": 6915,
      "ĠÙħÛĮÙĨÙĪÙģÛĮÚ©ÚĨØ±": 6916,
      "69": 6917,
      "ÙĪÚĪ": 6918,
      "Ø§ÙĦÛĮÙģ": 6919,
      "ge": 6920,
      "Ø¯ÛĮÚ¯Ø±": 6921,
      "ĠÚ©ÙħØ²ÙĪØ±ÛĮ": 6922,
      "ĠØ²Ø§ÛģØ¯": 6923,
      "Ø²Ø§": 6924,
      "ĠÚ©Ú¾Ø§ØªÛĴ": 6925,
      "ĠÙ¾ÙĨØ¬Ø§Ø¨ÛĮ": 6926,
      "ĠÙ¾Ú¾ÛĮÙĦØ§": 6927,
      "ĠØĽ": 6928,
      "ĠÙ¹ÙĪÛĮ": 6929,
      "ĠØ±Ú¯": 6930,
      "ĠÙĤØ³Ø·": 6931,
      "ĠÚ©ÙħØ±ÙĪÚº": 6932,
      "ĠØ§ÙħØ¬Ø¯": 6933,
      "ateg": 6934,
      "ÙĪØ¦ÛĮ": 6935,
      "ĠÙħØ´Ø±ÙĪ": 6936,
      "Ġ2007": 6937,
      "Ù¾ÛĮÙ¹": 6938,
      "ØµÙĪØ¨Ø§Ø¦ÛĮ": 6939,
      "ĠÙĨÚ¯": 6940,
      "Ø§Ø¨ÙĪ": 6941,
      "ĠØ·Ø±ÛĮÙĤÙĪÚº": 6942,
      "ĠØ¨ØŃØ±ÛĮ": 6943,
      "ĠØ¯Ø§Ùħ": 6944,
      "ĠØ´Ø¹ÛĮØ¨": 6945,
      "ĠÙħÙĨØ·": 6946,
      "ÙģØ§": 6947,
      "ĠØ¯ÙĪÙħ": 6948,
      "ĠÚ©Ú¾ÛĮÙĦØ§": 6949,
      "ĠØ²Ø±Ø¹ÛĮ": 6950,
      "ĠÚ¯ÙĪØ¬": 6951,
      "Ù¹Ø±ÙĪÙĦÛĮÙħ": 6952,
      "ĠÚ¯ÙĪØ±ÙĨÙħÙĨÙ¹": 6953,
      "ĠØªØ§ÙĦ": 6954,
      "ĠÚĪØ§ÙĨ": 6955,
      "ĠÛģØªÚ¾ÛĮØ§Ø±ÙĪÚº": 6956,
      "ÙĬØŃ": 6957,
      "Ġwho": 6958,
      "ĠÚĨÙ¹": 6959,
      "ĠØ¹ÙĪØ±ØªÛĮÚº": 6960,
      "ĠØ®Ø¨Ø±Ø¯Ø§Ø±": 6961,
      "Ġyear": 6962,
      "ĠÙħÙĦÛĮÚº": 6963,
      "ÚĪÙ¾": 6964,
      "Ø§Ø¦ÙĨÛģ": 6965,
      "ĠØªÙģØ±ÛĮØŃ": 6966,
      "Ø¨ÛĮÛģ": 6967,
      "ØŃØ¯ÛĮØ«": 6968,
      "ĠÙĦÚ¯ØªÛĴ": 6969,
      "ÙħÙĨØ³": 6970,
      "ĠØ´ÛģØ¨Ø§Ø²Ø´Ø±ÛĮÙģ": 6971,
      "Ø¯Ú¾Ø§": 6972,
      "ĠØŃØ§Ø¶Ø±ÛĮ": 6973,
      "ĠÙģØ¹ÙĦ": 6974,
      "Ø±Ø¯Ø§Ø±": 6975,
      "ĠØ§Ø³Ø¨Ø§Ø¨": 6976,
      "ĠØ¬ÛĮØ¨": 6977,
      "ĠØ§ÙĦØŃØ³ÙĨ": 6978,
      "ĠØªØ¬Ø±Ø¨ÛĴ": 6979,
      "ĠÛģØªÚ¾": 6980,
      "ĠÙģØ±ÙħØ§Ø¦ÛĮÚº": 6981,
      "hammad": 6982,
      "ĠØ¹ÙĤØ§Ø¦Ø¯": 6983,
      "ĠDecember": 6984,
      "ĠÚĨÛĮÙħÙ¾": 6985,
      "ÙĤØ³ÙħØªÛĮ": 6986,
      "ĠØ¯ÙĪÙ¾": 6987,
      "Ð¹": 6988,
      "ĠÙĨØ´Ø±": 6989,
      "Ø¹ÙĦØ§ÙħÛģ": 6990,
      "Ø³ÛĮØ§Ø³ÛĮ": 6991,
      "ĠÚ©ÙĨÚ¯": 6992,
      "ĠÙ¾Ø±ÙĪØ¬": 6993,
      "ÙĤÙĦÛĮ": 6994,
      "ĠMu": 6995,
      "Ø§Ø²ÙĨ": 6996,
      "ĠÙĦÚ¯Ø§ØªÛĴ": 6997,
      "te": 6998,
      "ĠØ´ÛģØ±ÛĮØª": 6999,
      "ĠNovember": 7000,
      "Ù¹Ø±Ú©": 7001,
      "ĠØ®Ø§ÙĤØ§ÙĨ": 7002,
      "ĠØ¹ÛĮØ³Ø§Ø¦ÛĮ": 7003,
      "Ø²Øª": 7004,
      "ĠØ§ÙĨÚ©ÙĪØ§Ø¦Ø±ÛĮ": 7005,
      "had": 7006,
      "ØŃØ¯Ú¯ÛĮ": 7007,
      "ĠØ§Ú©ÛĮÚĪ": 7008,
      "Ø±ÛĮÙĨÛģ": 7009,
      "ĠØªÙĪØŃÛĮØ¯": 7010,
      "ĠØ±ÙĪÛģ": 7011,
      "Ġpl": 7012,
      "ĠØ³ÙħØ¬Ú¾ÛĴ": 7013,
      "ØµØŃØª": 7014,
      "Ø³ØªÛĴ": 7015,
      "ĠÚĪÛĮÙ¹": 7016,
      "ĠØ¹Ø§ÙħÛģ": 7017,
      "Ú©Ø¨": 7018,
      "ĠØ³Ø§Ûģ": 7019,
      "ĠØ±ÙĪØ¨": 7020,
      "ĠØ³Ø±ÙĪØ³Ø²": 7021,
      "Ø¹Ø²ÛĮØ²": 7022,
      "ĠÚ©ÛĮØ³Ø§": 7023,
      "ĠÙĤÛĮØ¯ÛĮÙĪÚº": 7024,
      "ĠÙĨØ¯ÛĮÙħ": 7025,
      "ĠØ±ÛĮÚĪ": 7026,
      "ĠØ¬ÛĮÙĪ": 7027,
      "ĠØ¯Ø±Ø¬ÙĨÙĪÚº": 7028,
      "ĠÙ¾Ø±Ø§Ø¦ÛĮÙĪÛĮÙ¹": 7029,
      "Ùł": 7030,
      "ĠØ§ÙĨÙģØ±Ø§Ø¯ÛĮ": 7031,
      "Ø¯ÙĪÙħ": 7032,
      "ĠØ¯ÙģÙĨ": 7033,
      "Ø§Ø¯ÙĦ": 7034,
      "Ø®ÛĮØ±": 7035,
      "ĠØ¹Ú©Ø³": 7036,
      "ĠÚĨØ§ÙĨØ³": 7037,
      "ĠØ¯Ø§Ø¦ÛĮÚº": 7038,
      "Ù¾ÛģÙĦÛĴ": 7039,
      "Ø¹ÙĦÙĤ": 7040,
      "ipedia": 7041,
      "ÛĶÛĶÛĶÛĶÛĶ": 7042,
      "ĠØ¨ÙĪÙĦÛĴ": 7043,
      "81": 7044,
      "ÙĨÙ¹ÛĮ": 7045,
      "ĠØ¯Ø§ÙħÙĨ": 7046,
      "ĠØŃÙħÛĮØ¯": 7047,
      "ĠÚĪØ±Ø§ÙħÛģ": 7048,
      "ĠØ³Ù¾Ø±Ø¯": 7049,
      "ÙħÙĪØ¬ÙĪØ¯Ûģ": 7050,
      "ĠØ¬ÛĮØªÙĨÛĴ": 7051,
      "ĠÙģÚ©Ø±ÛĮ": 7052,
      "ĠØ¶Ø¨Ø·": 7053,
      "ĠÚĨØ§Ù¾": 7054,
      "ĠØ¨ÙĦÛĮ": 7055,
      "ØµØ±Ùģ": 7056,
      "ĠØªØ±Ø¬Ùħ": 7057,
      "ØµØºÛĮØ±": 7058,
      "ÑĪ": 7059,
      "ĠØ±Ø²": 7060,
      "ĠØ³ÛģÛĮ": 7061,
      "ĠØ³ÙĪØ§Øª": 7062,
      "Ø¯ÛĮØ§": 7063,
      "ÙħØ¦ÙĨ": 7064,
      "ĠØ³Ù¾ÛĮÚ©Ø±": 7065,
      "Ú©ÙĦØ§Ø¡": 7066,
      "ĠÙħÙĨØ¹ÙĤØ¯Ûģ": 7067,
      "ĠØªØ¬Ø±Ø¨Ø§Øª": 7068,
      "Ġke": 7069,
      "ÙĨØ¸Ø±": 7070,
      ",,": 7071,
      "ĠÙ¹Ú¾Ú©": 7072,
      "ĠÙħØŃØ³ÙĨ": 7073,
      "ĠØ¨ÙĦØ§ÙĦ": 7074,
      "ØŃØ³ÙĨ": 7075,
      "ĠÙ¹ÙĪØ¦ÙĨ": 7076,
      "ĠØŃØ§Ø¯Ø«Ø§Øª": 7077,
      "ĠØªÙĪÙģÛĮÙĤ": 7078,
      "ĠÚ©Ø§ÙĪØ´": 7079,
      "ĠÙĨÚĨ": 7080,
      "ĠØ±Ù¾ÙĪØ±": 7081,
      "Ø§ÙĨÙ¹Ø±": 7082,
      "ĠÙģÛĮØµÙĦÙĪÚº": 7083,
      "Ġ37": 7084,
      "ĠÚ¯Ø²Ø±ÙĨÛĴ": 7085,
      "AT": 7086,
      "ĠÙ¾ÙĦØ§Ù¹": 7087,
      "ĠÙĦØ§ØŃÙĤ": 7088,
      "ĠØ¨Ú¾Ù¹ÛĮ": 7089,
      "ØªØ§ÙĤ": 7090,
      "ĠÚ©Ú¾ÛĮÙĦÛĴ": 7091,
      "ĠÚĪØ§ÙĦÛĴ": 7092,
      "ĠÙħÙĤØ¨": 7093,
      "ĠØªÛĮØ³Ø±Ø§": 7094,
      "ada": 7095,
      "ĠÚ©Ø§Ø±Ø±ÙĪØ§Ø¦ÛĮÙĪÚº": 7096,
      "2020": 7097,
      "imes": 7098,
      "ĠÙĦØ§ÙĨØ§": 7099,
      "ĠØ§ÙĨØ¬ÙħÙĨ": 7100,
      "ĠÙĤØ±Ø¨Ø§ÙĨ": 7101,
      "tern": 7102,
      "ØªÛĮÙĨ": 7103,
      "ĠÙĪØ²ÛĮØ±Ø³ØªØ§ÙĨ": 7104,
      "Ð¸Ð½": 7105,
      "ĠÙħØ±Ø¯Ùħ": 7106,
      "ÙĬØ«": 7107,
      "ĠÙħØ±Øº": 7108,
      "):": 7109,
      "ĠØ³ÙĪØ§Ø¦ÛĴ": 7110,
      "ĠÚ©Ø§ÙĦÙĪÙĨÛĮ": 7111,
      "uss": 7112,
      "ĠØ¨Ú¾Ø§ÙĦ": 7113,
      "ĠÚ©ÙĪÙĦ": 7114,
      "ĠØ§Ø³Ú©ÛĮÙħ": 7115,
      "ĠØ¨ÛģØ±ØŃØ§ÙĦ": 7116,
      "ĠÚ¯Ú¾ÚĳÛĮ": 7117,
      "ĠÙĦÙĬÛĴ": 7118,
      "ĠÚ©ÚĨ": 7119,
      "sp": 7120,
      "Ú©Ø´ÛĮ": 7121,
      "ĠÙħØ§ÙĦÛĮØª": 7122,
      "ĠÚĪØ§Ú©Ù¹Ø±Ø²": 7123,
      "ĠØ§ÙĨÙĤÙĦØ§Ø¨ÛĮ": 7124,
      "ĠØ¬ÙĨÚ¯ÙĦ": 7125,
      "ĠÙģØ±Ø²": 7126,
      "ĠÙħØ§Ø±ÙĨÛĴ": 7127,
      "ĠØŃÙħØ²Ûģ": 7128,
      "ĠÚ©Ú¾ÛĮÙĦÙĪÚº": 7129,
      "ĠØ«Ø§ÙĤØ¨": 7130,
      "ĠÙĨÙĪØ´": 7131,
      "ĠÙħÙĨØµÙĪØ±": 7132,
      "ĠØ¨ÙĨØªÛĴ": 7133,
      "Ġko": 7134,
      "Ġqu": 7135,
      "ÙħØ¬": 7136,
      "Ø²ÙĪÚº": 7137,
      "ÙİØĮ": 7138,
      "ĠØ¨ÙĨÛĮÚº": 7139,
      "ĠÚ©Ø±Ù¾Ù¹": 7140,
      "ĠÙĪÙĨÚĪ": 7141,
      "100": 7142,
      "ĠØ¹ÙĨÛģØ§": 7143,
      "ĠØ¹ÛģØ¯ÛĮØ¯Ø§Ø±": 7144,
      "Ø§ÛģÙĦÛĮ": 7145,
      "Ø³ÙĨØ³": 7146,
      "ĠØ¯ÛĮÙĪØ¨": 7147,
      "Ġim": 7148,
      "ĠÙģØ§ÙĦ": 7149,
      "der": 7150,
      "atest": 7151,
      "ĠØ¨ÚĨÚ¾": 7152,
      "ĠÚĨØ±Ø§Øº": 7153,
      "ĠØ·Ø¨ÙĤØ§Øª": 7154,
      "Ù¾ÙħÙĨÙ¹": 7155,
      "fer": 7156,
      "ĠØ§ÛĮÚ¯Ø²ÛĮÚ©Ù¹ÙĪ": 7157,
      "ĠÙħÙĤØ¨ÙĪÙĦÛĮØª": 7158,
      "ĠØ¯Ú©Ú¾Ø§ÙĨÛĴ": 7159,
      "erv": 7160,
      "ĠÚĨÙĪÛģ": 7161,
      "ÙĪØ¨Ú©Ø±": 7162,
      "ĠØ§ÙĨÛģØ§Úº": 7163,
      "ĠØŃØ³Ø¨": 7164,
      "ÙħØ«": 7165,
      "ÙĬØ¨": 7166,
      "ĠÙĤÙĦØª": 7167,
      "ĠKhan": 7168,
      "Ú©ÙĪØ±ÙĪÙĨØ§": 7169,
      "ĠØ´ÙĪÚ©Øª": 7170,
      "ĠØ§ÙĦÙħÙĨ": 7171,
      "ĠØ¬ÙĨÚ¯Ø¬ÙĪ": 7172,
      "ĠØ¬Ú¯": 7173,
      "ĠÙ¾Ø³ÙĨØ¯ÛĮØ¯Ûģ": 7174,
      "ĠÛģÙħØ¯Ø±Ø¯ÛĮ": 7175,
      "ĠÙ¹ÙĪØ¦Ù¹Ø±": 7176,
      "Ø§ÙģØ±": 7177,
      "ĠØ²ÙĪØ§ÙĦ": 7178,
      "82": 7179,
      "Ġif": 7180,
      "ĠØ¢Ø±Ú©": 7181,
      "Ø³ØªÙĪØ±": 7182,
      "ĠØ³ÙħÙĨØ¯": 7183,
      "ĠØ´ÛĮÚĪÙĪÙĦ": 7184,
      "ĠÙħØ§ÙĨÙĨØ¯": 7185,
      "ĠÛģÙĪÙħ": 7186,
      "ĠÙģØŃ": 7187,
      "ĠØ®Ø¯Ø§ÙĪÙĨØ¯": 7188,
      "Ġ_": 7189,
      "ĠØ´Ø§Ø±": 7190,
      "ĠÙĥÙĬØ§": 7191,
      "ÙģÙĤÛģ": 7192,
      "ĠÙ¹Ø±Ø§ÙĨ": 7193,
      "ĠÚ©Ù¾ÙĪØ±": 7194,
      "ÚĨÛĮØ¦Ø±ÙħÛĮÙĨ": 7195,
      "ĠØ§ÙĦÙħÙĤ": 7196,
      "ĠØ¬ÛĮÙĨ": 7197,
      "ĠÚ©Ø¹Ø¨Ûģ": 7198,
      "ĠØ§ÙħÙĪØ§Øª": 7199,
      "ĠAd": 7200,
      "ĠÙ¾ÙĦØ§Ø³Ù¹Ú©": 7201,
      "Ġwe": 7202,
      "Â°": 7203,
      "ÙħÛĮÚĪÛĮØ§": 7204,
      "ĠØ±ÙĪÛĮ": 7205,
      "Ù¾Ø§ÙĨ": 7206,
      "ÙĨÛĮØ§Úº": 7207,
      "ĠÙħÛĮØ§ÙĨ": 7208,
      "ĠHe": 7209,
      "ĠÙĬØ§": 7210,
      "ĠØŃÙģØ§Ø¸ØªÛĮ": 7211,
      "ĠØ¨Ø±ÙĪØ²": 7212,
      "ÛĮÙĪØ§ÙĦ": 7213,
      "ĠØ³Ù¾ÙĦ": 7214,
      "ĠFebruary": 7215,
      "ĠØ¯Ø³ØªÙĪØ±": 7216,
      "Ø§Ø¦Ø²ÛĮØ´ÙĨ": 7217,
      "ĠÙħØ·ÙħØ¦ÙĨ": 7218,
      "ÙģÛĮÙĪ": 7219,
      "ĠÙ¾ÙĬ": 7220,
      "ĠMus": 7221,
      "ĠØ¯ÛģØ´ØªÚ¯Ø±Ø¯ÙĪÚº": 7222,
      "ĠÙ¾Ø§Ø¤": 7223,
      "ĠÚ©Ø§Ù¾ÛĮ": 7224,
      "ĠÙ¾ÛĮØ±Ø§": 7225,
      "ĠÚ©Ø§Ø¨ÙĦ": 7226,
      "ĠØªØ§Ø¦ÛĮØ¯": 7227,
      "Ø§Ø¬ÙĦØ§Ø³": 7228,
      "Ø§ØªÙĪØ§Ø±": 7229,
      "ne": 7230,
      "ĠÚ¯Ú¾ÛĮ": 7231,
      "ĠØ§Ú©Ø§": 7232,
      "ĠØ±ÙĪÛĮÛĴ": 7233,
      "Ø§Ø©": 7234,
      "ĠØ§Ø¸ÛģØ±": 7235,
      "ĠÙ¾Ø§Ú¯": 7236,
      "ĠÚĪØ³Ù¾": 7237,
      "ĠØ¨ÙĨØ¯ÙĪÚº": 7238,
      "ĠØ¨Ø±Ûģ": 7239,
      "ĠÚ¯Ú¾Ø¨Ø±": 7240,
      "AM": 7241,
      "ĠÙ¹ÙĪØ¦ÙĨÙ¹ÛĮ": 7242,
      "ĠØ§ÙĨØŃØµ": 7243,
      "Ø±ÙĪØŃ": 7244,
      "ÙĪØªÛĮ": 7245,
      "ĠÙ¾Ø±Ø³": 7246,
      "Ġï´¿": 7247,
      "ĠØ§ØµÙĦÛĮ": 7248,
      "ĠÙ¾Ø§ÙĨØ§ÙħØ§": 7249,
      "eop": 7250,
      "ias": 7251,
      "ĠÚ©ÛĮÙĨÛĮÚĪØ§": 7252,
      "ĠØ¨Ø§Ø±Ú¯Ø§Ûģ": 7253,
      "ĠØŃØ¨": 7254,
      "Ù¾Øª": 7255,
      "Ø¬ÙĨØ§Ø¨": 7256,
      "cl": 7257,
      "ĠØ¯ÙĨÛĮ": 7258,
      "Ø¨Ø¬": 7259,
      "ÙħØŃÚ©": 7260,
      "ĠÙħØ®ØªØ§Ø±": 7261,
      "ĠÚ¯ÙħØ±Ø§Ûģ": 7262,
      "ĠÚ¯Ùħ": 7263,
      "to": 7264,
      "ĠÛ±": 7265,
      "ĠÙĨÛĮÚº": 7266,
      "Ù¾Ø±ÛĮ": 7267,
      "ĠØ®ÙĪØ¯Ú©Ø´": 7268,
      "ĠØªÙĤØ±ÛĮØ¨Ø§Øª": 7269,
      "ĠÙĤØ§Ø¦Ø¯ÛĮÙĨ": 7270,
      "Ġï®Ĳ": 7271,
      "wa": 7272,
      "ĠÚ¯ÙĪØ¯": 7273,
      "ĠÙĪØ¶ÙĪ": 7274,
      "Ø§ÙħØ§ÙĨ": 7275,
      "ĠÙĦÚ¯Ø§ÙĨØ§": 7276,
      "ĠØ¹ÙĦØ§ÙħØ§Øª": 7277,
      "ÙĪØ§ÛĮÙħ": 7278,
      "Ø§ÙĪÙĨØ¯": 7279,
      "ĠÙħÛĮÙĪØ²": 7280,
      "ĠØ·Ø¨ÛĮØ¹Øª": 7281,
      "ÛķÛĮ": 7282,
      "ĠÙħØ§ÙĦÚ©Ø§ÙĨ": 7283,
      "ĠØ¨Ø³ØªØ±": 7284,
      "ĠØµØ¯ÛĮÙĤ": 7285,
      "ÙĪØ®": 7286,
      "ĠÙģØ±Ø§ÙĨØ³ÛĮØ³ÛĮ": 7287,
      "oldid": 7288,
      "ĠØ³ØªØ±": 7289,
      "AL": 7290,
      "ĠØ¯Ú©": 7291,
      "ade": 7292,
      "ĠÙĪÙĤÙģ": 7293,
      "ĠÙħÛĮØ¦Ø±": 7294,
      "ĠØ¯Ø±ÛĮØ§Ø¦ÛĴ": 7295,
      "ĠÙħÙģÛģÙĪÙħ": 7296,
      "ĠÙħØ§ÙģÛĮØ§": 7297,
      "Ø´ÛĮÚĪÙĨÚ¯": 7298,
      "ĠÚ©Ú¾ÛĮÙĨÚĨ": 7299,
      "ĠØ§ÙĨÚĨ": 7300,
      "ĠØ¨Ú¾ÛĮØ¬ÙĨÛĴ": 7301,
      "ĠØ®ÙĪØ§ÛģØ´Ø§Øª": 7302,
      "ĠØ§Ø·Ø±Ø§Ùģ": 7303,
      "ĠÚ¯ÙĨØ¯Ùħ": 7304,
      "75": 7305,
      "ĠØ¨Ú¾Ø±ØªÛĮ": 7306,
      "sa": 7307,
      "Ø§Ø²Ùħ": 7308,
      "ĠÙħÛĮÚĨØ²": 7309,
      "ĠØ¹ÙĦÛĮØŃØ¯Ú¯ÛĮ": 7310,
      "ĠØ±ÙĪÙ¾ÛĮÛģ": 7311,
      "ĠÙħÛģÛĮÙĨÙĪÚº": 7312,
      "dw": 7313,
      "ĠØ±ÛĮÙ¾": 7314,
      "ĠÙģÙĦØ§Úº": 7315,
      "Ø±Ø³ÙĪÙĦ": 7316,
      "ĠØ¨ÙĨÙĨØ§": 7317,
      "ĠØ²Ø§Ø¦Ø±ÛĮÙĨ": 7318,
      "âĢľÛĶ": 7319,
      "ĠÙ¾Ø±ÙĨÙ¹": 7320,
      "ĠØ§ÙĨÚĪÛĮØ²": 7321,
      "ĠÙĨØ§ÙħÙĪÚº": 7322,
      "oh": 7323,
      "ĠØªØ§Ø±Ú©ÛĮÙĨ": 7324,
      "ÙħØ±ÛĮ": 7325,
      "ĠØ¬Ø°Ø¨ÛĴ": 7326,
      "ØµÛĮØ¨": 7327,
      "ĠØ¯Ø±Ø¨Ø§Ø±": 7328,
      "ĠØ´ÙħØ§ÙĦ": 7329,
      "ĠØ¦Ûķ": 7330,
      "ĠÙ¾Ø§Ø±ÙĦÛĮÙħØ§ÙĨ": 7331,
      "enc": 7332,
      "ĠÙĪÛĮÚ©ÛĮÙ¾ÛĮÚĪÛĮØ§": 7333,
      "ĠÙħØ°Ø§ÛģØ¨": 7334,
      "ĠØ¸Ûģ": 7335,
      "ka": 7336,
      "ĠØ¶ÛĮ": 7337,
      "Ġno": 7338,
      "ĠÙħØ¹Ø²": 7339,
      "ĠØ¨ÙĨØ¯Ø´": 7340,
      "ÛĮØ±Ø§ÙĨÛĮ": 7341,
      "ĠÙħØ§Ø±Ø´ÙĦ": 7342,
      "ĠÙħÙĨØŃ": 7343,
      "Ġ33": 7344,
      "ĠÙħØªÙģÙĤ": 7345,
      "ĠØ¯ÛģØ´ØªÚ¯Ø±Ø¯": 7346,
      "ĠÚĨÛĮØ¦Ø±": 7347,
      "ĠIm": 7348,
      "ĠØ§ÙĨØ¨ÛĮØ§Ø¡": 7349,
      "ĠØ®Ø§ÙĨØ¯Ø§ÙĨÙĪÚº": 7350,
      "ĠÙħØŃÙĤ": 7351,
      "ĠÙģÙĨÚ©": 7352,
      "ĠPosted": 7353,
      "Ù¾ÚĨÚ¾": 7354,
      "ĠØ¯Ø§ÙĨÙĪÚº": 7355,
      "ĠÙħØ¸ÛģØ±": 7356,
      "ĠØ±ÙĨØ¬": 7357,
      "ĠÙĦÚ©ÚĳÛĮ": 7358,
      "ose": 7359,
      "ĠYou": 7360,
      "ØŃØ§Ø¨": 7361,
      "Ġapp": 7362,
      "lished": 7363,
      "Ú¯Ù¹": 7364,
      "ĠØ¬Ú¾ÛĮÙĦ": 7365,
      "ĠÛĮÚ©Ø³Ø§Úº": 7366,
      "96": 7367,
      "ĠÙ¾ÙĨÚĪ": 7368,
      "ĠÙĨØ¨Ú¾": 7369,
      "ĠØªØŃÙģÛģ": 7370,
      "Ø´ØªÛĮ": 7371,
      "ĠØ¨ÛĮÙ¹ÙĨÚ¯": 7372,
      "ĠØ±Ø§ÛģÙĨÙħ": 7373,
      "ĠØ´Ú©Ø§ÛĮØ§Øª": 7374,
      "ïºħÚº": 7375,
      "ĠØ³Ø¨Ú¾Ø§": 7376,
      "ĠØ§Ø¬Ø§Ú¯Ø±": 7377,
      "ĠWorld": 7378,
      "ĠÙĨØ§Ø²Ú©": 7379,
      "ĠÚ¯ÙĪØ§ÛģÛĮ": 7380,
      "ĠØ´Ø§Ø®": 7381,
      "ĠÙĦÛĮÙ¹Ø±": 7382,
      "ĠØ§Ù¹ÙĦÛĮ": 7383,
      "ĠØ®Ø§ÙĦÙĤ": 7384,
      "ĠØ¯ÛĮØ¯ÛĮØ§": 7385,
      "Ø¯ÙĪÙĨÙĪÚº": 7386,
      "ĠÙħØ§ÛĮÙĪØ³ÛĮ": 7387,
      "ĠØ§ÙĦØ¬Ú¾": 7388,
      "ĠØ¨Ø°": 7389,
      "ĠÙĨÙĤØ´": 7390,
      "ĠÙĪÙħ": 7391,
      "Ġsaid": 7392,
      "ÛģÙĨØ¯ÙĪØ³ØªØ§ÙĨ": 7393,
      "Ø¹ÙĦÛĮÛģ": 7394,
      "ĠÙħÙĦÚ©ÛĮØª": 7395,
      "Ù¢": 7396,
      "ÚĳÛģ": 7397,
      "ĠØ§Ø´ØªØ±Ø§Ú©": 7398,
      "ĠØ¢ÙħØ¯ÙĨÛĮ": 7399,
      "Ø¯Ø§Ùģ": 7400,
      "ĠÙħÙĨØ§Ø¦ÛĮ": 7401,
      "Ġcomment": 7402,
      "ĠØ§ÙĨÛĮØ³": 7403,
      "ĠÙĪØ¶Ø¹": 7404,
      "ĠÙĦØ§Ø¦Ø¨Ø±ÛĮØ±ÛĮ": 7405,
      "ĠØ³Ø§ØŃÙĦ": 7406,
      "ĠØ§Ú¯ÙĦÛĮ": 7407,
      "ĠÛģÙ¹Ø§": 7408,
      "ĠØ§ÙĨÙģ": 7409,
      "ØºÛģ": 7410,
      "ĠArch": 7411,
      "ĠÙĨØ§Ø®": 7412,
      "ĠØºØ§Ø²ÛĮ": 7413,
      "ĠØ³ÛĮØ§Ø³ØªØ¯Ø§ÙĨÙĪÚº": 7414,
      "Ø³ØªØ§Ø®": 7415,
      "ĠÙħÛģØ§Ø±": 7416,
      "ition": 7417,
      "ĠÂ·": 7418,
      "Ø§Ø¯Ø§Ø±ÛĮ": 7419,
      "ĠÙĨØ§ÙħÙĪØ±": 7420,
      "ĠÙħØ´ØªØ¨Ûģ": 7421,
      "ĠØ¨Ø±ÙĪÙĤØª": 7422,
      "ĠØ®ÙĪØ¨ØµÙĪØ±ØªÛĮ": 7423,
      "Ø²ÛĮØ¯": 7424,
      "ĠÙĪØ§Ù¹Ø±": 7425,
      "ĠÙ¾Ø§Ù¾": 7426,
      "ĠØ¶ÙħÛĮØ±": 7427,
      "ØµÙģØŃÛģ": 7428,
      "ĠØ§Ø³ØªØŃØµ": 7429,
      "ĠÙģÛĮØ²": 7430,
      "ĠØ±Ø¦ÛĮ": 7431,
      "ĠÙĨØ§ÙħÙħÚ©ÙĨ": 7432,
      "ĠÛģÙĪØ³Ú©ÛĴ": 7433,
      "rat": 7434,
      "ĠØªÛĮØ§Ø±ÛĮØ§Úº": 7435,
      "ĠÙģØ³Ø§Ø¯": 7436,
      "ĠÚ¯Ø§Ø¦ÛĴ": 7437,
      "ĠÙħØ¨Ø§ØŃ": 7438,
      "ĠØŃÛĮØ¯Ø±Ø¢Ø¨Ø§Ø¯": 7439,
      "ĠÛĮØ³ÙĪØ¹": 7440,
      "ĠÙģØ§ØµÙĦÛĴ": 7441,
      "ĠØ¨ÙĨÚ©": 7442,
      "wikipedia": 7443,
      "ode": 7444,
      "ĠØ¨Ú¾Ùī": 7445,
      "ÚĪÛĮÙ¹": 7446,
      "Ú©Ù¾": 7447,
      "ĠØĳ": 7448,
      "ĠØ°Ø®ÛĮØ±Ûģ": 7449,
      "Ġmain": 7450,
      "ĠØ§Ø³ØªÙģ": 7451,
      "ĠÙ¾Ø§Ø¨ÙĨØ¯ÛĮØ§Úº": 7452,
      "ÙĦÙĨØ¯ÙĨ": 7453,
      "we": 7454,
      "ĠØ¹ÙħÙĪÙħØ§": 7455,
      "Ø±ÛĮØ§Úº": 7456,
      "ĠØ¹Ú©": 7457,
      "ĠÛģÙģØªÙĪÚº": 7458,
      "ons": 7459,
      "ĠÙĨØ³Ø¨": 7460,
      "ĠØ¨ÛĮÙĪØ±ÙĪ": 7461,
      "ĠÙħÙĨØªÙĤÙĦÛĮ": 7462,
      "Ġres": 7463,
      "ĠÚ©ÙĪØ§Ø±": 7464,
      "ĠØ³ÙĪÚĨÙĨÛĴ": 7465,
      "ÛĮÙĪÙħ": 7466,
      "ÙĨØ¯Ø§": 7467,
      "ĠÚ¯ÛģØ±": 7468,
      "Ø±Ø§ÙĪÙĦ": 7469,
      "ĠØªØ¬Ú¾ÛĴ": 7470,
      "ĠØ§ÙĨØ¬ÙĨ": 7471,
      "Ø¨Ø¹Ø¶": 7472,
      "ØªØ±Ú©ÛĮ": 7473,
      "Ġviews": 7474,
      "ĠGoogle": 7475,
      "ĠÙ¾ÙĦÛĮ": 7476,
      "ĠØ¨ÙħØ¨": 7477,
      "ĠØ´Ø§Ú¯Ø±": 7478,
      "ther": 7479,
      "ĠÙģÙĤØ·": 7480,
      "ĠØ¬ÙĪÛģØ±": 7481,
      "ÙĪÙĦÛģ": 7482,
      "ĠØªØ§ØŃØ§ÙĦ": 7483,
      "Ø±Ø§ÙĨÙĪØ§ÙĦÛģ": 7484,
      "ĠTag": 7485,
      "Ø§ÙħØ±ÛĮÚ©Ø§": 7486,
      "ÙĪÙĨÛĮÙĪ": 7487,
      "ĠÙħØ²Ø§Ø±": 7488,
      "Ġhai": 7489,
      "ĠØ¯Ú¾ÙĪÚ©Ûģ": 7490,
      "ĠØ³ÙĨØ¬ÛĮØ¯Ú¯ÛĮ": 7491,
      "ĠØ§ÛĮØ¬ÙĨÙ¹": 7492,
      "ĠÙ¾Ø§Ø¦ÙĦ": 7493,
      "ĠØ³ÙĦÛĮÙħØ§ÙĨ": 7494,
      "ĠØ§Ú©ÛĮÚĪÙħÛĮ": 7495,
      "ĠÙĨÛĮÚ©ÛĮ": 7496,
      "ĠÛģÙĪØ±ÛģÛĴ": 7497,
      "ĠØ§Ø´Ø¹Ø§Ø±": 7498,
      "ÙĪØ²Ûģ": 7499,
      "ĠØ¯Ø±Ø§": 7500,
      "Ú©ÙĪÙĨ": 7501,
      "ĠÙ¾Ø±Ûģ": 7502,
      "Ġ42": 7503,
      "ĠØªØŃÙģØ¸Ø§Øª": 7504,
      "Ø§Ø³Ø±Ø§Ø¦ÛĮ": 7505,
      "ÙħØŃÚ©ÙħÛģ": 7506,
      "ĠÚ©ÙĪØª": 7507,
      "83": 7508,
      "ĠØ¢ÙĦØ§Øª": 7509,
      "ĠØ§ÙĪØ³Ø·": 7510,
      "ØµÙĪØ±": 7511,
      "ĠÙħÙĪØ¹ÙĪØ¯": 7512,
      "ali": 7513,
      "ĠØ±Ø®ØµØª": 7514,
      "ĠÙģÙĦÛĮÙ¹": 7515,
      "ØŃÙħ": 7516,
      "ĠØªÙħÚ¾": 7517,
      "ĠMore": 7518,
      "ĠÙĤØ¨Ø±Ø³ØªØ§ÙĨ": 7519,
      "ĠØªØŃÙĤÛĮÙĤØ§ØªÛĮ": 7520,
      "Ġbut": 7521,
      "Ú©Ø§ÙĦ": 7522,
      "ĠÙ¾Ø±Ø§Ø¬ÛĮÚ©Ù¹": 7523,
      "ĠØ®Ø§Ø¯Ùħ": 7524,
      "ĠØ¶Ø±Ø¨": 7525,
      "Ø§Ø¢": 7526,
      "Ø¬ÛĮÙ¹ÙĦ": 7527,
      "Ù¹Ùħ": 7528,
      "Ø§Ø±Ø³": 7529,
      "oy": 7530,
      "ĠØ¹ÙħÙĪÙħÛĮ": 7531,
      "ĠØ§ÙĦØº": 7532,
      "ĠØ¹ØµØ±": 7533,
      "ĠOff": 7534,
      "ĠÙģØ·Ø±ÛĮ": 7535,
      "ĠÙ¹Ú©ÚĳÛĴ": 7536,
      "ĠIt": 7537,
      "Ø¯ÙĨÛĮ": 7538,
      "ĠØ¹Ø§Ø±Ø¶ÛĮ": 7539,
      "00000000": 7540,
      "ĠÙĪÚ©ÙĦØ§Ø¡": 7541,
      "ĠØ±Ø§ÙĪÛĮ": 7542,
      "ĠØ®Ø¯Ø´Ø§Øª": 7543,
      "Ø¯ÙĪØ±": 7544,
      "ĠØ³Ø¹ÙĪØ¯": 7545,
      "Ġone": 7546,
      "ĠÙ¹Ø±Ø§ÙĨØ³Ù¾ÙĪØ±Ù¹": 7547,
      "Ø¸Ø§Ùħ": 7548,
      "ĠØºÙģÙĦØª": 7549,
      "ĠÛ¶": 7550,
      "Ø§ÛĮÙĦ": 7551,
      "ØªØ§Ø¨": 7552,
      "ÙĢÙĢÙĢÙĢ": 7553,
      "ĠØ§Ø³Ú©ÙĪÙĦÙĪÚº": 7554,
      "witter": 7555,
      "Th": 7556,
      "ĠØºØµÛĴ": 7557,
      "ublished": 7558,
      "ĠÚ¯Ø§ÙħØ²ÙĨ": 7559,
      "ĠÚ©Ø³Ø§ÙĨÙĪÚº": 7560,
      "ĠÚ©Ø±Ø¨ÙĦØ§": 7561,
      "ĠÙ¾Ø§Ø±Ù¹ÛĮÙĪÚº": 7562,
      "ĠÙĨÙĪØ§Ø²Ø§": 7563,
      "ÙĬØ®": 7564,
      "ĠØ¯Ø±Ø§ÙĨÛĮ": 7565,
      "ĠØ³ÙĨÚĨ": 7566,
      "ÙģÛĮØ³": 7567,
      "ĠØ¯Ø¹Ø§Ø¦ÛĮÚº": 7568,
      "ÙģÛĮØµÙĦ": 7569,
      "ĠØ¯Ø§Ø¤": 7570,
      "ĠÙ¾Ø±Ø§ÙħÙĨ": 7571,
      "ĠÙħØ±Ø¯Ûģ": 7572,
      "ĠÚ©Ø±Øª": 7573,
      "ĠÚ©Ø±ÙĪØ§Ø¦ÛĮ": 7574,
      "ĠØ®ÙĪØ´Ø¨ÙĪ": 7575,
      "ĠÙģÙĦØ³ÙģÛģ": 7576,
      "ï¿½ï¿½ï¿½ï¿½ï¿½ï¿½": 7577,
      "ĠÛģØ§Ø¦ÙĪØ³": 7578,
      "ĠÙĤØ§Ø¨Ø¶": 7579,
      "ĠÙĨØ´Ø±ÛĮ": 7580,
      "Ø®ÛĮØµ": 7581,
      "ĠØ§Ø¨ØªØ¯Ø§": 7582,
      "ĠØ±Ø¶ÙĪÛĮ": 7583,
      "ÙĦÛĮÙĨÚĪ": 7584,
      "ĠØ³Ø§ÙĦÚ¯Ø±Ûģ": 7585,
      "ĠÛģÛĮÙĦÛĮ": 7586,
      "ĠÙħØ§ÛģÛĮ": 7587,
      "Ø§ÛģÙĪ": 7588,
      "Al": 7589,
      "ĠÙħØ¬Ø§ÛģØ¯": 7590,
      "ĠØ¬Ø§Ø¦": 7591,
      "me": 7592,
      "ĠØ±ÙĪÙĨÙħØ§": 7593,
      "ĠÚ©Ø±Ø³Ú©ØªÛĮ": 7594,
      "By": 7595,
      "ĠØ¢ØªØ´": 7596,
      "Ġ<": 7597,
      "ĠÙĪØ§Ø¦Ø±ÙĦ": 7598,
      "ĠÙģØ¶ÛĮÙĦØª": 7599,
      "ĠÚ©Ø±Ø³ÛĮ": 7600,
      "ĠØ§ÙĨÚ©Ø§": 7601,
      "ĠØŃØ§Ø¬": 7602,
      "ÙĨÚ¯Ø²ÛĮØ¨": 7603,
      "ĠÚ©ÛģØ§ÙĨÛĮØ§Úº": 7604,
      "ÛĮØªÚ¾": 7605,
      "Ġthey": 7606,
      "ĠÚĨØ§Ø±Ø¬": 7607,
      "book": 7608,
      "ĠØ§ÛģØ¯Ø§Ùģ": 7609,
      "Ġra": 7610,
      "ĠØ³ÙħØ¬Ú¾ÙĨØ§": 7611,
      "ĠÚ©Ø´ØªÛĮ": 7612,
      "Ð»Ð°ÑĢ": 7613,
      "ĠØ·Ø§ÙĤØªÙĪÚº": 7614,
      "ĠÚ©Ø§ØºØ°Ø§Øª": 7615,
      "ĠÚĨØ´Ùħ": 7616,
      "uch": 7617,
      "ĠÙ¾Ø±ÙĨØ³": 7618,
      "ĠØ§ØŃØ§Ø·": 7619,
      "ĠØŃØ§Ú©Ùħ": 7620,
      "ÙĤÙħ": 7621,
      "ĠÚ¯Ú¾ÙĨÙ¹Ûģ": 7622,
      "ĠØ¨Ø±ÛĴ": 7623,
      "ance": 7624,
      "ĠÙħÙĤØ§Ø¨ÙĦÙĪÚº": 7625,
      "ĠØ±ÙĪØ§Ø¨Ø·": 7626,
      "ĠØ¬Ú¾Ú©": 7627,
      "ÚĨÚ©Ø§": 7628,
      "In": 7629,
      "ĠÙ¹ÙĪÛĮÙ¹": 7630,
      "ĠÙħØ±Ø§ØŃÙĦ": 7631,
      "ĠÚ©Ø«Ø±Øª": 7632,
      "ĠÚ©ÛĮØ§Ú¯ÛĮØ§": 7633,
      "Ø§ÙĨØ³Ø§ÙĨÛĮ": 7634,
      "ĠØ§ÙĦÛģÛĮ": 7635,
      "ĠØ®Ø·ÙĪØ·": 7636,
      "ON": 7637,
      "ÙģÙĦÙħ": 7638,
      "ĠØ¬Ø²ÛĮØ±": 7639,
      "ĠØ´ÙĪØ§ÛģØ¯": 7640,
      "ĠØ³ÛĮÙĨÛĴ": 7641,
      "ĠØ¯Ø§Ø®ÙĦÛĮ": 7642,
      "ĠØ·ÛĮØ¨": 7643,
      "ĠÙĪØ§Ø±Ø«": 7644,
      "ta": 7645,
      "ĠÙħØ´ÙĤ": 7646,
      "ĠØ¬Ø¯Ø§": 7647,
      "ĠØ¬ÙĪØ§ÙĨÙĪÚº": 7648,
      "ÛģÙĨ": 7649,
      "Ù¾ÙĪØ±Ù¹Ø³": 7650,
      "ĠÙħÙĨØªØ¸Ø±": 7651,
      "ĠØ¸ÛģÙĪØ±": 7652,
      "ĠØ³Ø¹Ø§Ø¯Øª": 7653,
      "ÙģØ±Øª": 7654,
      "ĠØ¨Ø§ÙĦÙĪÚº": 7655,
      "ĠÛģÙ¹Ø§ÙĨÛĴ": 7656,
      "ÙĪÙħÛĮÙĨ": 7657,
      "ĠØ±Ù¾ÙĪØ±Ù¹Ø±": 7658,
      "sc": 7659,
      "Ø·Ø±Ùģ": 7660,
      "ĠØ±ÛĮÙĦÛĮÙģ": 7661,
      "ĠØ¯ÙĬ": 7662,
      "âĢİ": 7663,
      "Ø§Ú©ÛĴ": 7664,
      "ĠÚ©Ø³Ø§ÙĨ": 7665,
      "Ø§ÙģÙĦ": 7666,
      "Ø·Ø§ÙĦ": 7667,
      "abad": 7668,
      "ØªØ±Ø¬ÙħØ§ÙĨ": 7669,
      "ĠÚĺ": 7670,
      "ĠÙĨÙģØ³ÛĮØ§ØªÛĮ": 7671,
      "--------": 7672,
      "Ø§ÚĪ": 7673,
      "ĠØ¬Ø±ÙħØ§ÙĨÛģ": 7674,
      "Ø±Ø§Ø¦ÛĴ": 7675,
      "ĠÙħØ±Ú©ÙĪØ²": 7676,
      "64": 7677,
      "Ġ92": 7678,
      "ĠÚ©ÛĮØ¬ÛĮÛĴ": 7679,
      "ĠØ¨ÛĮØ¹Øª": 7680,
      "Ġ34": 7681,
      "ĠDW": 7682,
      "ÙĪÛĮÙĨ": 7683,
      "ĠÙĩÛĴ": 7684,
      "ĠÙħÛĮÙħ": 7685,
      "ĠØ´ÙĪÚ¯Ø±": 7686,
      "ĠÙĦØ§Ø¦Ø³ÙĨØ³": 7687,
      "ĠØªØ±Ø¨ÛĮ": 7688,
      "Ø§ØŃÛĮ": 7689,
      "Ø´ÙĤ": 7690,
      "eople": 7691,
      "ÙħØ±Ø¯": 7692,
      "Tags": 7693,
      "ĠØ¨ÛģØ§ÙĪÙĦÙ¾ÙĪØ±": 7694,
      "ĠØ§ÙĦÙĨØ¨ÛĮ": 7695,
      "ĠØ¢Ø«Ø§Ø±": 7696,
      "ÙĨÛĮØ¯": 7697,
      "ĠÚ©ÙħØ§ÙĨÚĪ": 7698,
      "ĠØ§Ø¨ÙĪØ¨Ú©Ø±": 7699,
      "ĠØ¢ÙĨØŃØ¶Ø±Øª": 7700,
      "Ø§Ø®ØªÛĮ": 7701,
      "ĠØ§ÙĨØŃØµØ§Ø±": 7702,
      "ĠØ¢Ø±ÚĪØ±": 7703,
      "ĠØ§ÙĪØ±ÙĨÚ¯Ø²ÛĮØ¨": 7704,
      "ĠÙĦØ§Ø¦ÛĮÚº": 7705,
      "ĠØ±ÛģÙĪ": 7706,
      "ĠÛĮÙĪØªÚ¾": 7707,
      "inks": 7708,
      "ove": 7709,
      "ĠØ§ÙĨØ³Ù¾": 7710,
      "ĠÙģØ¶Ø§Ø¦ÛĮÛģ": 7711,
      "Ùª": 7712,
      "ĠKar": 7713,
      "ĠØ¨ÙĦØ§ÛĮØ§": 7714,
      "ĠÙĴ": 7715,
      "ĠØ³Ú©Ú¾Ø±": 7716,
      "ĠØ¹ÙħÙĦÛģ": 7717,
      "pk": 7718,
      "ĠÛĮÛģÙĪØ¯ÛĮÙĪÚº": 7719,
      "ĠØ³Ø²Ø§Ø¦ÛĴ": 7720,
      "ĠÙħØ§Ø¯": 7721,
      "Ø§Ø³ØªÛģ": 7722,
      "Ù¾Ø±ÙĪÛĮØ²": 7723,
      "ĠÙģØ§Ø¤": 7724,
      "ĠÙ¹Ø§ÙĨÚ¯": 7725,
      "ÙĪØ¯Ú¯ÛĮ": 7726,
      "ĠÙĨÙĤÙĪÛĮ": 7727,
      "à¤°": 7728,
      "Ú¯Ø±Ø¯": 7729,
      "ĠÚĨØ§ÛģØ¦ÛĮÚº": 7730,
      "ÛĮÚ©Ùħ": 7731,
      "ms": 7732,
      "ĠÙ¾Ø§ØªÛĴ": 7733,
      "ÚĨØ§Ûģ": 7734,
      "ĠØªÙĦÙĪØ§Ø±": 7735,
      "ĠÙĪØ¹Ø¯ÛĴ": 7736,
      "ĠØ¨Ø¯ÙĤØ³ÙħØªÛĮ": 7737,
      "ĠÙĦÙħØŃÛĴ": 7738,
      "ĠØ¨Ø§ÙĪØ±": 7739,
      "ĠÚ¯Ú¾Ù¹": 7740,
      "Ø¨ÙĨØ¯": 7741,
      "Ø¬Ø³Ù¹Ø³": 7742,
      "ĠØ§ÙģØ³Ø§ÙĨÛģ": 7743,
      "ĠÙĪØ§Ø¦Ù¹": 7744,
      "ĠØ§ÙģØ·": 7745,
      "ĠØ³ÛĮØ§": 7746,
      "ØªØ¬": 7747,
      "ĠÚ©ÛĮÙĪØ§ÛĮÙħ": 7748,
      "Ø±Ú©Ø§Ø±ÛĮ": 7749,
      "ĠØ³Ù¹Ø§Ùģ": 7750,
      "ĠØ®Ø§ÙĪÙĨØ¯": 7751,
      "ÙħØ´Ø§ÙĩØ¯Ø©": 7752,
      "Ø§Ù¾Ø±Ù¹ÛĮ": 7753,
      "ĠÙħÙĪÙĪÙħÙĨÙ¹": 7754,
      "ĠÙ¾ÚĳÙĪØ³ÛĮ": 7755,
      "Ø§Ø±Ø«": 7756,
      "Ø§ÙĦØ¯ÛĮÙĨ": 7757,
      "ownload": 7758,
      "ĠÙĨØ§Ø¨": 7759,
      "ĠÛģÙħÙĪØ§Ø±": 7760,
      "ĠÙģÛĮÙĦÚĪ": 7761,
      "ÙĦØµ": 7762,
      "ĠØ³Ø±Ú¯Ø±ÙħÛĮØ§Úº": 7763,
      "ĠØ®ÙĦÛĮÙĦ": 7764,
      "ĠØ¨Ø§Ø¦ÛĮ": 7765,
      "reat": 7766,
      "ung": 7767,
      "oon": 7768,
      "ĠØªØ¶": 7769,
      "ins": 7770,
      "ĠØ·ÛĮØ§Ø±ÙĪÚº": 7771,
      "ĠØµØ¯ÛĮÙĪÚº": 7772,
      "ĠØ¬Ø§Ø±ØŃÛĮØª": 7773,
      "ĠÛģÙĨØ¯ÛĮ": 7774,
      "ĠØ¨Ø±Ùħ": 7775,
      "ĠØ¨Ø§Ø¦ÛĮÚ©": 7776,
      "Ø´ÛģØ±": 7777,
      "ĠØ³Ù¹ÛĮÙĦ": 7778,
      "ÙĪØŃ": 7779,
      "ĠØ§ÚĪÛĴ": 7780,
      "ĠÙħØ·ÙĦÙĪØ¨Ûģ": 7781,
      "ĠØ´Ø±Ú©Ø§Ø¡": 7782,
      "ĠØ¨Ú¾Ú¯Øª": 7783,
      "Ø´ÙħÙĪÙĦ": 7784,
      "ĠÚ¯Ø²Ø§Ø±ÙĨÛĴ": 7785,
      "ĠØ¯Ø®ÙĦ": 7786,
      "Ø±Ø§ÙĪÙĦÙ¾ÙĨÚĪÛĮ": 7787,
      "ĠØ¬Ø§ÙĦ": 7788,
      "ĠØ§ÚĪ": 7789,
      "ĠBBC": 7790,
      "Ø¯Ø¹Ø§": 7791,
      "ĠØ§ÛĮÛģÛģ": 7792,
      "ĠØªØŃÙĤÛĮÙĤÛĮ": 7793,
      "ĠØ¬Ú¯ÛģÙĪÚº": 7794,
      "ĠØ²ÙĦØ²ÙĦÛĴ": 7795,
      "ĠÚ©Ø§ÙħØ±Ø³": 7796,
      "ĠØ§ÛĮØ§Ùħ": 7797,
      "Ø§ÙĨØ¯ÙĦÛĮ": 7798,
      "Ù¾ÛĮØ±ÙħØ§": 7799,
      "ĠÙĪØ§Ø±Ø§ÙĨÛģ": 7800,
      "ĠØ³Ú¯Ø±ÛĮÙ¹": 7801,
      "ĠÚĨØ§Ø¯Ø±": 7802,
      "ĠØ²ÛĮÙĨØ¨": 7803,
      "ĠÙĤÙĦØ¹Ûģ": 7804,
      "ĠØµÙģØ§Øª": 7805,
      "ĠØ´ÛĴ": 7806,
      "ĠØ¨Ø±Ø¨Ø§Ø¯": 7807,
      "ĠÚ©Ø±Ø³Ú©ÛĴ": 7808,
      "ĠØ¨Ø±Ø§ÙĨÚĪ": 7809,
      "ĠØ¨Ø¯ÙĦÙĨÛĴ": 7810,
      "ĠØ§Ø³Ú©ÙĪØ±": 7811,
      "Ø·ÛĴ": 7812,
      "ĠØ³ÙĨØªÛĴ": 7813,
      "ĠÙ¾Ø§Ø¦Ù¾": 7814,
      "ĠÙĨØ¹Øª": 7815,
      "Ø§ÙħÛĮØ±": 7816,
      "ĠØ¹ÙħÙĦØ¯Ø±Ø¢ÙħØ¯": 7817,
      "ĠÙģØªÙĪÛĮ": 7818,
      "Ø¨Ø§Ø³": 7819,
      "ĠØ§ÙĦØ«": 7820,
      "ØªØ§Úº": 7821,
      "ĠØ¬Ø§Ú¯": 7822,
      "ĠØ¬Ú¾ÙĪÙ¹ÛĴ": 7823,
      "ÙħØ³Øª": 7824,
      "ĠÙħØ§ÛģØ§ÙĨÛģ": 7825,
      "ÙĪÙĦÛĮØ§ØªÛĮ": 7826,
      "Ø§Ø±Ú©Ø³": 7827,
      "ĠØ§Ø³Ø³Ù¹ÙĨÙ¹": 7828,
      "Ø§ØµÛģ": 7829,
      "ĠCom": 7830,
      "ĠÙħÛĮÙħÙĨ": 7831,
      "78": 7832,
      "ÙħØº": 7833,
      "ĠØ¯ÛģØ±": 7834,
      "ÙĥÛģ": 7835,
      "ÛģÙħØ§": 7836,
      "ĠØ³Ø³ØªÛĮ": 7837,
      "ĠØ¢Ú¯Ø¦ÛĴ": 7838,
      "US": 7839,
      "ĠØ§ÙĪØ±Ø§ÙĨ": 7840,
      "Ø´ÙħÙĨÙ¹": 7841,
      "ĠØ¹Ø¨Ø¯Ø§ÙĦØ±ØŃ": 7842,
      "ĠØºÛĮØ±Øª": 7843,
      "ĠØ´Ø§Ù¾": 7844,
      "ĠÚĪØ¨ÙĦ": 7845,
      "ĠØªØ§Ú©": 7846,
      "ĠÚ©ÚĳÛĮ": 7847,
      "ĠØ¨Ú¾Ø±ÛĴ": 7848,
      "ÙĨÙĪØ±": 7849,
      "mar": 7850,
      "ĠÙĨØ§Úº": 7851,
      "Ø±ÛĮØ¹Ûģ": 7852,
      "ĠØ¨Ú¾Ø±Ø§": 7853,
      "ĠÚ©ÙĨØ¯Ú¾": 7854,
      "ĠÛĮØŃÛĮ": 7855,
      "Ġdis": 7856,
      "ĠØ¨ØªØ§Ø¦ÛĴ": 7857,
      "ĠØ¹Ø¯ÙĦ": 7858,
      "Ø§Ø®ØªÛģ": 7859,
      "ĠÚ©Ø±Ø¯ÛĮØ¦ÛĴ": 7860,
      "Ø¸ÛĮ": 7861,
      "ĠØŃØ±ÙĪÙģ": 7862,
      "ÙĨØ¬ÛĮ": 7863,
      "ĠÚ©Ø§Ù¹ÙĨÛĴ": 7864,
      "ĠÙħÛĮÙĨØ¬ÙħÙĨÙ¹": 7865,
      "ĠØµÙģØ¯Ø±": 7866,
      "News": 7867,
      "ĠÙĪØŃÛĮ": 7868,
      "ĠØ¢Ø±ÛģÛĮ": 7869,
      "ĠÛģÙĪØªØ§ÛģÛĴ": 7870,
      "ouse": 7871,
      "ĠÙ¾Ø§Ø¦ÛĮÚº": 7872,
      "ĠÙĪØ§Ø±ÛĮ": 7873,
      "ations": 7874,
      "Ú©Ø±Ú©": 7875,
      "hone": 7876,
      "ĠØ¹Ø³Ú©Ø±ÛĮØª": 7877,
      "Ø§Ø³ÙħÛĮ": 7878,
      "ĠØ±Ùģ": 7879,
      "ĠØ´ÛģØ¯Ø§Ø¡": 7880,
      "Ø§Ø®Ø¨Ø§Ø±": 7881,
      "ÙĨÙĨÚ¯": 7882,
      "ĠØªÙĪØ§Ø²ÙĨ": 7883,
      "ĠArchives": 7884,
      "Ú©ÛģØ§": 7885,
      "ĠØ¨Ú¾ÛĮØ¬ÛĴ": 7886,
      "ĠØ¯Ø§Ø±ÛĮØ§Úº": 7887,
      "ÙģÙĨ": 7888,
      "ĠÚ¯Ø³ØªØ§Ø®": 7889,
      "Ø¯Ø§Ø²": 7890,
      "ÚĨÛĮÙĨÛĮ": 7891,
      "ĠØ±ÙĪØ§Ø¬": 7892,
      "ĠØ³ÛĮÚ©ÙĪÙĦØ±": 7893,
      "Ø³Ø§ØªÚ¾": 7894,
      "ĠØ¹Ø¨Ø±": 7895,
      "Û²Û°": 7896,
      "ĠØ³ÛĮÙħÛĮÙĨØ§Ø±": 7897,
      "za": 7898,
      "ĠÚ©ÛĮØ³ÛĮ": 7899,
      "ĠÛģÛĴÚ©Ûģ": 7900,
      "ĠÚĨØ§ÙĨØ³ÙĦØ±": 7901,
      "ØºØ§Ø±ÛĮÙĨ": 7902,
      "ates": 7903,
      "ĠEnglish": 7904,
      "Ø³ØªØ§": 7905,
      "ĠØ³Ù¾ÙĦØ§Ø¦ÛĮ": 7906,
      "now": 7907,
      "vel": 7908,
      "ĠØ®Ø·Ø¨Ûģ": 7909,
      "ĠÙħØ±Ùħ": 7910,
      "ĠÙĨØ§Ø³": 7911,
      "ĠÙĨØ±Ø³": 7912,
      "Ø±Ø§Ú©": 7913,
      "ØŃØ§Ùħ": 7914,
      "ĠØ¹ÛĮ": 7915,
      "ĠØ§Ø³ØªÙģØ§Ø¯Ûģ": 7916,
      "Ø¦ÙĦÛģ": 7917,
      "ĠÙħÛĮÚ¯": 7918,
      "ĠØ¨ÛĮÙ¹Ú¾ÛĮ": 7919,
      "ĠØ¨ÙĨØ§ØªØ§": 7920,
      "ĠÚ©Ø±Ø³Ú©ÛĮÚº": 7921,
      "ĠÙĪØ¹": 7922,
      "Ġ48": 7923,
      "news": 7924,
      "ĠÙħØªÙĨØ§Ø²Ø¹Ûģ": 7925,
      "ĠØ¢Ø´": 7926,
      "ĠÙģÛģÙħÛĮ": 7927,
      "ĠØ³ØªØ§Ø±": 7928,
      "ÙĪØ³Ù¹": 7929,
      "ĠØ¨Ú¾Ù¹": 7930,
      "ĠÙ¾Ú¾ÙĪÙ¹": 7931,
      "ĠÙĪÛĮÚĺÙĨ": 7932,
      "ans": 7933,
      "ĠØ§Ø¹ÙĦØ§Ùħ": 7934,
      "ĠÚĪÙĪ": 7935,
      "ĠÙĪØ³Ø¹Øª": 7936,
      "ife": 7937,
      "ĠØ±ÛĮÙħØ§Ø±Ú©Ø³": 7938,
      "Ù¾ÛĮÚ¯": 7939,
      "ĠÛĮØ§Ø¯Ú¯Ø§Ø±": 7940,
      "ĠØ°Ø®Ø§Ø¦Ø±": 7941,
      "Ø§ÙĦÙģØ·Ø±": 7942,
      "ĠUS": 7943,
      "Ú©Ø§Øª": 7944,
      "ener": 7945,
      "ĠÙĦØ¨Ø±": 7946,
      "ĠÙĤØ±Ø¶ÙĪÚº": 7947,
      "ĠÙĦØ·ÛĮÙģ": 7948,
      "Ø§Ú©Ø§Ø±": 7949,
      "ĠÙĨÛĮØ§Ø²ÛĮ": 7950,
      "ĠÙĦØ§Ú¯ÙĪ": 7951,
      "ĠØ¨Ø±ØµØºÛĮØ±": 7952,
      "Ú¯ÙĪØ±ÙĨ": 7953,
      "ĠØ§ÛĮØ¯": 7954,
      "ĠØ¹ÙĦÙħØ§": 7955,
      "ĠØ¨Ø±Ø§Ø¯": 7956,
      "ĠÙ¹Ø±ÛĮÙĨÙĨÚ¯": 7957,
      "ĠØºØ°Ø§Ø¦ÛĮ": 7958,
      "ĠÙħÛĮØ³": 7959,
      "ĠØ±ÛĮÚ¯": 7960,
      "ĠØ§ÙĦÛĮÚ©Ù¹Ø±Ú©": 7961,
      "ĠÛģÙĦØ§Ú©ØªÙĪÚº": 7962,
      "ĠÙĪØ§Ûģ": 7963,
      "ĠÚ©Ø±Ú©": 7964,
      "ĠØ¨Ø±Ø§Ø¦ÛĮ": 7965,
      "ĠÙĨÙĤØ´Ûģ": 7966,
      "68": 7967,
      "ÙĩÙħ": 7968,
      "ĠÚĪÛĮØ±Ûģ": 7969,
      "ÛĮÙĨÙĪ": 7970,
      "ÚĪÚ¾": 7971,
      "ĠØ¹ÙĨØ¯": 7972,
      "ĠØŃØ±ÛĮØª": 7973,
      "ĠÙħÚ©Ø±Ùħ": 7974,
      "ÙĤÛĮÙħ": 7975,
      "¬ħ": 7976,
      "ĄÂ": 7977,
      "ĠØ³Ø±Ø¯ÛĮ": 7978,
      "ÛĶÛĶÛĶÛĶÛĶÛĶ": 7979,
      "ÙħØ°": 7980,
      "ĠÙ¾ÙĪÙĦÙĨÚ¯": 7981,
      "ple": 7982,
      "ĠÚ©ÛĮØ±": 7983,
      "ĠÙ¹ÛĮÙĨÚ©": 7984,
      "Ø±ÛĮÙĤ": 7985,
      "ĠÙĨÙħÚ©": 7986,
      "Ø¹ÛĮÙģ": 7987,
      "ĠÙģØ±ÛĮÙĤ": 7988,
      "ĠÚ©ÙĨÛĮ": 7989,
      "ĠØµÙĦÙī": 7990,
      "ĠØ®ÙħÛĮÙĨÛĮ": 7991,
      "ÙģÛĮØ¹": 7992,
      "over": 7993,
      "Ø²ÙħØ§ÙĨ": 7994,
      "ĠÙħÛĮØ±Ù¹": 7995,
      "ĠØ³ÚĨØ§Ø¦ÛĮ": 7996,
      "ĠØªÚ©ÙĨÛĮÚ©ÛĮ": 7997,
      "Ø§ÙħØ±": 7998,
      "ert": 7999,
      "ĠØ¬Ø°Ø¨Ø§ØªÛĮ": 8000,
      "ĠÛģØ§Ø¦ÛĴ": 8001,
      "ĠØ®ÙĪØ´Ú¯ÙĪØ§Ø±": 8002,
      "view": 8003,
      "ĠÚĪÙĪÛĮÙĦ": 8004,
      "Ġhow": 8005,
      "ĠØ¨ÙĦØ¯ÛĮÛģ": 8006,
      "Ø¯Ø§Ø®": 8007,
      "ĠØ³ÙĨØ³": 8008,
      "ited": 8009,
      "ĠØ¯ÙģØ§ØªØ±": 8010,
      "Ù¹ÛĮÚ©ÙĦ": 8011,
      "ĠÙħØ¹ÛĮÙĨ": 8012,
      "ĠÙĦÛĮÚ©": 8013,
      "ĠØ´Ø§ÛģØ±Ø§Ûģ": 8014,
      "dul": 8015,
      "ĠØ§ÙĦØŃØ¯ÛĮØ«": 8016,
      "ĠÙħØªÙĪØ¬Ûģ": 8017,
      "cle": 8018,
      "ĠÙĨØ§Ø§ÛģÙĦÛĮ": 8019,
      "Ú¾Ø±Ø§": 8020,
      "ĠÚ¾Ùħ": 8021,
      "ĠÙĦÙĪÚĪØ´ÛĮÚĪÙĨÚ¯": 8022,
      "ĠØ¬ÙĦØ§ÙĦ": 8023,
      "ĠØ¨ÙĨØ§Ú©Ø±": 8024,
      "ĠÙħØ³ØªØ¹": 8025,
      "ool": 8026,
      "ĠØ¨Ø§Ø±ÚĪØ±": 8027,
      "ĠÙĦÛģØ¬ÛĴ": 8028,
      "ĠØ¹ÙħØ±Ûģ": 8029,
      "ĠÙģØ±ÙĨÙ¹": 8030,
      "ĠÙĨØµÛĮØŃØª": 8031,
      "ĠØ³Ø±ØŃØ¯ÛĮ": 8032,
      "ĠØ³ÛĮØ§ØŃØª": 8033,
      "ĠÚĪØ±Ø§ÙħÛĴ": 8034,
      "62": 8035,
      "ĠØ¬ÛģØ§ÙĨ": 8036,
      "ĠÚĪØ§ÙĦÛĮÚº": 8037,
      "ĠÚĪÛĮÙĨÚ¯ÛĮ": 8038,
      "ĠÙ¹ÛĮÙĪÙ¹": 8039,
      "mi": 8040,
      "ĠÙ¾Ø±ÙĪØ¬ÛĮÚ©Ù¹": 8041,
      "ĠÙ¾Ø§Ø±Ø§": 8042,
      "ĠÚ¯Ø±ÙĪÛģÙĪÚº": 8043,
      "ĠÙħÛĮØ²Ø¨Ø§ÙĨ": 8044,
      "ÙĨÛĮØ´ÙĨÙĦ": 8045,
      "ĠØ§Ø³Ù¹Ø§Ú©": 8046,
      "ĠÙ¹Ø±ÛĮÚĪ": 8047,
      "Ø§ÙĦÙħÛģ": 8048,
      "Ø³ÙĨÚ¯": 8049,
      "ĠÙħØµÛĮØ¨Øª": 8050,
      "ĠÚ©Ø§Ø±Ø±ÙĪØ§Ø¦ÛĮØ§Úº": 8051,
      "ĠØ§Ø³Ú©Ø±ÛĮÙĨ": 8052,
      "Ø²ÛĮØ§Ø¯Ûģ": 8053,
      "ĠØªØ§Ø¬Ø±ÙĪÚº": 8054,
      "ĠÛ²": 8055,
      "ĠÛģØ§Ú©ÛĮ": 8056,
      "Ø³Ùģ": 8057,
      "ĠØ²Ø¨Ø±Ø¯Ø³ØªÛĮ": 8058,
      "ĠØ¢Ø±ÛģØ§": 8059,
      "form": 8060,
      "ĠØ§ÛĮÚĪÙĪ": 8061,
      "ĠÙĨØ§ÙĨ": 8062,
      "ÙĪÙħÙĨÛĮÙĨ": 8063,
      "ĠÙĨØ¸Ø±ÙĪÚº": 8064,
      "ĠØ§ÙħØªØŃØ§ÙĨØ§Øª": 8065,
      "ĠÙħØ¤Ø«Ø±": 8066,
      "arch": 8067,
      "ĠÙħØ¯Ø±Ø³Ûģ": 8068,
      "Ø¹ÙħØ±": 8069,
      "aha": 8070,
      "ĠÛ·": 8071,
      "PM": 8072,
      "Ù¾ÛĮØ´ÙĦ": 8073,
      "ĠØ³ÙĪÛĮ": 8074,
      "Ø§ÙĨØ³Ø§ÙĨ": 8075,
      "ĠØ¨Ú¾Ø¬ÙĪ": 8076,
      "ĠØªÙĤÙĪÛĮ": 8077,
      "ĠØ¯ÛĮÛģØ§Øª": 8078,
      "ĠØŃÙģØ¸": 8079,
      "Ø¬Ø§Ø±ÛĮ": 8080,
      "Ġche": 8081,
      "ĠÙħØ¹Ø°Ø±Øª": 8082,
      "ĠÚĨØ§ÙĨØ¯ÛĮ": 8083,
      "ĠÚĨÚ¾Ù¾Ø§": 8084,
      "Ġyears": 8085,
      "ĠÚĪÛĮÙģÙĨØ³": 8086,
      "ĠÙħÙĤØ±Ø±Ûģ": 8087,
      "ĠØ®Ø²Ø§ÙĨÛĴ": 8088,
      "ĠÚĪØ§Ú©": 8089,
      "ĠÙĤØ§Ø¦ÙħÛģ": 8090,
      "Ú¯ÛĮØ§Úº": 8091,
      "ĠÚ©Ø§Ø¸": 8092,
      "Ø¨Ø±Ú¯": 8093,
      "ĠÙħÙĨØ³ÙĪØ¨": 8094,
      "ĠÙģØ§Ø¤ÙĨÚĪÛĮØ´ÙĨ": 8095,
      "Ø³ÛĮØ§Ø³Øª": 8096,
      "ĠÙ¹ÛĮØ¨ÙĦ": 8097,
      "ĠØ§ÙĨØµØ§Ø±ÛĮ": 8098,
      "Ø§Ø¹Ø§Øª": 8099,
      "ĠÙģØ±ÙĪØ´": 8100,
      "ĠÙģÛĮØ±": 8101,
      "ĠÙĦØ§Ø¯": 8102,
      "Ø³Ù¹Ø±ÛĮØ´ÙĨ": 8103,
      "Ø§ÙĨÛĮÙĪÚº": 8104,
      "ÙĬØ²": 8105,
      "ĠØªÛĮØ±Ø§": 8106,
      "ĠØ¨Ù¹ÙĨ": 8107,
      "à¥ĩ": 8108,
      "ĠØ¹Ø±Ø§ÙĤÛĮ": 8109,
      "ress": 8110,
      "Ø¯Ú¯Ø§Ø±": 8111,
      "ĠÙĤØ§Ø¯Ø±": 8112,
      "ĠØ³ÙĪØ²": 8113,
      "ÙĨÛĮÙĪ": 8114,
      "ĠØµØ¯ÙĤÛģ": 8115,
      "ĠØ§ÙĦØ±ØŃÙħ": 8116,
      "ransl": 8117,
      "ĠØ¢Ø³Ùħ": 8118,
      "row": 8119,
      "ĠØªÛģØ±Ø§ÙĨ": 8120,
      "ĠØ¯Ø¦ÛĴ": 8121,
      "ĠØºÙĦ": 8122,
      "ĠØ¶ÛĮØ§": 8123,
      "ĠØºØ±ÛĮØ¨ÙĪÚº": 8124,
      "ĠØ±ØŃÙħØ§ÙĨ": 8125,
      "orn": 8126,
      "ĠÚ¯Ø²Ø±ÛĴ": 8127,
      "null": 8128,
      "2012": 8129,
      "ĠÚ©Ø§Øª": 8130,
      "ĠÙħÙĦÙĨØ§": 8131,
      "ĠÙģÙĦÙħÛĮÚº": 8132,
      "ĠOnline": 8133,
      "ĠÚ©ÛĮÙ¾Ù¹ÙĨ": 8134,
      "ĠÙĦÛĮÚ¯ÛĮ": 8135,
      "ents": 8136,
      "à®": 8137,
      "ĠÙ¹ÛĮÙĨÚ©Ø±": 8138,
      "ĠÚ¯ÛĮØª": 8139,
      "ÙĩØ±": 8140,
      "ĠÙĨØ§ÙħØ²Ø¯Ú¯ÛĮ": 8141,
      "ØµØ±Ûģ": 8142,
      "ĠØ¯Ø§Ø¯Ø§": 8143,
      "ØªÛĮÙħ": 8144,
      "ĠÙĨÙĪÛĮØ¯": 8145,
      "ĠØ§ÙĪÙĦÛĮ": 8146,
      "ĠØ¬Ú¯Ø±": 8147,
      "ĠØ¨Ø®ÙĪØ¨ÛĮ": 8148,
      "95": 8149,
      "ĠØ´ÛģØ¯": 8150,
      "ĠØ³Ø±Ø§ÙĨ": 8151,
      "ĠØ±Ø´ÙĪØª": 8152,
      "ĠPak": 8153,
      "ĠÙ¾Ø±ÙĪÙ¾ÛĮÚ¯": 8154,
      "ĠØ¨Ø±ØªØ±ÛĮ": 8155,
      "ĠØªØŃØ±ÛĮØ±ÛĮ": 8156,
      "ĠÙħØ§ÙĨØªÛĴ": 8157,
      "Ù¾Ú©": 8158,
      "ĠÙģÙĤÛĮØ±": 8159,
      "ĠØªØ³ÙĦØ³ÙĦ": 8160,
      "Ø«ÙĪÙħ": 8161,
      "ĠØŃØ±Ùģ": 8162,
      "Ø±ØŃÙĤÛĮÙĤØª": 8163,
      "Ø¬Ú¾ÛĮ": 8164,
      "Ø§ÙħÙĦ": 8165,
      "ĠÙħØ´ØªØ§ÙĤ": 8166,
      "ĠØ¨Ø´ÙħÙĪÙĦ": 8167,
      "ĠÙ¾Ø§Ø³Ù¾ÙĪØ±Ù¹": 8168,
      "ÙħØ¹Ø±ÙĪÙģ": 8169,
      "ES": 8170,
      "ĠØ¨ÙĨØª": 8171,
      "ty": 8172,
      "ĠØ°ÙħÛĴ": 8173,
      "ĠØºÙĦØ§ÙħÛĮ": 8174,
      "ĠÚ©Ùĩ": 8175,
      "ĠPost": 8176,
      "ĠÛ¹": 8177,
      "ĠØ§Ø³ØªØŃØµØ§ÙĦ": 8178,
      "ĠØªØ´Ø±ÛĮØŃ": 8179,
      "**": 8180,
      "ĠÙħØµÙĨÙĪØ¹ÛĮ": 8181,
      "ĠØ¢Ú¯Ø§ÛģÛĮ": 8182,
      "2010": 8183,
      "ĠÙħØ¨Ø§ØŃØ«": 8184,
      "ĠØ¨Ø§ØºÛĮÙĪÚº": 8185,
      "63": 8186,
      "ĠØ±Ú©Ú¾ÙĪ": 8187,
      "ĠØªÙĤÙĦÛĮØ¯": 8188,
      "Ø¬Ú©": 8189,
      "ØªØŃØ±ÛĮØ±": 8190,
      "Sha": 8191,
      "Ù¾Ø´ÙĨ": 8192,
      "ĠØ§ÙĪÙĨÙ¹": 8193,
      "Ø¨ÙĦØ´ÙħÙĨÙ¹": 8194,
      "ĠØ§Ø±Ø§Ø¶ÛĮ": 8195,
      "ĠÚ¯ÙĪÙĦÛĮØ§Úº": 8196,
      "ĠØ±ÛĮÙ¹Ø§Ø¦Ø±ÚĪ": 8197,
      "ĠÙĪÛĮÙĪ": 8198,
      "Û°Û°": 8199,
      "ĠØ¨ÛģØ¨ÙĪØ¯": 8200,
      "ĠEx": 8201,
      "di": 8202,
      "ĠØ®ÙĪÙģÙĨØ§Ú©": 8203,
      "ĠØ§ØµØºØ±": 8204,
      "ĠðŁ": 8205,
      "ĠÙħÛĮÙĪÙĨ": 8206,
      "ÙĪØ§Ø´ÙĨÚ¯Ù¹ÙĨ": 8207,
      "ĠØ¨ÛĮØ¬": 8208,
      "ĠÙħÙĪØ²ÙĪÚº": 8209,
      "Ø§ÙĪØ§": 8210,
      "ĠÛ±Û´": 8211,
      "ĠÛĮÙĪØ±ÙĪ": 8212,
      "ØªØ¹ÙĦÛĮÙħ": 8213,
      "ĠØ®Ø±Ùħ": 8214,
      "ĠÚ¯ÛĮÙ¹": 8215,
      "ĠØªØ®Øª": 8216,
      "ĠÙħÚ©Ø§ÙĨØ§Øª": 8217,
      "ĠØ³ØŃØ±": 8218,
      "ÙħØªØ¹ÙĦÙĤ": 8219,
      "ĠÙħØŃÛĮ": 8220,
      "ĠØ¨Ø±Ù¾Ø§": 8221,
      "Ø§ÙĨÚĨÛĴ": 8222,
      "ĠÙħØ«Ø§ÙĦÛĮ": 8223,
      "bar": 8224,
      "ĠÚ©ÙħÙ¾ÙĨÛĮØ§Úº": 8225,
      "ĠÙ¾Ù¹Ú¾": 8226,
      "ÙİÙİ": 8227,
      "ĠÙħØ´Ø§ÛģØ¯Ûģ": 8228,
      "ĠØ¨Ú¾Ø±ÙĪØ³": 8229,
      "ĠÙ¡Ù": 8230,
      "ĠÙĦØ§Øª": 8231,
      "Ø³ØªÚ¯ÛĮ": 8232,
      "ÙħØ§Ø±Ù¹": 8233,
      "bbc": 8234,
      "ÙĪØ³Ûģ": 8235,
      "Û±Û°": 8236,
      "ĠØªØ¨Ø¯ÛĮÙĦÛĮØ§Úº": 8237,
      "ĠÚĪØ§Ú©ÙĪ": 8238,
      "ĠÙĦØ§ØªÛĴ": 8239,
      "ĠÙĨØ³ÛĮÙħ": 8240,
      "ele": 8241,
      "Ġurdu": 8242,
      "ÛĮÚ©Ûģ": 8243,
      "ÙģØ§Ø±ÙħÛĮØ´ÙĨ": 8244,
      "ĠÙģØ±ÙħØ§ØªØ§": 8245,
      "ĠÙ¾Ú¾ÛĮØ±": 8246,
      "ĠØ¨ÛĮÙ¹Ø±ÛĮ": 8247,
      "ÙĪÙĤÛĮ": 8248,
      "ĠØ¨Ø³ØªÛĮ": 8249,
      "ĠÚĨÙĪØ¯Ûģ": 8250,
      "ĠÙĦÚĳÚ©Ø§": 8251,
      "ĠØªÙĨØµÛĮØ¨": 8252,
      "98": 8253,
      "ĠÙģØ±ÛĮØ¶Ûģ": 8254,
      "ĠØªØ¹ÛĮÙĨØ§ØªÛĮ": 8255,
      "ĠÚĨÙĦØªÛĮ": 8256,
      "ĠÙĦÚĳÚ©ÛĮØ§Úº": 8257,
      "ĠØ§ÛĮØ¬Ø§Ø¯": 8258,
      "ĠØ®ÙĪØ¯Ú©Ø´ÛĮ": 8259,
      "Ù¡Ù": 8260,
      "ĠÙģÛĮÚĪØ±ÛĮØ´ÙĨ": 8261,
      "ĠØ§Ø³Ù¹Ø§Ø±": 8262,
      "ek": 8263,
      "ĠØºØ³ÙĦ": 8264,
      "ĠÚĪÛĮÙ¾": 8265,
      "ĠÙĨÚ©ØªÛģ": 8266,
      "Ġlike": 8267,
      "Ø®Ø§Øµ": 8268,
      "ÚĨÛĮÙĨØ¬": 8269,
      "Ú©Ø¨Ú¾ÛĮ": 8270,
      "ĠIndia": 8271,
      "ĠÛģÙħØ³": 8272,
      "ÚĨØ§Ø±Ø¬": 8273,
      "ĠÙ¹ÙĪÛĮÙ¹Ø±": 8274,
      "ss": 8275,
      "ĠØ¸Ø§ÛģØ±ÛĮ": 8276,
      "ĠÚ©ØªÛĴ": 8277,
      "Ø¨ÙĬ": 8278,
      "ĠÙĪÛĮÚ©Ø³": 8279,
      "ĠÙĦØ§ÙĨÚĪØ±": 8280,
      "ĠÚĨÙĪØªÚ¾ÛĮ": 8281,
      "ĠâĢ«": 8282,
      "ĠØ§ÙĤÙĦÛĮØªÙĪÚº": 8283,
      "ĠÚĨØ¦ÛĮØ±": 8284,
      "ĠØ¬ÙĪÚĪÛĮ": 8285,
      "ĠØ®ÙĦØ§": 8286,
      "ĠØ³ÛĮÙħÛĮ": 8287,
      "ĠØ«Ùħ": 8288,
      "ĠÙħÙĦØŃ": 8289,
      "ĠØªØ¬Ø²ÛĮ": 8290,
      "Ġ300": 8291,
      "ĠÙ¾Ø§ÙĨÚĨÙĪÛĮÚº": 8292,
      "ĠÙĨØ§ØªÚ¾": 8293,
      "ØŃØ§Øª": 8294,
      "ĠÙĦØ¨ÙĨØ§ÙĨ": 8295,
      "ĠÙĪØ³Ø·": 8296,
      "ĠØ¯ÛģØ§Ø¦ÛĮÙĪÚº": 8297,
      "ĠØ¢Ø±Ù¹ÛĮÚ©ÙĦ": 8298,
      "ĠØ³Ø±Ù¹ÛĮÙģ": 8299,
      "Ø§ÛĮÙħØ§ÙĨ": 8300,
      "ØŃØ¬": 8301,
      "ĠÙħØµÙĦØŃ": 8302,
      "ĠÚ©ÙĦÙħÛģ": 8303,
      "Ø¨Ø±Ø¯Ø§Ø±": 8304,
      "Ø¸ÛĮØ±": 8305,
      "ĠÚĨÛĮÙĨÙĦØ²": 8306,
      "Ú¯ÙĪØ¯": 8307,
      "ĠÙ¾ÙĦØ§ÙĨÙ¹": 8308,
      "ĠÙħØ´Ø±Ú©": 8309,
      "ĠÙĨØ§Ø§ÛģÙĦ": 8310,
      "ÙĪØ§Ø±ÛĮ": 8311,
      "Ø±Ø§Ø¯Ùģ": 8312,
      "ĠØ³Ø±Ø§ÙĨØ¬Ø§Ùħ": 8313,
      "').": 8314,
      "}.": 8315,
      "Ġwhich": 8316,
      "Ø§ÙĦÙĪÚº": 8317,
      "____": 8318,
      "ÙħØ¸": 8319,
      "ĠÚ©Ø±ÛĮÚĪÙ¹": 8320,
      "ÙħØ±ÛĮÙħ": 8321,
      "ĠØ¹ÙĨØ§": 8322,
      "ÙĦÛĮØ§": 8323,
      "Ø§Ø¨Ø±ÛĮ": 8324,
      "inions": 8325,
      "ĠØ¬Ø§ÛĮØ§": 8326,
      "ØŃÙħØ¯": 8327,
      "ĠRead": 8328,
      "ï¯½": 8329,
      "ĠÚĪÛĮØ¬ÛĮÙ¹ÙĦ": 8330,
      "ĠÙ¾Ù¹Ø±ÙĪÙĦ": 8331,
      "Ġtheir": 8332,
      "ĠÙħØ¯Ø§ØŃ": 8333,
      "ĠØ´Ø±Ùģ": 8334,
      "ĠÙĦØ§Ø¦ÙĤ": 8335,
      "ĠØ¹Ø§ØµÙħ": 8336,
      "ĠSp": 8337,
      "ĠÙģÙĦØ³Ø·ÛĮÙĨÛĮÙĪÚº": 8338,
      "ÙĪØ²Ø§Ø±Øª": 8339,
      "ideo": 8340,
      "ĠØ¬ÙĪÚĳÛĴ": 8341,
      "ĠÚĨÚ¾Úĳ": 8342,
      "ĠÙĦØ§ÙĨÚĪØ±ÙĨÚ¯": 8343,
      "ĠÙħÛĮÙĨÙĪÙģÛĮÚ©ÚĨØ±Ø±Ø²": 8344,
      "ĠØ²Ø¨Ø§ÙĨÛĮ": 8345,
      "ÙĤØ§ÙĨÙĪÙĨÛĮ": 8346,
      "AC": 8347,
      "Ø§ÛĮØ³Ø§": 8348,
      "ĠØŃØ±ÛĮÙģ": 8349,
      "ĠÙĨÛĮÙĪÛĮØ§Ø±Ú©": 8350,
      "ĠØ²Ø§Ø¯": 8351,
      "Ø§ÙĦÛĮØ§": 8352,
      "ĠØµÙĦØŃ": 8353,
      "ĠÙħÙĨØ§Ø³": 8354,
      "ĠÛģØ¬Ø±ÛĮ": 8355,
      "iss": 8356,
      "ĠÙĪØ±Ø§ÙĨÛģ": 8357,
      "ĠÙħÙĪØµÙĪÙģ": 8358,
      "ĠØ§Ø°Ø§ÙĨ": 8359,
      "ĠÙħØ´Øº": 8360,
      "Ø§ØŃÙĤÛĮÙĨ": 8361,
      "ĠÙģÙĬÙĦÙħ": 8362,
      "Ø¨Ø§ØŃ": 8363,
      "ï»¿": 8364,
      "ĠÙĪØ³ÛĮ": 8365,
      "ĠØ¹ÙĦÙĪÛĮ": 8366,
      "ØªÙĤØ±ÛĮØ¨": 8367,
      "ĠÚ©ÛĮØ§Ø¬": 8368,
      "ĠØ¯ÙĪÙ¾ÛģØ±": 8369,
      "Ú©ÙĦÚ©": 8370,
      "ĠØ§ØµØŃØ§Ø¨": 8371,
      "ĠØ§Ø·ÙĦØ§ÙĤ": 8372,
      "ĠÚĨÙħÚĨ": 8373,
      "ĠÙħØ³ÙĦØ·": 8374,
      "get": 8375,
      "ĠØ§ÙĦÙĨØ§Ø³": 8376,
      "att": 8377,
      "ĠØ¯Ø§ÙĨØ´ÙĪØ±": 8378,
      "ĠØ¨ÙĦÚĪ": 8379,
      "ĠØ¨ÚĳÚ¾ØªØ§": 8380,
      "ĠÙħØªØ±Ø§Ø¯Ùģ": 8381,
      "ĠÙ¾Ú¾ÙĪÙĦÙĪÚº": 8382,
      "ÙħÙĤØ¨ÙĪØ¶Ûģ": 8383,
      "ĠÙĤÙĪÙħÙĪÚº": 8384,
      "ĠÛģØ§Ø±ÙĪÙĨ": 8385,
      "ĠØ¯Ú¾Ø§ÙĨØ¯ÙĦÛĮ": 8386,
      "ĠÙģØ±Ø²ÙĨØ¯": 8387,
      "ĠØµÙģØ±": 8388,
      "ĠÙĨÚ¯Ø±Ø§ÙĨ": 8389,
      "ĠÙĦÙĦ": 8390,
      "ÙĦØ§Ø¦ÙĨ": 8391,
      "ĠØ¢Ø±Ú©Ø§Ø¦ÛĮÙĪ": 8392,
      "ĠØ³Ø±Ø§ÛģØ§": 8393,
      "ĠÚ©Ø§Ø¬": 8394,
      "ĠØ§ÛĮÙĪÙĨÙ¹": 8395,
      "ĠØªØ§Úº": 8396,
      "ĠÙĪØ§Ø±ÚĪ": 8397,
      "Ø²Ø¯Ûģ": 8398,
      "Ø§ÙħÛĮØ¯": 8399,
      "ĠÙĦÙ¾ÛĮÙ¹": 8400,
      "ĠØ§ÙĪØ²": 8401,
      "ĠØ¬ÛĮÚ©": 8402,
      "ĠÙĩÙĪ": 8403,
      "Ġ38": 8404,
      "ĠØ±Ø¨Ø§ÙĨÛĮ": 8405,
      "61": 8406,
      "Ø§ÛģØ¯ÛĮÙĨ": 8407,
      "Ø®ÙĪØ´": 8408,
      "ĠÙĤØ§Ø¦Ø¯Ø§Ø¹Ø¸Ùħ": 8409,
      "âĢ«": 8410,
      "ĠÙĨØ§ÙħÛĴ": 8411,
      "Ġ55": 8412,
      "Ġ~": 8413,
      "ĠØ³Ø§Ø¬Ø¯": 8414,
      "ØŃÙĦ": 8415,
      "ØºÛĮØ¨": 8416,
      "Ø¬ÙħÛģ": 8417,
      "Ġen": 8418,
      "ĠÙħØ§ØŃÙĪÙĦÛĮØ§ØªÛĮ": 8419,
      "Ø³ØªØ§ÙĨÛģ": 8420,
      "ĠØ§ÛĮØ§Ø²": 8421,
      "ĠØ±ÙĤØµ": 8422,
      "ĠÙĪØ§Ø¦ÛĮ": 8423,
      "ĠØ¯ÛĮÛģÛĮ": 8424,
      "ĠØ¨ÛĮØ¯Ø§Ø±": 8425,
      "ĠØ³ÙħÙĨØ¯Ø±ÛĮ": 8426,
      "ĠÚ¯Ø¦": 8427,
      "ĠØ³Ø§Ø¦Ù¹Ø³": 8428,
      "ĠÙĪØ´": 8429,
      "ĠØ¯Ú¾ÙħØ§Ú©ÙĪÚº": 8430,
      "ĠØªÙĨØ§Ø²Ø¹": 8431,
      "ĠÙĨÛĮØ§Ø²": 8432,
      "Ñı": 8433,
      "ĠØ§Ø¹ÙĦ": 8434,
      "ĠØ¨ÛĮÙĨÚĨ": 8435,
      "ĠÙĨØ³Ø®Ûģ": 8436,
      "ĠÚ©ÛĮØ§ÛģÛĴ": 8437,
      "ĠÙħÙĨÛĮØ±": 8438,
      "Ù¾Ø±ÙĪÙģ": 8439,
      "ĠØ´ÛĮÙĪ": 8440,
      "ĠÛĮØ²ÛĮØ¯": 8441,
      "ĠÚĨÙĨØ§Ø±": 8442,
      "ĠÙĤÙĪÙĨ": 8443,
      "Ø³Ù¾ÙĦ": 8444,
      "ĠØªÙĤØ§Ø¶Ø§": 8445,
      "ĠÚ©ÛĮØ±ÛĮØ¦Ø±": 8446,
      "ĠÚ¯ÙĦØ§Ø³": 8447,
      "ĠÚ©Ú¾Úĳ": 8448,
      "ĠAh": 8449,
      "aking": 8450,
      "Ø²Ø§Ø¡": 8451,
      "ĠØ¹Ø§Ø¯ÙĦ": 8452,
      "Ø±ÙĪØ´": 8453,
      "ĠÛģÙħÛģ": 8454,
      "ĠØ¬Ú¾ÙĦÚ©": 8455,
      "ĠÚĪÚ¾ÛĮØ±": 8456,
      "ĠØ¹Ø¨ÙĪØ±": 8457,
      "ĠØ¨Ûķ": 8458,
      "Ú©ÛĮÛģ": 8459,
      "ĠÙģØ§ØªØŃ": 8460,
      "ĠØªÙĨØ§Ø³Ø¨": 8461,
      "ĠØ§Ø´ÛĮØ§": 8462,
      "ĠØ´ÛģØ²Ø§Ø¯Ûģ": 8463,
      "ĠLinks": 8464,
      "ÙħÙħØ¨Ø¦ÛĮ": 8465,
      "Ø±ÛģÛĮ": 8466,
      "ĠÙħØ§ÙĨÚ¯ÙĨÛĴ": 8467,
      "ĠØ¬Ú¾ÚĳÙ¾": 8468,
      "ĠØ§ÛĮØ¬ÙĨÚĪÛĴ": 8469,
      "ĠØ²Ø®ÙħÛĮÙĪÚº": 8470,
      "ĠÚ©ÙĪØ¯": 8471,
      "ĠØ§ÙĨØªØ´Ø§Ø±": 8472,
      "ĠØ§ØµØ±Ø§Ø±": 8473,
      "Ø®Ø§Ø±ÛĮ": 8474,
      "ĠØŃÚ©ÙĪÙħØªÛĮÚº": 8475,
      "ðĿ": 8476,
      "Ġabout": 8477,
      "ĠØ¨Ø¯ÙĦÛģ": 8478,
      "ĠÙĦÙĪÚº": 8479,
      "ĠÙ¹Ø§Ø±Ú¯Ù¹": 8480,
      "ĠØ§ÙĦÙħÙĤØ¯Ø³": 8481,
      "ĠÙħÙĨØ§Ø³Ø¨Øª": 8482,
      "ĠÛĮÛģÛĮÚº": 8483,
      "ĠØ§ØŃØ¨Ø§Ø¨": 8484,
      "ĠÙħØ±Ûģ": 8485,
      "ÚĪØ§ÙĨ": 8486,
      "ĠÙĨÙĤØµØ§ÙĨØ§Øª": 8487,
      "ĠÙĦÙħÛĮ": 8488,
      "itt": 8489,
      "ĠØ³ÙĪØ±Ûĥ": 8490,
      "ĠØ§Ú©Ø§Ø¤ÙĨÙ¹Ø³": 8491,
      "ĠClick": 8492,
      "ĠØ¹Ø§Ùģ": 8493,
      "ĠØ¬ÙĨÙĪØ¨": 8494,
      "ĠÚĨÙĦØ§Ø¦ÛĮ": 8495,
      "ĠÛ±Û°": 8496,
      "ĠÙ¾Ø±ÙĪÚĪ": 8497,
      "ĠÙģØ±ØŃ": 8498,
      "ĠÚ©Ø±ÙĨÙĦ": 8499,
      "ĠÙĨØ°ÛĮØ±": 8500,
      "ĠÙħØ¯ÙĨÛĮ": 8501,
      "ĠØ¹ÙĦÙī": 8502,
      "ĠØ§ÙĬÙĥ": 8503,
      "ĠÛĮØ§Ø³Ø±": 8504,
      "Ø®Ø§Ø±Ø¬Ûģ": 8505,
      "ĠØ¯Ø±ÛģÙħ": 8506,
      "ĠÚ¯Ø§ÙĨÛĴ": 8507,
      "ĠØ´ÛĮÙĦ": 8508,
      "ĠÙĪÙĦØ§Ø¯Øª": 8509,
      "Ø´ÙħÛģ": 8510,
      "ĠØ³ÛĮØ§ØŃÙĪÚº": 8511,
      "ĠØ²Ø®Ùħ": 8512,
      "ĠÙħØ¹Ø°ÙĪØ±": 8513,
      "ĠØªØ²": 8514,
      "Ø¨ÙĦÚ©Ûģ": 8515,
      "ĠÙĥØ±ÙĨÛĴ": 8516,
      "ĠÛ¸": 8517,
      "ĠØ§Ø´ÙģØ§ÙĤ": 8518,
      "ÙĦÙħÛĮ": 8519,
      "ĠØªÚ¾Ø±ÛĮ": 8520,
      "ĠØ§ÙĨØ¹": 8521,
      "ĠØ±Ø¬Ø³Ù¹Ø±ÛĮØ´ÙĨ": 8522,
      "EN": 8523,
      "ĠØ³Ø§ØŃ": 8524,
      "ĠØ´ÙħØ³ÛĮ": 8525,
      "ĠØ³Ø¬Ø§Ø¯": 8526,
      "ÙĥØ±": 8527,
      "uj": 8528,
      "ÚĨÙĨØ¯": 8529,
      "79": 8530,
[...]
